<?xml version="1.0"?>
<MethodSetup Method="MLP::MLPBNN">
  <GeneralInfo>
    <Info name="TMVA Release" value="4.1.3 [262403]"/>
    <Info name="ROOT Release" value="5.30/04 [335364]"/>
    <Info name="Creator" value="kreplin"/>
    <Info name="Date" value="Fri Jun 14 14:19:16 2013"/>
    <Info name="Host" value="Linux lxbuild148.cern.ch 2.6.18-194.26.1.el5 #1 SMP Wed Nov 10 09:45:46 CET 2010 x86_64 x86_64 x86_64 GNU/Linux"/>
    <Info name="Dir" value="/auto/sigma0/work2/kreplin/TMVA-v4.1.2/test"/>
    <Info name="Training events" value="100000"/>
    <Info name="TrainingTime" value="8.39044878e+03"/>
    <Info name="AnalysisType" value="Classification"/>
  </GeneralInfo>
  <Options>
    <Option name="NCycles" modified="Yes">600</Option>
    <Option name="HiddenLayers" modified="Yes">N+9</Option>
    <Option name="NeuronType" modified="Yes">sigmoid</Option>
    <Option name="RandomSeed" modified="No">1</Option>
    <Option name="EstimatorType" modified="Yes">CE</Option>
    <Option name="NeuronInputType" modified="No">sum</Option>
    <Option name="V" modified="Yes">True</Option>
    <Option name="VerbosityLevel" modified="No">Verbose</Option>
    <Option name="VarTransform" modified="Yes">N,D</Option>
    <Option name="H" modified="Yes">True</Option>
    <Option name="CreateMVAPdfs" modified="Yes">True</Option>
    <Option name="IgnoreNegWeightsInTraining" modified="No">False</Option>
    <Option name="TrainingMethod" modified="Yes">BFGS</Option>
    <Option name="LearningRate" modified="No">2.000000e-02</Option>
    <Option name="DecayRate" modified="No">1.000000e-02</Option>
    <Option name="TestRate" modified="Yes">5</Option>
    <Option name="EpochMonitoring" modified="No">False</Option>
    <Option name="Sampling" modified="No">1.000000e+00</Option>
    <Option name="SamplingEpoch" modified="No">1.000000e+00</Option>
    <Option name="SamplingImportance" modified="No">1.000000e+00</Option>
    <Option name="SamplingTraining" modified="No">True</Option>
    <Option name="SamplingTesting" modified="No">False</Option>
    <Option name="ResetStep" modified="No">50</Option>
    <Option name="Tau" modified="No">3.000000e+00</Option>
    <Option name="BPMode" modified="No">sequential</Option>
    <Option name="BatchSize" modified="No">-1</Option>
    <Option name="ConvergenceImprove" modified="No">1.000000e-30</Option>
    <Option name="ConvergenceTests" modified="No">-1</Option>
    <Option name="UseRegulator" modified="Yes">True</Option>
    <Option name="UpdateLimit" modified="No">10000</Option>
    <Option name="CalculateErrors" modified="Yes">True</Option>
    <Option name="WeightRange" modified="No">1.000000e+00</Option>
  </Options>
  <Variables NVar="10">
    <Variable VarIndex="0" Expression="log(k_p)" Label="log(k_p)" Title="log(k_p)" Unit="units" Internal="log_k_p_" Type="F" Min="7.60093260e+00" Max="1.22046499e+01"/>
    <Variable VarIndex="1" Expression="log(k_pt)" Label="log(k_pt)" Title="log(k_pt)" Unit="units" Internal="log_k_pt_" Type="F" Min="3.77938747e+00" Max="9.20765018e+00"/>
    <Variable VarIndex="2" Expression="log(abs(k_ipsig))" Label="log(abs(k_ipsig))" Title="log(abs(k_ipsig))" Unit="units" Internal="log_abs_k_ipsig__" Type="F" Min="-5.34298372e+00" Max="8.00795650e+00"/>
    <Variable VarIndex="3" Expression="log(abs(k_ip))" Label="log(abs(k_ip))" Title="log(abs(k_ip))" Unit="units" Internal="log_abs_k_ip__" Type="F" Min="-9.34502697e+00" Max="5.15910387e+00"/>
    <Variable VarIndex="4" Expression="log(k_lcs)" Label="log(k_lcs)" Title="log(k_lcs)" Unit="units" Internal="log_k_lcs_" Type="F" Min="-1.74768925e+00" Max="2.30251217e+00"/>
    <Variable VarIndex="5" Expression="k_diff_eta" Label="k_diff_eta" Title="k_diff_eta" Unit="units" Internal="k_diff_eta" Type="F" Min="-3.12146115e+00" Max="6.80852747e+00"/>
    <Variable VarIndex="6" Expression="k_delta_phi" Label="k_delta_phi" Title="k_delta_phi" Unit="units" Internal="k_delta_phi" Type="F" Min="-3.14157200e+00" Max="3.14156389e+00"/>
    <Variable VarIndex="7" Expression="log(B_pt)" Label="log(B_pt)" Title="log(B_pt)" Unit="units" Internal="log_B_pt_" Type="F" Min="2.32053113e+00" Max="1.09565077e+01"/>
    <Variable VarIndex="8" Expression="log(cands)" Label="log(cands)" Title="log(cands)" Unit="units" Internal="log_cands_" Type="I" Min="0.00000000e+00" Max="4.49980974e+00"/>
    <Variable VarIndex="9" Expression="no_vtx" Label="no_vtx" Title="no_vtx" Unit="units" Internal="no_vtx" Type="I" Min="1.00000000e+00" Max="8.00000000e+00"/>
  </Variables>
  <Spectators NSpec="0"/>
  <Classes NClass="2">
    <Class Name="Signal" Index="0"/>
    <Class Name="Background" Index="1"/>
  </Classes>
  <Transformations NTransformations="2">
    <Transform Name="Normalize">
      <Selection>
        <Input NInputs="10">
          <Input Type="Variable" Label="log(k_p)" Expression="log(k_p)"/>
          <Input Type="Variable" Label="log(k_pt)" Expression="log(k_pt)"/>
          <Input Type="Variable" Label="log(abs(k_ipsig))" Expression="log(abs(k_ipsig))"/>
          <Input Type="Variable" Label="log(abs(k_ip))" Expression="log(abs(k_ip))"/>
          <Input Type="Variable" Label="log(k_lcs)" Expression="log(k_lcs)"/>
          <Input Type="Variable" Label="k_diff_eta" Expression="k_diff_eta"/>
          <Input Type="Variable" Label="k_delta_phi" Expression="k_delta_phi"/>
          <Input Type="Variable" Label="log(B_pt)" Expression="log(B_pt)"/>
          <Input Type="Variable" Label="log(cands)" Expression="log(cands)"/>
          <Input Type="Variable" Label="no_vtx" Expression="no_vtx"/>
        </Input>
        <Output NOutputs="10">
          <Output Type="Variable" Label="log(k_p)" Expression="log(k_p)"/>
          <Output Type="Variable" Label="log(k_pt)" Expression="log(k_pt)"/>
          <Output Type="Variable" Label="log(abs(k_ipsig))" Expression="log(abs(k_ipsig))"/>
          <Output Type="Variable" Label="log(abs(k_ip))" Expression="log(abs(k_ip))"/>
          <Output Type="Variable" Label="log(k_lcs)" Expression="log(k_lcs)"/>
          <Output Type="Variable" Label="k_diff_eta" Expression="k_diff_eta"/>
          <Output Type="Variable" Label="k_delta_phi" Expression="k_delta_phi"/>
          <Output Type="Variable" Label="log(B_pt)" Expression="log(B_pt)"/>
          <Output Type="Variable" Label="log(cands)" Expression="log(cands)"/>
          <Output Type="Variable" Label="no_vtx" Expression="no_vtx"/>
        </Output>
      </Selection>
      <Class ClassIndex="0">
        <Ranges>
          <Range Index="0" Min="7.6011824607849121e+00" Max="1.2163280487060547e+01"/>
          <Range Index="1" Min="4.4778380393981934e+00" Max="9.2076501846313477e+00"/>
          <Range Index="2" Min="-5.2320113182067871e+00" Max="7.2548460960388184e+00"/>
          <Range Index="3" Min="-9.0080556869506836e+00" Max="4.7773442268371582e+00"/>
          <Range Index="4" Min="-1.4226820468902588e+00" Max="2.3019793033599854e+00"/>
          <Range Index="5" Min="-2.6947362422943115e+00" Max="6.8085274696350098e+00"/>
          <Range Index="6" Min="-3.1415719985961914e+00" Max="3.1414933204650879e+00"/>
          <Range Index="7" Min="2.3205311298370361e+00" Max="1.0956507682800293e+01"/>
          <Range Index="8" Min="0.0000000000000000e+00" Max="4.0943446159362793e+00"/>
          <Range Index="9" Min="1.0000000000000000e+00" Max="8.0000000000000000e+00"/>
        </Ranges>
      </Class>
      <Class ClassIndex="1">
        <Ranges>
          <Range Index="0" Min="7.6009325981140137e+00" Max="1.2204649925231934e+01"/>
          <Range Index="1" Min="3.7793874740600586e+00" Max="9.2009830474853516e+00"/>
          <Range Index="2" Min="-5.3429837226867676e+00" Max="8.0079565048217773e+00"/>
          <Range Index="3" Min="-9.3450269699096680e+00" Max="5.1591038703918457e+00"/>
          <Range Index="4" Min="-1.7476892471313477e+00" Max="2.3025121688842773e+00"/>
          <Range Index="5" Min="-3.1214611530303955e+00" Max="6.4540719985961914e+00"/>
          <Range Index="6" Min="-3.1413838863372803e+00" Max="3.1415638923645020e+00"/>
          <Range Index="7" Min="2.7666604518890381e+00" Max="1.0903137207031250e+01"/>
          <Range Index="8" Min="0.0000000000000000e+00" Max="4.4998097419738770e+00"/>
          <Range Index="9" Min="1.0000000000000000e+00" Max="8.0000000000000000e+00"/>
        </Ranges>
      </Class>
      <Class ClassIndex="2">
        <Ranges>
          <Range Index="0" Min="7.6009325981140137e+00" Max="1.2204649925231934e+01"/>
          <Range Index="1" Min="3.7793874740600586e+00" Max="9.2076501846313477e+00"/>
          <Range Index="2" Min="-5.3429837226867676e+00" Max="8.0079565048217773e+00"/>
          <Range Index="3" Min="-9.3450269699096680e+00" Max="5.1591038703918457e+00"/>
          <Range Index="4" Min="-1.7476892471313477e+00" Max="2.3025121688842773e+00"/>
          <Range Index="5" Min="-3.1214611530303955e+00" Max="6.8085274696350098e+00"/>
          <Range Index="6" Min="-3.1415719985961914e+00" Max="3.1415638923645020e+00"/>
          <Range Index="7" Min="2.3205311298370361e+00" Max="1.0956507682800293e+01"/>
          <Range Index="8" Min="0.0000000000000000e+00" Max="4.4998097419738770e+00"/>
          <Range Index="9" Min="1.0000000000000000e+00" Max="8.0000000000000000e+00"/>
        </Ranges>
      </Class>
    </Transform>
    <Transform Name="Decorrelation">
      <Selection>
        <Input NInputs="10">
          <Input Type="Variable" Label="log(k_p)" Expression="log(k_p)"/>
          <Input Type="Variable" Label="log(k_pt)" Expression="log(k_pt)"/>
          <Input Type="Variable" Label="log(abs(k_ipsig))" Expression="log(abs(k_ipsig))"/>
          <Input Type="Variable" Label="log(abs(k_ip))" Expression="log(abs(k_ip))"/>
          <Input Type="Variable" Label="log(k_lcs)" Expression="log(k_lcs)"/>
          <Input Type="Variable" Label="k_diff_eta" Expression="k_diff_eta"/>
          <Input Type="Variable" Label="k_delta_phi" Expression="k_delta_phi"/>
          <Input Type="Variable" Label="log(B_pt)" Expression="log(B_pt)"/>
          <Input Type="Variable" Label="log(cands)" Expression="log(cands)"/>
          <Input Type="Variable" Label="no_vtx" Expression="no_vtx"/>
        </Input>
        <Output NOutputs="10">
          <Output Type="Variable" Label="log(k_p)" Expression="log(k_p)"/>
          <Output Type="Variable" Label="log(k_pt)" Expression="log(k_pt)"/>
          <Output Type="Variable" Label="log(abs(k_ipsig))" Expression="log(abs(k_ipsig))"/>
          <Output Type="Variable" Label="log(abs(k_ip))" Expression="log(abs(k_ip))"/>
          <Output Type="Variable" Label="log(k_lcs)" Expression="log(k_lcs)"/>
          <Output Type="Variable" Label="k_diff_eta" Expression="k_diff_eta"/>
          <Output Type="Variable" Label="k_delta_phi" Expression="k_delta_phi"/>
          <Output Type="Variable" Label="log(B_pt)" Expression="log(B_pt)"/>
          <Output Type="Variable" Label="log(cands)" Expression="log(cands)"/>
          <Output Type="Variable" Label="no_vtx" Expression="no_vtx"/>
        </Output>
      </Selection>
      <Matrix Rows="10" Columns="10">
        4.370017645705836e+00 -2.505049803298622e+00 8.494129313580934e-01 -8.660845157935413e-01 1.077243598949649e-01 2.506505243043678e+00 -1.661936112536785e-03 1.404956872039912e+00 -1.179727531614457e-01 8.130640835885555e-02 -2.505049803298622e+00 7.001391829202996e+00 -4.303801548031182e+00 4.309965350765019e+00 4.863957905769056e-02 -2.902051002445273e+00 1.939188969131058e-03 -1.827451597854844e+00 1.154080203839176e-01 -1.790509600296344e-01 8.494129313580929e-01 -4.303801548031181e+00 1.670806255662614e+01 -1.357963362248580e+01 1.403526091774988e-02 -3.842153244247352e-01 2.745177043193620e-03 -2.368486943992910e-01 -2.756623631613349e-01 -7.164203671610037e-02 -8.660845157935411e-01 4.309965350765018e+00 -1.357963362248580e+01 1.855627051824220e+01 -3.644700515609028e-02 2.426757581944293e-01 -4.102555189928265e-03 2.227245781933232e-01 2.255485202033722e-01 3.765025810774721e-02 1.077243598949649e-01 4.863957905769056e-02 1.403526091774992e-02 -3.644700515609031e-02 5.446962943330150e+00 1.889618899057126e-02 4.319118288400739e-04 1.467217221605627e-02 -1.678665954066796e-01 -1.539700781797044e-01 2.506505243043678e+00 -2.902051002445273e+00 -3.842153244247344e-01 2.426757581944288e-01 1.889618899057128e-02 8.700354569616234e+00 -2.027693538180535e-04 3.892568942738454e+00 3.771803041319265e-02 -1.911969004605871e-03 -1.661936112536784e-03 1.939188969131058e-03 2.745177043193618e-03 -4.102555189928261e-03 4.319118288400736e-04 -2.027693538180517e-04 1.593896876094103e+00 2.099295713329766e-04 -7.256027631119435e-04 -1.011122555309013e-02 1.404956872039912e+00 -1.827451597854845e+00 -2.368486943992909e-01 2.227245781933233e-01 1.467217221605631e-02 3.892568942738455e+00 2.099295713329749e-04 7.658080548292056e+00 -1.017397106029464e-01 -1.288474669549998e-02 -1.179727531614458e-01 1.154080203839179e-01 -2.756623631613356e-01 2.255485202033732e-01 -1.678665954066795e-01 3.771803041319276e-02 -7.256027631119440e-04 -1.017397106029464e-01 3.442735781359217e+00 -4.112400479146354e-01 8.130640835885555e-02 -1.790509600296348e-01 -7.164203671609946e-02 3.765025810774601e-02 -1.539700781797044e-01 -1.911969004605989e-03 -1.011122555309014e-02 -1.288474669550021e-02 -4.112400479146354e-01 3.886405439513202e+00 
      </Matrix>
      <Matrix Rows="10" Columns="10">
        4.650273553055523e+00 -2.539744321543015e+00 3.824240269435611e-01 -3.105356664919798e-01 7.578548496081018e-02 2.647989868157559e+00 -6.579882772370412e-03 1.493704727432751e+00 -4.696482911548135e-02 1.078756114303196e-01 -2.539744321543015e+00 6.657249399978189e+00 -2.631580533855613e+00 3.080486428707220e+00 7.243054321438755e-02 -2.938532031394979e+00 4.534325326016279e-03 -1.779799281637630e+00 -1.673033037964386e-03 -2.589270286469771e-01 3.824240269435613e-01 -2.631580533855612e+00 1.190720045069049e+01 -8.756797955296692e+00 -2.819254278541921e-01 -2.678329103684734e-01 6.289807779887586e-03 -1.395439242572364e-01 -1.677586830288427e-01 -4.466496053973105e-01 -3.105356664919802e-01 3.080486428707220e+00 -8.756797955296696e+00 1.144891044330420e+01 -3.771637721750879e-01 3.847075556871346e-01 -1.187398959940745e-03 1.830911779642317e-01 8.560960088828042e-02 -3.475325813240492e-02 7.578548496081020e-02 7.243054321438773e-02 -2.819254278541932e-01 -3.771637721750867e-01 2.880564081218188e+00 -6.921561239617771e-03 -1.400075693220492e-03 -4.565392971379777e-03 -2.513225751255826e-01 -2.466187424624142e-01 2.647989868157559e+00 -2.938532031394979e+00 -2.678329103684737e-01 3.847075556871348e-01 -6.921561239617796e-03 8.553692467064948e+00 5.023290349915465e-03 3.806573831898486e+00 -1.393903168580311e-02 -4.069403606709155e-02 -6.579882772370403e-03 4.534325326016272e-03 6.289807779887592e-03 -1.187398959940751e-03 -1.400075693220488e-03 5.023290349915472e-03 1.684306378003990e+00 8.064929984105077e-05 -2.148267738223011e-03 -1.463718956436446e-02 1.493704727432751e+00 -1.779799281637631e+00 -1.395439242572362e-01 1.830911779642315e-01 -4.565392971379772e-03 3.806573831898486e+00 8.064929984104695e-05 7.553314377153174e+00 -1.160084445065088e-01 -3.133084129787907e-02 -4.696482911548129e-02 -1.673033037964566e-03 -1.677586830288426e-01 8.560960088828033e-02 -2.513225751255826e-01 -1.393903168580293e-02 -2.148267738223014e-03 -1.160084445065089e-01 3.509949103730587e+00 -4.663528784150871e-01 1.078756114303193e-01 -2.589270286469769e-01 -4.466496053973105e-01 -3.475325813240498e-02 -2.466187424624147e-01 -4.069403606709188e-02 -1.463718956436446e-02 -3.133084129787916e-02 -4.663528784150870e-01 3.612852288488234e+00 
      </Matrix>
      <Matrix Rows="10" Columns="10">
        4.423100121789757e+00 -2.606581836926350e+00 4.378921943329627e-01 -4.960082928679070e-01 1.809522580805545e-01 2.539968513460678e+00 -4.521649182156903e-03 1.441642811726995e+00 -2.634120004078341e-02 1.142448120966653e-01 -2.606581836926349e+00 6.552444674056662e+00 -3.414961749954953e+00 3.477418905861803e+00 2.361482738439349e-01 -2.969915101489570e+00 1.929248500615913e-03 -1.810935172619054e+00 1.472440255698707e-01 -1.716281522140718e-01 4.378921943329618e-01 -3.414961749954952e+00 1.316501025863618e+01 -1.015725103153698e+01 -1.188931417271662e-02 -3.718779950388758e-01 2.879301011981806e-03 -1.843892080578994e-01 -9.800719078394474e-02 -2.463666200095034e-01 -4.960082928679058e-01 3.477418905861802e+00 -1.015725103153697e+01 1.351322011776694e+01 -4.245288290718448e-01 3.404144468403577e-01 -1.829282170849671e-03 1.889313375320616e-01 1.185008491798605e-01 -3.968313377274268e-02 1.809522580805545e-01 2.361482738439354e-01 -1.188931417271724e-02 -4.245288290718440e-01 3.413908056563299e+00 4.815105657338895e-02 3.429277220957569e-04 5.891892006691794e-03 -3.042624638466433e-01 -2.745854613195945e-01 2.539968513460678e+00 -2.969915101489571e+00 -3.718779950388749e-01 3.404144468403568e-01 4.815105657338875e-02 8.599763177190106e+00 2.057360890008986e-03 3.839696551894426e+00 3.488138173917735e-02 -9.863058760878774e-03 -4.521649182156902e-03 1.929248500615916e-03 2.879301011981800e-03 -1.829282170849666e-03 3.429277220957565e-04 2.057360890008988e-03 1.637218368106049e+00 1.530463664320416e-04 -8.132534114094181e-04 -1.198631697329313e-02 1.441642811726995e+00 -1.810935172619054e+00 -1.843892080578988e-01 1.889313375320611e-01 5.891892006691725e-03 3.839696551894426e+00 1.530463664320405e-04 7.599131867786372e+00 -1.065459535806587e-01 -1.993339461282719e-02 -2.634120004078337e-02 1.472440255698707e-01 -9.800719078394475e-02 1.185008491798606e-01 -3.042624638466431e-01 3.488138173917740e-02 -8.132534114094184e-04 -1.065459535806587e-01 3.424648363750367e+00 -4.590432215580443e-01 1.142448120966652e-01 -1.716281522140720e-01 -2.463666200095029e-01 -3.968313377274318e-02 -2.745854613195946e-01 -9.863058760878901e-03 -1.198631697329312e-02 -1.993339461282733e-02 -4.590432215580442e-01 3.719197940523344e+00 
      </Matrix>
    </Transform>
  </Transformations>
  <MVAPdfs>
    <PDF Name="MLPBNN_PDFSig" MinNSmooth="10" MaxNSmooth="10" InterpolMethod="2" KDE_type="1" KDE_iter="1" KDE_border="1" KDE_finefactor="1.0000000000000000e+00">
      <Histogram Name="MLP_tr_S_original" NBins="100" XMin="7.8986580774653703e-05" XMax="9.9870342016220093e-01" HasEquidistantBins="1">
        3.60503096e-02 7.41034142e-02 9.01257740e-02 1.54215213e-01 1.52212418e-01 1.68234778e-01 1.82254343e-01 2.06287883e-01 2.40335397e-01 2.32324217e-01 2.64368937e-01 2.84396887e-01 2.68374527e-01 2.98416452e-01 3.12436017e-01 3.44480736e-01 3.84536636e-01 3.12436017e-01 4.30600920e-01 4.38612100e-01 4.20586945e-01 4.50628870e-01 3.74522661e-01 4.86679180e-01 5.42757439e-01 5.20726694e-01 5.22729489e-01 5.50768619e-01 5.30740669e-01 4.84676385e-01 4.88681975e-01 5.80810544e-01 5.40754644e-01 5.60782594e-01 5.34746259e-01 5.88821724e-01 5.56777004e-01 5.28737874e-01 6.16860853e-01 6.16860853e-01 5.00698745e-01 5.28737874e-01 5.62785389e-01 5.60782594e-01 5.80810544e-01 5.62785389e-01 5.02701540e-01 5.28737874e-01 6.02841288e-01 5.50768619e-01 5.12715514e-01 4.94690360e-01 5.08709924e-01 5.92827314e-01 5.30740669e-01 5.14718309e-01 5.16721104e-01 5.14718309e-01 5.34746259e-01 5.88821724e-01 5.12715514e-01 5.68793774e-01 5.50768619e-01 5.64788184e-01 6.16860853e-01 4.94690360e-01 5.20726694e-01 5.40754644e-01 5.46763029e-01 5.68793774e-01 6.32883213e-01 6.54913958e-01 6.32883213e-01 6.38891598e-01 6.16860853e-01 6.18863648e-01 6.60922343e-01 7.27014577e-01 7.67070477e-01 7.55053707e-01 7.91104016e-01 8.81229790e-01 8.91243765e-01 9.75361154e-01 1.04145339e+00 1.09352606e+00 1.16362388e+00 1.29981394e+00 1.51811859e+00 1.58220803e+00 1.78449033e+00 2.08490957e+00 2.50950211e+00 2.92608346e+00 3.44080177e+00 4.18784430e+00 5.39152408e+00 7.34224639e+00 1.04946457e+01 1.03824892e+01 
      </Histogram>
    </PDF>
    <PDF Name="MLPBNN_PDFBkg" MinNSmooth="10" MaxNSmooth="10" InterpolMethod="2" KDE_type="1" KDE_iter="1" KDE_border="1" KDE_finefactor="1.0000000000000000e+00">
      <Histogram Name="MLP_tr_B_original" NBins="100" XMin="7.8986580774653703e-05" XMax="9.9870342016220093e-01" HasEquidistantBins="1">
        8.27137783e+00 4.48817378e+00 3.98748505e+00 3.54487621e+00 3.09826186e+00 2.85793127e+00 2.47740784e+00 2.40530866e+00 2.19301664e+00 2.16698083e+00 2.15095879e+00 1.97872186e+00 1.96470258e+00 1.86055932e+00 1.87057310e+00 2.02278247e+00 1.78645739e+00 1.84654004e+00 1.77644362e+00 1.76042158e+00 1.70434444e+00 1.66228659e+00 1.60420669e+00 1.51608548e+00 1.52409650e+00 1.49405517e+00 1.34384855e+00 1.32982927e+00 1.26774387e+00 1.28576866e+00 1.26974662e+00 1.16360061e+00 1.10952623e+00 1.09350419e+00 1.05945735e+00 1.05545184e+00 9.99374706e-01 9.35286549e-01 8.59181862e-01 8.47165332e-01 8.41157067e-01 7.20991772e-01 8.09112989e-01 7.51033096e-01 6.64914634e-01 5.88809947e-01 6.70922899e-01 6.24859536e-01 5.96820967e-01 6.10840251e-01 5.30730054e-01 5.34735564e-01 5.30730054e-01 5.12705260e-01 4.76655672e-01 4.28589553e-01 4.24584044e-01 3.90537210e-01 4.02553739e-01 4.06559249e-01 3.72512416e-01 4.02553739e-01 3.00413238e-01 3.14432523e-01 3.14432523e-01 3.44473847e-01 2.80385689e-01 2.68369160e-01 2.66366405e-01 2.82388444e-01 2.46338855e-01 2.72374669e-01 2.34322326e-01 2.52347120e-01 2.06283757e-01 2.24308551e-01 2.10289267e-01 2.40330591e-01 2.22305796e-01 2.22305796e-01 2.06283757e-01 2.22305796e-01 1.84253453e-01 1.80247943e-01 1.86256208e-01 1.40192845e-01 1.96269982e-01 1.66228659e-01 1.72236923e-01 1.82250698e-01 1.76242433e-01 1.86256208e-01 1.74239678e-01 1.66228659e-01 1.72236923e-01 1.76242433e-01 1.76242433e-01 1.82250698e-01 1.96269982e-01 6.60909124e-02 
      </Histogram>
    </PDF>
  </MVAPdfs>
  <Weights>
    <Layout NLayers="3">
      <Layer Index="0" NNeurons="11">
        <Neuron NSynapses="19">
          -2.3116580395551733e-01 3.1470635958493176e-01 1.5166866108890247e+00 1.1265089744669710e+00 -3.2709025547213302e+00 -4.2569032189131450e-01 -1.3086379919678854e+00 9.1571285570946304e-01 -9.4799262159794206e-01 -8.0611957046170624e-01 -5.6176554634380382e-01 -2.9720785095154478e-01 -9.6144865398001766e-01 -5.0833194145729643e-01 -3.7211231529056268e-02 1.1147247782375065e-01 -4.6468216556491776e-01 2.0407154741613129e+00 3.9610410586963096e-01 
        </Neuron>
        <Neuron NSynapses="19">
          7.0611576807492438e-01 8.3360107777252823e-01 -4.2012909941703613e-01 3.7621651798562494e-01 -1.5698521720256535e+00 2.4702064062106423e-02 3.4045565461598493e-01 4.7595175834286724e-01 3.4000047233270964e-02 -5.3138052540200753e-01 3.8625835639163969e-02 -8.1978085138407847e-02 1.0928230281143128e+00 -3.8000198240092975e-01 4.2039300610765251e-01 6.7677820566401925e-01 -5.7838697719766230e-01 -1.6138810491084474e+00 1.3088593468396712e+00 
        </Neuron>
        <Neuron NSynapses="19">
          -7.5356318859576732e-01 -2.0075495244211469e-01 3.0433415790000107e-01 4.5915017417238843e-02 -6.6485159602566479e-01 1.2275396202502362e+00 -7.7869714922469546e-01 5.0246471469176746e-01 7.8554907711779998e-01 1.4636265684382760e-01 -1.4926204885641528e-01 9.7179349301512941e-01 2.5055009197626088e-01 -2.0926738162902839e-01 -1.2126733693443916e+00 3.7946740931323926e+00 -1.7355692141053827e+00 -2.7822405525299976e-01 -1.8838563625568461e+00 
        </Neuron>
        <Neuron NSynapses="19">
          -1.0344216652518945e+00 -4.7632472516449365e-01 9.5479084377488085e-03 -4.5009286970561058e-01 -1.0621336078613788e-01 9.6418112498282782e-01 1.0702042761618429e+00 3.5952046331059251e-02 1.0732491868054905e+00 2.4083802472923962e-01 5.4872579413357131e-02 8.9000769692701698e-01 2.6931488873204346e-01 -3.0761686805427713e-01 -2.1725507677154909e+00 2.9670569316623094e+00 -4.3529832649926936e-01 1.3553818214395146e+00 -6.0511561489249022e-01 
        </Neuron>
        <Neuron NSynapses="19">
          -1.2759323790026540e+00 -2.4533607622667959e+00 3.1131618639823805e-01 -7.9323967903410758e-02 5.5940513507347897e-02 2.7256865594286694e-01 5.3934390592946779e-01 -2.0871517769739931e+00 1.6380441736513252e-01 3.2319975331530547e-02 2.5223513699706418e-01 4.5813618031352471e-01 -5.6483982274358269e-01 -6.3685012960362442e-01 -5.1356305080646802e-01 1.4221057509223348e-01 4.2170824844009902e-01 -2.0500696041626396e-01 1.2066732097901055e-01 
        </Neuron>
        <Neuron NSynapses="19">
          1.6366712363185261e+00 9.3961775079641000e-02 -2.3412933482746188e+00 -3.8667177490866139e-01 2.7523210392847153e-01 5.1522111724670006e-01 -5.5527453909324831e-01 1.6748055091275825e-03 1.8218692213034031e+00 -7.0436289481081948e-01 3.2208245426478160e-01 4.2264360919312988e-02 -6.3372173437407420e-01 3.0291000114923763e-03 1.7603362033707007e-01 3.0478825146729482e-01 -1.2536168352178584e-01 5.1299805121747089e-01 1.2373093313527710e-01 
        </Neuron>
        <Neuron NSynapses="19">
          -3.2286775357192418e-02 -1.2828651456513337e-01 -4.4636575362059633e-01 2.1844266907216019e-02 9.6183732305102784e-02 -2.3968858472407559e+00 -5.3427650493314945e-02 -2.7491654332569637e-01 7.7311149037602056e-01 6.7546887211989171e-01 6.7781632510568707e-02 -5.5142212822107195e-01 -2.4623753718357133e-01 1.0426789111320614e-01 -5.6385410076798530e-02 -5.7884604305762935e-02 1.4574240666258112e-01 -4.2976206117396826e-01 8.6838386630383915e-02 
        </Neuron>
        <Neuron NSynapses="19">
          -7.8242906081541597e-01 -6.8575753855662277e-03 9.8332803085987193e-03 -2.2786478411514824e-01 -2.5518808501696982e-01 8.7385563583993808e-01 5.3911325168823665e-01 3.4895354900660724e-01 3.5912566737160018e-01 -2.1205249350490690e-01 2.2213110212769521e-01 -1.4441800624058747e+00 6.1997100214271039e-01 1.4428955285770652e-02 -1.5573434082509410e-02 -4.8080118768620006e-03 8.1493943006426997e-02 -4.7063577357932351e-01 -4.9728837629225045e-02 
        </Neuron>
        <Neuron NSynapses="19">
          1.4783172904178035e-01 -9.7338667277943977e-02 2.4354476474746763e-02 2.7575079953767373e-01 1.8307666860431815e-01 6.2975072178459560e-02 4.6928161333921470e-01 -3.1390918099750514e-01 2.3574748836205009e-01 1.3342010400985785e-01 8.0370644987995399e-01 4.4366819352863024e-01 -2.8721420219027148e-02 4.5309828930711622e-02 -1.0616364337082025e-01 4.6554818799007469e-02 -8.1343196289811903e-02 6.0184254551957882e-02 -1.2079137026046366e-01 
        </Neuron>
        <Neuron NSynapses="19">
          9.0413232785608544e-01 -1.3054430107311996e-01 3.0654559382315771e-01 -2.2693217899595949e-01 1.3134611948520486e-01 2.4526384296401907e-01 -2.3796002533427357e-01 1.7832586504341625e-02 -1.7871713076489749e-02 -1.4157526461133627e+00 1.5592180720228316e-01 5.7726406194967561e-01 -1.4768942222283483e+00 -5.5308921376292869e-02 -2.5296916436906769e-01 3.1096671487347544e-01 -1.3515049170904700e-01 -6.8349709300609762e-01 -1.1784818496615512e-01 
        </Neuron>
        <Neuron NSynapses="19">
          -1.0596756937218903e+00 2.6170023759858396e+00 -2.1543092562451829e+00 -1.3520239586323124e+00 1.3740829425936357e-01 -8.4804096999899670e-01 -1.6915824185728805e+00 1.0344905919536493e+00 1.2121018453783230e+00 -9.6026360256738541e-01 -2.2081220241071833e+00 5.7211414766251867e-01 9.0798743164522044e-01 -1.5248636218376783e+00 3.6641849937734117e+00 2.9952622828005948e-01 9.3292663905874629e-01 -5.3398605247482889e-01 3.7117412424083840e+00 
        </Neuron>
      </Layer>
      <Layer Index="1" NNeurons="20">
        <Neuron NSynapses="1">
          7.3849082925908971e-01 
        </Neuron>
        <Neuron NSynapses="1">
          2.3743883533750818e+00 
        </Neuron>
        <Neuron NSynapses="1">
          -1.3670472023560596e+00 
        </Neuron>
        <Neuron NSynapses="1">
          -3.3740405618509159e+00 
        </Neuron>
        <Neuron NSynapses="1">
          -9.5754157766836923e-01 
        </Neuron>
        <Neuron NSynapses="1">
          -8.9032058330851593e-01 
        </Neuron>
        <Neuron NSynapses="1">
          1.1923770570268633e+00 
        </Neuron>
        <Neuron NSynapses="1">
          7.4030536901919086e-01 
        </Neuron>
        <Neuron NSynapses="1">
          -1.0484626981914107e+00 
        </Neuron>
        <Neuron NSynapses="1">
          -1.2542492113061277e-01 
        </Neuron>
        <Neuron NSynapses="1">
          -2.6237498724820951e+00 
        </Neuron>
        <Neuron NSynapses="1">
          -1.0490114039837055e+00 
        </Neuron>
        <Neuron NSynapses="1">
          -6.9111348131383599e-01 
        </Neuron>
        <Neuron NSynapses="1">
          -4.4106597814966273e+00 
        </Neuron>
        <Neuron NSynapses="1">
          5.6514821119349090e+00 
        </Neuron>
        <Neuron NSynapses="1">
          3.6300535170245944e+00 
        </Neuron>
        <Neuron NSynapses="1">
          -3.2798358284426863e+00 
        </Neuron>
        <Neuron NSynapses="1">
          5.4721564888270324e-01 
        </Neuron>
        <Neuron NSynapses="1">
          3.1486543572538688e+00 
        </Neuron>
        <Neuron NSynapses="1">
          -5.3828105455550919e+00 
        </Neuron>
      </Layer>
      <Layer Index="2" NNeurons="1">
        <Neuron NSynapses="0"/>
      </Layer>
    </Layout>
    <InverseHessian NElements="52441" NRows="229" NCols="229">
      <Row Index="0">
        4.0238673967473171e-01 4.3088393141096958e-04 4.0602746651922754e-04 1.2634523668207057e-04 -7.6586987295826324e-03 -4.2734344115552721e-04 4.1092853958718825e-02 5.7281271085329009e-03 2.7074915760930190e-03 -6.6959529300808382e-02 4.7815635034179609e-03 1.6276975605051007e-03 1.8708565074317285e-02 6.1949921609529262e-04 -7.0598915538956685e-04 5.1517957086930901e-04 -9.5702130952185320e-05 7.4906876753153342e-04 -5.1573647025694863e-03 -4.9635738420429870e-02 -4.1706754344267693e-03 -5.6932820055932785e-03 1.9396015830438762e-03 -2.8790172904958151e-03 -1.0214795595299749e-03 -2.5601349709794559e-02 2.5959838367928968e-03 -2.1165652802368528e-04 1.4126426946503581e-02 4.4875674653096272e-04 -4.0771057606569551e-04 1.8086173294016317e-01 7.8840047443406200e-04 -5.5637185951141652e-04 2.2222791851287402e-04 6.6599693318966104e-04 2.7032324654408819e-03 -4.6085533757193407e-03 1.7640003250742517e-01 9.3840584018817837e-04 2.8600891658838124e-03 -4.3031579425755265e-04 -6.8602883011939916e-03 3.1195792956117659e-04 3.3777822408515429e-02 3.7861418161549447e-03 2.9614487993525332e-03 -4.9125126643400907e-02 2.7857474077646023e-03 9.0191253127416826e-04 -4.3959810368081165e-02 -9.0058958925267349e-04 -4.1159058295415704e-04 -2.6275069933665311e-04 1.6189669264914750e-03 -1.0671134231695590e-02 2.3428771048944223e-03 1.2211725446873595e-01 3.0523671932354470e-03 1.1409754181474930e-03 -1.6254356690262278e-03 -2.7615538270188821e-03 -3.3331581705079404e-04 -1.2844934845210695e-02 7.0141479585163549e-04 3.1819223022220475e-03 -9.3924948276553177e-02 1.9805936063516123e-03 3.9517230763160566e-03 -7.7307127609753667e-02 8.5428577304333788e-04 -7.3296911675047993e-05 -1.0325976043839571e-04 -1.2941890714604054e-04 8.7397037135916560e-04 3.0772644657531059e-03 1.1124308909037267e-01 1.0293224873961726e-02 4.0046552871836824e-03 -1.9457169515687284e-03 -1.4630804736346509e-03 -3.8193427724439368e-05 1.1157575052828786e-02 -1.4061000115028387e-02 -8.8930713194794973e-05 -1.6673295180925740e-01 -9.2525866545852334e-04 9.0360796316915279e-04 -1.5439355475630245e-01 5.3864397288730576e-04 -3.6237666433888704e-05 -3.5663490251714065e-04 -4.3919738589341380e-04 -3.6924548489270679e-03 2.5079530333489697e-04 -2.4354352215689362e-01 1.9642025535919257e-03 -1.4791532285992625e-02 2.1561488279056022e-03 3.2782014896100171e-03 -1.2471574869830524e-03 -1.1837361648350218e-02 1.7731547940751657e-03 1.4962277167650171e-03 1.5316746810699866e-01 -2.7678551534569057e-03 -9.2679834656737153e-04 -3.4558840596428664e-02 -2.1158022966969624e-04 -1.5860385729356144e-05 2.9537909145218146e-04 -5.5848041086725177e-04 5.6798999390601582e-03 8.2503650591252424e-04 -2.0000375802298978e-02 1.2199595624502188e-03 -1.9838390171852474e-03 2.3901543972833228e-04 -1.0152779234585733e-03 2.2096247920962778e-03 -1.7046549258756677e-03 -2.2181714088457182e-03 1.7509535138508087e-03 1.8598301480146529e-01 7.9754315650788776e-04 9.9683233793535463e-05 2.1325661735148049e-02 -2.3576435185423646e-04 7.9215175976698159e-05 -6.0472181414110947e-05 1.4868143336800588e-04 -2.5478864083592900e-03 4.6404205274385400e-04 1.2374666342112281e-01 -1.4091681004165264e-03 2.8040558351329816e-03 -2.0881717205511212e-03 -6.3092256047348949e-03 -1.4002021622865624e-03 -2.5519858313426888e-03 4.2182361074857358e-03 -8.7295666960479005e-04 -2.6891209465330546e-01 1.4997461291539806e-03 8.5741784326358143e-04 -7.6160977459026613e-03 2.3481052571717195e-04 -5.2535291503497572e-04 -1.3880000950087362e-04 -4.5804518258403396e-04 1.9090708673628410e-03 4.9935009670888045e-04 -8.2598142137082109e-02 4.8058852520426777e-04 1.1981402217803028e-03 -1.5968025777258876e-03 -8.0686710323940114e-04 -8.9488942188942189e-05 -1.7548594455964697e-02 -2.4209453065401343e-03 1.1595833773046186e-04 7.7026685254719895e-02 1.4592912816522793e-03 2.7445944008577389e-03 -3.6340465490616758e-02 1.9090313424085918e-04 5.5527377954388214e-04 3.2999096687886392e-04 -9.7754225628687505e-04 5.5940073695537884e-03 1.9552366055621126e-03 -9.6893455277732771e-02 1.0749152409536850e-03 3.1479769493675002e-03 -8.0544141778548151e-04 6.5944428160355714e-03 -2.4857979984838367e-04 -3.5678967237063458e-04 5.3829794715022786e-03 2.0608226749256864e-03 -2.7033381781929783e-01 -2.0374777361282996e-03 -1.7869557851351091e-03 -1.1559492382464009e-01 9.9614361678167099e-04 -1.0353822072228412e-04 3.7461585123880602e-04 -1.8425335200498828e-04 7.8493945069195020e-03 -7.3412116236311244e-04 6.3306404519304404e-01 -1.1238984332939198e-03 -3.4646261684660506e-02 4.7993131259160444e-03 2.9192472345468977e-02 -8.6906487013584891e-04 7.7894098806222223e-02 1.3514715512318932e-02 1.3449553951015724e-02 2.2787017203761423e-01 8.2852623225504532e-03 -8.2569541148130483e-03 4.5724837157524956e-02 5.9144089210689151e-03 5.7707923832573055e-04 2.3770104438724012e-03 -6.6461091169304522e-04 2.0621682763147089e-02 -1.1977547045293271e-02 1.1942409189721526e-01 1.6487009025299332e-02 8.3352866346107536e-03 2.8722145078180633e-03 4.2913133382224220e-03 -7.3138475577744135e-04 5.8225896014437922e-02 -1.0320921307695550e-02 5.5732007663932201e-03 5.3118040541367033e-02 1.2605431668696238e-02 -5.2190221470262838e-04 4.0419310826009955e-02 -2.5421089317523848e-03 -8.5365382653219968e-04 1.9171426774615072e-04 -6.9937626863079555e-03 -1.6729249820243448e-03 1.2906454380901178e-02 -1.6730173777966584e-01 
      </Row>
      <Row Index="1">
        4.3088393140658897e-04 1.5106323377457258e-02 -6.2060776495738066e-04 8.1406897772300633e-04 3.9616417159178659e-03 -4.7691942978507224e-05 1.9639553857047588e-03 2.2242499062887972e-03 1.7851324885577555e-04 4.2138208057272107e-03 -1.7249331879167287e-04 3.6844535791048338e-04 -5.4176124811922306e-04 -2.2302381917992248e-03 -2.9458251367053449e-04 -4.9526169671829524e-05 5.9245248479621287e-04 2.5350291953091355e-03 -8.1284880207435758e-04 -3.1888864779580726e-04 6.6584768874869624e-03 -4.5697817381956966e-04 -3.5692142372203311e-04 7.8243015157684458e-04 -4.5404781589940648e-04 1.9594963175035033e-03 7.6670342270374701e-03 -4.9575751649789739e-04 -5.6616555568191184e-03 -8.7213924853970538e-04 7.8886863891025703e-04 1.5433167310268149e-03 -5.0710678745176136e-04 1.4532308102040105e-04 2.2113114819410072e-04 6.5617214574460216e-05 -1.8746364376545470e-04 -1.2473523091890159e-03 -7.5643298251642718e-04 3.6118278787723858e-03 -1.8000200164306173e-04 2.3184659274422172e-04 6.1575445801369168e-04 1.1494070254069772e-03 4.9572812003910970e-04 -4.5587866124517857e-04 -5.1480861135989203e-04 -3.4186366506605559e-04 -5.3045487072521727e-04 4.5413262257700156e-04 -1.1160437978677384e-02 -1.4153588089984249e-03 -7.6092813996810321e-05 -1.2788925749802036e-04 8.9322521245032761e-04 -1.0157309735731208e-03 6.5872225078386951e-04 -8.5509679093132354e-04 -5.3556850377748603e-04 -4.5956709443024392e-05 -5.1335847901634265e-04 -9.7667080782553456e-04 7.6395930874593836e-04 -9.2965304751483138e-04 -4.8138992916747381e-03 -3.4759206606624913e-04 -1.4018758622652561e-03 -3.9569680476911817e-04 -2.3101216010638803e-04 2.5370359880758642e-03 -2.2472453784206608e-03 8.8756240960793584e-05 8.6869998456303582e-05 6.4150379428763813e-05 2.5689699955631106e-03 -3.3446819553891864e-04 -3.1417136199681679e-03 -1.2694062360093791e-02 8.8395473103455510e-04 2.1552903064728521e-03 -1.7001870144301027e-03 8.0738336177171659e-04 -4.8967394955094640e-03 -2.9298769463165081e-02 1.9795815386908135e-05 9.9439799761729952e-03 6.4891667896224041e-04 -4.4341960337740925e-04 -3.4732217728521420e-03 -4.5373014764040088e-03 -7.0354352412685959e-05 -1.8933438071426782e-04 -6.3407373323849658e-04 -2.1907374021258356e-03 3.5395840311683129e-04 2.7779147439933316e-03 -4.9388718831458369e-05 1.6179327439685698e-03 -5.3407879637436045e-04 -5.4499261520101188e-04 4.4200582329036175e-04 6.4494563049880774e-04 1.7371060909346777e-03 -4.7466291568245243e-04 2.6968873531763582e-03 1.0968000088570928e-04 -3.7126788262395254e-05 5.6871821159450442e-03 1.1091693509964048e-05 -3.2628791769538212e-05 -5.1413036533437778e-05 -8.7567007781692754e-05 1.5547032834203611e-03 -2.7030740671815607e-04 3.8849093592749351e-04 -2.0306255136067633e-03 3.0940408277797121e-04 3.1092445557081910e-04 1.3877923566504077e-04 -1.4220082081961814e-03 -2.5394786283644555e-04 -2.0185287897631532e-03 -2.3071223519926035e-05 -3.0520255208374980e-03 2.0577329642887561e-04 2.1636870375956081e-04 1.6466083743256199e-03 3.0801228281111755e-04 -5.2264757954092285e-05 -1.0646901354618554e-05 -1.5558078922064868e-04 -1.1418129571130319e-03 1.7291204565958755e-04 5.3875316432252379e-04 1.4661785398388544e-03 2.0946780500167498e-04 -3.2341404167783529e-04 8.4765910257023893e-04 8.6493110296407584e-04 -1.0126597306738296e-03 1.3162189650634069e-03 -2.0263445782471188e-04 3.7731861464995152e-03 -3.2479395577812394e-04 -7.4466320555041654e-04 -3.4100310747131046e-03 -3.3217411416568019e-04 -7.8275178484740339e-05 -8.4463597020847264e-05 2.0228775135692231e-04 -1.8902001921862668e-03 -4.6759427487859189e-04 -2.2929618500236448e-04 -1.9193333115167903e-03 -6.0854010469515822e-05 6.9513168910126702e-04 -1.4073781432465821e-04 7.7151879358573067e-05 2.2256800480920103e-04 -2.6677606728247091e-03 -9.0508396253252427e-05 7.4918412221458841e-03 -2.0148227454011959e-04 9.8744217593146194e-05 -6.0291078677510157e-04 3.0054919769628095e-04 1.3676386894625721e-05 2.0379071545222277e-05 3.2128174834518929e-04 1.2986200553292320e-03 5.1650306845780862e-04 1.0394070498147626e-03 -1.0915768877195042e-04 -1.3125542452683742e-04 -2.7939750211223197e-04 -2.4744608019996761e-04 1.7886096705441493e-04 -9.8209403975270046e-05 -8.9887955951791637e-04 -2.1137818827469715e-04 1.2091362859143345e-02 -2.4057393446273595e-04 -2.7740141557826476e-04 6.8311710044730578e-03 -4.3155292650905375e-04 -8.7410946815867250e-05 -5.7176063054276924e-05 1.1882441343670600e-04 -1.9993487127013612e-03 -3.1521871779768233e-05 5.8401923257794721e-04 3.1983441754939002e-02 2.3058061976368852e-03 2.6308849845184043e-04 2.4527381518591357e-04 7.5783234726736586e-05 1.4205533349602069e-03 -2.6227948352250303e-02 -7.0269066235917332e-04 2.3426055339322044e-02 1.2478155392475904e-03 2.7251493764899899e-05 -6.9177047794268809e-03 -8.4703639471959431e-03 -1.2678383868318572e-03 -5.4282674384381212e-04 7.0892982019048266e-04 -2.0268314186380164e-03 -2.9238023251502629e-04 -7.0656224862403194e-04 -2.6157387402804548e-03 -1.0900797630580582e-03 7.5352689662333862e-03 -1.4851675785308108e-03 6.8473286555525081e-04 1.1545287348136840e-03 -9.3575945068298527e-03 -2.4920046910487624e-04 -8.9948778908006477e-04 -5.1605783186356793e-04 -3.0990567584170473e-05 -2.8786512078714781e-03 2.0671193890518462e-02 -4.6205215477957600e-04 -6.1739939233033917e-05 -2.3935600484222188e-03 -1.4149965115057483e-03 3.8041826656300503e-03 1.8586519765450835e-03 
      </Row>
      <Row Index="2">
        4.0602746653262134e-04 -6.2060776495909673e-04 6.2856060166470565e-02 -3.6127309615776662e-03 -1.0662083641228377e-03 1.1923861798166073e-03 -7.3382787349171585e-04 1.6970692289550657e-03 -1.0228661189261572e-02 2.3532473857097769e-02 -8.8795101405894292e-04 -2.5638829987007514e-04 1.1408060395469155e-02 4.3904302913921889e-04 1.4151044554959461e-05 1.1192032223260599e-04 9.9195748939328579e-05 -5.6984975075078659e-03 -1.0307477470248764e-04 1.1068834304791900e-02 -5.1140210057736783e-04 -1.6772890421579662e-02 -4.2447333084955413e-03 -5.4249102615363740e-04 -9.9865624907840016e-04 -5.8673691100753593e-04 2.7226033728313475e-03 -3.6558519523135595e-03 -2.4471437448755271e-02 8.8920306490806577e-04 -1.4533802454579023e-03 -3.5894402764435895e-04 -2.4609833810892955e-03 -1.1818159856527766e-04 -2.9770994542826059e-04 1.4190652708889723e-04 -2.8965666801129136e-04 1.1511045611723200e-03 -1.6607287105804946e-02 1.3287800650997562e-04 1.8558695129083608e-02 6.4185726770309951e-04 -6.6347953977004834e-05 -1.8727402154144787e-03 -1.5876042855920485e-03 1.6844646554874804e-04 1.7068358617367253e-02 7.2287064219891950e-03 -2.1137557595570292e-04 2.1365299025188737e-04 7.3328741925130503e-03 1.5766141671399838e-03 6.5692550280642588e-04 9.8043288435418802e-05 4.0346097565713106e-04 -9.6235264070159646e-04 -1.4967455815105388e-03 -2.4509689006661829e-02 2.1490854950855865e-05 7.1096256662915094e-03 3.9632437206281977e-03 -4.3181782150850632e-04 -1.2992162919694848e-03 -1.1051529803647198e-03 -4.0506285645611814e-04 2.1470026359137830e-02 1.0272329060182661e-02 -9.8790477659994815e-04 2.9031480363137961e-04 -9.0937923509946117e-03 1.8990696769755689e-03 9.0756417896530040e-04 7.0317005109363180e-05 -3.3489430951109050e-04 -2.0600322792094787e-03 3.1726088061934387e-05 -3.4618325242055353e-02 1.0728320410681863e-03 1.4012951362472608e-02 2.0964065451972423e-03 9.3240985026404877e-04 -5.5127229449461988e-04 2.8336335643329678e-03 -6.8845135399914700e-03 6.6501304247727766e-03 1.4796134909559120e-02 -1.0033494612370797e-03 7.8030058790860900e-04 1.0902850668030872e-03 1.1883460282516537e-03 -3.0884038180292034e-04 -4.0649691196194271e-05 1.4804327711377230e-04 -7.0749958497001025e-04 -7.6739395970950881e-04 1.5580606241057275e-02 1.8348030080823114e-03 -8.6035043152723478e-02 -5.3752554165687211e-03 1.5946013468982473e-03 -2.7672499476856234e-03 -4.7701669692771891e-03 5.1855506481692502e-04 1.7534201962483908e-02 -4.6470685699417390e-02 3.0707544398011384e-03 -2.2605971343792591e-03 -4.8007051052119110e-03 -3.4592991220548028e-03 5.9348163160385784e-04 1.4455697331648731e-04 -3.3520928351460084e-04 1.3805010455957348e-04 1.1653206950478149e-03 -2.7559810204358104e-03 5.3296602285423419e-04 -1.4903967737878009e-02 -1.2816703636698281e-03 3.3418437910435334e-04 4.5458914560854852e-03 -1.1719396459053746e-03 -1.1725620276337306e-03 1.2808533362224817e-02 -2.8495829569108289e-02 1.0408753694877817e-03 -3.5756715470755020e-04 -4.8110175911388886e-03 2.2881851450735186e-04 2.7304323675357654e-04 2.0740582011373986e-04 -1.6946683768364907e-04 2.9000607311036389e-03 7.7757522331596378e-04 -2.4942961371325061e-02 9.0976164887308225e-05 3.7432133843689798e-03 1.7809067954837892e-03 -6.6763740774437690e-04 -1.0247778450402580e-03 3.8571016780798023e-04 7.3839729136639044e-04 7.6963657247226362e-03 2.6202399362615189e-02 8.5309939589850502e-04 5.2080395283833625e-04 -6.7207649461988317e-03 3.9775441928253832e-04 -1.3084753307410760e-04 1.3484273064256672e-04 -1.5666597933252610e-04 1.1017363428454192e-03 5.5751679039013537e-05 5.5664467060114672e-03 -1.0940970690502885e-04 1.8426106223508633e-03 -2.0487623820089982e-03 3.1527454978718685e-04 5.9884643491957268e-05 4.9610750108450979e-04 -1.5736574334430098e-03 7.1677399243635330e-03 1.3049512743528169e-03 2.5051402631144355e-03 1.7907851851672457e-03 -7.1048221493085206e-03 3.3619684118835202e-04 3.7258128321465292e-05 2.2537249713352374e-04 -5.4448557565998923e-05 1.1743362278468341e-03 2.0777440450342883e-04 2.9635517672445821e-02 -8.0350133455279853e-04 1.5099763151294972e-02 3.3918348036138680e-03 -2.8023313328350789e-04 3.9736781240777759e-04 2.6123911910896774e-03 1.0518949065657169e-04 2.4788955848848012e-03 6.5660460248164201e-02 -9.0065382997275303e-04 1.0810919791061125e-03 9.4662920096323377e-03 5.6202619433026735e-04 -1.4738443153226649e-04 -3.2199188563023873e-05 1.1878965091555074e-04 2.0374117605410601e-03 -1.0480448403651444e-04 2.0342238495701215e-02 3.5676917848833029e-04 -5.7378104958234789e-02 -4.3158136058782156e-03 3.5884472076767909e-03 1.7060989727633504e-03 5.1707621072626803e-04 1.5188955907674256e-03 6.7945429369693170e-03 -2.4633527222208424e-03 -1.4886745862101800e-03 -3.4164490445122344e-04 4.2795522891200255e-02 -1.3724010242471387e-03 -4.3328688503711105e-04 6.0940788344652553e-04 -3.9980430953527428e-05 4.8150285530375418e-03 2.7857097261233168e-03 -2.2244370517979381e-02 2.9533781825078994e-03 6.2439236264188437e-02 -2.7803345346864503e-02 3.3921991948141357e-04 -1.5096178893955494e-03 -5.5542474726506808e-04 -3.2374516080691095e-03 2.8976840449995926e-02 -5.0547449041710383e-03 9.8737748794322858e-03 1.2886959177710669e-04 -1.0916071131320895e-02 6.8704562887156456e-03 5.0576545736266115e-03 8.3411826870957891e-04 -5.8796398725209902e-04 1.3397281807450805e-03 -3.4439808732779323e-03 -2.0402410192380978e-02 
      </Row>
      <Row Index="3">
        1.2634523667509438e-04 8.1406897772354127e-04 -3.6127309615766323e-03 2.5240787799869199e-02 -3.8429000944712193e-03 -2.9589423531165536e-04 2.7038053301561994e-03 1.6847593721977172e-03 -1.3355695267370500e-03 6.8053862157775105e-03 3.4959745800670259e-03 1.5442252045568610e-03 -7.7050226127699517e-03 5.5085321099214500e-04 1.9369002854494115e-04 3.1678077158101307e-04 2.9336387478969461e-04 -4.7194051570808443e-04 -1.4734570762732572e-04 -1.0878555885359374e-03 1.6708038540202818e-03 1.4520177915711367e-03 7.7827026373457524e-03 -1.7414017714250597e-03 3.3015132115564016e-04 1.0100934600876239e-03 2.6957954237419768e-04 9.8643487556986488e-04 3.0109671140305465e-03 1.4299889891507310e-03 6.1772887980618223e-04 1.7047409187029849e-03 -2.5829467085091047e-04 2.0973047946254832e-04 1.6689397132434454e-04 9.6375233738042482e-04 1.2256043078584999e-03 -1.2885626823716735e-03 2.6909780595553243e-03 -1.8480048291956430e-04 -1.0873698921070978e-04 3.5298583378910019e-03 -1.3632149079348156e-03 4.5842320640896500e-03 -1.3224483161709171e-04 1.6242913734507746e-03 5.2152063785329801e-03 -7.7495125120102121e-03 -7.8245265131416395e-05 2.8233874267165229e-04 2.2647751361309920e-03 -5.9620396991550513e-04 -1.4715866882255625e-04 -3.4520946424227523e-04 -2.0262046548271415e-04 8.9933503814224026e-04 1.1766409939349145e-03 4.4307005392807894e-03 -2.7366239119975015e-04 -5.2441338863139122e-04 -7.1114011265951604e-03 -7.3727379517067463e-04 2.2772380348476643e-03 5.0298856399299749e-04 8.0007667967174883e-04 3.4083555200459339e-03 -1.7976335076401728e-03 -1.8475863106242384e-03 -4.5801042171235776e-04 -2.5118868319832233e-03 -1.9636388209766120e-03 2.3938485320265125e-04 -4.8395145180750248e-04 -7.8500468339233194e-04 -2.5033862390349483e-03 2.2829130808971069e-04 4.4924950156071813e-03 -3.0136307763566905e-03 -7.1432079409586248e-04 -7.8923998554118616e-04 6.9485227325463347e-04 5.3423600378135067e-04 -8.8726726632307185e-05 -3.8376492565506291e-03 2.3884557568990298e-04 -1.3893657982848528e-02 7.2778522480941457e-04 4.5737491150797335e-04 -1.5925601795570010e-03 -2.4265506449545815e-03 2.7760343768322600e-04 -9.2105534959397134e-05 -3.1487749864852587e-04 -6.9820393609144882e-04 1.6762992777028668e-04 -2.4479976248478336e-03 -2.6651585883080654e-04 6.1436770270203219e-03 -5.6125848212184607e-03 6.7292636260621926e-04 1.2889155645632649e-03 -1.5718842240241952e-03 6.7347877988593830e-04 9.4368911556398250e-03 2.9991632623998093e-03 -1.9566234445805020e-03 -4.6026542751781245e-05 -5.5086328542004737e-04 1.3983508684871631e-04 -2.6068832655281552e-04 -1.9921556177706392e-04 -7.2775251254668025e-05 -2.9448408140422301e-04 -7.5485765986056132e-04 -1.2508766518726255e-04 -2.9547350259025509e-04 1.9232400592024976e-03 3.8645061106218050e-04 7.9974904147231494e-05 -7.1848341044812667e-03 5.0972923880230822e-04 -8.0282409774088716e-04 4.4262519671545569e-03 7.0554356404358143e-03 -2.3585375450771535e-04 2.1814936467787508e-04 -1.4470723992601742e-03 4.1267090694027599e-04 6.8072818024305162e-05 7.3099771356833522e-05 -7.0375884046847137e-05 5.9330230003380724e-04 -2.5570511147744615e-05 3.5065380372955902e-03 1.4226797108480931e-04 -4.2764930813606874e-04 -4.1104520778159070e-03 4.9723916501648931e-04 2.8476353735054573e-03 5.7243730007822287e-04 1.4078736112910452e-03 7.3400589460728878e-04 -4.4310790930282146e-03 -8.4466033172498440e-04 -4.6631314907417433e-04 4.8906472785580357e-03 -5.7895894957132367e-04 -2.9724074072535773e-05 -1.0325259175273752e-04 -3.4490174671475611e-04 5.1216096470288908e-04 -3.8352764866475954e-04 -1.0198720037903619e-03 -6.2870238554308885e-04 8.2617471197867116e-04 2.7232221725833061e-03 3.5603714612132209e-04 8.8072593625529959e-04 8.5240945680858243e-04 -1.5707014394008123e-03 1.9774329376583731e-03 1.1810682912772763e-02 1.6482920840757941e-04 1.1254945245340545e-03 2.6283196680432219e-04 1.9192982336942266e-03 -1.9525390551633059e-04 -2.6024293199199220e-05 4.3021134890774016e-04 -1.1160209645915374e-03 8.9312572326087115e-04 -3.1739434584917639e-03 5.4336586513070197e-05 -1.5171004151761746e-03 -4.5986905650479554e-03 -1.7131423886311906e-04 3.5505375749390975e-04 -1.2415457805383390e-03 4.0986737729575449e-04 -1.6987078753558965e-03 -8.2573051067500736e-03 -9.7962286626772539e-04 -8.2557037871053632e-04 -8.8274022675713937e-03 -8.9799413612547292e-04 -1.2560707686662897e-04 -1.9250961817599520e-04 -1.1139953695266656e-04 7.6021714221054075e-04 -2.0675916748296580e-04 -2.5563900001372916e-03 9.2708314760613607e-04 4.7500784885926408e-03 -1.0509930250994047e-02 1.0038394174735220e-02 -2.2091483196867135e-03 -1.9381927570640348e-03 1.8674912742596105e-03 9.3899774014847195e-03 1.1656299875137999e-02 2.5661590025700641e-03 1.0020940747136255e-03 -1.0265907423010034e-02 2.3018087005890176e-03 -1.2023169760626874e-03 2.9978248240223682e-05 1.2833117081166769e-03 3.1712067651777850e-03 -2.9119227583930350e-03 3.1311083651274357e-03 -3.8045631785061647e-03 -4.4567691032438884e-03 6.2021200497482352e-02 -2.2443187017444585e-03 3.4720095769021119e-03 -2.4457818528945442e-03 -2.2187385823879986e-03 7.8911436905576872e-03 6.8815706064789643e-04 -2.1467868004731629e-03 1.5581851428140767e-04 6.8753837479274462e-03 1.7999661994914193e-02 1.5383432308181608e-03 4.5657276767489168e-04 -3.0214033338720183e-03 7.4769436672148318e-04 2.0467773242203299e-03 -2.2072400121831023e-02 
      </Row>
      <Row Index="4">
        -7.6586987296477713e-03 3.9616417159124111e-03 -1.0662083641152509e-03 -3.8429000944817651e-03 5.6500967383793077e-01 -2.2843502851919279e-03 6.5635687356679212e-03 3.1350733868351546e-04 2.0868144372887263e-03 -8.7545108111394057e-02 -6.3511430887883275e-03 -2.5646272174621315e-03 -3.4887510454596482e-03 -9.9446930778238009e-04 5.0951043192482416e-04 1.0260276704292502e-03 1.7491739554342384e-03 5.7930479072564045e-05 1.2296955746864979e-03 -3.1155200927940330e-03 8.9668286273819394e-03 6.6510298173929954e-03 5.4584745926784650e-03 2.7795526231863704e-01 -1.5488293915168093e-03 1.0757681102066818e-03 4.4907151584118229e-03 -1.8894883399871673e-03 -1.9680813746382038e-02 -1.6897060452912812e-03 -2.1445321580449671e-03 3.8892933804626217e-03 -1.1822563829694435e-03 3.0360577870814590e-04 4.0157196431741095e-04 -7.8372581003711538e-04 6.4353108439732520e-03 -9.6218023332740338e-04 -5.5701950420606466e-04 -3.8969769648046840e-04 1.3024732817874911e-03 4.4017511235420774e-03 1.2579222586717648e-01 -2.5255888791806285e-03 4.3116108284560386e-03 -1.2484871008211513e-03 -7.1912988108707599e-03 1.3695556479529913e-03 -9.1784036286639086e-04 -5.9367588638425950e-04 -2.2543272977806950e-02 -3.5144451167786221e-03 4.9490504225917741e-04 -7.9642622700275625e-04 -4.8178369545397656e-03 -6.3360037213013413e-03 -1.5368625013097137e-03 -7.9270756121649286e-03 -1.9170908756932087e-03 1.6388853863526119e-03 2.0209303209989347e-02 4.0633640203747920e-02 -7.6011299465648680e-04 5.1279436773915624e-03 1.8485764803102041e-03 -2.2594045861565491e-03 2.1457331312938255e-02 2.0599493964556046e-03 -4.1293754874667174e-04 1.2960120917679369e-02 -3.3700880031307229e-03 1.0020255857687123e-03 -1.1079326852410989e-03 -1.8829130831629157e-03 3.2804922959720414e-03 5.2944324026615690e-04 5.4882072792687975e-03 -1.1055999946719797e-02 -2.1701064868568563e-03 4.0103694224378796e-03 -1.0218725976792015e-02 -1.2099420985155450e-03 2.9221071292178658e-03 -1.7034981343882993e-02 -1.4127029532203655e-04 3.5691204994654502e-02 4.1995066369507686e-04 -3.3459768707957173e-03 -2.9567246304668671e-03 -5.5921207981361968e-03 7.9692463459867663e-04 1.5402796931403978e-05 2.0217859026766573e-03 -9.2338549805857928e-04 6.5099417272964852e-04 8.2359218818915496e-04 7.0480567907682534e-04 1.3551713126926563e-02 1.2348482475454971e-02 -2.2973044889884990e-02 8.0605400996874941e-04 4.0720779508891750e-03 9.3200656287062455e-04 -1.3047937435063158e-02 4.2596301394064076e-02 2.3849346194368577e-03 -3.7552432327620264e-03 4.5757240292173540e-03 -1.0738143496366484e-03 -9.5341819268556015e-04 -1.1701956703236514e-04 6.8470297419916007e-04 2.2977453692689469e-03 -3.0144440656359019e-04 1.7375425147217669e-03 -2.0937987752545489e-03 1.6345495541083208e-03 -1.6869921007572246e-03 -1.5287026744099206e-02 5.3391292777853396e-03 -3.9015355441330939e-04 -3.3738880219192869e-03 -7.4455986995047253e-03 1.9686160469913450e-02 4.7767302755970069e-04 -1.0084282914020236e-03 -6.5174659505931043e-03 7.6721329485661643e-04 -1.8912976537153146e-04 -2.4632106676445126e-04 7.2979616128972507e-04 1.2101968537456542e-03 3.7038662131719810e-04 -5.3805850161275925e-04 -9.2361175808765034e-04 1.2059443872908544e-03 1.2859476691448241e-02 6.4041866268017986e-02 -8.1449808327405376e-05 8.8532167741394970e-04 3.9839454468744949e-04 1.0996315614346997e-03 3.1689892095299460e-02 1.6595842080323608e-03 -4.4836982205172030e-03 7.1851933697475445e-04 1.1988851172672588e-03 -5.1697295019484304e-04 4.5533225178628347e-05 1.0488772000978551e-03 -1.4287825455770817e-04 1.3921750212994425e-03 -6.8078005486238435e-04 -2.6531248592938372e-04 -1.6919163132326481e-03 -1.1091588564722043e-02 -5.1988704890885411e-02 -1.9343646043045049e-03 -3.3757149223134081e-04 -1.7204565469502553e-03 -6.0025419264407697e-03 -8.8348528777501545e-03 3.4675099712735691e-03 3.7741248502621613e-03 -4.1060561854497912e-03 -4.3026108007302810e-04 7.6485876869308487e-04 3.4179303242789323e-04 -6.1771009063718574e-04 2.2263257185492977e-03 -2.7457703614329953e-04 -6.2555342337862474e-04 -3.9105480195605674e-04 -6.5993432540983367e-04 8.7670405872839786e-03 -1.5374850949521722e-02 6.5976498788383937e-04 -2.3876359754947118e-05 -5.2870590462399602e-04 3.6472779662594644e-03 -1.0310677625943176e-02 1.0359265925764449e-03 -6.0800472190406917e-04 8.1221636419570586e-04 -1.4577587797932816e-03 -3.6641418175426118e-04 7.2142395130033593e-06 -4.3812919876570658e-04 -3.9477924706894686e-03 9.7148316554213424e-05 -4.9274914517740964e-03 1.4037967401084202e-02 1.7145782199635966e-02 5.4894085685087635e-02 6.6195694259295029e-02 6.1427204205969158e-04 1.1159813804654681e-02 7.7880459103817235e-03 -1.7758181331192582e-02 -2.5747359420785987e-02 -1.0286050531329043e-02 -2.2477706313321980e-04 -2.3986540484461472e-02 -3.8578354952821289e-02 -2.3955135118024747e-03 1.9359099716460455e-03 8.4158911944140404e-03 -1.7343783607089054e-02 1.5735628445003470e-04 -4.2538525714785891e-05 -1.9890925520777938e-02 -8.9772690029044332e-03 -1.5594453081196893e-01 -1.6696337824262777e-01 -2.0853382095642331e-03 3.4881742706975583e-03 -4.3348424244528394e-03 -1.2737228020875388e-02 -5.8084950729147405e-04 1.9257293247972498e-02 3.4706587310374334e-03 -1.1549503953810214e-03 3.7819809570188698e-02 4.4382223753151318e-03 2.4250959783397048e-03 9.2512908340528048e-03 -1.3155751750534607e-03 -1.4814856013368040e-03 1.4421040121564332e-01 
      </Row>
      <Row Index="5">
        -4.2734344115778061e-04 -4.7691942978501613e-05 1.1923861798152843e-03 -2.9589423531218092e-04 -2.2843502851926023e-03 2.6610695061838455e-02 3.6634281563569892e-04 -1.5555360798801612e-03 1.1504447121208090e-03 1.3268909559709864e-02 3.3070639144462362e-04 -3.2644457717739654e-04 -8.0257219388400053e-04 7.4173587651471485e-04 9.7979672228558508e-05 -1.6501380027181657e-04 8.9147681807357675e-05 -8.1377352627181286e-04 -1.1213320285096522e-03 1.4388218242885587e-03 -1.1724379167157286e-03 -3.6978832089178945e-04 6.3458881596776878e-05 -1.0915984032282208e-03 3.4157566857491960e-03 -7.4370683338535228e-04 -1.6829348469819434e-03 3.3881807601225233e-04 1.1179200185012308e-02 2.4133711273412401e-04 -1.7098544650960795e-04 6.4512720826988001e-03 8.4350358047489103e-04 -7.8491773294795363e-05 -4.0492141206486772e-04 4.5454594783990269e-04 1.4293684541721932e-03 -9.4019968582577385e-04 -1.5367289867848632e-04 3.2148485008115339e-04 2.5911181754664650e-04 -4.6007276288530740e-04 -3.0051299697045212e-04 -1.6800837232985179e-02 1.7186033244520281e-03 8.1952431825344429e-04 9.7756264284126933e-04 2.3137128272906149e-02 -6.5164406264145262e-04 8.2028194794663955e-05 -6.4398013344890703e-03 -3.3610823091174432e-04 2.2423544644065325e-04 -8.2438680785465175e-04 1.3919882920374973e-03 2.1284967084225087e-05 1.1270941160782181e-03 -3.0463708721079402e-03 3.3841673233988732e-04 1.6050356757734189e-04 1.6576408514495759e-04 1.1543981525060504e-04 -1.7541131654605118e-02 2.3841950529925065e-04 6.6153434474237622e-04 8.0170809697514985e-04 3.3434100272161649e-03 -6.2435253263151344e-04 -5.4424488276390813e-04 -1.9183904151982567e-03 4.1868047624382297e-04 2.6312538183736063e-05 -3.4567928032013841e-04 2.4967734182437676e-04 -7.4372841801575388e-04 7.4292322184869343e-04 -5.0515678342515427e-03 1.8279992813012430e-03 2.5607855925054634e-04 5.8541794849070305e-05 2.1799773171210469e-04 -7.5246936434769903e-03 3.6566823911786048e-04 4.6884480008402866e-03 -1.9712922649770329e-04 -9.8257800291938757e-03 5.7883710346065282e-05 -2.8897130064230864e-04 -5.2620651024620768e-04 1.5426140191216898e-03 1.9948047144956226e-05 2.8967867618286364e-04 -1.0819960162809315e-03 7.5143603014704921e-04 1.2660132848293058e-04 1.9976948452570704e-03 -5.2032025140023993e-05 -2.4653855444968517e-03 -2.0346426242577381e-04 1.5611366553641703e-04 -9.1366300216463615e-03 2.6393078407925801e-04 2.7988587627159446e-04 1.6138856515475256e-03 1.7074320091527276e-02 -5.7872639039400087e-04 -2.5940571499966634e-04 -3.1108970599875718e-03 -4.4562635283521316e-04 3.0657632240088098e-05 3.6444685792552526e-05 4.9003224314898841e-05 -4.5598870112328123e-04 -2.2012776438267177e-04 3.7890086835520170e-03 -8.2934789967039832e-04 -5.4586539971498982e-04 2.0138173982436197e-03 -8.8451974645850314e-04 4.3732494817795085e-02 -3.1564324660401425e-03 -1.7491013582102127e-03 1.0866879924218385e-03 -3.7147986050206638e-04 1.0608121223488953e-03 -1.7650194845543823e-04 -1.3208279241760934e-03 1.3418409101652337e-03 -3.8978025632875694e-04 -9.3222317720776174e-04 7.1123805325217816e-04 -1.7560596965902342e-03 7.9347949077204771e-04 -2.9689869797234810e-03 4.9493173591783589e-04 -1.8977945725263696e-04 -4.4495808089221054e-05 -7.7548346851114263e-04 -1.7507592997464804e-02 6.6369635708340979e-04 3.1211030699906223e-04 -5.1497727912262455e-04 7.7459066381787706e-03 -7.0732621181050434e-04 1.2474627309923660e-04 -4.0339512786924381e-05 -3.9276567192271863e-04 1.3705473742472603e-04 2.6359349082808272e-04 -1.5722615565311421e-04 9.5581840693865616e-04 -2.4867661929165558e-04 1.9056773299293700e-03 1.7715121029812913e-04 4.6224477353734496e-04 -9.3439817636233741e-04 9.0735479814466134e-04 -2.5315516207969069e-03 2.2012162350511146e-04 9.6289232924909362e-04 -1.2787130397809172e-04 5.8442564036478156e-03 -1.8694978107226812e-04 3.2390228558064338e-04 -3.4385978433404130e-03 -2.0045055635052893e-04 7.8700728751061465e-05 -2.0871255051061865e-05 2.5236192855249140e-04 -1.4622400569388912e-03 -1.0550337512038079e-04 2.3057299270510950e-03 -3.4616806139389626e-05 3.8474389376804449e-04 3.6923298342486513e-04 -3.4694047572001504e-05 -4.5211637332913546e-03 3.9853056906526477e-04 1.4269519044058152e-04 -1.9210210659923994e-04 4.1746889508544535e-02 -3.9099054335822074e-04 -3.7686856044813553e-04 -1.0191443958293966e-03 6.4388424119956895e-05 2.6851720254423206e-05 -3.3755933637255592e-05 1.3363745316607653e-05 -1.9068695115326620e-04 1.4102871532156117e-04 9.0775812813854995e-04 -2.2354578861042995e-03 -2.3523002523682807e-03 -2.3821843424106934e-03 9.3087845920771699e-04 4.7712586579265415e-02 3.2233482786505063e-03 -3.8099440307167464e-03 4.3428714729411974e-03 7.5369327353761784e-02 6.4401962396531162e-04 -8.1951971936788156e-04 -5.3018671222515579e-04 7.3051903352433544e-04 5.7509375542886496e-05 -4.8166192069907832e-04 -1.4326265420535785e-03 -3.7688637336381024e-03 -2.7310246805351272e-03 -1.4297764811999000e-03 2.9653072159746890e-03 1.8621677445209922e-03 -4.3617833295234642e-03 1.2138445408198366e-03 -1.6192225826665803e-02 8.6705695924805864e-04 1.3502858148932845e-03 2.1000437154191278e-03 -3.3613344900379465e-03 -1.1153522122330996e-03 -1.8905827278344056e-04 -9.7754058989492180e-04 -1.4117861096954874e-02 -5.6215090166869368e-04 8.7585916924753232e-04 -3.5808929142930926e-03 5.9060894122417548e-04 3.5734283217179769e-03 9.6757639645863001e-03 
      </Row>
      <Row Index="6">
        4.1092853958558190e-02 1.9639553857120663e-03 -7.3382787351807498e-04 2.7038053301634002e-03 6.5635687358310459e-03 3.6634281564010008e-04 3.1221856047667201e-01 1.4456179960428929e-03 5.1806239478340466e-04 4.4273600800113666e-02 1.3628498863914842e-02 -5.1980630366688721e-03 2.0503979505150149e-01 -8.4120923108382990e-03 -4.0167536859145591e-04 1.6897731708990550e-04 -1.5126365386196610e-04 -1.8604169118669439e-02 3.1793024604617561e-03 -5.2311844128246701e-02 -6.7988421243001061e-04 -1.6147724592432897e-03 5.6588250772431244e-03 9.1339562478865710e-03 1.0371227341171782e-03 -6.6024095253049156e-02 -1.6864444027008766e-04 6.9028952050644910e-04 8.1110022026027628e-02 -2.4590231747638443e-03 4.2292467516984933e-03 -2.9203471033730111e-01 3.9731162738698604e-03 1.1367140765412534e-03 5.6238154178695301e-04 3.4802792994554433e-03 6.5203500771849870e-03 3.5772800128012808e-03 7.1768647188434648e-02 1.7581221455232601e-03 1.2826228796546453e-03 -2.2240793810367919e-03 -5.1983451087078700e-03 -3.7957488264589757e-03 1.7595908017021050e-01 -4.6628281297844926e-04 4.3689019680684393e-04 -1.0694830372343805e-01 8.7916895789619930e-03 2.8684495236868529e-04 -2.1080126184915127e-01 -6.1205640130253649e-03 -1.1818258564463245e-03 2.2772362880556290e-03 4.0413897793455632e-03 -3.7934535234424769e-03 -5.6832609672767482e-03 1.7237207263480575e-02 -2.7478923196592670e-03 -4.2166723695467511e-03 1.7487043239197693e-03 8.3798276469567966e-03 -1.2050473835569996e-03 -2.2164800258948952e-01 -2.7398362759707149e-03 1.1456910761251031e-03 6.5308691645881906e-02 -6.6323160475147604e-03 8.2547455658500777e-03 3.4928843243024366e-02 5.5853175281408126e-03 2.2944835143849497e-04 1.8244878539275501e-03 3.2774025061664208e-03 3.2215763572925214e-03 -7.6057123385685158e-03 5.1052896232586055e-02 -1.1986191421663253e-03 3.6806410558424619e-05 2.1775644803270940e-04 -2.6352089177045998e-03 -7.8356441053619883e-04 -9.9929550819720103e-02 5.9437764036438627e-03 2.5638900124065750e-03 -5.9809145678979547e-04 7.8196280838442557e-05 7.1937164127186884e-04 1.6109737892533715e-01 1.1334636253790889e-03 -4.5787374479790382e-04 6.7425534622804050e-04 -1.9632479965446012e-03 4.3136617952359430e-03 -5.0904433717292169e-06 -6.4301777195899135e-02 3.4955355839762885e-03 6.4643442197693541e-03 -6.3468386260216907e-03 -4.8882908774123719e-03 -2.4876998549426366e-03 1.0071605641732323e-01 3.9214681310636881e-04 2.4278746223344561e-03 1.7290451202333912e-03 7.1493514694235243e-03 -7.0432532665536647e-03 1.4235051211683830e-01 -4.3373575447668697e-03 -1.6237629324308874e-03 6.2728920989420949e-04 -1.9658025145071066e-03 2.9834336076612483e-04 6.4621499760038866e-03 1.1962333483619945e-02 -7.2798935832445177e-05 1.0458762857273414e-03 8.8130225909098222e-04 -1.5948648278477900e-03 4.2835150856165814e-03 1.4359951082341595e-02 2.1327032995151515e-03 1.2041040684107364e-03 -5.6871886516305981e-02 -6.5621095378758619e-04 -3.3085239158934087e-03 8.0106852814800567e-02 2.1318434044403380e-05 -3.8720483357044015e-04 -1.2523091732422010e-04 -9.8699578608080294e-04 -4.6849816858630933e-04 8.1652512950879802e-04 2.6160552414929525e-02 -8.6294744684996304e-04 -5.8334852115987201e-04 2.7994775849305127e-03 1.2401512048846926e-03 -1.2215615478261355e-03 -9.1515061244776472e-02 -6.8967907838460860e-04 -3.0218421200701269e-04 4.4609093131249139e-02 -7.8736925453315367e-03 -6.4188147689920542e-03 -9.7024886949840905e-02 4.7068891896571794e-03 5.2942730559709294e-04 -4.3740401455900110e-05 2.1079714240347163e-03 2.6750473484617125e-03 -2.1200506680487600e-03 -2.1976936685473153e-02 -2.3581926850976473e-04 -1.0133679063353894e-04 2.0885328184943736e-03 2.4831609531687452e-03 4.8716451726863938e-04 -1.0166138700824792e-01 -1.1280589057890361e-03 1.0113178635708878e-03 -8.9207190274651627e-03 -7.6029241887192005e-03 6.5110239131111053e-03 5.2002008357445284e-02 4.3782767801100950e-03 4.5782724080398120e-04 1.7104003399094777e-04 3.9550392911612449e-04 1.6384855067002532e-03 -5.9534496225804347e-04 -4.6203379209544593e-02 6.6001221979179823e-04 -6.0709957088060087e-04 -4.1018427688548631e-03 -2.5099314188273105e-03 -1.9610224541756543e-03 2.7073414404085457e-02 -1.0583568864836967e-03 -8.4490234622999153e-04 1.2529632659056644e-01 3.9905576183901538e-03 1.2845966091833434e-03 4.4813145138505894e-01 -2.1070105222100828e-03 -3.4391749096933047e-04 5.0571910237488826e-04 1.7742453646091890e-04 -9.7968486814895006e-04 2.0922257894843170e-03 1.3168741095455466e-01 1.6656433170774879e-02 1.9971359756794468e-02 -4.0942521087737951e-02 -3.0609206087223544e-02 -9.5983914385634403e-03 6.1379188188920042e-01 -3.4145582972308283e-03 4.6830213918874703e-03 -1.8857900688960549e-01 7.7084136773542686e-02 -2.2685276385342235e-02 1.7248092439104989e-01 -5.1659641874071426e-02 -7.5531716319976886e-03 1.7882814627960012e-03 -1.8077698033085326e-02 -3.3207988987134666e-02 3.6619151532646797e-02 4.5616807492293888e-02 -5.2911465803672929e-04 -3.8354938637835071e-03 2.4995745221414008e-02 -3.9845539162519233e-03 -2.1137423273644780e-03 3.0927281561394310e-01 3.5025398842189887e-03 1.1593215556451597e-03 -1.2169757953573668e-02 -1.7945162122411040e-02 6.8211828854781581e-03 -2.5123134334184888e-01 -1.4095083049821266e-03 -2.9880193539404132e-03 -4.1065422416730786e-03 -1.0988357197394265e-02 -1.2795008923383745e-03 -1.3666467152401336e-02 -7.0316749588980225e-03 
      </Row>
      <Row Index="7">
        5.7281271085420152e-03 2.2242499062802967e-03 1.6970692289848266e-03 1.6847593721967292e-03 3.1350733862654107e-04 -1.5555360798808764e-03 1.4456179959615411e-03 2.0493833777373568e-01 -1.9142301223895510e-04 -2.6870407313272074e-02 5.3906377703864458e-04 3.2576796896804914e-03 7.8753659146760135e-02 -1.2809603483243925e-02 2.9390849681319839e-04 -3.2836239406189988e-04 -9.3313421361276416e-04 -2.4146863206303982e-03 -2.6443255747493929e-03 7.9747586280640437e-03 -2.3364920805133301e-02 9.4021714937553031e-04 -4.9702147047388668e-04 -3.6774127880728202e-03 -5.7939126546257148e-04 1.2750881435659202e-03 8.3304751235182620e-02 5.5420012224749460e-05 -6.7513466141387160e-02 3.3372021625126484e-03 6.2394796706455972e-03 -4.3864177010888739e-02 -1.0713126940016124e-02 7.1255429062948013e-04 7.2311545490890371e-04 6.8996166025978977e-04 1.6309318381264010e-02 -5.1847688681866486e-03 3.0822943448690354e-03 1.7742381498417097e-02 6.6999820514448841e-04 -1.6368064515757757e-03 -2.0322291320604442e-03 4.1152971471567820e-03 8.1420067522819731e-04 1.0316537874959004e-01 -1.5130426834897368e-03 -7.2726311680838956e-03 -4.2468943588104850e-04 -2.3164836890738911e-03 -2.9655537298850065e-02 -7.1457986089778196e-03 -1.0256754930583600e-03 1.3592586830555268e-03 1.4186644635249933e-02 3.3982646318875924e-03 2.8696087867049313e-03 -9.6040728472423231e-03 1.3234828446127576e-02 -4.2632515547043164e-04 -3.9008834482506731e-03 -8.2938237202839285e-03 3.0414208572851157e-03 1.3680993498981948e-03 1.0495929318234443e-02 -3.3129856140830249e-04 -7.4393193469809271e-02 7.8300343637911795e-04 4.9593449716155320e-04 3.5368383863629838e-02 -6.5748780055715867e-03 -9.7783417509576245e-04 2.5435208854617491e-03 6.5699317307661167e-04 -3.6541862255327568e-03 -9.5109311671455997e-04 -3.5103349114635141e-02 2.8976903724109992e-02 4.0705234767128134e-04 7.8727634440082482e-03 -1.4379809180829553e-03 2.3382691208253051e-03 -9.1882839587289246e-03 -3.5354940446623212e-01 8.1521011229518554e-04 1.1462837039764401e-01 -8.3701697257168930e-05 -1.0671284087214877e-03 -1.5613332579297978e-02 1.1587655555970980e-02 -1.4004749652876095e-03 -4.1557982205888203e-04 1.7316819148077839e-03 -6.9660272097042536e-03 1.8369077222288588e-03 2.4107514182900858e-03 -2.7326230614325227e-03 -2.2115195143716394e-03 -1.3767822149741240e-03 -1.6807158750258826e-03 1.1725092154702523e-03 -1.2867387132722498e-03 3.5415460088129742e-03 7.7173240733780044e-04 5.6131945484660162e-02 1.1320945861668930e-04 8.1296422219970244e-04 4.3121608558129854e-02 1.1882763052332652e-04 1.3304049111454743e-04 1.9670284885865957e-04 9.3047735765225273e-04 2.5573391856970051e-04 -4.7663437179857465e-04 -2.8858625085361883e-03 -6.9997316836065138e-04 -1.0063587510777301e-03 1.5472125402875166e-03 2.5319254737967353e-03 -5.1413787246434375e-03 -3.8493797084556552e-04 -4.8645270167123722e-02 -1.0840563833430794e-04 -1.2531247748630125e-02 -7.2842698910253242e-04 -7.2108678024596865e-04 1.5962577078951767e-03 4.4672139465426839e-03 -1.0291272647073029e-04 1.2048752261336823e-04 3.5605902535802865e-04 -2.5925575762428682e-03 6.6755621624625672e-04 -4.9410775928240835e-04 7.1675233840312602e-03 3.0042293403804814e-04 -4.4472345157073288e-03 -2.7013445347237111e-03 1.5304128993070803e-03 1.9760633482239706e-03 6.1131287406717583e-02 5.7347723207562540e-06 -3.1518911546900785e-02 -3.6525879491749839e-04 3.6185644743377127e-04 -8.8417697774502563e-03 -4.8397116762905618e-03 4.9757313823886465e-04 1.9364088650686409e-04 -2.4579564530858747e-03 4.9394462023590897e-03 -4.0152437161202707e-04 2.7851248944616991e-03 -1.7798027026044655e-03 5.0792856348232107e-04 3.9832874052444546e-03 2.3925532393658366e-03 1.6850540502022504e-04 -5.2250965130938186e-04 -5.8249247882146193e-02 -1.5634857749431599e-04 3.7225037454043347e-02 -2.5959452525005366e-03 -2.7589081858507628e-03 -3.6326984369305926e-03 4.9028814069612577e-03 -4.8456438637697614e-04 -2.7007343991364893e-04 2.7359620643119930e-03 -6.8726938431003387e-03 1.0271440916370840e-04 1.1330767401955544e-03 4.9420260523619815e-03 9.3797234885318942e-04 -7.4009340021461366e-04 -2.4633833321976860e-03 3.6122520525652712e-04 -1.0764267766598910e-04 7.5947467927606847e-03 -5.5483848239133672e-04 1.1374989535970915e-01 -2.9876261106144488e-04 -2.6998881964531351e-04 9.2845869780363799e-02 -8.4561553886479022e-04 -1.6914144282893090e-04 7.7790617203782005e-05 1.3299942216653373e-03 5.8319770934715104e-04 -1.5244755447337607e-04 -3.3543587232018335e-03 -2.0700561050022926e-02 -2.8081762750603242e-04 1.9783094861064157e-03 1.3881214947996814e-02 -1.8943679693847002e-03 2.9639272363369412e-04 2.0674916456224676e-01 -1.0867241421831687e-03 3.5113866341254274e-01 -3.7644083690061953e-03 -4.1357689737590245e-03 1.9392568582522252e-02 -5.7266868885306986e-03 -5.5019385811097511e-04 -2.6528116338058127e-03 3.6438024085549579e-03 -1.0319155678316719e-02 -3.8256919723858107e-04 -1.9011814688844053e-03 7.8373298518151058e-02 1.3984792389595806e-03 2.3926660132139406e-02 -1.0906549309415109e-03 2.3260270324235036e-03 3.8380963220632086e-04 -1.8580733934658078e-01 3.6009887899240761e-04 -9.8467221927554804e-03 -7.4677013539255384e-03 1.7335489515672362e-04 -3.5056198027270141e-02 7.4128318319852005e-02 -3.3186612310082669e-03 -4.0538856484464841e-03 -4.0285260501592514e-02 2.7059112026924280e-03 2.0575690463361249e-02 7.9795708560465153e-02 
      </Row>
      <Row Index="8">
        2.7074915760930129e-03 1.7851324885583041e-04 -1.0228661189260461e-02 -1.3355695267372797e-03 2.0868144372784368e-03 1.1504447121194299e-03 5.1806239477091183e-04 -1.9142301222650976e-04 5.0299518178024756e-02 -1.9131250208721230e-02 2.4562624930510556e-03 -5.5399652728003947e-04 2.1317741666218026e-03 5.0963993709165719e-04 -4.8873644661743317e-07 -1.7359249698529352e-04 1.6905678115509563e-04 1.0863026024386102e-03 -1.4631869335015504e-03 -2.3587605161264399e-03 -3.1195035157318709e-04 2.5842747619244277e-03 -4.4851285484403462e-04 5.1236659380077265e-04 7.9493738868432486e-04 1.9487668898754127e-03 8.9783133183912647e-05 2.0692936318155979e-03 6.8903083260900208e-03 6.3876182230952457e-04 8.8009850319324852e-04 4.0995846669993341e-03 9.3819932714232866e-04 5.1668125091635015e-04 -3.8197927084938780e-04 1.9533234358588055e-05 -2.7514955242285795e-03 -2.1526732755980230e-03 -8.6143561791035550e-04 2.7968608153354805e-04 -1.5414219372919583e-03 -2.1787821223397449e-03 1.0103314191985168e-03 -1.5672540857496016e-03 1.0225876218973471e-03 -1.1108964079342091e-04 -2.2974734860525745e-02 -1.6672730204446512e-02 2.3498101567485783e-04 1.3108976402522593e-05 -1.6908365327869546e-03 -2.4970299188770968e-03 -4.8062485358214618e-04 -2.3250324156278398e-03 9.9591797175096379e-04 7.0531341044582625e-04 1.7148772322986838e-03 3.5688222829751010e-03 3.2527400508553265e-04 1.9946752922298579e-04 -1.2322353527654351e-03 -3.2577443352058838e-05 -5.4847956949310821e-04 3.0120938466606795e-03 8.1798867632600081e-04 -3.8106498567444809e-02 -1.1737275983992657e-02 -3.2490712486670718e-04 4.8999808405856453e-04 9.2570519944323859e-03 -1.5768724976467294e-03 -9.4459205274809730e-04 -1.3244317258307417e-03 3.9403486662337520e-05 2.1711844565642366e-03 2.6544551474589522e-04 4.3171542454531753e-03 7.2744646406011637e-04 3.4636981840241920e-04 3.9337557252910188e-04 -3.3044674292639561e-04 -6.1638288302125806e-04 3.2780780342245262e-03 2.1641047584792829e-03 -7.9382854638984229e-03 8.0909505690604788e-03 5.0776401244925079e-05 1.0122398355660513e-03 6.2852853607209269e-04 2.0927780785529012e-03 1.4999132202331246e-04 1.7368615632643719e-04 -1.2746089336341873e-03 2.2367817377049355e-03 7.7672553686274071e-04 -7.8076338833078934e-03 9.7388408905562870e-04 9.4443356662055594e-03 -2.5112338276703306e-03 1.1853238974115295e-04 -3.8725366027362370e-05 7.9593531427626669e-04 1.2492130093038501e-03 -6.3844685584353994e-02 -2.8669081457804169e-02 -2.3595044187161218e-03 -6.1298946297722295e-04 1.4286683582692472e-02 -3.2443054494212097e-03 4.7639220755371501e-04 7.9324128852976559e-04 2.6499994767967240e-04 1.2043115896470408e-03 -1.7794616689481260e-03 -4.2114763805906064e-04 8.1587554980397728e-04 8.1810426047233690e-04 -2.4630928893031390e-03 1.5092323447541611e-03 1.9057875701396932e-03 -1.4532116840693804e-04 4.3802076960941863e-04 -2.7061396644716629e-02 -1.1810830486954492e-02 -2.1458679506043601e-04 -6.3338561746754344e-04 8.0346049808612818e-03 -1.6429538031554908e-03 1.0985440655769717e-04 4.0429781977792140e-04 1.6108233117719884e-04 -4.1648390403688229e-04 -9.6015646675612354e-04 2.5478565915616203e-03 9.4649280277971440e-05 -3.4932030028972730e-04 -7.4511415841118788e-04 -3.2003659123850010e-04 -1.3253985487697573e-03 9.9891793790043396e-04 4.1285393139155408e-04 -1.3273010188471176e-02 -7.7788291775407262e-03 -4.1997314180484144e-04 -1.1690552123224465e-03 1.7032476702010801e-03 -5.6433933335287045e-04 1.8968306992887037e-04 2.7754155555546835e-04 -8.0067615468909416e-05 6.3669259709927747e-05 1.0799825288166113e-04 -3.6084113540794938e-03 1.0742606106377978e-05 -2.1137773010358896e-03 -3.7675950677716549e-03 1.5827574704799000e-03 -2.9780295383234623e-04 -2.5580088388788245e-03 2.6180253392588115e-04 -9.5726459064225458e-03 -1.1288005040123839e-02 3.5131194362975687e-03 -1.3291230021583861e-03 7.9393076437572763e-04 -1.8743464393767726e-04 -1.7375342330373843e-04 -1.2269632367802003e-05 3.3476795467972799e-04 -3.1032155483087798e-04 2.0838409600885954e-04 -6.3532256685582926e-03 -1.5470375305557876e-04 -1.7469701051683547e-03 3.3548437241712865e-04 -1.3177702258756704e-04 -4.1495805736836109e-04 -1.8904085353207215e-03 -2.5211124846048717e-04 3.8558400936926124e-04 -2.9004350743778440e-03 3.8221521173746002e-04 -7.5061363004655813e-05 2.9210168728157626e-03 2.5089471706168112e-04 -2.4609016836313162e-04 -2.2652174665552894e-04 3.0717245344204572e-05 -1.9964164158550873e-03 5.5851753195251981e-04 -3.0660340865098085e-03 8.0009971972570121e-04 -5.0215426475398424e-03 -8.6126995828463785e-03 3.1012052951506835e-03 1.2232966267710530e-03 -7.7908104096858638e-03 6.2740887892684350e-04 -7.7043955510518770e-03 -7.1900488533137560e-02 4.1041207209051161e-03 -3.2379005547954632e-03 7.1750994821306868e-03 -4.5078624037123045e-03 6.8159983353345598e-04 4.2729038244044594e-04 1.0815859068583429e-03 -5.0419341579892290e-03 -4.8839752570837029e-03 2.6443774657595176e-03 1.1073172828769140e-03 -9.4821271460752560e-03 -1.5792291018080516e-02 1.8177471368790435e-04 -2.1133936782754895e-03 -7.6118110599893846e-04 3.3099181199882158e-04 -4.1538933190731729e-02 4.3147109459111890e-04 1.0833473335346244e-02 5.6023443341604931e-04 -5.5614152225281210e-03 -1.4222942372521608e-02 -5.6735031632929311e-03 2.6868070939389064e-03 -3.0883716446560450e-03 -6.9830900607384156e-04 5.5506741281547327e-03 3.6396918504662867e-02 
      </Row>
      <Row Index="9">
        -6.6959529300761239e-02 4.2138208057345590e-03 2.3532473857067027e-02 6.8053862156851400e-03 -8.7545108111370784e-02 1.3268909559729116e-02 4.4273600799992777e-02 -2.6870407312918405e-02 -1.9131250208670514e-02 9.1771312710368331e+00 3.4355563954824211e-02 2.1066366411589887e-02 -3.5567714426800379e-01 9.1335345717528365e-03 6.3690137308986591e-04 5.5605195744648202e-04 1.9632209780695194e-03 -2.9011266544852907e-02 6.5809496345964856e-03 1.8453261241048841e-01 1.0131505735548003e-02 -1.4613421634623123e-03 -3.1150826429647508e-03 -4.0334992277007320e-02 3.6834366478373445e-03 2.8481052450949999e-02 -5.1461926903096714e-03 -2.0378879798873296e-03 3.5098676837255551e+00 9.3567920535260890e-03 8.2060511347846980e-03 1.0117910943945958e+00 -7.5277210877867885e-04 7.2967452696910077e-04 1.0272860347511565e-03 5.4262410626237777e-03 3.7537228639310583e-02 -1.2377879204834054e-03 -1.8872406555414750e-01 1.1654052249953945e-04 3.0409803716324527e-03 -1.5051741706400854e-03 -3.5556307879439662e-02 -1.5421041419287733e-02 -2.0958575851250504e-02 1.4269367301666166e-04 1.6965891882650810e-02 8.4941461891471426e-01 -6.8221357338133534e-04 -1.4637056084138549e-02 -2.0102795054055989e-02 2.4369104898823435e-04 -2.9773218651166561e-03 -8.2610728320875113e-04 6.8913904482613766e-03 -2.7241888211960164e-03 -1.6107015364929395e-04 -3.7792256915049449e-01 -3.4403825235154936e-03 -1.8239123244331891e-03 -1.1372217441432676e-02 -1.4278605495520440e-02 -1.3113021223465440e-02 9.3435757651554041e-03 3.1567711052590333e-03 3.0205833362421490e-02 -1.5986062689672842e+00 -9.8630438185637950e-03 -2.7053587140370115e-03 4.8169573137174448e-01 -5.9660125223282012e-04 -4.1686301972108149e-03 4.4946873198394108e-04 -2.5176245255240266e-04 -3.0544650320124621e-02 -8.5154614860817324e-03 -5.4592900774045405e-01 -1.9475849193057115e-02 2.8719306686774346e-03 -1.4312548450774558e-03 5.4077516680404170e-03 -6.9384366899141736e-04 1.5341363677910502e-02 2.8215934390146691e-05 7.6729241586994019e-03 -2.5954195566441252e-01 -1.1560182395155161e-02 -3.0663174801100340e-03 -3.4303855683841533e-03 -5.8853568512629156e-03 1.6120552005275107e-04 3.7194983790045377e-04 -8.8619088989239092e-04 1.3838339974648617e-03 -4.8606771819421080e-03 4.6885071304192838e-01 -2.7460223751567744e-03 -3.8480411526863073e-02 -1.8409816368660844e-02 2.9197920148726110e-02 -1.5748237754919389e-02 2.6441977181785932e-02 -4.3951659973855799e-03 3.8347902672096083e-02 3.2171840332980288e+00 2.1166991647316169e-03 1.1370289630460363e-02 -1.2681465890590538e-01 1.8925034810561661e-03 9.8405871282463840e-04 2.3174645643248871e-04 1.2741864405694386e-03 -5.0392533639392889e-04 7.6880349705711927e-03 1.4920232227004782e-01 -1.6765909001329356e-03 -4.1905241047670849e-03 1.4886108637922044e-02 -3.8834564483010370e-02 2.9060357069005900e-02 -1.8846203884071377e-02 7.0930735842012864e-03 1.0989214102580688e-02 -4.3099889734445380e+00 -2.6271676483549680e-02 -1.4780456248872489e-02 -7.9388120986608024e-01 -6.2409387998260055e-03 -3.8175011852576782e-03 -2.6865779398276730e-03 3.1317699370927640e-04 -1.7268916453919647e-02 -8.9856489440083287e-03 -3.4743444388364619e-01 2.8219452744323685e-03 -7.9955643559799609e-03 -1.4888983130864501e-02 2.5915715091195425e-03 -1.2687220437707460e-02 1.1844794352458783e-02 -9.3921561606711296e-03 1.3316247411790045e-02 1.4927583871323327e+00 -2.1114079375708491e-03 2.3029958980803511e-02 5.7181341515383366e-01 6.1723979600034314e-03 2.2508957951399566e-03 1.8516612360971064e-03 -2.4264577137751010e-03 1.2504621351987807e-02 5.1645480956611020e-03 1.1549734373807202e-01 -7.6679572001267515e-04 1.9306667832935179e-03 1.8722890496514610e-02 -6.4048107954736856e-03 -1.8399943874455038e-03 -6.5671061968226585e-03 7.9497618158699268e-03 1.5774247503047602e-03 -2.0664990969259813e+00 -4.7319418642413631e-02 -1.3553172764220134e-02 -2.5755771323566989e-01 -2.5596329755338681e-03 -1.8477940850494378e-03 -1.9104121818348848e-03 1.0883478499173760e-03 -1.3706097333418654e-02 -5.7551899849004121e-03 6.4915034457458054e-02 -6.8484650852575785e-03 1.8172861916797480e-02 -3.4970140134236230e-02 7.0054457903297673e-02 -6.0611765782640770e-05 6.3585630524807535e-02 -1.7708115546165033e-02 6.2176233493619892e-03 8.0633714720958984e+00 4.7243620022845059e-02 3.5060173397222290e-02 -2.7856412858996293e-01 1.9471570848113275e-02 4.6744627077620754e-03 2.8498049933214720e-03 4.8980700515542513e-03 3.7148029077965300e-02 2.0549812576648313e-02 -3.7184290313132984e-01 -6.8905339067930615e-03 7.5967698245432459e-03 -9.5155727460273398e-02 1.7786326342853181e-01 -3.7122610591219657e-03 1.5188880820943873e-01 -6.4964788212425920e-02 1.8802609629479959e-02 1.6869574586949703e+01 1.7318051402376472e-01 1.0128130786537091e-01 -5.0736716358870382e-01 5.2131979055195232e-02 1.5542235702538210e-02 3.7357764221163333e-03 1.5141273933569233e-02 9.2217677098439477e-02 6.7043449451986051e-02 -2.6930840367439535e-01 -3.0792504258763381e-02 4.0950434907086622e-02 1.3947828112478011e-01 4.5805083844810343e-02 -1.5476479331777638e-02 -3.5762161436430295e-02 6.0133874982134516e-03 3.3553307891906803e-02 -7.8237058861215802e-01 -2.1914958286312680e-01 -7.3231905760865884e-03 3.0612731178392738e-01 6.8031174597915856e-02 -2.2064378284169350e-02 -6.8253213298548332e-04 -2.8159478985283204e-02 7.5168963315607046e-03 5.0758297225382103e-03 4.4366283780946636e-01 
      </Row>
      <Row Index="10">
        4.7815635033996544e-03 -1.7249331879203760e-04 -8.8795101406172888e-04 3.4959745800656043e-03 -6.3511430887944189e-03 3.3070639144271890e-04 1.3628498863905542e-02 5.3906377703901364e-04 2.4562624930540731e-03 3.4355563954794555e-02 4.5550065368959176e-02 -1.1299350655699521e-03 1.1036474321252099e-02 -4.0395812629218132e-03 -2.7854755732972412e-05 8.5307870936991107e-06 3.5552964971959544e-04 3.4635920148042261e-03 -8.8376849007254250e-04 -3.9429859407960743e-03 -1.9155055598956833e-03 4.4003681315221720e-04 -9.4882430675758615e-04 -4.1283616030424186e-03 2.8084159107547046e-04 -4.8586277521747347e-03 9.4033949136448393e-04 9.1153450368558237e-04 1.2715325850028325e-02 4.4799846682245358e-03 5.3000156403734233e-04 -7.4573107743276523e-03 -3.7535563258985155e-04 -4.1706303127090815e-05 -5.2474009708214592e-05 5.9710929509641602e-04 -5.0703402237562440e-03 -9.1325090344194560e-04 7.4540831960849601e-03 -1.4762021184791378e-04 4.8931997073705356e-04 1.1896106057942306e-03 -1.5165913530428539e-03 1.7604406999752555e-04 8.5741165939731152e-03 1.1366550174794678e-04 2.7760848510121651e-03 -9.2694282795345202e-03 9.9859715319018227e-03 4.8257429885167403e-04 -1.6798574003583089e-03 -1.1973259610413105e-04 -2.9974429073481156e-04 8.5514991226026357e-05 2.4698910102163110e-03 -1.7260741417557705e-03 4.7869985486506325e-04 3.0719677295770811e-03 -1.6096744863215045e-04 -2.3219307753505726e-04 -1.4605249149181442e-03 -2.1082421146281847e-03 -1.2898992644002038e-04 -9.5869155642512721e-03 -2.9433945931799706e-04 1.3752558637834451e-03 -9.0000257345453916e-03 -4.9755451080870598e-03 1.0227762509850491e-03 -1.0882537417166716e-03 2.0462287094957137e-03 -1.3295716050001270e-04 2.8567424186705175e-04 8.5015300657594766e-04 4.6155050001939479e-03 -1.2414275249051092e-04 3.9076166648430444e-03 2.3037847229339659e-03 -2.2941444291071159e-03 -4.9165196785456331e-03 -3.2553458783693753e-03 -1.6664715741231823e-04 -2.2176029849925519e-03 -2.5452675344846245e-03 1.5522706011934827e-04 -3.3307628167674908e-02 -1.3224682161728660e-02 2.6653287002411123e-04 2.3647947527843521e-03 2.8772217239739512e-03 -4.6838647399772681e-05 1.8694692525644992e-04 -9.2476257518555325e-04 1.2102965233452105e-03 2.4117490587609720e-04 -5.4736937275220443e-03 -3.8532195950255737e-04 5.6865378800956389e-03 -3.7670235379698167e-03 2.3625263494833062e-04 -2.2794702341177300e-04 3.7690166977370917e-04 -8.2642999306703924e-04 3.4284742360903885e-03 -2.7163450637860756e-03 -1.8098915997900790e-02 -9.2544487444423543e-05 6.4471870862775615e-04 7.4790164660521624e-04 -1.3953380491321779e-04 9.2222162851512182e-05 -3.7641883692851282e-04 5.0128246298389110e-03 3.0166585722066794e-04 2.0503832341616235e-03 3.2891313852670368e-04 1.0560945518805365e-03 -5.2097622988869329e-04 6.5935076672446599e-04 4.4655983852719561e-04 1.0732352883739520e-04 -2.5258473171379072e-04 1.5172767429907216e-03 -4.1234031438736662e-02 -4.6421702418525893e-03 -7.3935445558067671e-06 3.8218490462807453e-03 1.6669102000391322e-04 -5.6120231011746968e-05 3.8299152999984041e-05 -5.1638444620562458e-04 -7.7535512946834591e-04 8.6722699194075048e-07 3.7477730184290441e-03 5.7572996022686729e-05 -6.8960555232679154e-04 -2.3003906915159784e-03 -2.4078270115466347e-03 -2.0118583746960112e-04 -5.9166439375589871e-03 1.1445766662189810e-03 -1.0103634497015629e-03 -8.1681091984154158e-03 -1.1758222371846797e-02 -8.3345115894999935e-04 -4.3737188867052912e-03 2.7942768085816635e-04 2.7476608473149232e-05 9.8147220666905220e-05 -6.1427248366421286e-04 7.3453112404239795e-05 4.3837786282809282e-05 2.7789812364392014e-04 1.2796889305634294e-03 -3.8713790400283265e-03 -7.7647435952704824e-03 -5.1261653123382085e-03 -1.1924367744933183e-03 -9.7661367717323429e-03 2.4405288850893048e-03 -3.4806625708969246e-03 -9.5569597107186738e-02 -3.1952946592834583e-02 -1.2700562140758771e-03 -9.2715594926512379e-03 -2.0177961913931076e-03 5.0188747386601664e-04 1.6285383699262779e-04 -2.0402992926802817e-03 4.8229882367307342e-03 -3.6358037047779337e-04 -6.1216772742643255e-03 6.6708060039545256e-04 -1.5326022702160322e-03 -1.8495826307335555e-03 -1.0378580661828665e-03 -5.6815022543255252e-04 -1.2495296618100088e-04 -3.4953160931420384e-04 -9.2035599032268430e-04 4.6104990240686386e-02 -5.9684601502282362e-03 -1.0429391686827411e-04 1.0345829108670768e-02 -3.9396925119321823e-04 9.6761256996679909e-05 -6.9467239693663061e-06 -4.7178590613856149e-05 -2.4832990082835626e-03 1.5158516438762773e-04 1.0775927598637436e-02 2.3462393279886232e-03 7.0368697539804070e-03 -7.8422135155192564e-03 2.5146727472420815e-03 -1.5763822428000104e-03 1.2498393655657553e-02 -1.0844604264503670e-04 8.3174112529847966e-03 1.6744725365268692e-02 7.0717717191097082e-02 -3.2964870991514308e-03 1.6256860282082286e-02 -1.0767698515136537e-02 4.1653405280013371e-04 -1.6013770443073193e-04 -2.6273054919342962e-03 4.0220294244709687e-04 -5.9456487403370534e-05 4.2927441962457569e-03 3.4771079308268532e-03 -4.9050844019499227e-03 -7.2665650973569723e-04 1.9748110701926615e-03 7.1350108167601801e-05 1.2352151789016859e-02 -1.3069435077695292e-03 3.0264164096648269e-03 -7.1629273033647963e-03 -1.5938966297492818e-01 6.0192013213650197e-04 -8.5691105276456368e-03 -1.5559106033816730e-02 -5.6948052038917514e-04 -7.4367401133475512e-04 -5.8248520412835757e-03 -2.2463984172665509e-03 2.0841413172031460e-03 2.9559152527438692e-02 
      </Row>
      <Row Index="11">
        1.6276975604980724e-03 3.6844535790959022e-04 -2.5638829986320000e-04 1.5442252045549363e-03 -2.5646272174675265e-03 -3.2644457717787359e-04 -5.1980630366614770e-03 3.2576796896718746e-03 -5.5399652728192316e-04 2.1066366411600201e-02 -1.1299350655735252e-03 5.9287260183405348e-02 2.2015593687986446e-02 -1.3912454971652202e-03 5.7385493894539620e-04 -3.3203835445374218e-05 1.5021212452941770e-03 -8.6826031560360371e-03 7.3505476839672273e-04 -1.8557105731840037e-03 -3.0637654661360477e-04 5.3194754494552345e-04 -1.0199294288637767e-04 -1.9089815970508017e-03 6.9625349485725324e-06 8.8268623866178449e-04 9.8293640048777316e-04 -5.6709891044658914e-04 5.1983496486896971e-04 2.6714782142179448e-05 1.5663873237566205e-02 5.2089047341006278e-03 -6.6637106209075227e-04 -6.3297392288790672e-05 -2.3352251419535546e-04 4.2773246015554607e-03 6.8733276842107430e-03 -2.0538472373118487e-03 -6.0646304763615350e-04 1.0728128378424413e-04 4.7905744315263250e-04 -8.1918243685634266e-04 -1.3411173592189057e-03 1.0532522592701654e-03 -4.1564863435815053e-03 2.7140107861572307e-03 8.4742606750261924e-04 -1.9793719181624932e-02 8.9982389181445964e-04 -6.9251094823430202e-03 4.0387955827093362e-02 1.9645514747284893e-04 -6.8098563101665370e-04 -1.0165275630985532e-03 7.0970489826452376e-03 3.0619549993981480e-03 1.2711735038456332e-03 5.0099080809932472e-03 -1.4120048797061174e-04 7.6974820738373887e-04 -2.3638445208202167e-03 -1.0412427207692121e-03 3.6603823538322545e-04 6.3896882897230591e-03 2.5854675866333770e-03 7.3112342336934715e-04 -1.8057711294492129e-02 1.0612243959532003e-03 -2.1709503051187583e-02 5.1271772842234054e-03 5.8188231818812031e-04 -7.0637393117698897e-04 -6.5038987394266761e-04 -1.0217565149090316e-03 -3.2651265656261693e-03 3.9925540935158968e-04 -3.2109774898807231e-05 3.1695754156199629e-04 3.3208562954189689e-04 -1.6460517484682769e-03 -1.3813598821983833e-03 1.0719662497241968e-04 3.0791369168738231e-03 -5.8645193496714709e-03 4.6950407131323476e-04 -9.1466784889529251e-03 4.5771789056514665e-04 -2.0711274326325455e-02 -2.0674369458034692e-04 8.2695115984376933e-04 1.6218937001934419e-04 3.5795873682288549e-05 -4.1588370913423298e-03 3.2246230830420518e-03 3.3012918650169101e-04 -4.0136894434285655e-03 3.7464553242642744e-05 6.8147084158956886e-05 -2.3079291111161807e-04 1.6113962849355424e-03 2.0900605646587524e-04 -3.2088172892261709e-03 -3.4864698574340811e-04 1.1585724603228181e-04 7.6365663964626587e-03 -7.5570768657343655e-04 -4.3321573767784137e-04 4.9781339967076566e-03 3.6828998495948772e-04 -3.0079438489957690e-05 8.4686297738654961e-05 5.1558432159435512e-04 -2.2526853200272780e-03 -5.0092430340162569e-04 7.0196603842265226e-04 2.1105125159452155e-04 1.9948855404556751e-05 1.3847602019267094e-03 9.0111801013404564e-04 -2.2690236429633659e-03 -1.9461176165928478e-03 -2.8273421503116356e-03 -8.0090538413203453e-05 3.0304975076749438e-03 -8.8451896807106769e-04 1.5911798041295878e-02 -7.7003037142890432e-03 -4.6045277469668465e-04 -4.4426994749566701e-04 -3.0531409255332839e-05 9.4331947110817653e-04 -2.6254822589878951e-03 -1.4937074368981396e-04 -4.2869841948567355e-04 -7.2128511260192030e-06 -2.2741013330102521e-04 3.3211246395653572e-03 1.1256376352141969e-03 1.5161655376872765e-03 -2.6109270563495542e-03 -1.3722544828172847e-03 -5.3102583266992831e-04 3.7500520309189003e-02 -1.9801032086948700e-03 4.4004869589061857e-02 -9.4051877116843735e-03 -1.4846098497937202e-03 -1.2271846036309123e-03 -6.1342635550396506e-04 4.4785295478896097e-03 -7.1458108637139526e-03 4.7367394137724848e-04 -5.0590935541453344e-04 5.3064667043066852e-05 9.1480499493207332e-05 -5.0464883829050994e-04 4.4951309673394238e-05 -1.7855866692438951e-04 2.6986517155969184e-03 -1.2912502724687913e-04 3.4516105341725421e-04 -6.0417398731398286e-03 -4.8184025373084654e-04 -1.8460233296417286e-02 1.2938452614623785e-02 2.6966878644535180e-04 1.2022803016371463e-04 6.6186782222621399e-05 -9.8207078230599931e-04 2.0954712931570176e-03 -1.0554229760331875e-04 -3.0239161154985081e-03 -5.9808029392470507e-05 1.6337758591792369e-04 -1.7332326122720407e-03 2.6706440520648752e-05 -2.4515609103248999e-04 -9.7834142704977724e-04 1.5284032654344379e-03 5.3021584451018878e-05 1.0833634845689329e-02 4.6029928340686981e-04 -1.8001590328376393e-02 1.0351210604876315e-02 6.4754617367880369e-04 3.0265404509352849e-04 9.1891344973161235e-05 -1.1792079171815137e-03 7.0416232214582895e-03 4.2445217092021339e-04 -3.8905903153032134e-03 2.8378348696745303e-04 -4.8820355945045774e-04 -8.8926954777009421e-03 3.3419290267600985e-03 -3.9305163993189826e-03 -7.8387828029676532e-03 1.2485218227788315e-02 1.1524047461949722e-03 -3.9270890891255128e-02 1.8234444884850567e-03 2.6113308231411347e-02 4.9759989467552668e-02 3.4701513714735632e-03 4.7875662877418989e-03 1.7130661838631414e-03 -1.1114279133111396e-02 2.3174089373075732e-02 -1.1143621312368077e-03 1.2203521147065854e-03 1.0437019539117599e-03 -3.4790078838663500e-04 3.0600486954475274e-03 3.7247670139855344e-04 7.1995810999012306e-04 -7.1390971468854193e-03 -4.6680781880848983e-03 4.0582180246759650e-04 -2.4812279727393872e-03 -5.8313047657397258e-03 -3.9413025448042649e-02 -3.6522223772565351e-03 2.6336993611781887e-03 -3.9428256975790922e-03 1.1104248790363451e-03 -3.2250293699331870e-02 2.1722051492664416e-03 3.8404963189099615e-03 4.5976779847332047e-02 
      </Row>
      <Row Index="12">
        1.8708565071003741e-02 -5.4176124840809269e-04 1.1408060396366437e-02 -7.7050226123025044e-03 -3.4887510491774590e-03 -8.0257219418893976e-04 2.0503979503746814e-01 7.8753659147577398e-02 2.1317741662526773e-03 -3.5567714426042585e-01 1.1036474319663803e-02 2.2015593687336542e-02 1.6644316004434017e+01 -3.5939712119106328e-03 -9.4668262407672987e-04 2.9122303099525775e-04 -5.7771754388482839e-03 2.4499202738915316e-02 1.0107848873774296e-03 3.3901202787866436e-01 -2.7932095453853055e-03 -1.3844203130542829e-02 1.6114806934338234e-02 -1.6939195507603699e-03 6.5722658064020032e-04 1.6196972392074688e-01 2.3057691349721621e-02 9.6303470007482479e-03 -2.0850079951163702e+00 -1.4415381599625195e-02 -5.4552366597137830e-02 -1.4313980579150666e+01 2.3560490168758551e-03 1.6415965452677660e-03 -2.0480867385587230e-03 1.4700338467537865e-02 -1.2379948763033843e-02 5.7278811961671561e-03 -3.1182729069637344e-02 1.0412123108817868e-02 8.8080978588278916e-04 -2.6479037745004903e-03 -1.6949058961935354e-02 -6.2660699723605610e-03 2.2405453050595298e-01 3.2694422456031998e-02 2.3801521942938622e-03 -6.5249890077799322e-01 -5.2228911090555124e-03 -3.8637554146979620e-02 -2.8447316194644650e+00 -2.8274357295749552e-03 -8.5336445630071825e-04 -1.0493932635845145e-02 -1.3567710032464163e-02 -1.2988136548762214e-02 -4.1677660349224779e-03 -2.8758325767023507e-01 4.5747146155006857e-03 -4.5057800037177336e-03 -1.1436195054590065e-02 1.3878225296890145e-02 -5.0968000781080255e-03 -2.2502188113983809e-01 -2.1586046824237051e-02 6.1073785265803203e-03 4.8480063585382482e-01 -5.9009079639629775e-03 -2.5698895679433353e-02 -3.8456118985998495e+00 1.8524945700454740e-03 2.7280607331554435e-03 -9.0025116670873189e-03 -1.3125684871518568e-02 2.2326023579870367e-02 -5.0254046410953589e-03 -3.4764981318193094e-01 3.4574350875011817e-02 3.8601839389304331e-04 -1.3346780667920794e-02 4.5272378110221695e-03 2.0262357878093849e-03 -2.8487360886800267e-01 -7.3751416944276116e-02 3.3702221903817472e-03 1.3589771876887551e+00 7.9837594272876636e-03 -5.4928887779943404e-03 6.9218517350187803e+00 6.3880862494385855e-03 3.4719704589048660e-04 2.2488872819563868e-03 -1.2957135372032656e-02 -1.4526732400320638e-02 9.0534718978490976e-03 2.9729150708410834e-01 -4.5908065433376832e-04 -7.9807490996468278e-04 -9.5853260984415066e-03 6.1789894813388258e-03 -1.8253587038155918e-03 5.7092601179562476e-02 2.2673904278129837e-02 -7.7327648335256960e-04 -6.9131542741056018e-01 6.5409599660045253e-03 -2.9618104129265979e-02 7.6380234193141963e+00 -1.1145107542668618e-03 -3.7284111241448386e-03 -4.9639607122904162e-04 -5.6659132920128426e-04 2.6210114525388385e-02 3.7323102493697154e-03 4.7784139320015129e-03 -9.0348452116720164e-03 9.1700993813966514e-03 -4.7497597278006627e-03 1.8639625480632600e-03 8.1890830642902881e-03 -5.2456078358105618e-02 -1.6349790288247085e-02 -6.7900869245131196e-03 1.5605037230560681e+00 4.5110433198021632e-03 6.6780895844427854e-02 3.7232795356833202e+00 4.2269600058181879e-04 -1.3928198143843564e-03 -1.4239389970126552e-03 -7.8802656169531717e-03 -3.8395930480629031e-02 -1.9178542937794418e-03 -8.0753132794826710e-02 9.6200265061481272e-03 -7.4359836383781283e-03 1.0033206766618796e-02 -1.6423693977682154e-02 -8.6129769792917150e-03 3.3584461782111177e-02 1.0162643259893328e-02 6.2322200804828740e-04 -1.0427957986528120e+00 -1.2759809353339667e-02 7.2085272835256592e-02 -7.1503239747715632e+00 7.3942264266847477e-03 2.4544021123903579e-03 -8.6396980699386043e-05 1.3414454538944909e-02 -7.4404888197734040e-03 -8.4922974110271231e-03 -2.0296323283853002e-02 -7.4273672038830448e-03 3.9380596922954213e-03 -2.5075075812387299e-03 5.8395123838598760e-03 -1.2000937543466886e-03 -1.2436992194148778e-01 -2.7932975119583148e-02 5.9357020413444987e-04 3.9812885050198910e-01 7.1063428330456983e-03 -8.2378652696680696e-03 6.6861824192852648e-01 -1.5214342200919600e-03 -1.8484746165453318e-03 -8.0480958639941652e-04 -5.7856387483539752e-03 -2.8003247110099105e-03 -1.2086229242049395e-03 5.1640600334355302e-02 -1.4099267968041538e-02 1.5932487754448530e-02 -3.0066616492060390e-02 1.6226123395905720e-02 -5.9534855042183837e-03 -1.8610976905544185e-01 2.9089540457855882e-02 -5.4456975093892029e-03 -3.0983634151253114e-01 1.3526588860757029e-02 4.9399840461867850e-03 1.8700106363061032e+01 3.1928099335235601e-04 -3.7769395215174585e-03 -2.9751846134664413e-03 -2.2872379367603293e-02 -5.5742936698421897e-03 -2.7788085890104938e-03 -1.9284132399701015e-01 -9.0225840750936148e-02 7.9386304906292726e-02 -1.5069858579554149e-01 5.9716218493683144e-02 -2.2185980212497187e-02 -4.0422470933462540e-01 2.2188397459616443e-01 -2.2517817190922385e-02 2.8634315646574642e+00 1.1183213131036698e-01 -8.8951463185654306e-03 3.0026515455691996e+01 -3.4007343833663294e-02 -3.4614732832436705e-02 -2.7884628380543189e-03 -9.3901066628728505e-02 3.5974927510859012e-02 2.9110587763274031e-02 -1.8449067009990472e-01 6.1033980291971796e-02 3.4256201983816742e-03 3.3448964081952054e-02 5.0271638125161961e-03 -6.5504256749661675e-03 3.0121433598016778e-01 -4.5678552780957546e-02 6.8206399911965865e-05 2.1767513518706999e-01 2.8208950173247704e-02 -7.3038140808481700e-02 -1.3197967306880814e+01 2.4379645313528375e-03 -1.0580514494487547e-02 1.4991047598697821e-02 3.4704153080450995e-02 -1.2286146769524890e-02 -3.3617701246147255e-02 1.2661547740698797e+01 
      </Row>
      <Row Index="13">
        6.1949921611322662e-04 -2.2302381917990565e-03 4.3904302914038115e-04 5.5085321099356595e-04 -9.9446930779535300e-04 7.4173587651387763e-04 -8.4120923108267041e-03 -1.2809603483254800e-02 5.0963993709246405e-04 9.1335345717361571e-03 -4.0395812629244517e-03 -1.3912454971696936e-03 -3.5939712131860535e-03 1.5732898651238125e-02 3.3354808488903523e-04 4.4681137381343472e-05 3.9135420636219329e-04 -3.1711054073724088e-03 9.8031376865026932e-04 -5.6929108102670312e-04 -1.6671239216737123e-03 -2.1372853137461320e-04 1.5662339257792644e-03 9.8395755435595755e-04 4.6236844067013331e-04 1.4669115459756495e-03 -1.1147131960110728e-02 4.5234037839736408e-04 1.2014345217525525e-02 -1.4410484138376745e-03 -1.4725877698552269e-03 -3.9872311129993676e-03 7.4355874227786164e-03 -4.2938675278232798e-04 -3.3087507517855712e-04 2.9890055660294413e-04 -1.4955897768576384e-03 9.7905656182304020e-04 -1.4798170462594178e-03 -5.6243140111897827e-04 7.4379683403297183e-06 1.6639032568471705e-03 1.3032958349125431e-03 -3.4933736018898966e-03 -6.1920015656458157e-03 -6.6645390364760485e-03 -1.1534359922681613e-03 4.9313489894572543e-03 -9.1823942745511075e-04 2.0194401358811741e-04 1.4935181540046694e-03 4.8051206373100203e-03 1.0338733640216525e-03 5.3620032686338220e-04 -1.1507121840648570e-03 -5.1789185303420613e-04 -3.9298972644239458e-05 2.3570365085704426e-03 1.2489595787519971e-04 -2.3296750955636124e-04 3.6908650813593747e-03 2.9386510623268178e-03 -2.0748097573331965e-03 3.3046926167726856e-03 -1.5348928689750767e-03 -1.0574919183404163e-03 2.0894193956002401e-02 2.7107070087403827e-05 -1.2163136092861617e-04 -4.1334844559850481e-03 3.1976900405922618e-03 1.0500588740543751e-03 3.5088600616426546e-04 5.5054777568321576e-04 -3.4138108064414949e-03 5.2007595416408081e-04 8.7852008110560209e-04 4.8343681968542954e-03 5.8596040428137352e-04 3.2137555924156690e-03 6.1676355925530529e-03 1.7205574957425331e-04 -4.2842965898066444e-03 3.4679221614335898e-02 2.4022729980920435e-04 1.3211961588217580e-03 -7.6935522937939633e-04 -1.6972517946048545e-04 -6.4622309998799143e-03 6.1752854119260566e-03 3.0622115697161981e-04 -8.4699555970856738e-05 2.5957484405812661e-04 -2.8468444298145558e-03 -6.9528209429855527e-04 -3.8697181220325449e-03 2.3088042193519266e-04 -2.0206712848753073e-03 1.4845561500364535e-03 7.7349226593034087e-04 -1.4304973275849043e-03 -3.5104581415010940e-03 8.0098890378581321e-04 -3.2219360813986282e-03 -1.7461025563631737e-02 -5.7529995270654000e-04 -9.3769528501211601e-05 -9.6197476585042560e-04 -1.0531694319949332e-03 -6.3424751942724972e-05 9.0240976818924145e-06 1.0615065491769804e-04 -1.4760685468992903e-03 -1.1657288194034699e-04 1.3371428297892507e-04 5.1491818425492518e-04 -4.7960992904676425e-04 -7.9409010557283510e-04 -1.0627236999534362e-03 6.1092666574414263e-03 -1.1115088072492785e-05 5.1963655616150371e-03 -7.2415316803320102e-04 1.8645855976320912e-02 1.3298648568610752e-04 -1.9573932652508855e-04 1.6200191932187469e-03 -1.8630830966920625e-03 1.0966097625919689e-04 3.0865722412274895e-05 -2.2155929903488678e-05 1.0797378984476018e-03 6.5132948053950313e-05 1.5456480447056525e-03 -7.9665805688732775e-04 4.4562414107484358e-05 6.3391040350893135e-04 1.4242346167253964e-04 -2.3631455507672661e-03 3.7636815934997902e-03 -5.9522886516023442e-03 -4.9357887251288079e-04 -3.7355886052074759e-03 -2.3225980162915960e-04 -3.4369795258885286e-04 2.9932096378310069e-04 -8.3506773610331512e-04 -1.0907249001071103e-04 -1.4904152067068510e-05 2.7286102945202421e-04 1.8896245396203386e-04 1.6318487922132292e-05 -4.8056078151415341e-04 1.2672268615175723e-03 7.2403576264721409e-04 -8.2379181620501486e-04 5.5270950703862351e-04 -6.5414093657832281e-04 2.0238551115875792e-03 5.0779332727873272e-03 -4.8574163920189002e-04 -1.0932186146703771e-02 -1.9007579003892795e-03 -5.4406708555378852e-04 8.3925591800149274e-03 -2.3604658303450826e-03 3.3231369213529167e-04 1.4513261443456472e-04 -4.6198723219145928e-04 -6.7768837754089706e-04 -4.6178260343174423e-04 -2.1975980798743522e-03 2.2232600595023001e-05 2.3247328459158063e-04 1.0303402244948505e-03 1.3576801317070567e-03 -7.5528671037638313e-04 -2.0640707664948132e-03 -1.3624303315259469e-04 2.0257727189526667e-04 -4.2630643445969577e-02 -2.6018627228670309e-04 4.0091458551283184e-04 -5.6166325448645527e-03 3.9648180180883045e-04 1.3168246268484372e-04 1.5773058041101615e-05 -1.4307594843028645e-05 1.0322190292864214e-03 -1.6095291853757999e-04 -5.5007758205236623e-03 -5.3016346516814306e-03 -3.0619429472620689e-03 -6.3387930247037899e-04 -2.2783436661388216e-03 -9.0229352603011723e-05 -1.9111947726307005e-02 -1.5796815566114161e-03 -4.8633851269429739e-03 -7.0852077271903180e-02 -5.8882494641871348e-03 1.0228494691927885e-03 6.6940192412023869e-04 2.4393518414220595e-02 -1.1848520528462154e-04 4.3456348478191319e-04 -1.6249788233068932e-03 3.0910448450947835e-03 -1.0206000805325424e-03 8.9189773942514872e-04 1.3263189205484059e-03 1.3731744399598823e-03 -1.4939806093811799e-02 1.8042605366220110e-03 -2.7278298006762590e-03 -8.8884444802009750e-03 1.7660826495216927e-02 -1.8935363819311164e-03 4.6222467478107118e-03 -9.6632007091432895e-03 5.0247481078289497e-04 3.5162197150512067e-03 -8.3466801043892758e-02 3.8408987762739051e-03 -4.2385589879898489e-04 5.1547539062629221e-03 5.1999098433591065e-04 -2.9131339024977237e-03 1.2798713787803782e-02 
      </Row>
      <Row Index="14">
        -7.0598915538732472e-04 -2.9458251367047231e-04 1.4151044555131293e-05 1.9369002854506298e-04 5.0951043192373345e-04 9.7979672228534656e-05 -4.0167536859223550e-04 2.9390849681244124e-04 -4.8873644681736005e-07 6.3690137308168582e-04 -2.7854755733162202e-05 5.7385493894512136e-04 -9.4668262426760713e-04 3.3354808488887113e-04 2.1089161426968888e-03 4.0009360473409615e-04 2.1998521174044231e-04 3.0857134426273422e-03 -7.0194190978839998e-04 -7.8509682483872629e-05 2.3141654803704274e-05 -1.6830251780623198e-04 2.3155744242669309e-04 3.2688649741974230e-04 -3.9876918020212036e-05 -7.8126405848875772e-04 3.1105810926205439e-05 -8.0181725437728304e-05 7.0197520729196449e-04 1.7847859825670105e-04 2.3341554289548578e-04 1.8858659110504439e-03 1.4084532478939759e-04 4.1480318470521769e-04 9.1362252956576798e-05 -7.2969134196919979e-04 -2.1510520277821152e-03 3.9645720010984180e-04 -3.4387311164040240e-04 7.1259683325747687e-05 -1.9689661512980281e-04 6.5424404648134807e-04 -2.1905289544803816e-04 3.5073613931194993e-05 -1.5478484692093898e-03 1.0799778173675788e-04 2.6592063938240618e-04 9.8758600748312213e-04 -3.7135908229577234e-04 4.7072120499171285e-04 9.6470968749155783e-04 -9.3110135891916570e-05 3.1716553497390752e-04 3.4110551250522816e-04 -6.6841148541150672e-04 -1.6457958222020903e-03 -9.9022283287005853e-04 -7.4693684620011358e-04 2.0077605310069892e-04 -3.9820732043881050e-04 1.1376346570334331e-03 -7.7258237300694907e-05 -1.0023175436673039e-04 -1.6006997169736373e-04 -4.7039106465270454e-04 5.3390463146328550e-04 1.4554407016038086e-03 -5.1384042345184976e-04 -4.5496397199945322e-04 1.7849663030384821e-03 -5.6297995017920736e-04 9.3066796073393342e-05 3.5331034240197289e-04 6.4077884175119679e-04 3.5422189763172659e-04 -1.7876371916328597e-04 -2.6022132958825051e-05 1.1733324530532972e-04 -2.1251766696030021e-04 5.1861123798038777e-04 1.3685943096565165e-04 1.8108067840116740e-05 -1.2318744805842052e-04 -2.4002721591557218e-04 2.6833601007981685e-04 6.1507624491108359e-04 -2.0985826103795324e-04 -8.1646265697623947e-05 -3.2809885623319435e-05 5.0107259185138954e-05 -3.2952387896455747e-04 -6.0325341129868022e-07 3.6301765711809310e-04 -1.2279124497574529e-03 3.6567518507796433e-04 4.9427706646835989e-05 -2.3710335742097672e-05 2.6677258615467924e-05 -3.1106864626786031e-05 2.6617666449018279e-05 5.4971647437646368e-05 -5.6676955388849405e-04 4.0115986948214064e-05 1.9623894269760992e-04 1.8438093238070177e-04 2.0932826190109277e-04 9.6922331409363973e-05 -1.4433353810626021e-03 -1.8921734147415048e-05 -3.1694141625652773e-05 -1.3044787811076607e-05 -1.7002104556527976e-04 1.5340272008670557e-03 -1.0016909041180274e-04 2.5419992408392406e-04 2.6096804025967091e-05 -8.1470743351047103e-06 -4.9856803328239248e-06 3.5858780454853625e-05 -1.7836989637072444e-04 -8.7513027675942051e-05 -2.2720829690647457e-05 1.1171276710244312e-04 2.5659089583707217e-04 -7.4494270245935149e-05 -7.8039174912663406e-04 -1.2495003734884769e-03 -3.4147731617802958e-05 -3.9296237461807838e-05 1.6907107231269524e-05 1.1431036193565371e-04 -1.5959419700439233e-03 9.1096869417250578e-05 3.8138007675262570e-04 -2.7740896661722901e-05 5.9485544620943142e-05 6.1608328556793490e-05 1.9853015078833357e-04 6.9222014434382586e-05 3.0819618467855039e-04 9.8239199788408981e-05 -2.7287059936655578e-05 2.1899485717961570e-03 -8.3973619141494249e-05 -1.5888720762296550e-03 1.9367088957144771e-03 -1.2354351811310105e-04 -1.7962623380884458e-05 -3.6547469928536487e-05 7.2964057899539426e-05 -1.0622894143117836e-03 -1.0919501632726621e-04 2.7082469696163014e-04 -2.9317703706524751e-05 6.4805447898817455e-05 -1.2513920338024084e-04 -1.8411995130019005e-04 -4.5916504613665102e-05 4.5140125857168634e-04 -9.0755052162051243e-05 -6.8311615097351786e-05 -1.9030896654164131e-03 1.2839775390809430e-04 2.5997636722729174e-04 1.0706104678469552e-03 1.8283504013576115e-05 -1.9761362829400717e-04 -3.3277863965084248e-05 2.3328804754638556e-05 2.0309277073011600e-04 1.8365007398308181e-05 -3.9122767123824734e-04 -2.9186791208564975e-05 2.2227169477315431e-05 1.4386209791129246e-04 5.2478708080991852e-06 -2.3187763686261046e-05 -3.2433719303218410e-04 -2.8772106280051967e-06 3.1064460798454596e-06 3.7263686947740238e-04 -4.8830844984784052e-06 5.6190451728483932e-04 -4.1423861899564096e-03 -5.2197519783742877e-05 -1.6401180074491632e-04 -1.0276568851685208e-05 -2.8067990690024022e-05 -2.1473016634244229e-03 1.7007396101789587e-05 -1.6808521082580397e-03 -9.9952302959243223e-04 2.5706925762697711e-04 -4.7379531050861443e-05 9.2704830095462622e-05 1.3853167154261070e-04 -1.4656415020336778e-03 1.0095912554937293e-03 6.2487649551743916e-04 -4.0089028696099569e-03 4.4497190324529123e-04 3.9031658678658401e-03 -3.4153136695778130e-03 8.2241135690542914e-04 2.4274050170196835e-03 4.9548485181269983e-04 -1.6881781197338445e-04 -1.4653552016214588e-04 1.6340976952488109e-04 6.6407887037781433e-05 -1.6073359657807476e-05 3.2202808928444365e-05 -6.0304216471731924e-04 -3.2451373842272999e-04 7.1692325655656891e-05 -1.0541595466105102e-03 -2.2023220970742428e-04 1.7015703740331893e-04 -1.7790586633316060e-04 6.5809431875928830e-04 1.4582600687318196e-03 2.3133882451239849e-03 -1.3874173465701781e-03 7.5190632265336160e-05 -5.0584203617849211e-04 2.8444897748593437e-03 -1.3485656749088028e-03 -2.2600874516794556e-03 -7.7728801019919717e-04 
      </Row>
      <Row Index="15">
        5.1517957086941136e-04 -4.9526169671800955e-05 1.1192032223268124e-04 3.1678077158120741e-04 1.0260276704293350e-03 -1.6501380027181050e-04 1.6897731708965489e-04 -3.2836239406254986e-04 -1.7359249698551446e-04 5.5605195744648506e-04 8.5307870935670549e-06 -3.3203835445634101e-05 2.9122303100233282e-04 4.4681137381253889e-05 4.0009360473408970e-04 1.5265585157655452e-03 -1.7421549517545977e-06 1.6738968696879842e-03 7.1649731686536725e-04 3.9268122381746953e-04 2.7748394735014855e-04 -1.0791858278905457e-04 3.4387265179430235e-05 4.6921732964399186e-04 -1.3435715159909926e-04 2.4012882765292736e-04 -2.0074767811287280e-04 -3.1974369115379852e-04 2.6332211463208927e-04 8.7257243074332670e-06 1.9907436178011242e-04 -3.6835230874077141e-04 -1.3434478684856661e-04 -5.9467456542594858e-05 6.5952207036986809e-04 -2.1744736801184870e-04 -1.3216711876222129e-03 -1.5311123610713714e-04 8.9196809850312507e-05 -2.7888698280219889e-05 1.9620829980513576e-04 1.9480809675113549e-04 4.8811869722458650e-04 3.2030562872584418e-04 -7.1287231637827755e-04 1.6571651323789554e-05 -2.7870456129629672e-04 3.6809884433614253e-04 -4.9398575917661963e-04 4.6774133778020293e-04 7.2779256979130930e-05 -2.8118218739204290e-04 -1.3885329942256311e-04 1.2740176862300976e-03 -1.7456402588221099e-03 -1.0634297966260872e-03 -6.2137495045244619e-04 3.7790181901013048e-04 1.9387411427855810e-05 1.2056739924974012e-04 3.6844686814782677e-04 2.7715523067170999e-04 2.8511891986181736e-04 -9.2740272427853159e-04 -9.0465068059239311e-05 6.3225287446884687e-05 1.7348986872675054e-03 -2.0267492169383249e-04 4.2965101233797686e-04 -9.5777905774319105e-04 -3.3995993214470141e-04 2.1444131480409995e-04 2.6184560336625466e-04 -8.9010602574099602e-04 6.6544995789582281e-04 -5.1142250600467597e-04 -3.3398263807736528e-05 -3.7103323039927236e-04 3.9390553227723656e-05 2.2316685190227540e-04 3.3032040311284372e-05 1.4028744939136853e-04 -2.1725483504972127e-04 3.8814249009286317e-04 3.1631651662840995e-05 2.0160174658049590e-03 2.8366102088727939e-05 -3.5801813940164635e-05 6.6707958625411568e-04 -2.0527387003697211e-04 6.1372147356583934e-05 -4.2069473697769057e-04 -3.4028088212592145e-05 -2.8025145776516130e-04 -5.0428731039840247e-05 3.8737802109722885e-05 -1.8073595335783263e-05 -2.8925865459065439e-04 -1.0212254425796802e-04 -5.4356330412800940e-05 1.9124251653308702e-04 5.3109122111795579e-05 -3.4488371557603315e-05 1.1656291843976938e-03 8.6455331338856347e-04 7.5456863238403072e-05 1.2355986452562429e-04 5.2933449631199780e-04 5.1704341108071861e-05 -7.2625308929742265e-05 6.3581948981966847e-05 -3.1325196075348404e-05 7.6247692470305609e-04 2.5454122767780917e-05 -1.3004195156601783e-04 5.6740562223403686e-06 -8.4866236066351752e-05 4.8769106732334064e-05 3.3849111043302016e-05 -1.4127333505255676e-03 -1.4554758915902299e-05 2.6023868335387119e-05 5.6940413472175082e-04 -5.6841310942215562e-04 -1.0314336918110581e-06 -1.4939092796365742e-04 3.2313999921218528e-04 2.9057960251059606e-05 3.1082132964400109e-06 -5.3166534460731482e-05 9.4267687791324854e-05 -4.5049841879756837e-04 8.3772770484488029e-06 -6.7293491402484196e-06 -5.3717796479121806e-05 -5.5139130074806017e-05 -4.8352754078954661e-05 2.2575187905276119e-04 4.5096401584263156e-04 -1.5117532373151244e-06 -1.1170912188383265e-04 3.2297238648087886e-04 -5.6352160974672185e-04 4.3356166824743347e-05 -5.3754042528492683e-04 -2.0670400277875839e-04 3.2674578256444036e-05 -6.9046449291286781e-05 -9.3720958091253080e-05 1.1420464154706134e-04 -5.7538511940127194e-04 1.6030659377882150e-05 1.5823707812736426e-04 -1.7970751018872924e-05 3.7190230086047804e-05 -5.8708676729910154e-06 -1.3018581557102879e-04 9.2583218027353364e-06 4.2631698486377684e-05 9.6455800074219181e-05 1.1960737210308563e-04 -8.4166083184009088e-04 1.5481644997984595e-04 2.3264590789975892e-04 4.1510749458240070e-05 1.0312663865323125e-05 -4.8788459773474197e-05 -1.1316907550593201e-04 2.3671040289627385e-05 1.6702770545073270e-04 -1.7277122967649110e-04 2.1834816565351363e-04 -3.2971253637691599e-05 1.2549079113883453e-04 -2.9307318524263019e-05 -7.2673355976414023e-07 1.1670412899950236e-04 -3.3294554111539540e-05 -4.7187836221774368e-05 -1.7831730609481277e-04 9.7557954530975381e-04 -7.2073605190742436e-06 2.0522132593619476e-04 3.9103746532376249e-04 -3.1630363792285962e-05 -1.4219906711409182e-05 4.0420515947915789e-05 -1.8835239907749731e-04 -9.1841271379007258e-04 -9.5651427136754754e-05 6.9436426067111257e-04 1.7740074181782112e-05 -5.4179545623279533e-05 -3.2424939178909922e-05 -2.6918607138205707e-05 -4.5496678238889359e-04 -1.6099405623703350e-05 2.5107485972797566e-04 1.0389407215165346e-03 -4.7381294793542167e-04 -5.7823505279482187e-05 1.4350564756484893e-04 -7.3213147079947971e-05 -2.6693786440403833e-04 3.7170772560996419e-04 2.6060385002204733e-03 2.9349425505778648e-03 -4.6527177706014400e-04 1.8741967248465641e-03 -1.3395700112942693e-05 -7.7690089569610980e-04 2.0790756710350978e-04 9.2500231854419435e-04 -5.3347169188604758e-04 5.3699851733030534e-04 -8.3089460144358058e-05 4.0448740971039271e-04 1.0874990175969664e-03 9.6142343233553222e-05 9.9216032757975864e-04 2.1571547060202654e-04 9.5271504290588309e-05 1.7172788331939340e-03 9.2740616855603066e-04 -2.2870223176325307e-04 6.4527558499995284e-04 -6.1750818149934660e-04 -1.3612344262279186e-04 -1.8022857635432801e-03 
      </Row>
      <Row Index="16">
        -9.5702130952913687e-05 5.9245248479529086e-04 9.9195748941981188e-05 2.9336387478812002e-04 1.7491739554249320e-03 8.9147681808162478e-05 -1.5126365384194023e-04 -9.3313421361469469e-04 1.6905678115484903e-04 1.9632209780813259e-03 3.5552964971967242e-04 1.5021212452943176e-03 -5.7771754382529572e-03 3.9135420636461887e-04 2.1998521174055718e-04 -1.7421549516037106e-06 8.7877721504276730e-03 4.1942039279462061e-04 -1.0076432961721466e-03 4.2482739755106327e-04 5.9013812847039018e-04 2.1597012165637606e-04 -1.7641568542486928e-04 9.0671746319748170e-04 -1.6123166844497782e-04 9.8394736614359633e-04 -6.2306641793864726e-04 -1.3982730414322615e-04 -1.0599868902607303e-03 6.4896749515736614e-04 3.4868789644548065e-03 4.3687712586066851e-03 5.4598693208912793e-04 -7.5226185267511395e-04 1.8125757347881369e-04 6.3054941568463129e-03 5.6137677607475246e-04 -3.6649133228796476e-03 2.0894676601530588e-03 4.3569864294482909e-04 9.2004305418538572e-06 8.1765491014148314e-05 -8.3349452921401695e-05 -7.5110914993043766e-05 -3.2616117176600696e-04 -2.8139950207205105e-03 9.1215498766167649e-05 -1.5631280332395192e-03 2.4026590148367444e-03 1.5981916738199088e-03 -1.1627312719174887e-03 7.1109537593811215e-04 4.8303251960055550e-05 1.3054932430718157e-03 1.2551253112674101e-02 3.7690677273591053e-03 2.9285342775007255e-03 7.9756217684706643e-04 3.2721623504909907e-05 -1.4144302350739980e-04 -1.6491537805595049e-04 -1.2254263869787216e-04 -9.8085695322086032e-04 1.7037967731801731e-03 -1.0208142652349556e-03 -4.6045888985302413e-04 -3.3684579517923030e-03 4.0848225563727865e-04 -3.3771854430459745e-03 7.1904355314561519e-04 -1.3477679878690172e-04 1.3648009663197785e-03 2.0769785556139699e-03 9.6987866570586475e-04 -1.2226319693910180e-04 6.5895594674478209e-04 1.0415188529836542e-03 -1.3564467652375095e-03 1.1583561798298478e-04 4.1999322304271712e-04 9.7519572894549933e-04 -4.9711007448056087e-04 4.1125982171705266e-04 -2.4003085714112138e-03 -2.8105007466910003e-04 -4.1744469376669285e-05 -7.4773216076889524e-04 -3.9065284846936908e-03 -4.5092485071376309e-03 -5.3593676649126161e-04 5.8085804666477433e-04 5.6720107243149291e-04 -4.7350345776578616e-03 -4.5149621164440948e-04 -2.1931106212514501e-04 -1.9595967211613607e-03 -8.8450235317167128e-05 -1.2374002594977250e-04 -2.8602556051505513e-04 -3.8978160251360939e-04 -4.0636551748286418e-04 -6.6453562363666700e-04 -1.8195829667300536e-04 -5.7084977012488152e-04 1.6002897535792151e-03 -1.5953191040840326e-04 4.9901995918657821e-04 -1.8259207157686576e-03 -3.5050739168261428e-05 -1.5471027266786242e-04 2.3492232079387612e-04 1.1332696401462287e-03 3.2864011292332374e-05 -2.1407770673876131e-04 -2.3932878778742950e-04 -3.0568000256996943e-04 -8.7639669464491254e-05 -8.1467930009475678e-05 -2.2881999458229164e-04 1.5188623013109494e-03 2.5112350241560458e-05 -3.0778447870324997e-04 -3.4788292188565450e-04 -2.2428568159293949e-04 -2.1102547522699501e-04 2.0794022040263043e-03 -7.5086590134132436e-04 4.6676714334814877e-06 1.1241732292767534e-04 7.0242018693532707e-05 -7.0637609501246251e-04 -6.3711841994041479e-04 1.8076841818601141e-04 -8.2516286411007944e-04 1.0782946144650019e-04 -1.1385153296500534e-05 -2.2193928555236340e-04 3.8827309852379607e-05 -5.3742339245713014e-04 5.9966170163571614e-04 1.6013152348512503e-04 -1.2911593288606149e-05 -1.7457371504726246e-03 -1.8271731801644379e-04 6.7935094332103509e-03 5.3899089556555223e-03 -1.7570592191730439e-04 6.6452312117656095e-06 1.0025554770639587e-04 3.2383740955349620e-04 1.6332511561351065e-04 4.5543377861861749e-05 -3.3912482549319951e-04 -2.7515927405250912e-04 -2.4570012270300787e-05 2.5921375660406017e-04 -5.7413845516864070e-05 4.3054129669563550e-05 6.0723458793154102e-04 -1.1629489581019281e-04 1.4378926844285043e-04 4.6472162995012112e-04 -6.2796235762275013e-04 -2.1261471340361850e-03 -1.8083277527704972e-03 1.3227985703102892e-04 4.1762545896632217e-05 1.7192900004583386e-05 -8.8261778465066588e-04 -8.0327247526336062e-04 7.0176412353197535e-04 -4.2012888343032501e-04 -2.8876222525187458e-05 3.3316870876043186e-05 7.8253554798750179e-05 -5.2668583138294560e-05 -2.2498759659664555e-04 -1.2797903147673600e-04 -6.5312686216062530e-05 1.2251216834079440e-04 6.4149811127406087e-03 4.2079726967700218e-05 -2.3854127848760955e-03 -6.7640860932820512e-03 7.1413265518559276e-06 1.6687677588720149e-04 1.0947366183121443e-04 2.8443994412569022e-04 2.1466584646766262e-06 2.1575933112420593e-04 1.3551434250400132e-03 1.6248054361122771e-03 -5.9415387332126604e-05 1.2481690338952819e-03 -4.9696776071073644e-04 2.4521791704581509e-04 -2.2289988430150582e-03 -3.9977543536109106e-03 1.5412315815995761e-04 1.8665382511116699e-02 1.5337636042642654e-03 -7.5705291287034727e-03 -1.4761749842956196e-02 1.2452014304818011e-03 -1.0222942934979243e-03 -4.1734661796121028e-04 1.0386234865495348e-03 2.9697860594135568e-03 -4.5937560684771207e-03 6.5642781851805998e-04 -7.9948803852520484e-04 1.6005932619941648e-04 2.4278591725180407e-03 -6.9112797545735967e-04 -7.1820525124675363e-04 -1.9657050150792697e-03 -1.1821290193685169e-03 -5.7517022537801102e-04 -6.5682591652744832e-04 -3.6837727681823646e-03 -6.8468023607776585e-03 6.1515709202466552e-03 1.3469750561265312e-03 4.8661092306252875e-03 -3.2019953246626700e-03 -3.1424920305320458e-02 -1.6838564080043014e-04 7.7768292421987288e-03 1.4868775460233399e-02 
      </Row>
      <Row Index="17">
        7.4906876751255902e-04 2.5350291953089438e-03 -5.6984975075018429e-03 -4.7194051570460457e-04 5.7930479041446575e-05 -8.1377352627538639e-04 -1.8604169118750825e-02 -2.4146863206504681e-03 1.0863026024394299e-03 -2.9011266544861414e-02 3.4635920147969264e-03 -8.6826031560353137e-03 2.4499202737692904e-02 -3.1711054073685400e-03 3.0857134426284100e-03 1.6738968696883706e-03 4.1942039279570893e-04 6.0491459890899169e-01 1.0518091773703438e-03 9.2166464928897102e-03 -1.8559028472687599e-03 -7.5434551535096287e-04 6.1250320337065210e-03 6.5346047913008021e-03 2.4642292605547116e-03 -3.1126869671648065e-03 -3.1912034215036316e-03 -1.3751098135822070e-03 -2.7162471424066630e-02 -2.7160327227975815e-03 8.9776066245909059e-03 -2.2283353501947545e-02 5.0664274216018958e-03 -5.8871793120117400e-04 7.3086691046682340e-04 -6.1636503395379860e-03 -4.2326067215298424e-01 1.8117241743488886e-03 -3.5648359446512484e-03 -1.2542221102323629e-03 -2.3901797904953784e-03 1.4879619961514169e-03 2.0294237756480699e-03 1.5582985731719210e-03 -2.8691256708575606e-02 -6.1463161477557562e-03 -4.3479219506382481e-03 1.5134413512395195e-02 8.5322904078284981e-04 9.2192942909081754e-03 -8.0881156244141383e-03 2.1349026269348497e-03 -9.3082766370095448e-03 4.6380293254464355e-03 -6.0551325769179210e-03 -8.7433428239261590e-02 -4.8861635612166649e-03 -1.1856006955764276e-02 1.8160598475373936e-03 -2.3521941922652638e-04 -5.5547933523741062e-03 -4.4485300731541616e-03 -1.0398903935654145e-03 5.1284276973807288e-02 -1.7383888642746141e-03 -5.7749755690899851e-03 1.6964405105159563e-02 5.9881969313927011e-03 -1.9523165933569391e-03 -2.2239537688273581e-02 -4.3123592506172786e-03 -1.2829402639303520e-02 2.1076828306877378e-03 2.3979081200877915e-03 3.5132189534865488e-01 -3.9971502261646318e-03 -6.7448449936195181e-03 -1.7475229471947129e-04 -1.5040796064013772e-03 -1.4036926128899218e-03 -1.3837415256562346e-03 -1.4643738643631554e-03 1.0808150984092935e-02 8.4023077281238923e-03 -2.1437505387758866e-03 -9.0711676319399359e-03 1.9485821461378001e-03 1.4492447032531854e-03 8.2469155580371378e-03 -6.2070415845566756e-05 -3.7369674804699372e-03 -7.7192023205399716e-04 1.9293891723047626e-03 -6.4715277448443714e-02 -1.1148178317389561e-03 8.0478398047200590e-03 2.2813893111592208e-03 3.8969999730834133e-03 -1.7647777494432092e-05 -1.4577145737367531e-03 3.6734216101961224e-04 -5.9504830137177599e-03 3.7074535319495052e-04 -3.3268628717285781e-03 9.3881667987050915e-03 -9.0863399287831673e-04 -5.5425711716013057e-03 1.5391116500729218e-03 -7.0436603198699985e-04 3.2151550060454288e-03 1.4197089208562480e-03 3.1793615976193133e-04 1.5263956630548395e-01 -5.7555747882803363e-05 -1.4095159152751613e-03 -1.4782608585565803e-03 1.0465768479210567e-03 1.5812655312810592e-03 -5.4349445247018485e-05 -3.6299177188639348e-03 -7.7205125527800463e-03 1.0660487481298653e-03 -2.5334865011364116e-03 2.7689991798879654e-02 -1.5226377279064576e-03 -1.4702496803116836e-03 1.9582370370068602e-02 3.7364427090597800e-04 -1.6957039528481318e-03 -7.5181443804951502e-04 -8.4508736554276057e-04 -1.2308809767661021e-01 -8.9047322043589450e-04 -4.3390318071090811e-03 1.1805319882847193e-05 -8.7365445252247996e-04 8.1049781847090550e-04 -3.5128410992090690e-04 3.0884362080260538e-03 9.2383979593534879e-03 -3.8047696158194774e-03 -1.7404220846444587e-03 -1.6206111761792846e-02 -1.4366852637705259e-03 -8.5123908648379251e-03 -1.7712664510944887e-03 1.4577485127305609e-03 -7.4445300930138243e-04 -2.8177913225991338e-04 7.6154157960560745e-04 -1.0551108429058315e-01 2.3279937512516455e-04 -2.9415925078187244e-03 4.4141160872909584e-04 -1.4002843309365680e-04 -4.8025462146769008e-04 -1.2807587089124130e-03 -1.3385416387661636e-03 1.0952752452933701e-02 1.9864193873386782e-03 -1.1751394089527965e-03 -7.1557126919872260e-03 -1.2077663256494925e-03 1.7809992921929800e-04 1.3392273512438324e-02 -3.6534201358377934e-04 5.4917071501091319e-05 1.4205737564491243e-04 -7.7873524358920698e-04 1.8576214272545993e-02 -4.3125081613480838e-04 1.1988308270516383e-02 -1.4522543682193162e-03 -1.6544878342677838e-03 1.6487083239378961e-03 -1.9872839826760857e-04 7.7060649643712433e-04 -1.2302761605156920e-02 -1.3690313052426204e-03 -6.0853920221608476e-05 -8.4206497873290986e-02 -1.6182938460330637e-03 6.5223955456568750e-03 4.1910401215971227e-02 1.7173035341828495e-03 -3.5569692148554330e-03 -5.4727525441992898e-04 -2.0776266554270260e-03 -1.9694717996385047e-01 -2.0460065846489087e-03 6.3083505748391597e-03 7.7559678933617031e-03 1.0122875354879888e-03 -2.7957634483244086e-03 -7.2210885960507978e-03 -4.2804930817388143e-03 -6.5885743607522751e-02 -6.2327799406592067e-03 2.4415839107261878e-03 -2.4761359213207768e-02 6.3038103763399331e-03 -6.9530759622324859e-03 3.9918373633374138e-02 -8.3271549437230561e-03 2.7936545644902399e-02 5.1025244788928514e-03 -6.3781214346449676e-04 2.5958934793572280e-02 3.4069739706043649e-03 -2.9680494143511371e-03 1.0446461440375863e-04 -8.0725743907719798e-03 6.5696818732927844e-03 -8.9326659633619091e-04 2.0603815533620506e-03 -3.5184022033250467e-02 8.0754350514598821e-03 -5.2159723623213007e-03 8.9455797394555545e-03 -7.2486306125507582e-03 7.2895342216908569e-03 -2.2272114755109859e-02 -1.0137514105478839e-02 -4.6308736263243160e-02 -7.3836918117538746e-03 1.7118610908117907e-02 -1.0996720342514638e-01 -8.3233642054488400e-03 9.9615689984333983e-02 
      </Row>
      <Row Index="18">
        -5.1573647025656318e-03 -8.1284880207340457e-04 -1.0307477469884141e-04 -1.4734570762705139e-04 1.2296955746851407e-03 -1.1213320285111594e-03 3.1793024604361152e-03 -2.6443255747507152e-03 -1.4631869335056196e-03 6.5809496345217156e-03 -8.8376849008089129e-04 7.3505476839222925e-04 1.0107848866999225e-03 9.8031376864875491e-04 -7.0194190978822065e-04 7.1649731686550472e-04 -1.0076432961740912e-03 1.0518091773621292e-03 2.1090332977413629e-02 1.5201726299915973e-03 3.0044947007772105e-04 4.5477302427529592e-04 3.5778499648978499e-04 -6.9006803160982788e-04 1.0677867668282227e-05 3.5802987050049784e-03 -3.2801359963179795e-03 -7.9604045187629032e-04 8.1063621661664580e-03 -1.1945884209100047e-04 -7.9849655023123134e-04 -1.1018780397284544e-02 -1.4865270198768303e-04 5.6963029080291442e-04 -4.5042924021837933e-05 -3.2660881383862949e-03 1.0918211524002758e-03 2.0748847434784997e-02 -3.0903878844235127e-03 -1.1666302538460528e-03 -1.4125698771869847e-04 -1.5543480595483427e-03 5.9533974512091456e-03 1.0204286544793738e-04 -7.3157177888545696e-03 2.7004648146627041e-03 1.1226288283504920e-03 -1.8904424660914465e-02 -2.7685877187261640e-03 2.2714985999569592e-04 -2.0614898653512001e-03 1.2017139656622954e-03 -9.2158442332285727e-04 -4.0003618427229088e-04 -4.6443248554607630e-03 -4.1642246404565483e-03 -1.6379867616960479e-02 -1.2121156379918396e-04 -3.6079045290399723e-04 -4.4504885492406933e-04 -1.3616314591603524e-03 8.1209117537360976e-04 3.9868434570620179e-04 -6.0783685265807675e-03 1.5634845348073897e-03 6.0213282310820563e-04 -8.7474430257065139e-03 -1.0423451720076157e-03 -1.1369710977526229e-04 -2.7142631664456296e-03 5.7143772820574283e-04 -2.8158685538067483e-04 -1.1305888355059674e-03 -1.0621811445196473e-03 1.6085711850195722e-03 -6.5268494880889941e-03 1.7992909127113182e-04 4.8607381243234715e-04 -5.3661921086568679e-04 1.2098964882524717e-04 -3.6675966701063545e-04 -6.6192154782544060e-05 -1.1438529993573962e-03 6.6002183651728830e-03 -6.7869015211584078e-05 -5.7887008718870980e-03 6.6678568296890087e-04 4.6999641598865789e-04 7.2468742770959160e-03 -6.4045767614295725e-04 1.4096983570677495e-05 -2.5356198032846925e-04 1.6302627301582216e-03 6.4337494052453537e-04 -2.8084224584023418e-03 4.7388705368333617e-03 3.3813496813380741e-05 2.4200630728346056e-03 -1.6710857078461165e-04 -5.7161430562102222e-04 -1.1376008731725420e-04 3.4824155016999268e-03 -7.0335037694373224e-04 -2.4211963953505084e-04 -3.8852357149497564e-03 5.7635619941964842e-04 -6.0480343023099547e-04 1.4347873218599760e-03 -1.1684647730442824e-04 -6.7052487627671404e-05 1.1279127573538952e-04 -5.2405441251344564e-04 1.6243264719065561e-03 2.1270833461773464e-03 4.6754180050889715e-04 1.1110244425696636e-04 5.5109530232121812e-04 2.4364261217686960e-04 -8.4843221992591221e-05 2.0282707498685401e-04 7.9341486316835547e-04 4.9806312505200952e-04 1.8161033405918235e-04 9.5701583867138177e-03 1.9287790407893253e-04 -5.4139344519673650e-04 2.2812402310128099e-03 -1.4276666960917834e-05 7.8936626004035167e-05 6.4438221000174753e-06 5.1139585167692299e-04 -4.5203360694117973e-04 8.3200404062327982e-04 3.7212904496120025e-04 -3.1504327911785132e-04 -6.3352780211404515e-05 -2.6482137929816193e-04 -1.2012139972455158e-04 2.6573027579010478e-05 -2.3093457441760428e-03 -1.1377432627325155e-05 5.5154999213759539e-05 -4.7444432325406179e-03 5.4987221544747764e-06 -9.9318089066190076e-04 -3.2581006797764989e-03 2.2956084155489393e-04 -4.2655878970699479e-05 -5.5292126115512102e-05 6.2060227903952179e-04 -7.6115201717285761e-04 -1.2834558999803751e-03 3.3990784439388855e-03 2.0792163010873842e-04 2.2023848842223255e-04 3.5598410265334996e-04 1.0734454844393889e-03 3.2603503924966571e-04 -1.2536062886524873e-03 8.1800946598520330e-04 2.6261641620027847e-04 -4.8346220227914252e-03 8.8163158734412723e-04 4.4734253990024765e-04 4.0664385396801395e-03 -1.6642425473088545e-05 -1.3642985771894543e-04 -3.3058365904806218e-04 6.9583760017912898e-04 -4.1217032284826711e-04 -3.9454904670185812e-03 3.1922055019750831e-03 -1.1094675885851119e-04 -3.5589681476028774e-04 -7.8305651227493175e-04 -9.8472772474345342e-05 -3.3236897588131943e-04 8.3488352965812966e-04 1.5565356831433945e-04 -1.7627243791943625e-04 -1.3877626226598204e-02 4.2171557548385244e-04 6.6690198621661544e-04 6.1885954925144926e-03 -9.3529139946952754e-05 7.0817873925634045e-07 -1.0537916282186048e-04 -4.0779835612387764e-04 -5.9025730653797888e-04 -1.9718029938249068e-03 -6.6616766412484901e-03 -3.1053670576022372e-03 3.5728190436796411e-03 -5.5170607682850223e-03 3.2111234782117443e-03 -3.2096422936598026e-03 3.9906540133696974e-03 1.7253037384628816e-03 -1.9087324917975129e-03 -3.2831394570473654e-02 -2.0367264547758576e-03 4.1750003981907407e-03 7.6891575309887550e-03 1.0218329979947776e-03 -9.3084761448419383e-04 1.9574217264083996e-03 -7.6705084597116814e-04 -3.9249114759803277e-03 5.0929304165629324e-02 -1.9986552011603820e-03 -1.9426630157546264e-03 -1.8114662279244769e-03 7.3097810410443411e-03 2.1891985372348311e-04 2.4264322077590045e-05 3.8261380437098454e-03 2.9302141722065593e-03 1.9815854217118678e-04 1.5329206202338698e-03 4.3171409024075026e-03 1.3279477354206949e-03 -6.7718810687596625e-03 1.7163278635076553e-03 1.9833429070005492e-03 3.4037574403076123e-04 1.9255576918306785e-02 -6.1513547938661314e-04 -4.2778891760329681e-02 1.9682244965936249e-02 
      </Row>
      <Row Index="19">
        -4.9635738420428802e-02 -3.1888864780727205e-04 1.1068834304815478e-02 -1.0878555885330612e-03 -3.1155200929311420e-03 1.4388218242845086e-03 -5.2311844128496612e-02 7.9747586280358544e-03 -2.3587605161288815e-03 1.8453261241056218e-01 -3.9429859408301798e-03 -1.8557105732016767e-03 3.3901202787376938e-01 -5.6929108098941221e-04 -7.8509682480271126e-05 3.9268122381724331e-04 4.2482739754509408e-04 9.2166464928777874e-03 1.5201726299915270e-03 5.9640485352478911e-01 -9.0616015644413720e-04 -5.3638725403844746e-03 -2.2424316138198140e-04 -4.3973935571972600e-04 -1.0607236527416812e-03 1.7338147540648084e-02 4.2701317674258485e-03 -4.4709035647710112e-03 2.1178659397568095e-01 1.5391835154331631e-03 3.5583684450390951e-04 -3.1466151630371542e-01 -2.4615686055358588e-03 -1.2480223185335382e-04 -3.4401679615222698e-04 -8.0117674567379909e-04 -1.5976759134740479e-03 -1.6424585127194176e-04 -1.4855033966822029e-01 2.7132584184780756e-03 -1.3405777792652113e-03 -6.6586255409837312e-04 6.3536526056836694e-04 -1.9848423639382412e-03 -4.2562220450085883e-02 4.0341374989863177e-03 1.0584147757597270e-03 1.3452265222196538e-01 2.0626437702768782e-03 6.9236837389983069e-03 5.5220827005142525e-02 4.7224399479608870e-03 3.1326010471710396e-04 -3.7017635182382096e-03 -1.8193390075723903e-03 -1.8533323025776882e-03 8.9550591702616811e-04 -4.2105765057396027e-01 3.4667404951872023e-03 -4.2969552458690923e-03 9.3287489942261298e-05 -1.4533305492607351e-03 -7.2116178943892341e-04 3.5242864019865101e-02 5.6023826970458962e-04 3.0758838823852063e-03 5.2752679044204553e-02 5.4458882798951499e-03 2.4264322576818286e-03 -6.9429689117416649e-02 1.7516968544399271e-03 -7.9138125280211850e-05 -3.5576359075891965e-03 -1.0680765164465659e-03 5.6674983706318516e-03 1.6702195966065677e-03 -5.7750775109371433e-01 6.6682593755207353e-03 -1.5299323757003332e-03 -1.0994732959731753e-03 9.0039586921175641e-04 -1.2911175009423098e-04 1.1668792587315180e-03 -1.4718984554735748e-02 -5.8916623438503603e-04 7.0187440917080873e-02 4.6892901032369594e-03 6.2541741733814216e-03 2.5572256475701005e-01 1.0733547945910122e-03 5.5982684173730250e-05 1.0271534155804722e-04 5.0197228913778430e-04 -1.8072189334504794e-03 2.0418765431736412e-03 6.2398205170728871e-01 -4.8256249457315483e-03 -8.9481247661896343e-03 3.9675046850479196e-03 1.4545811733604717e-03 -1.0768455197513135e-03 1.1209643602945085e-02 4.3144980189991130e-03 3.1022760635333810e-03 -3.5623780464063143e-02 -7.5384523031688504e-03 -1.3394877224999035e-02 8.7776958747307343e-03 -5.9032608028002451e-03 -1.4368755529826089e-03 -2.3181277245784698e-03 3.4422820476379882e-03 5.3362956560176755e-03 -6.5171712227404003e-03 -1.3621300269901937e-02 2.7581699065679262e-04 -4.2767878678108100e-03 6.5724715891332490e-04 -1.2355020829613820e-03 3.0143669306377466e-03 -1.4486926536354250e-04 -2.5331724072923723e-03 5.7151957051710701e-04 -1.1793225660876772e-01 -4.6594642269336389e-04 -5.3122910332092203e-03 9.2663787818560550e-02 6.2599264840156846e-04 1.3042588462266883e-04 -1.2437000889169506e-05 4.7926504836510488e-05 -7.6982005490919270e-04 -1.8909458393334688e-05 -2.8560152295499608e-01 3.1489622640132634e-03 -6.5882422131972292e-03 -1.9768143486640281e-03 -1.1852290292281179e-03 -4.7963094062754893e-04 -6.3644266321624676e-04 9.0397203603627060e-04 -2.9429828861520070e-03 1.3748331530513261e-01 7.1125112482214557e-03 -6.8336809035686539e-03 -8.3131753693506782e-02 4.0889947672197637e-03 1.9312726554356311e-03 1.2499425424510290e-03 -3.7101146279140775e-03 -7.1642370518765937e-03 4.7213010803617370e-03 3.2756694110250034e-02 -1.5643960669554247e-03 -4.9696149033362155e-04 3.6345138472647007e-04 -9.4607079786817976e-04 8.2440071237552953e-04 2.0867185828672113e-02 -3.1103596691575142e-03 2.3631361492660306e-04 -3.4957428900458221e-02 6.0080881662377666e-03 6.1513588790140447e-04 -2.9578121187026074e-03 3.3329247102869479e-04 -3.0338976764466853e-04 -5.5480875600493525e-04 2.5080924533786055e-04 -4.6883054771396093e-04 -9.2479059580098926e-04 3.1861852966483489e-01 -4.2822943482741394e-03 9.4906124954090548e-03 1.3877873048909594e-03 4.6066772191151991e-03 1.1306358074733328e-03 3.0799677477131443e-04 4.0434545921848438e-03 -2.8953187107411420e-04 2.1208454090606021e-01 -2.1310677894883175e-03 -4.4182161361500548e-03 3.1334144814305542e-01 -2.3859984909866635e-03 -1.3247631133142335e-03 -1.9115481907421281e-03 9.8646719449403588e-04 -8.8974787323213185e-03 -3.4889939552889410e-03 -2.9925517984709060e-01 -3.6143061419560953e-02 3.4073464432906521e-02 1.6634655081096933e-02 1.4580706328652313e-02 3.9630333965993891e-03 -3.2918200240159429e-02 2.3004300166467831e-02 1.1478655162320653e-02 -2.2686315917298139e-01 -4.8067451236273907e-02 -3.0226411153410730e-02 1.8380407575305968e-01 -1.6316125713434833e-02 -8.6612902926097059e-03 -9.1733800046268268e-03 2.0526100649274688e-02 -9.5901310444106557e-03 -3.0538578817470890e-02 -2.6769631889788792e-01 9.2473421520805239e-03 1.2408470843723166e-02 -3.3588045937504880e-03 2.1312264263955976e-03 -1.1631638918602346e-03 -5.9210484039831437e-02 -9.6174436268800494e-03 7.9213032904036640e-04 -2.6819712349862218e-02 2.9127236753609537e-02 1.6888917683147542e-02 -1.7969888968075426e-01 3.3303766954469752e-02 1.3423269902823956e-03 5.5009663722147117e-03 1.6709427599550485e-03 -2.0838899117185130e-03 -5.7104401330465328e-03 2.4909300263557962e-01 
      </Row>
      <Row Index="20">
        -4.1706754344444340e-03 6.6584768874876918e-03 -5.1140210057734267e-04 1.6708038540190651e-03 8.9668286274004819e-03 -1.1724379167148383e-03 -6.7988421244714729e-04 -2.3364920805124451e-02 -3.1195035157237198e-04 1.0131505735651580e-02 -1.9155055598984038e-03 -3.0637654661395670e-04 -2.7932095445357130e-03 -1.6671239216716975e-03 2.3141654803778000e-05 2.7748394735004945e-04 5.9013812847189407e-04 -1.8559028472747508e-03 3.0044947007682355e-04 -9.0616015641943604e-04 2.4900991724219387e-02 -8.6915932469072352e-05 -1.5871029213427966e-04 3.4924676104821743e-03 -5.2584865010720221e-04 3.0440737760077056e-04 -5.5671268483010357e-03 -4.8968497880435798e-04 3.2112480394652773e-03 -1.5908242985166691e-03 -7.8524699986007654e-04 -1.1580399431032617e-04 -1.8600564945662024e-03 -1.8347687485288761e-04 1.9899343513941361e-04 -1.2574203201589132e-04 -4.6556081767715630e-04 -7.6900783118924671e-04 -1.7198739059635683e-03 -3.7813044195411528e-03 -1.9902745533528061e-04 5.6607037692016230e-04 1.5366633658052365e-03 1.2059391111550778e-03 -1.3506600213274416e-03 -2.0800479534937272e-02 2.2698032169623530e-04 5.4093257280100893e-03 1.6614416446467887e-05 4.2478484108239740e-04 -8.7165705898463175e-03 -9.9026234659961945e-04 8.5274035175053609e-06 -3.1414710165289343e-04 9.8407652206471477e-04 9.9689749261639441e-05 -1.2436937729408616e-03 1.1943476875807546e-03 -7.5283874802809809e-03 1.1353759437792267e-04 -3.6391672403524164e-04 -1.3530716041555962e-03 5.8638227628385266e-04 7.0793834989218637e-04 -8.8028102234845099e-03 1.1392320245310564e-05 3.7641015716404352e-03 1.4723022936830900e-04 -5.5121848890461061e-05 -3.1218669108730168e-03 -2.6714396676088396e-03 3.5071158439631701e-04 -1.6972969654513318e-04 1.8542539270327059e-04 -1.2302014092573609e-03 -7.5128072156650219e-04 1.6407882633563575e-02 -3.8528627308803125e-02 5.4516560529787109e-04 1.0914226028879460e-03 -3.6088233625563432e-03 1.5325512399426890e-03 1.6676510279929179e-04 3.2457500496680766e-02 1.1397729533104625e-03 4.7566106590702234e-03 3.1819968940133316e-03 1.3999062556425230e-03 1.2730113813553379e-02 -8.1547279693414514e-03 4.2659866380582198e-05 -9.7046290325495353e-05 -5.6879683162824142e-04 2.5775264034620937e-03 8.6832572594673120e-04 4.8948002512981467e-03 2.3182196884246626e-03 2.6015572614769555e-04 -5.8251912409823330e-04 -9.6978504883638277e-04 5.5621116222330513e-04 1.9438926872975167e-04 1.0624166468498992e-03 -3.2608714629793370e-04 4.6727443129461754e-03 -1.8685688171287958e-04 -1.7134911918653516e-04 5.3404101747170085e-03 -9.3928867489955859e-05 -7.1562245484103128e-06 -1.5778722322066733e-05 -6.9745432664485040e-05 -9.9156573097194597e-04 -2.8754500784255099e-04 1.3557013882239399e-03 -2.4592003786447682e-03 4.1055127358603088e-04 1.1296117823682045e-04 3.2071779633606890e-04 -1.7515222214415805e-03 1.5110852217696188e-05 6.4796002542283244e-03 1.1615116238457919e-04 -2.4555768553176094e-03 4.3978293012207376e-04 4.1480856080001885e-04 5.2708191836969842e-04 5.3315120596043500e-05 5.3406340671047561e-06 -2.2285097211888639e-05 -1.8392804527862512e-04 8.1893746994411709e-04 2.0668550537349117e-04 -2.3646270076484940e-03 -1.0795443352084521e-03 -4.2294857977190933e-05 5.1715362223901727e-05 1.1754979521502926e-03 8.3524667825292170e-04 5.6545031832344779e-05 -9.7735823714687232e-03 2.9848960049773149e-04 3.4161801857664556e-03 2.2017883551083390e-04 -5.1423188874779972e-04 -7.0946592862645153e-03 6.1122866693961043e-04 -7.9900957140038306e-05 2.8444080645956439e-05 1.7280891485696979e-04 -3.3192381839413146e-04 -1.7237628944962856e-04 -1.3093654798923098e-03 -5.2936215292245662e-04 -2.3574721583883521e-04 1.0429717620714096e-03 -3.1263968610806617e-04 -6.2859845554634301e-05 1.3013257320501417e-03 7.3696187192168125e-03 3.9035866067573216e-05 1.1047310438605878e-02 -2.4697151357668977e-04 -7.3622256007304515e-05 -5.6470514404685090e-03 1.0353941716064515e-04 2.2580893771841944e-04 5.8744841889059665e-05 6.0753508639958429e-04 -7.2899029081061441e-04 4.3964341893884366e-04 3.5092899642264232e-03 -2.5345109857329204e-03 -2.3050675158667815e-04 -3.2112734517636177e-04 -3.4704008858872345e-04 1.3844672789543647e-04 2.1124070938045338e-04 -3.0091203506755894e-03 -4.8534202514195632e-05 1.4069472637136277e-02 -1.6837378911198841e-04 5.8530514850020253e-06 8.1837271470005524e-03 -3.7829696375661257e-04 1.1384948574925164e-04 4.3270062778246154e-05 1.2600998741690172e-04 -2.8225110880374625e-04 -9.1539740678185091e-05 3.7130700311923948e-03 3.5205758301503895e-02 -9.7601371336100608e-04 5.0919959402317971e-04 4.9699702503703505e-04 -1.3289973893649632e-03 1.2438544373068530e-04 -2.2150576381312174e-02 -1.6664775247599657e-03 2.4187636247796934e-02 -3.7396946390138297e-03 6.2532841870123446e-04 1.9990354307226621e-03 -1.0067962517187272e-02 -4.3204152831835324e-05 2.9838053097228578e-04 1.0356708724713779e-03 -1.2197775520965751e-03 3.5999725720720788e-03 -1.6616137025511624e-03 -4.2089797662954398e-02 1.1618202704445429e-04 8.5662836148672327e-03 -3.1899257917973331e-03 9.6763881258863575e-04 -3.5180973509589975e-04 2.8803768177040123e-02 1.5560277002600251e-04 -5.9219545562111332e-04 -2.6593605508710288e-04 3.9630068375277406e-04 -5.0226879865203624e-03 3.7225581323173877e-02 9.1900627569156093e-04 2.1479356768667606e-04 -2.0631697122367393e-03 1.5589532234549152e-04 -1.2080096940005922e-04 6.9182743114305353e-03 
      </Row>
      <Row Index="21">
        -5.6932820055977731e-03 -4.5697817381948206e-04 -1.6772890421578732e-02 1.4520177915710369e-03 6.6510298173912599e-03 -3.6978832089218442e-04 -1.6147724592571995e-03 9.4021714938548372e-04 2.5842747619252305e-03 -1.4613421634737112e-03 4.4003681315108985e-04 5.3194754494821726e-04 -1.3844203130262134e-02 -2.1372853137287869e-04 -1.6830251780611044e-04 -1.0791858278905630e-04 2.1597012165761043e-04 -7.5434551534841923e-04 4.5477302427702392e-04 -5.3638725403759718e-03 -8.6915932469929522e-05 2.1457373562390903e-02 -5.5147499021477252e-04 4.3890800370134653e-03 -2.4114104224896008e-04 2.1092186124339572e-03 -1.5581282940552929e-03 -3.3219624197531336e-03 -1.2390240817491301e-03 1.3126941964116982e-03 3.8063223274126257e-05 4.6514235597108211e-03 6.4364697549734902e-05 1.4988140510026240e-04 3.8525030266575678e-05 5.1656388018558993e-04 1.3316603213590454e-03 -3.7792787306872437e-04 -3.3557678952193387e-03 1.7753408641502447e-04 -4.1825661011104945e-03 -3.6255839200728603e-04 3.4666409631973084e-04 8.6080695603426378e-04 -2.2894419241093391e-03 1.0333010224437451e-03 -9.4609838382867205e-03 -4.4009291117387411e-03 -3.0909810484456863e-06 -8.3282904318178388e-04 -4.8559159183114708e-05 -6.1460673748316814e-04 -3.0513129666196511e-04 2.6635185971260472e-04 4.3555480479247170e-04 -1.6534207363721153e-05 2.0212156430660161e-03 1.6203599554782122e-03 3.5568749529686552e-04 -2.4933122541497591e-03 -1.8879900912870441e-03 -6.6281833061922982e-04 6.0112935478370756e-04 3.3200609855275191e-03 8.7478251076775725e-04 -1.0089701546428234e-02 -4.2545786013065412e-03 4.1498023782155381e-04 -8.1724074472286682e-04 6.0226113108279300e-03 -4.7014885734486046e-04 -4.2886500924338455e-04 2.6624167322234122e-04 6.0491480813591064e-05 2.5528233821765778e-04 1.4879985433985496e-04 2.5009442547261340e-03 1.5497537198300715e-03 -9.0448437043133233e-03 -5.9438794669839723e-04 -1.3415302116580596e-03 2.5912136605646917e-04 2.4862018577796394e-04 1.2513956522772207e-03 -1.6791280454171824e-03 -2.3793562666746815e-03 2.0253086952582499e-04 -3.8229648002100674e-04 -3.6743645307897865e-03 4.1787703835816136e-04 5.0923988707519095e-05 1.1211992946898804e-04 -4.8147116393569426e-04 -1.7907356407480951e-04 -2.1957774170227196e-04 4.6646842660626603e-03 -3.0747548703535316e-04 3.2270973284501847e-02 1.9743023055771381e-03 4.7554173695584200e-03 5.2904239968848128e-04 1.9427797567968070e-03 -8.3507160402041826e-04 -7.9171819298938274e-03 1.8246279935214257e-02 -1.0372631876977081e-03 5.2901670195424971e-04 -2.8832242851773993e-03 6.5586272387780026e-04 -1.9929573259037351e-04 -2.5452272508591500e-04 7.2257755990248979e-04 1.6421161550867862e-03 -7.9710190473973315e-04 9.3362665860730054e-04 1.7218922063439931e-04 4.8978119817822061e-03 2.6866223225390960e-04 1.0837280735156644e-03 -2.5979188576849555e-03 1.9860102920366343e-04 -2.5683407267469965e-04 -5.4408936927877547e-03 -5.6781367365360547e-04 -1.3234696236724436e-04 2.3193987829510376e-04 1.1178722018030385e-03 -1.9775678431483568e-04 -8.7369246507500295e-05 -1.2694049247722933e-04 1.1174211176666815e-04 -5.3014825818294142e-04 -4.4589398147966419e-04 1.9076026672891974e-03 1.1869637010498892e-05 -1.6076664405994100e-03 -9.5027155613081407e-04 8.0318531291958487e-04 6.1316890269247750e-04 6.5268642183739442e-04 4.5659135201300534e-04 -2.6949832570364804e-03 -5.3250882375066068e-04 1.3294742452372001e-04 7.5895223534786231e-04 8.6895337302920414e-03 -9.9635664052260896e-05 5.5042853358944156e-05 -1.2179030420891779e-04 -2.1401912505686270e-04 -1.3803866898814271e-04 -2.6515501571100042e-04 1.2090178071731900e-03 -2.5811748499462734e-04 -2.6558792173643399e-03 6.0442413686875645e-04 -8.7310926079833644e-05 1.3829573787231195e-04 1.5626087306465711e-03 5.3781774172693975e-04 -2.0984006951391822e-03 -2.8544536995696035e-03 -2.6635515308728527e-05 -5.9605084917126877e-04 3.9002012851119261e-03 2.1389138372225104e-04 -1.0885367504028572e-04 -1.5654880054903099e-04 -1.8858920203727002e-04 -3.3702535557796759e-04 -4.1865351079871512e-04 -1.7363265016732401e-03 3.5159546673334198e-05 -6.0870473196664538e-03 -9.0683483730169675e-04 -2.0657290542184592e-03 7.3798124839742629e-07 -1.9782502761293060e-03 4.8567813120017293e-04 -1.5009405757281098e-03 -8.2141539164055644e-03 1.9370645028052844e-04 -3.8631576276695174e-04 -8.7443056999174651e-03 -8.4332160971954900e-05 6.0282604858092909e-06 -3.3845924536224771e-05 -1.5233201355833976e-04 -1.3539528224763616e-03 -5.4527956796267176e-05 -7.0604077305793655e-03 -3.6576926569184634e-03 1.4437870363252142e-02 3.8235397557184522e-03 2.9774683181626586e-03 -7.8261471770377667e-04 -5.8646430484316885e-03 2.2234141020811976e-03 -6.3843123840748783e-04 1.9040062644269842e-02 -2.3284372978817055e-03 1.1613191242273811e-03 -1.7638234554290033e-02 6.7732741344093332e-04 -3.2670511931225403e-04 -7.4698864365854017e-04 2.7401003367273505e-04 -2.9926784300125329e-03 -3.1848409107678678e-03 1.5509538903931003e-03 1.6655357075673212e-03 -2.5372855650649697e-02 9.3412214958010185e-03 -2.6627624306845765e-03 7.9745131728524953e-04 -4.7573326453453722e-03 -5.6086486952238747e-04 -1.2084390223608825e-02 -1.9109729761316793e-04 6.7969311946373587e-04 -5.2982308806153941e-04 6.2559643910535968e-03 -3.3069986733468438e-03 -2.2107462991494617e-03 -8.0867792323621366e-04 -8.0867764075333304e-04 -2.4219656260153466e-04 2.4097587773575556e-03 1.3853051287811023e-02 
      </Row>
      <Row Index="22">
        1.9396015830331972e-03 -3.5692142372135787e-04 -4.2447333084947008e-03 7.7827026373465790e-03 5.4584745926860353e-03 6.3458881596970245e-05 5.6588250772321574e-03 -4.9702147046758324e-04 -4.4851285484357026e-04 -3.1150826429159895e-03 -9.4882430675810711e-04 -1.0199294288589751e-04 1.6114806934488468e-02 1.5662339257782858e-03 2.3155744242678582e-04 3.4387265179421737e-05 -1.7641568542473463e-04 6.1250320337076164e-03 3.5778499649135660e-04 -2.2424316137183847e-04 -1.5871029213335500e-04 -5.5147499021474704e-04 9.6987598622608820e-03 -3.1363704045135957e-04 -8.3411915856269545e-05 -4.1182507922133196e-04 1.7559031525060497e-03 -3.8597282199121039e-04 -3.0733597804970579e-03 -1.4549808380903350e-03 5.4269502597502350e-04 -6.8465940721189611e-03 1.1674881733994011e-03 -7.1219599070631776e-05 4.2764370695480211e-05 -7.7088001480009663e-04 -7.7146988546868030e-03 -7.3409165202654655e-04 -2.9518592390316567e-04 1.7140887716620215e-04 -1.2483574233807442e-03 2.0348089386292368e-03 1.1793971590279805e-03 6.8013739719631483e-04 6.4221807740810904e-03 1.7406982248450997e-04 -3.0930875000046137e-05 -8.6661638692578924e-03 4.1744321874353195e-04 1.5130471970445022e-04 -7.1918433657697234e-03 -1.5346871652537075e-04 -4.0491470042723632e-04 2.6700334071315217e-04 1.3631908225450757e-03 -4.9327698461232089e-04 -1.5667730332364418e-03 9.6314094838401143e-04 4.3603676532881106e-04 -1.1734409421727703e-03 -2.0551489880039969e-03 1.2135492591786633e-03 8.6924645958567177e-05 -6.5972645760732657e-03 -4.2496512842084538e-04 -7.7287968985875635e-04 3.4397374882234877e-03 7.7558184747670168e-04 -4.5683558113242609e-05 -8.3098524179328059e-03 -8.6250297024270390e-04 -5.9895441797963090e-04 2.8164140455049858e-04 1.1424270713569079e-03 8.4972749327788984e-03 -7.4514927416468929e-04 2.1080226740409491e-03 -6.9586865755668845e-04 -1.0139818291503367e-03 -2.4373396181871137e-04 1.5443412189053984e-03 1.8900698316791798e-04 -4.9025328480225977e-03 -5.9237025679972910e-04 9.6160230643785836e-05 -9.1581262108175882e-03 8.9519995986604402e-04 -2.8277813298808541e-04 6.8837571461054514e-03 -2.2117604189761690e-04 -7.6500030499874073e-05 9.5918578545793262e-05 -7.9398682653702285e-05 -2.4634463824263556e-03 4.4146413008939664e-04 -3.1146781326619258e-03 3.7845236670928993e-04 8.9994691114333638e-03 -9.4022390294427427e-04 1.8793569253260870e-04 2.7921226089062305e-04 6.4193549703374393e-03 1.1104437115152176e-04 1.3506065444238771e-03 8.7935969519000855e-03 6.0137578131067883e-04 -5.1031308101194724e-06 4.2170899770753306e-03 -4.3044033159570459e-04 -1.0410308394222660e-04 2.8404428486976343e-05 1.2149936983718731e-05 7.9150162965558740e-03 -2.0407261470067385e-04 9.6135954258849687e-04 -3.3536568383488695e-04 2.1381300156733500e-03 2.5495996685293026e-04 -4.4704223803622802e-04 -1.5268047984366177e-03 7.3857924772622631e-04 3.2526276165387923e-04 -2.0654855322352209e-04 -1.0066244784409095e-03 -3.6033021378722172e-04 2.1235564856236702e-04 7.1831638399120212e-03 2.2601313290843242e-04 -1.1087753417661679e-04 3.2426003299329564e-05 -2.1356412081868607e-04 -3.4880978849115727e-03 2.5960028218308118e-05 1.5473072781615332e-03 2.8984298471213026e-04 -8.5111846142986642e-04 -7.0292267138385403e-04 1.0457082194941622e-03 7.1194321438318648e-04 -2.7634161241855641e-03 -1.7023607711843310e-04 -1.4777582635208539e-04 1.0528534764487930e-03 1.0680717997848892e-04 -2.2178311460249712e-04 -9.1077386345259914e-03 -3.1115574058017002e-04 -1.9910550196940068e-05 -3.0743615603109640e-05 2.0373455224323463e-04 -8.5882387108238752e-04 9.9656740509238180e-07 3.4573760170466400e-04 -4.0865089115805445e-04 8.1854760892129293e-04 2.4771926756315243e-03 -4.2498400579775268e-04 2.5093634874849124e-04 -4.7061579760413266e-03 -2.2088824964378723e-04 5.5887357169060316e-04 -4.2323483633499165e-03 4.8911116046519883e-04 -9.7902988547511616e-05 1.4769584441891581e-03 8.7867348229127436e-04 1.0739039417321769e-04 4.6887718904856882e-05 6.6976832183622201e-05 -2.1679547630629181e-03 3.6108659158941118e-04 -4.1320104970290370e-03 4.2686938596458502e-04 -1.6726699599945664e-03 -1.4816221876404368e-03 1.9361302320400082e-04 7.9311510196159937e-05 2.1906541891865564e-03 -4.8964334458020020e-04 -5.9209545944941959e-05 3.7158066986920091e-03 9.3087622515828847e-04 -5.3907027885550900e-04 1.7485320428784534e-02 -7.5858681867482726e-04 -1.2823962626417121e-04 5.7134855939724289e-05 2.9061967821746048e-04 -2.2517817399692235e-03 1.0033953330406374e-04 -4.1105503554199826e-03 1.0477227277214689e-03 1.0904869730222670e-02 -1.0654173843994140e-02 9.4089850458675527e-03 -2.7774420545932047e-04 1.7194266572865310e-02 -3.9197307403060853e-03 2.3291005199285548e-03 5.2683610018920551e-03 1.3889163490452480e-03 -1.7484495458203976e-03 8.4190467712985453e-03 1.0835002632574519e-03 1.2464243954880558e-03 2.1466138628199684e-04 -6.8469862881498519e-04 2.4696247653761450e-03 4.6012107289595972e-03 1.6020907320201810e-03 -8.8707301227372972e-04 -7.4287276482141191e-03 2.7652604032330056e-02 -3.1089262216359229e-03 7.1590529892426010e-04 1.0882567170604365e-02 3.1664116861595888e-05 5.6889823960794088e-05 -5.7952700155679336e-04 3.2192623739771675e-03 -7.4381439744104078e-05 -9.1966106270013805e-03 -8.1337623347322360e-04 -2.6744164422732065e-03 -1.0372156405738799e-03 -3.4020913503214280e-03 -3.3958208978374501e-03 -1.5375113409937937e-04 4.8518743327838646e-03 
      </Row>
      <Row Index="23">
        -2.8790172905259724e-03 7.8243015157381749e-04 -5.4249102615025468e-04 -1.7414017714310016e-03 2.7795526231863210e-01 -1.0915984032277837e-03 9.1339562478116015e-03 -3.6774127880460231e-03 5.1236659380663775e-04 -4.0334992277052173e-02 -4.1283616030400516e-03 -1.9089815970486259e-03 -1.6939195486780356e-03 9.8395755436395593e-04 3.2688649742031173e-04 4.6921732964397907e-04 9.0671746320193560e-04 6.5346047913170703e-03 -6.9006803160883573e-04 -4.3973935565300160e-04 3.4924676104713826e-03 4.3890800370139770e-03 -3.1363704045462085e-04 1.6735910727180289e-01 -1.2877236498632979e-03 1.6079887342608998e-03 4.4111349478304215e-04 -2.5504793188848699e-03 -5.9538511125203381e-03 -1.3793179083265909e-03 1.1577006620102637e-03 -1.0573736781829268e-02 1.3133682532868258e-03 3.7351992734496698e-04 5.2720688916274572e-04 -6.6480047946173258e-04 -2.1633522012263085e-03 -1.4773261199757862e-03 5.0573801750391049e-03 -7.0295934235111053e-04 -1.5939590164854890e-04 3.0164619366463072e-03 6.6306248175847737e-02 -1.6933195382278065e-03 1.9818822593971157e-03 -3.2011545625649234e-03 -3.5860151046869697e-03 8.6549918812040549e-03 -5.5580633980629578e-04 -6.5933374729717359e-04 -1.5899180717813988e-02 -8.0730860875124046e-04 2.3692155886906801e-04 4.2169771006423176e-04 -3.6770769166613593e-04 -5.7571791350125093e-03 -2.9263603302035895e-03 -2.7044731312566572e-03 -1.2045009782907234e-03 1.2967969203807562e-03 1.2044862235733748e-02 2.3494356911596761e-02 -7.3876460590253392e-04 3.8202064373785974e-03 6.1709042441636212e-04 -9.4839371118039632e-04 1.2840302675044546e-02 7.2662686727702121e-04 -4.8252947693827770e-04 9.9571182167867978e-03 -6.6588978491348449e-04 7.7277623131277902e-04 3.6024609706371887e-04 -5.9366079502196491e-04 6.5671122192025866e-03 -1.1694494734178530e-03 6.3023932437767938e-03 -4.0894829725546256e-03 -1.4966595014262729e-03 2.6126329711633248e-03 -9.3027374295914234e-03 -6.6479512927162046e-04 2.0182013942697530e-03 2.9625586179442553e-03 2.3397826538096647e-04 2.0831533025234550e-02 4.6970268704241147e-04 -1.8900677992074368e-03 -1.2326345947794304e-03 -1.6249109956463490e-03 5.2807817409087580e-04 6.0916937522220715e-06 4.0167090454960863e-04 -1.4419798228910846e-03 -3.9028000874078567e-05 -2.5591472330943471e-03 1.9027551697362380e-04 1.2142875927455943e-02 7.8570394599153728e-03 -8.2365420134380800e-03 1.3372583901633895e-04 1.6317140155583322e-03 4.1132072904958807e-04 -6.6481703496517920e-03 2.7485583409205948e-02 1.2717533648288534e-03 -2.3230714878476550e-03 5.3814806662638610e-03 -4.1610940304276790e-04 -7.0649184307919680e-04 5.0502608859113909e-05 4.4364875030941404e-04 1.3855496138960241e-04 -2.3975642368406140e-04 1.4704843679100854e-03 -6.5114632872351544e-04 1.7585283893862338e-03 -9.7797825528724361e-04 -7.9018979732639726e-03 3.7723357078994074e-03 -3.6004959629959421e-04 -1.9091282449111482e-04 -3.8241167680378718e-03 1.8077249067364409e-02 3.1880200053960913e-04 -6.0265339389535500e-04 -9.1170162134002197e-04 -1.0775567655600279e-04 -9.6321440291856158e-05 -1.2398509055110271e-04 3.9143955028752425e-05 -4.7699330812824015e-04 3.0187722382224447e-04 2.8513170236511703e-03 -1.1296706284017436e-03 1.3023938626990300e-03 6.8172461372319202e-03 3.3591710577399958e-02 -5.2606111504976461e-04 -5.9343939487102593e-05 -1.2300719079263675e-03 3.9598886515735277e-04 1.1587967737090810e-02 4.6502169412964041e-04 -2.5508124102479397e-03 5.3429554263320078e-03 1.0034804665571754e-03 -1.7240434197559202e-04 -2.3557235104385238e-05 2.5734076521242630e-04 -3.8648352869649722e-03 3.5749230796139298e-04 -1.9580095326325042e-03 4.9319517562163191e-04 -1.2128474113377533e-03 -6.2329327574038871e-03 -2.8969225444223236e-02 -1.1259231497991011e-03 7.9970757117042018e-04 2.4910665225674755e-04 -3.0219197184404691e-03 2.4087190329981495e-03 1.7723954856516087e-03 1.1916039351371061e-03 -7.1626743197583664e-04 -5.8946501520188723e-04 3.7517589516724908e-04 2.0320935678849565e-04 1.7149632907772355e-05 3.7663401652897749e-03 -2.1595921887823059e-04 -3.2028793663347113e-03 -3.2729347797683952e-04 -1.0687004965125148e-03 5.0347955510390901e-03 -7.9782659454322707e-03 4.3251464454387904e-04 -8.2132079115249980e-04 -4.2539629568553409e-04 1.8357548255093468e-03 -1.3316794216470265e-02 5.2731399359859832e-04 -4.3620850459596874e-04 -1.6696556166984067e-03 -4.4576863450426730e-04 -2.7520007798854658e-04 8.1174993989737571e-05 6.0694113750389084e-05 -6.0631268292098799e-03 5.6538317651753933e-08 -2.2918436437706913e-03 5.3664830605874604e-03 1.5434399864412883e-02 3.7648465623014035e-02 -3.6605145253007058e-03 1.5203485489755347e-03 7.5288145557217603e-03 2.8622263204548717e-04 -8.3312357226172813e-03 4.5015980860389007e-03 -5.4129833096749902e-03 -4.4676057570162755e-03 -2.2859634912895554e-02 -1.5260531191040060e-02 -2.7214394546406116e-03 7.5657912093814248e-04 5.4749887240874307e-03 -1.8831394832015548e-02 3.0722727368951768e-03 2.5247133553671919e-03 -9.3137943052055555e-03 -8.0508106482774060e-03 -9.1407998132476520e-02 -8.6474517743620763e-02 -1.3742955128013684e-03 1.7806188260377359e-03 3.9205459005732385e-03 -6.5539704303256927e-03 1.2063323091947280e-03 9.7008684371222148e-03 2.2494969472647303e-03 1.7138464873339698e-03 3.2635441168119284e-03 3.5825487788923582e-03 -1.3928394239150991e-04 -1.5661351086506264e-03 -2.3487844665236709e-03 -7.8710446712333822e-04 8.2235775646953224e-02 
      </Row>
      <Row Index="24">
        -1.0214795595303375e-03 -4.5404781589925306e-04 -9.9865624907870092e-04 3.3015132115548788e-04 -1.5488293915151704e-03 3.4157566857490676e-03 1.0371227341150326e-03 -5.7939126546347006e-04 7.9493738868475399e-04 3.6834366478409319e-03 2.8084159107508644e-04 6.9625349482160467e-06 6.5722658052588812e-04 4.6236844067001058e-04 -3.9876918020102206e-05 -1.3435715159909150e-04 -1.6123166844551201e-04 2.4642292605559927e-03 1.0677867669333686e-05 -1.0607236527435601e-03 -5.2584865010699513e-04 -2.4114104224891449e-04 -8.3411915856202324e-05 -1.2877236498625051e-03 2.0936423108853776e-02 -1.2592046722779728e-03 1.5765687879508265e-04 1.2744713724251143e-03 6.4169669083956639e-03 -6.2378973992035375e-04 -8.8770482207963484e-04 -6.8717725121025808e-04 -6.9885009653178700e-04 3.7216960563307190e-04 1.0408677150826979e-04 -4.7047146908646181e-04 -1.3982868097799847e-03 -6.8290789041903621e-04 5.2696461654608284e-04 -6.5673417380872519e-05 -6.3108769113940375e-04 -3.0092771823676139e-04 -1.1991593758413051e-04 4.7702570176440928e-03 1.0114594620823077e-03 7.8470501790471798e-04 -9.8879730379165635e-05 6.0290514747857737e-03 3.1273794301186781e-04 9.1555257685579580e-05 2.7951842059367182e-03 6.6884797886406812e-05 5.9055769289075282e-05 8.6177026818971413e-05 -1.2090904934338462e-04 -7.4813034773634022e-04 -1.0626763535204068e-04 8.3867884186257513e-04 1.8510593261453765e-04 -3.9253177604750301e-04 -6.0958871822623943e-04 -7.2142639668398845e-06 3.1254785964679355e-03 -1.0556178628987733e-03 7.1492533581324087e-04 -1.0076086469157032e-03 1.0846319910073218e-02 1.7843021730162226e-04 -1.7455435762075717e-05 -2.1332074927840061e-03 3.8756395287957825e-04 -2.3965403598063856e-04 2.2493906845748258e-04 3.9859498900034966e-04 2.1724213107109022e-03 3.8503597470360867e-04 -5.8196622793101754e-04 1.5624885290668293e-03 -6.0775003235774387e-05 -6.1394950126409612e-05 3.9576768680033708e-04 -4.3997037907338469e-03 -7.7020665981521186e-04 7.8511302762958313e-04 -8.3564733607153011e-04 5.4931439983619025e-03 -6.2746124432845780e-06 -8.1261334955980277e-05 5.2707844424486616e-03 1.5153093319342215e-03 -1.6016266120516900e-04 8.6404262871084270e-05 -5.2237689100309917e-05 -1.4091378747749551e-03 2.3529529196849967e-04 1.7553912595911665e-03 -2.0099700418609360e-04 1.6836812596852232e-03 -1.9766008320610965e-04 1.3482550001740301e-04 1.8470243809551158e-03 2.9193587487190881e-04 4.1698755283796612e-04 -2.2504146552987329e-04 1.6547178385485625e-02 -1.2566339810511575e-04 4.2251659477085432e-04 8.2506609890198312e-04 7.1039154427723236e-05 1.4372515563790359e-04 1.1084177724562342e-04 -1.1087671318254816e-04 1.0710814288042098e-03 3.0684185786095287e-04 -6.0227862029294532e-03 1.0751581714141881e-03 -2.6647383446220391e-04 9.1743820345190812e-04 -9.9328354576461511e-04 -2.0973200973174837e-03 1.8532506847735962e-03 -1.5907544196304430e-03 -6.8273019127618531e-05 -7.0451201742465219e-03 -5.8287434389639892e-05 -1.4342014754854509e-03 -1.1855854427682555e-02 -9.2049507497930674e-04 1.6859598052104609e-04 -5.1251744929826275e-04 -3.5125884877987605e-04 1.1443552177679873e-03 -2.4697275401267885e-03 6.3500403471866175e-04 -2.1879126293612510e-04 -1.6102935461997296e-04 -1.0012911872636827e-04 -5.7256384006476048e-04 8.2266862046413551e-04 -9.2302015104304275e-04 3.3782503107421193e-04 -7.3071444002068822e-04 1.1559718152822467e-02 -3.9441630560079415e-05 1.6156940941565944e-03 8.1367633027085162e-04 1.3568222372460084e-04 -6.2312059993564311e-05 6.9229888437107896e-05 1.6841872205610080e-04 -7.2079150729677938e-04 3.0503007881840696e-04 -6.6603270325482199e-04 4.7328704241011554e-05 -8.5579219913534989e-05 1.5551263097089707e-04 6.1313787477594757e-04 -1.9837572207700473e-03 9.5820142087097229e-05 -2.5284784098178123e-04 -2.7165792448314078e-04 5.5401324566041188e-03 -7.4667019181800728e-05 -5.2109290479038228e-05 -2.6948726415383373e-03 1.0179380792686558e-04 2.1025424084502361e-05 1.8908935711809674e-05 1.3615535159849663e-04 7.0575240087895029e-04 4.2218920438915827e-04 -2.1203069600377045e-04 -7.2067596178561257e-05 -4.6978616128121037e-04 1.7281095124371620e-04 -1.8786132607631493e-05 -2.9802690408887739e-04 -3.8243139089597566e-04 5.3130127427538114e-05 -1.5251959332659992e-04 2.7284142321742831e-02 -2.2916579151495290e-04 -3.2228582835864942e-04 3.6424482959365734e-03 3.0236908997077760e-04 3.6232161257628048e-05 6.3353322921220893e-05 -3.5589491332891921e-05 -8.7587983812346601e-04 3.7809210073441491e-04 -4.3110218478338569e-04 -2.0312703842899158e-03 2.0181052348400203e-03 -5.5101732670998459e-04 1.6031465067329026e-03 -1.5523110758920381e-02 2.5593063825849255e-03 -7.6045227223677870e-04 1.1834513802496446e-03 2.0525237666244714e-02 8.9826977899269689e-04 -1.1345051644938377e-03 3.8205531255708358e-03 3.0171414894688648e-03 5.4199641073541995e-04 -2.5564468347231083e-04 -1.5880559645707420e-03 -3.2433334033387003e-05 8.1802426188067349e-04 -2.0370183821725660e-04 2.4319292322127367e-03 -1.7613680339444550e-03 1.7151786719376183e-03 9.2720814757214353e-04 9.6932727542627150e-04 1.7998009285187019e-03 3.3735015932325352e-05 -1.0503840148745642e-03 -2.2299188339507730e-03 8.2952883736000897e-05 -1.4404013181824019e-03 -1.1369229257565372e-03 -7.8896929022164008e-03 -1.5694751991281721e-03 -1.1229242810247058e-04 1.1924674619607969e-03 -8.6170215029208216e-04 -1.5070180321667113e-03 3.5820532397632695e-03 
      </Row>
      <Row Index="25">
        -2.5601349709800568e-02 1.9594963174965354e-03 -5.8673691098248826e-04 1.0100934600932835e-03 1.0757681100917044e-03 -7.4370683339250291e-04 -6.6024095253277806e-02 1.2750881435545092e-03 1.9487668898663700e-03 2.8481052450999300e-02 -4.8586277522084083e-03 8.8268623865209520e-04 1.6196972391705344e-01 1.4669115460005195e-03 -7.8126405848614328e-04 2.4012882765278560e-04 9.8394736614040336e-04 -3.1126869671711443e-03 3.5802987050054217e-03 1.7338147540667315e-02 3.0440737758268693e-04 2.1092186124244952e-03 -4.1182507922685229e-04 1.6079887342000942e-03 -1.2592046722770256e-03 1.0787379726267485e-01 2.6320603876463121e-03 6.8233011200392662e-04 -4.8701352431105738e-02 -3.4574215806213423e-03 1.8345114177021893e-03 -1.1803133611456929e-01 1.3959909277113016e-03 9.9249747104421379e-04 4.4680066708185917e-04 -5.4481656290993508e-04 -1.3704231530048377e-02 7.7716228228743222e-04 -4.3817279507513830e-02 7.2736052600266311e-04 -1.5461356953031858e-03 4.0597545329071451e-03 -2.0698378748820910e-03 2.1256529704874569e-03 -3.4521129535795197e-02 3.9964822774662609e-04 -2.0997071349887009e-03 9.0708394535000694e-02 -3.8876368965111985e-03 -3.2888565272727898e-03 -5.8803501936904534e-02 8.9644329328786689e-04 -8.8943071545115240e-04 -5.1653875861707517e-04 -4.6889782766967036e-03 8.8318947601225412e-03 -2.0226099956124621e-03 -9.9827051612910722e-03 -1.6339554487746085e-03 1.0777834514984642e-04 -3.5618557988316545e-03 3.5361357510427984e-03 9.6599133100997629e-04 6.2539835233460919e-02 -8.7507432831354648e-04 -3.0972900218249359e-03 -6.0173707011843491e-02 1.7359490748321254e-03 -3.0915128668226729e-03 -1.3437685363990148e-02 -2.1003787233138328e-04 6.7875700733482968e-04 -5.8329945153549206e-04 -5.2366057809274183e-03 -1.4548584629431316e-02 -3.8000839148956901e-03 -2.6396617932164745e-02 -2.7332281936174319e-03 -1.4020185189429490e-03 -3.1613941203907634e-03 3.6501392708505609e-03 -2.7841917552809403e-04 7.5937899740714798e-04 1.5873482564674468e-03 -8.5391026519201791e-04 -4.2093424906730736e-02 5.2792971124321223e-03 2.0127735675835867e-04 8.9363957731484311e-02 1.3043564382887382e-04 3.7783727222778996e-04 -1.0507681479469608e-04 -7.8561096158627866e-04 3.8544745355687318e-03 -2.0985498172785590e-04 3.7213203315160391e-02 1.1051660055897664e-03 2.7764654931420451e-03 6.8517964019536868e-03 -1.3203774956638162e-03 1.1155921782785823e-03 -1.8674246425299950e-02 -4.9129949932571939e-04 -4.5921828032824685e-03 -5.2957662692153795e-03 -1.8191555267749091e-03 -7.4342115336446910e-04 1.3494841671978547e-01 5.4466974996655849e-04 -9.6885889537118435e-05 -1.8293296723515830e-04 3.0766242807018090e-03 -2.0221603804690264e-03 -3.6913724922652902e-04 -7.7836623385527659e-03 1.1023316936027358e-04 7.1378358415131321e-04 2.1649240090052191e-04 2.5273501554419790e-04 -1.1649802873987575e-03 -8.9889030079758122e-03 2.6939781960800581e-04 -1.7724494241227939e-03 1.1876014870932552e-01 2.1420581794335354e-04 1.5775435426581743e-03 4.9039300444647382e-02 -4.1850579600324428e-04 1.8577799560137536e-04 -2.0627892596788641e-05 1.1109783747685596e-03 4.7320851440576881e-03 1.1407692058318375e-03 -1.3527411228146040e-02 -6.7653866472075258e-04 -3.7351866174313727e-04 -2.4378763831067593e-03 2.5533902129950738e-03 -2.1019228554759612e-04 2.8385936982829992e-02 -1.9901478659531940e-03 -5.8398478116709202e-04 -9.6046610029245721e-02 2.7555463787207941e-03 2.5600137743143768e-03 -1.0835376459649285e-01 1.9747566771135888e-04 5.1874252153753916e-04 1.0426468162317451e-05 -1.3867625250214787e-03 2.6494287037042742e-04 -9.0390150386794751e-04 1.7646499230619339e-02 -6.7539868182407681e-04 2.4813742086795838e-04 -4.3256401397647939e-03 2.4353766872473592e-03 2.2285278812051931e-04 2.6210302367892877e-02 -9.3496900466227828e-06 -5.6672056633075328e-04 -2.7666507533317786e-02 6.8482320344953225e-03 -5.6106906181260102e-04 2.1597657540155524e-03 2.3831274670925169e-04 -2.1132293445968791e-04 4.2668108844784360e-06 -1.6948742194003302e-03 -3.7368896808501750e-03 -1.2719352762042176e-03 3.0230362355836007e-02 1.7973325123145714e-04 -6.5385297849049361e-04 1.4830526439837031e-03 -1.4468231112145283e-03 -3.8321223989815154e-05 -1.1453718230666213e-02 3.3796186245472733e-04 3.0055988792447629e-05 -1.3354049856776445e-01 9.7174920061653320e-04 1.3502726002730722e-04 2.6426090342313624e-01 6.0052447995172318e-05 -2.9149766849955301e-04 -4.6751475599031498e-05 -6.9427400702260379e-04 8.3453555149858617e-03 -6.6376548612256774e-04 -5.0876594880460410e-02 1.1246045565745497e-02 -7.5390553748735586e-04 2.4624440083269486e-02 -1.4977902590511101e-02 2.5571086595967451e-03 -2.0852819028331729e-01 2.1938996735588363e-03 -5.3309831647323797e-03 2.6504158815774420e-01 -2.0344852975504018e-02 -1.2007878891339249e-03 1.7215037012231749e-01 2.5721749036641262e-03 -6.5359009752427363e-03 7.7885440021889345e-05 1.5235000267759207e-02 4.6802467954466492e-02 1.3435135622395816e-02 -2.5340338256502615e-02 -2.7391010670750563e-03 -4.4112153029964418e-03 -2.2424079819068746e-02 -1.6899369608547130e-03 8.1639047802204399e-04 -9.3655480989457779e-02 2.3549483219685169e-03 -3.6901592978104934e-03 2.0240722953711585e-02 2.0683836882484503e-02 -1.3880499083782985e-03 -1.4100874269536506e-01 -5.8588369406755575e-03 8.9473770359356497e-04 1.3251316645043068e-03 1.3003639617040916e-02 5.0783181644735364e-03 -4.8603036552879331e-03 2.0635994727256562e-01 
      </Row>
      <Row Index="26">
        2.5959838367887629e-03 7.6670342270336363e-03 2.7226033728466048e-03 2.6957954237201280e-04 4.4907151583960143e-03 -1.6829348469819996e-03 -1.6864444030765657e-04 8.3304751235194430e-02 8.9783133177618636e-05 -5.1461926904354804e-03 9.4033949136414566e-04 9.8293640049354871e-04 2.3057691349900100e-02 -1.1147131960106364e-02 3.1105810926367744e-05 -2.0074767811265227e-04 -6.2306641793556834e-04 -3.1912034214983194e-03 -3.2801359963192502e-03 4.2701317674568307e-03 -5.5671268483049475e-03 -1.5581282940595395e-03 1.7559031525020401e-03 4.4111349477676809e-04 1.5765687879527868e-04 2.6320603876606018e-03 9.1499715757753716e-02 1.0264877144508487e-03 -4.0313982399572686e-02 2.0011053776784488e-03 4.3818238026325229e-03 -1.9226821270507344e-02 -2.7046520795574779e-03 4.9678521755600578e-04 1.2085718403339815e-04 1.1661841906976606e-04 1.2717521357065061e-02 -4.1966980593145659e-03 -4.4335940093520321e-03 7.0733658086837084e-03 7.6272537440391554e-04 -5.3918341669653442e-04 -9.2721689764564165e-04 2.7191950704977259e-03 -1.1082101591414900e-05 4.4572490729166019e-02 -6.9818030718487439e-04 -9.3413845936922146e-03 -3.7295150197165852e-04 -1.3887993225883619e-03 -2.0377614380257425e-02 -4.7619750572532264e-03 -6.1563848132814222e-04 -4.3966794704109607e-04 8.3260559770679116e-03 -7.5312513547999994e-04 3.6588750402306736e-03 -1.1369733682154770e-02 1.9770999829418698e-03 3.4177097952136672e-05 -2.5862153256380966e-03 -5.5849351199831962e-03 2.2054202544297074e-03 -6.9428040365340261e-04 -2.2027633677428569e-04 5.2998792708925345e-04 -4.0225898343788376e-02 7.6123339680010497e-04 -3.9443377449465029e-04 1.6202071253399453e-03 -4.3948233971386769e-03 -7.6779800651152318e-04 4.0220533402005086e-04 1.3854968392157114e-03 1.5621344663316605e-03 6.5185208902463106e-04 -2.5879543271268401e-02 -7.8632670051344833e-03 1.7234973361580502e-03 4.1607619388552737e-03 -3.6715796057795735e-03 1.3020909471008505e-03 7.0149284334612566e-03 -2.0817573854067684e-01 -8.7875212510087064e-05 7.9584065843827934e-02 -1.2907252884274516e-03 -7.1557830516706666e-04 1.0044817151638519e-02 4.2523153052437283e-03 -7.0058653035945558e-04 -6.9529614097218854e-05 1.1330349531394751e-03 2.4325779494436817e-03 2.0933917852384437e-03 1.2317436827911480e-02 -1.0649256715083511e-03 -2.6122175491548744e-03 -1.1749552232013538e-03 -1.6583039160703392e-03 1.0354960756657936e-03 5.3354996319831573e-05 3.4362381278359245e-03 -3.0529667460460301e-04 2.8199621173575357e-02 7.6277375156914981e-04 4.9839903495706823e-04 8.6779706199677092e-03 -7.5211748551532441e-04 3.5545694251553381e-05 -5.9636588180028076e-05 2.0675131394792628e-04 3.1842468189729536e-03 -1.7838377890744576e-04 -2.7870505248910327e-03 -2.4499222012572472e-03 -7.6718828675917394e-04 1.0340170786236908e-03 1.5590222983112995e-03 -3.9329477594252094e-03 1.6752947854218204e-03 -2.3917109760322387e-02 4.1636054623518659e-05 -2.0263355991558818e-02 -6.9336969983399901e-04 3.5722893974281938e-06 -2.6757236216297109e-03 2.7928236339699684e-03 -1.2666034378031542e-04 1.2992663793476604e-04 3.6412886824078886e-04 -7.4065688073257120e-04 7.0763349705113554e-04 -3.0543182322266826e-03 4.9749841334456434e-03 7.2964878455315275e-04 -2.6548648471578975e-03 -6.3706358498559078e-04 1.1792026616787052e-03 -4.1789279478121749e-03 2.7158599177720850e-02 -8.6403253981915610e-05 -1.2600917005198206e-02 -1.6294426497635655e-04 -2.5587194483616457e-04 -9.0718099646770467e-03 -2.4032856241249694e-03 2.1970027565532661e-04 -5.2141256778460976e-05 -1.7525374470107674e-03 -4.6338730557116646e-04 -1.3251200498375936e-03 3.7252039165193152e-03 -2.4965702040124580e-03 1.0111378523806676e-03 2.4831052809864435e-03 6.1883054611425181e-04 1.6292384988986219e-05 -5.5143357677326331e-04 -2.8319776142607056e-02 -4.8656221184267389e-04 1.9763974658385863e-02 -1.7059587346656309e-03 -2.0511145349426801e-03 -4.2330430049197787e-03 2.8209748849608116e-03 -1.0963322342510918e-04 -8.3638647694768073e-05 1.6383512991178101e-03 -2.8053083621674135e-03 4.0991464243070926e-04 7.7143378718973719e-03 1.5932055772518835e-03 1.1124134422436972e-03 -5.4601051258322314e-04 -2.0203649906126307e-03 2.0767537370520992e-04 9.5502771282773478e-04 -5.4006851209247747e-04 -4.8374755938065988e-04 8.8998554005299296e-02 -3.6206009940015812e-04 -1.3806268019165319e-03 3.5743387025134910e-02 -8.2238782369944562e-04 -9.5042767289768874e-05 -7.0248441634199096e-05 8.9813093528456575e-04 -1.6548031147334552e-03 -2.0039629967442182e-04 4.6976691042013574e-03 3.1178839387974874e-02 1.0892309280514990e-03 -1.9620927730778642e-03 4.2461897004369212e-03 -2.9697334056012735e-03 3.9500356970859699e-03 1.3352773465970046e-02 -4.3855178094025678e-03 2.0607919486360649e-01 1.8568629893573885e-03 -7.2282502350837167e-03 -1.8986971394399088e-03 -2.1206364758312883e-02 -3.2738981237841061e-04 -1.6924962830636638e-03 3.1890906331744893e-03 -1.0471181272215429e-02 -4.0091614142773119e-03 -6.7510752663298146e-03 2.3989382745789170e-02 2.4554773856353268e-03 1.7462302451336412e-02 -2.5904281027827828e-03 1.6278398277099315e-03 2.2203481773740413e-03 -8.8510172809372095e-02 9.0466568683041440e-04 -7.9436809100396216e-03 -2.6346962927428150e-03 -2.4168452197062713e-04 -1.4345055977436016e-02 5.8756529151227040e-02 -2.8250488960249644e-03 -6.8819900278046988e-04 -2.3912978239794706e-02 2.6015016094503075e-04 1.6933347896314767e-02 3.2901757249561785e-02 
      </Row>
      <Row Index="27">
        -2.1165652802290595e-04 -4.9575751649788254e-04 -3.6558519523130356e-03 9.8643487556988895e-04 -1.8894883399875678e-03 3.3881807601209989e-04 6.9028952050363983e-04 5.5420012225463082e-05 2.0692936318155958e-03 -2.0378879798815530e-03 9.1153450368384493e-04 -5.6709891044698672e-04 9.6303470005497938e-03 4.5234037839745006e-04 -8.0181725437657668e-05 -3.1974369115384644e-04 -1.3982730414386323e-04 -1.3751098135826381e-03 -7.9604045187596712e-04 -4.4709035647735318e-03 -4.8968497880511324e-04 -3.3219624197532768e-03 -3.8597282199114165e-04 -2.5504793188852910e-03 1.2744713724252370e-03 6.8233011200141865e-04 1.0264877144511401e-03 1.9709230085705812e-02 -1.3199901382122937e-02 4.1172293531686020e-04 -8.5307554273698905e-04 -5.3330624688845418e-03 -7.0164227872422614e-04 -2.7587006878345116e-04 1.0441259566147838e-04 -3.6318959425187133e-04 3.4579022513297510e-04 3.6655909920837483e-06 1.3085234501431183e-03 -1.8670337865431784e-04 -3.2137550308258588e-03 -7.3401829162839756e-04 6.1630086860289812e-04 1.0651975116762560e-03 -2.1620509049993710e-04 -4.7291672760269672e-04 3.5915103444892978e-03 -5.7455120525530179e-03 1.0757879680080838e-03 -3.6720637919861556e-04 2.5414065694626294e-04 1.1820121607603127e-04 4.4858610918669436e-04 -9.2411232222656915e-04 -8.2138120568693834e-04 -7.6461887814969879e-04 -1.2279620655748741e-03 8.7798699300636190e-04 1.4745668736773588e-04 -1.7241206946996468e-03 -1.5636578065489422e-03 3.2321967642655845e-04 3.5448315125616151e-04 -9.9797491195883353e-04 -2.3458537727718762e-04 2.1435242744192984e-03 -6.0391124673744301e-03 5.5714068572491979e-04 -5.1854423780601806e-05 -8.6060713321227666e-03 7.6480322529702831e-04 6.6925236928941823e-04 -6.4337910100729066e-04 9.7834267065083792e-05 -8.9470198302057762e-04 4.7792473012802056e-04 2.7246643288257183e-03 1.3220807899711386e-03 -1.3059577979826573e-04 -3.7794537281553645e-04 7.0174286696717686e-04 -2.5659308532530005e-04 -5.3035239637384129e-04 -1.8576450973507852e-05 -4.4786733108597432e-03 3.8573923045308600e-03 5.0812061951864985e-04 1.2053440619430087e-04 6.2909824865822195e-03 2.2789496527923850e-03 1.3728508953837759e-04 -6.1690430338347084e-05 -8.5295378856735035e-05 -1.6753445220934297e-03 4.0182433336176382e-04 -4.9289102720435352e-03 -1.1607791908162734e-04 4.3323364254591358e-03 -1.1745219514620905e-03 9.4458696107017600e-04 4.1501969461523163e-04 -9.2734232482965346e-04 -3.9740336624684075e-04 4.5199057668300017e-03 -5.3202580491183912e-03 6.1801224714150282e-05 1.0985193343499193e-03 -2.4425317055331019e-03 8.8143878199460754e-04 1.4543568604763387e-04 4.1155923765043984e-04 1.2581635111151438e-04 -3.2761616908645944e-04 1.9269075618232223e-03 -2.1571061531175106e-03 2.0981701293782198e-04 7.4113156822847720e-04 -4.2118840780078519e-04 1.2512322336825465e-03 -1.0375873898703534e-03 1.7529910552153451e-04 -1.0025023536973376e-04 5.7376500545358155e-04 -2.5659350829000394e-03 -9.7218958379094444e-05 6.2536493173614201e-04 -4.4785930794835060e-03 -1.1328148585762531e-04 9.8752780087622664e-05 1.4637982827538608e-04 3.0474023729236454e-04 3.7505410187819305e-04 7.5258811303573203e-04 1.1955817505789890e-03 -5.2203418952480145e-05 4.8742179548525453e-04 -6.2207132971158158e-04 -7.9631282935803773e-04 -1.2931672316098008e-04 -3.8841175078466444e-05 -9.8671192197597509e-05 -9.8202627493524080e-04 -8.1504341633595462e-03 8.1056681765489581e-05 4.2585722662412916e-04 -6.1932705725593201e-03 1.2279103420825301e-04 -1.7895869811859668e-07 6.0675833887170182e-05 1.0684062690983695e-04 -1.1130901413688188e-04 4.1115391329135090e-04 -2.4350191747354519e-03 -9.6959149982067325e-05 1.4768247881102761e-04 -2.1420149758080622e-04 1.4630769245323992e-03 -1.5744203294887696e-05 4.0440852477825404e-04 -3.0560574544736055e-04 -1.4438228385308650e-03 -9.8731156372447448e-05 3.8754787278548995e-04 5.0328171354356750e-04 -6.8392224617963571e-04 4.6208880834461806e-04 9.0632995151953893e-05 4.3468909868784114e-05 -1.6812483416439507e-04 3.6558815689784543e-04 4.5364355377088689e-04 -3.9563374073473337e-03 1.1330959984252236e-04 -1.1762919430680257e-03 8.7423555180076709e-06 -4.7180807703173819e-04 -6.8391827257702773e-05 8.7577689336461317e-05 -6.0101745247110130e-05 -1.1335662344899126e-03 -2.2019790750435475e-03 -1.9554679280587716e-04 -2.1648423784843699e-04 9.8033350054169688e-03 3.0004363903471143e-04 8.6274881103965892e-05 -9.9376175677478497e-05 -1.0589272820600429e-04 6.6241096935174687e-04 -2.8357632692595268e-05 2.6281349389899039e-03 -1.0371185360785254e-03 8.1583531543867500e-03 -3.2405896965237288e-03 4.0667659394490845e-03 2.0567386092623912e-04 9.4334778515482720e-04 -1.8381266670799909e-03 -9.8327724564854918e-03 2.1971569968037834e-02 1.0362315916234710e-04 7.7090428189840131e-04 1.5481621316703942e-02 3.5969485846018695e-03 -6.8791391792746512e-04 -2.6991871563375621e-04 1.4500244028204604e-04 2.4976139188743734e-03 2.2903953867203872e-03 1.8015889941409430e-03 2.5393254380866041e-03 -3.2286895248696550e-03 1.7559629944501509e-03 1.4836771574529609e-03 5.3031001175503595e-04 -2.9502338825835488e-04 7.9816418483375472e-05 -5.3374763484020319e-04 5.1846081265301009e-04 9.2416175702673964e-04 -2.3093185322531497e-04 -4.6347426521109666e-03 -1.4871974315547813e-02 1.3545998477412879e-03 1.2981022426492620e-03 2.8771155223392734e-03 9.8076857945616786e-05 -2.6592582478600101e-03 3.1930151838238043e-03 
      </Row>
      <Row Index="28">
        1.4126426946872501e-02 -5.6616555567709434e-03 -2.4471437448907896e-02 3.0109671139134661e-03 -1.9680813745763154e-02 1.1179200185068339e-02 8.1110022027755330e-02 -6.7513466141125314e-02 6.8903083261886537e-03 3.5098676837245790e+00 1.2715325850279405e-02 5.1983496494950859e-04 -2.0850079951120364e+00 1.2014345217364098e-02 7.0197520727416363e-04 2.6332211463344669e-04 -1.0599868901959159e-03 -2.7162471424142159e-02 8.1063621661425292e-03 2.1178659397514110e-01 3.2112480394984669e-03 -1.2390240816952947e-03 -3.0733597805010010e-03 -5.9538511121681736e-03 6.4169669083806724e-03 -4.8701352431468239e-02 -4.0313982399404057e-02 -1.3199901382150731e-02 6.8145152110963707e+00 -2.6321124343527111e-02 1.3123534430203865e-02 2.4496398846144984e+00 2.0950954162709097e-02 1.6781827517140164e-03 2.9098474713729061e-04 -9.4417570305802157e-03 -2.0091143947250045e-02 3.5135573956802078e-04 1.0703236835223513e-01 -2.4074579949156377e-04 -1.4376763302976135e-02 -6.1375036396464000e-03 -2.7894941384846092e-03 -1.7610973787077613e-02 9.4888417436800251e-02 -2.7647422218463072e-02 -1.3339160519319198e-02 9.8139127888462085e-01 2.4187062990991756e-04 1.2127843158172402e-03 3.6090383447829999e-01 1.5780370833092076e-03 -1.6344218570794964e-03 4.4400864256513382e-03 1.8960072075512757e-02 4.5121220811325441e-02 -8.3508773334346476e-03 3.9398975600800412e-02 -5.2669125554808231e-03 -5.6787271138096923e-03 -3.0300332269788711e-04 -7.1077901890315223e-03 -5.9816888504691853e-03 -9.7015343296113415e-02 8.5702278384524391e-03 -2.0356836664582975e-02 -6.8224985546225880e-01 -2.5173305307604442e-03 2.5468557816367768e-03 7.4313374037248359e-01 2.5949604309118538e-03 -3.7353172424233194e-03 6.1314161665342740e-03 1.3950798556886921e-02 -1.1814855653522471e-02 -8.5015930399303923e-03 -2.9042980426021797e-02 -5.1609251870399220e-03 -8.0308213802773309e-03 -1.2501043545260740e-03 1.0585319588752640e-02 -3.9849711329896509e-04 -4.3732594716941464e-02 1.2532263112831643e-01 -2.6649408643368844e-03 -8.9060569097005837e-01 9.0394035275290253e-03 4.3986953190679181e-03 -9.5962067179833932e-01 -3.5171238304455357e-03 5.5996996426623457e-04 2.2780378459450975e-03 6.6737456714448737e-03 1.2192331936140555e-02 3.6968289071941385e-03 -3.6904695584945468e-02 -1.3335018806500502e-03 5.4482189081121346e-02 -2.4553636146320973e-03 1.6984688261621757e-02 -1.2133693495725122e-03 3.3933398525773623e-02 -6.3232516471224375e-03 -1.1562414345814225e-02 2.9724918054816354e+00 -2.9921519339991612e-04 2.9141487615236897e-03 -1.1378060033583317e+00 7.9821845723362060e-03 7.6700068174370565e-04 5.9652578035379958e-04 -3.3478058838046095e-03 -2.6385867337402426e-02 2.3331163152209029e-03 -8.9127551345384859e-03 9.9361737921911109e-03 2.1918196191869355e-03 6.5399242548212951e-03 -1.5983961832035445e-02 2.0489568034339649e-02 9.4835086863463258e-02 1.4316108567298176e-02 -4.3854152188223181e-03 -3.2484746021638995e+00 -6.7291228103099829e-03 -1.4268444989312984e-02 -1.1444303395419624e+00 -9.0995654952868727e-03 -1.1085910157048926e-03 -1.4546888144192846e-03 8.0270938846646045e-03 4.0708090593864987e-02 -6.6797062063059798e-03 1.9780068655369965e-02 -1.1709274043641627e-02 1.6481547045514560e-03 -7.5278792072478486e-03 5.6112982265702736e-03 -5.3578622705877273e-03 -1.0720269311407526e-01 -1.1208246868576178e-02 -9.7567455949154752e-03 1.4839239906052348e+00 -1.0227078255322097e-03 -7.3676319183533963e-03 1.4981471753472162e+00 5.1123758473678466e-03 3.2513872659971702e-04 9.9974143558150593e-04 -7.2365246614019742e-03 -2.7733553326032900e-02 7.3934741773749174e-03 -1.8915958301591068e-02 7.8354565042780960e-03 -8.2106756456146596e-03 8.6123116152599759e-03 6.2873025106853220e-03 4.9147316614698844e-03 -2.6246431173991419e-02 1.5006183589104438e-02 -1.7440054198366159e-03 -6.8379448134814291e-01 -5.7369866456745012e-03 -7.0486833300388574e-03 -3.0036107881579710e-01 -1.3789758786062322e-03 3.3458070604321793e-04 -6.6234960047535370e-04 1.0223823394426027e-02 2.5226457536115354e-02 2.0184376651446630e-03 -2.5540485464038643e-02 -1.7671142731134289e-02 3.2294576235875339e-03 -1.4980060347209119e-02 3.7824460125417569e-02 1.2388170829719096e-02 -5.1402407219750534e-02 4.3875906210074887e-03 -5.4596085820972449e-03 5.9417268937729801e+00 8.6561820176717617e-03 1.0833851074552793e-02 -2.6895355520587696e+00 2.2155140155213651e-02 1.5418116785301077e-03 2.2631027452632438e-03 -1.1883521177552266e-02 -1.4077153909654799e-01 1.1916506057449372e-02 -2.3574607735444142e-01 -4.0697951707803909e-02 8.5025157048095129e-02 -2.6653832046856230e-02 1.0501040539209738e-01 3.4950273878404367e-02 8.0074572026471169e-02 -4.8254377786028868e-02 1.1770860288781736e-02 3.5359973409232617e+00 7.7674243353267391e-02 2.1813105797035073e-02 -3.0664496067602744e+00 6.9876393369844303e-02 9.8813834650445451e-03 9.1565188329539859e-04 -3.6021663090008704e-02 -3.6243399062628479e-01 6.7916940662263781e-02 1.0338200873992065e-02 -3.7819269325071965e-02 -4.4459835094614569e-02 5.9016438067969079e-02 1.4771918154869404e-02 -1.2886734758730298e-02 1.2707737123339710e-01 5.9185965072620778e-02 -2.0149166383339245e-02 -5.7455590595092454e-01 -1.6468466238888868e-02 1.4649282548724968e-02 1.7440110286812138e+00 -4.9466686796130088e-02 -2.1478062345251459e-02 -1.0332702783450137e-02 -2.8818910224842287e-02 3.2242417905370621e-03 -2.2119768973102461e-03 -1.2498405086090167e+00 
      </Row>
      <Row Index="29">
        4.4875674653260057e-04 -8.7213924853943303e-04 8.8920306490781337e-04 1.4299889891492886e-03 -1.6897060452946630e-03 2.4133711273506157e-04 -2.4590231747326032e-03 3.3372021625075288e-03 6.3876182231007860e-04 9.3567920535588822e-03 4.4799846682269176e-03 2.6714782144745077e-05 -1.4415381599100829e-02 -1.4410484138386880e-03 1.7847859825643499e-04 8.7257243074014999e-06 6.4896749515789014e-04 -2.7160327227975498e-03 -1.1945884209020401e-04 1.5391835154307670e-03 -1.5908242985145917e-03 1.3126941964114944e-03 -1.4549808380897688e-03 -1.3793179083280149e-03 -6.2378973992001374e-04 -3.4574215806215504e-03 2.0011053776763381e-03 4.1172293531663686e-04 -2.6321124343554950e-02 1.2536599123132635e-02 -8.0176393514341110e-04 1.0423836323461444e-02 -8.0462227811317730e-04 3.2663751168630277e-05 1.6694929179907926e-04 -7.5511056104012443e-05 7.3415799330235881e-04 -2.8053835809558627e-04 2.8087691635211472e-03 5.0913362729322967e-04 5.6016065382974249e-04 5.0220570747101388e-04 -2.3571684352930323e-04 -2.2933932855721324e-04 -3.9231401223787463e-03 1.4133144529207640e-03 1.9666867389240860e-03 -4.0668999052949767e-03 1.8578091896032870e-03 -2.7415443162063895e-04 4.9607583213768236e-03 -3.8901221228369431e-05 3.1016474683570085e-04 -3.1034731704047329e-05 2.1487766871326041e-03 2.5489647068821049e-03 -9.1543507569345848e-04 3.9965462279957231e-03 4.3789091255811211e-04 4.4025743045126610e-04 -5.9555035859226854e-04 -1.2059520759079480e-03 -3.5586772947481080e-04 2.0299473244228435e-03 5.6393270413190779e-04 1.4722094142591219e-03 -8.2892298857348279e-03 -2.1505504521040857e-04 -3.8566971373027665e-05 2.2993008519776037e-03 2.5196200385498428e-03 7.0402891430776111e-04 9.8397679149929396e-05 6.6403848320040294e-05 -4.1142179228816286e-03 -3.1530304912630053e-04 4.5821322769291212e-03 3.9349596020104988e-03 1.5769145227052112e-04 -1.7526431872993524e-03 -1.6429051722678389e-03 -1.5230666431283613e-04 3.8338417669182209e-03 -7.0143373790191033e-03 -6.6488618505305963e-05 -1.1723790728209726e-03 1.9572860931526270e-03 9.9582731056171298e-05 -1.7367763543235937e-03 6.2893833673077597e-03 -1.4657895028388052e-05 -1.4885482096619641e-05 -1.1997872745852451e-03 -2.3799887439736947e-03 -2.3474151951770328e-04 -4.3271820635426630e-03 -9.4122391629366088e-04 -1.4657861996302272e-03 -1.0183327215901100e-03 8.3786916381591893e-05 -7.9003517365179685e-05 -2.8259266785881365e-03 3.4791858732479320e-04 1.5973033790110350e-03 1.5363394241660194e-03 2.1274912443699050e-03 4.0851389684942599e-04 -7.1270321029834882e-03 1.5669367290898270e-03 -1.1715001136208798e-04 -1.8464162068102501e-06 -3.1619397053476810e-04 -4.5218407797682856e-03 -4.9723195693310621e-04 8.2033473366299736e-04 4.3710155851929468e-04 -1.7806278689380672e-04 -2.8220692107075880e-04 4.6051942184485164e-04 9.2424682441223475e-04 -7.7499771053575472e-04 -1.1902254755427988e-03 9.7711392640536274e-04 -7.2892897043118909e-03 -3.3904779495186072e-04 -2.0116098032827226e-05 -1.8396503365266104e-03 -4.5481432717653776e-05 4.4900430945993856e-05 4.1228033951107556e-05 -2.6980508729041689e-04 8.6632251655429683e-04 1.6274307754431117e-04 4.4762558562233537e-03 -3.4437739963141004e-04 6.6610014104382753e-04 -9.7243875777094468e-04 -1.1683954656504605e-03 -3.2963298194322210e-04 8.8283805170567007e-04 2.3137062928303993e-03 7.9515863117173057e-05 -6.1788062152178524e-03 1.1241213930044125e-03 5.3852358304728510e-04 1.3290086173027932e-02 7.9081751922354423e-04 -1.0788208505730843e-04 -6.0416656865801117e-05 -6.8329328035940731e-04 -8.0207483558428075e-04 -4.1784908437199125e-04 4.3692033193077247e-03 -1.5448115954032409e-03 3.8738657220810987e-04 -2.2599842012791540e-03 -2.6356833264686991e-03 1.2360311241054779e-04 1.4180961306160390e-03 2.1863424595787440e-04 -1.9863544792767820e-04 -1.5659912993974845e-02 6.1418826017222870e-03 7.7811155399239336e-04 1.4034791505842747e-02 2.9362942213545704e-03 -3.9209379605661477e-04 -2.5438258685898468e-04 -1.5844364437905744e-03 -5.5273438570584664e-03 -1.1355814069671395e-03 -3.7269132219786699e-03 -7.1151998944111658e-06 1.4562249799823367e-04 -1.7111406112212861e-04 -4.1776167688261463e-04 -1.8591334011274543e-04 3.7178683620773569e-04 2.4348050224602300e-04 -2.8811862934551697e-04 1.0097273824089722e-02 1.0345792423987381e-03 -2.2534092049320041e-05 -2.2999276854184791e-02 1.0815033493202330e-03 4.8133602991403453e-05 -8.8426485907290705e-05 1.7271157281781150e-05 1.2039110935269225e-03 -1.9414602166667114e-04 -6.1891134656563707e-03 -4.3722538850121170e-03 -3.3519973625405364e-03 1.1336877933752925e-03 2.2779837654223695e-03 1.2820769682160491e-03 -1.4857413313503903e-03 3.3514795630682735e-03 2.6124613433670353e-03 6.3340035893909186e-02 -4.3856909870435721e-03 1.1050322456800448e-03 -2.6158338331735642e-02 1.9009979517928691e-03 -1.1348186540053389e-03 -5.2945471605883761e-04 9.1995481907525094e-04 4.9866710410012040e-05 1.3863935543545526e-03 2.2931840092044187e-03 7.4692061610580028e-03 1.7913489253180836e-03 -2.3915823049178789e-03 7.7090942009205334e-04 -3.5964977453350295e-04 -4.6740775168211731e-03 -4.2659465802682853e-03 1.9952916285123322e-03 -1.1538967168610698e-03 2.9707885703625696e-02 -1.4203711678020814e-04 1.7372723505792744e-02 -3.4003746029820724e-02 3.1735635757498687e-03 -4.5422403115876061e-05 -5.5436896467295155e-03 1.6786391434355868e-03 -9.7819310387179168e-05 -1.3141894624367512e-02 
      </Row>
      <Row Index="30">
        -4.0771057605539385e-04 7.8886863891087437e-04 -1.4533802454608363e-03 6.1772887980273100e-04 -2.1445321580287721e-03 -1.7098544650689116e-04 4.2292467517963377e-03 6.2394796706457300e-03 8.8009850319644214e-04 8.2060511347603615e-03 5.3000156404917303e-04 1.5663873237571867e-02 -5.4552366595847612e-02 -1.4725877698603569e-03 2.3341554289441936e-04 1.9907436178021910e-04 3.4868789644584364e-03 8.9776066245897054e-03 -7.9849655023267485e-04 3.5583684449613795e-04 -7.8524699985637019e-04 3.8063223275028313e-05 5.4269502597656882e-04 1.1577006620196173e-03 -8.8770482207935208e-04 1.8345114176959486e-03 4.3818238026328248e-03 -8.5307554273728742e-04 1.3123534430073303e-02 -8.0176393514188584e-04 4.7403404912713221e-02 7.0771533552267840e-02 4.0133268780595093e-04 1.0917999280455582e-03 6.6782320494480907e-04 1.5569543043488835e-03 -3.5220751143493264e-03 -5.4612289416689020e-03 1.1914583314079776e-02 7.9071056838058774e-04 -5.1318501172174303e-04 6.6113365313225179e-04 -3.4221756062841752e-04 1.1037090751022079e-03 1.0068461824012760e-03 4.8349262491176360e-03 -1.7189229691841508e-03 5.0702872216421609e-03 -3.7124783529373295e-04 3.2708552717583567e-03 1.2095830109975798e-02 -1.3109081336811905e-04 -1.9620753237980376e-04 5.7638984104676832e-04 8.6450670539525779e-03 -1.2930713110988262e-03 4.9477706909976243e-03 1.4724344502465181e-02 6.3563287476603523e-04 -4.6791370155859976e-05 -6.6181628626739994e-04 -6.6211608814393912e-05 4.1194876136626548e-04 -3.3569333488569276e-03 8.4291489106319215e-04 -2.0518465347968279e-03 -1.2408964960604313e-02 -8.0145399727115339e-05 -1.2172449139250164e-02 1.0307425647406165e-02 2.0994922320001578e-04 8.1118412640560837e-04 8.3869052989881180e-04 1.2153166768400230e-04 3.2698912246843237e-03 2.5324015942333652e-04 1.7552229387439597e-02 3.0611442386354049e-03 3.2931749280687428e-04 -8.4473453442129517e-04 -1.0138607727447901e-03 -4.3406475184117770e-04 -9.5927927655448976e-04 -1.5893913486635713e-02 -5.9930686244935583e-04 -1.3919342484468161e-02 -8.3838182560302954e-05 -1.6083934166777475e-02 -3.7466017465165424e-02 1.4515039212837338e-03 -1.2228062383564840e-04 5.8018232852622125e-05 -3.5078492091811272e-03 -2.3512857456838062e-03 -1.1486176037239781e-03 -2.3265437528551727e-02 1.6545481103916225e-06 2.0991212532203915e-03 -7.8856328454525275e-05 6.9230565085363406e-04 -1.5422111440307112e-05 8.8474454614959888e-04 -5.3073624837986872e-04 -1.4952943085653763e-03 9.7938854704495738e-03 2.7630143814718917e-04 3.8746683063080006e-03 -3.6020647219372016e-02 3.1637048943516911e-04 -1.1610501582279884e-04 1.3362587207729662e-04 8.6994910735789283e-04 2.8951823689519502e-03 -9.2185801272457943e-05 -2.3806306719744708e-03 1.1078764339324981e-03 -3.2485988090139029e-04 6.5025490402182340e-04 4.9700011264800208e-04 -8.8897266224998144e-04 1.2603293188250958e-03 -3.3960805737318560e-03 -6.7247951402152123e-04 -3.4149328043864141e-03 4.9428373320245609e-05 3.4038267213086673e-03 -1.9609658198583069e-02 -3.5695332899820967e-04 2.0612803604226219e-04 9.2080286452251052e-05 1.2279958892262685e-03 2.0424644552178529e-03 1.5881539284630652e-03 -7.4330648223176234e-04 2.2478842679265125e-03 -1.7867549599159976e-03 2.0457177183656910e-03 6.5288137972482863e-04 9.2827429439918362e-04 1.4686763089077175e-03 -5.4642466499592443e-04 -2.8934913928702706e-04 1.5070331600755146e-02 8.0095207305175189e-04 1.0298355116372136e-02 3.0833158538511943e-02 -1.6044557331324032e-03 5.4830722237928756e-04 2.4075122895187361e-04 4.8153705589029970e-03 7.0795479259337796e-03 3.1287487415520882e-03 -2.7210286627112057e-03 -7.0233390857671416e-04 6.0357126175878371e-05 -4.3582034747102056e-04 -6.0985448234551765e-04 4.0863428580591946e-05 -1.3807990716213879e-03 -2.6551504967716744e-03 -2.5336714687496011e-04 -9.6737768871362206e-03 6.1311991841298506e-04 -4.1951543965461861e-03 4.7310286578721161e-03 5.4091885586789049e-04 -1.6755243907331293e-04 -1.4223703149929560e-04 -5.1414653531976079e-04 -1.3541980439462117e-03 -3.7029952664794003e-04 -9.7765624336339646e-03 -1.1711227100619746e-04 -1.0563244050144362e-04 -8.6453949501028775e-04 1.4384823002153952e-04 -1.1721803239808453e-04 8.6139125876435498e-04 8.4289199726778714e-05 -2.2344558126722295e-04 2.0160476241652854e-03 7.5900327291907608e-05 -5.1201115888972349e-03 -8.7566308541865867e-02 4.7209921277385509e-04 -6.3833901612770890e-05 4.6800205997202205e-05 -6.5781947995885719e-04 -4.6543345528892634e-03 -7.0356931027272529e-04 -6.5800175376602016e-03 -5.1077280965951084e-03 5.0289937413227556e-03 -4.9450297797450759e-03 -2.0338960559774496e-03 -1.4097192935162463e-03 3.0012245900711970e-03 6.4169640446688336e-03 3.0086195548451478e-05 -1.1602014605785823e-02 7.0975365846246558e-04 -2.1604119767527769e-02 -1.2059264207830411e-01 2.0837898446714521e-03 -3.8530157657862066e-03 -1.0863331638354397e-03 -4.9881936565927265e-03 -1.6100285911627616e-02 -1.1541320486528986e-02 1.1058891564439732e-02 7.0791433275837401e-03 -2.3200003413456557e-03 5.6158978815924027e-04 -1.1871288165466332e-04 3.8797658747908919e-04 2.7977190084327260e-03 -8.8534404745638645e-03 -1.5440797985199848e-03 -1.3765240275845538e-03 3.6239933924547022e-03 -1.0799706282112503e-02 6.5289353444778306e-02 -1.4971896924961207e-03 4.8788521876175330e-03 -1.0175316494787246e-03 -3.3576131066028914e-02 -1.6245351094857665e-03 1.5858978676005525e-02 -5.4171047268269899e-02 
      </Row>
      <Row Index="31">
        1.8086173294426777e-01 1.5433167313783625e-03 -3.5894402873282161e-04 1.7047409180989317e-03 3.8892933850073926e-03 6.4512720830749394e-03 -2.9203471032020301e-01 -4.3864177011718866e-02 4.0995846674400909e-03 1.0117910943854440e+00 -7.4573107723245151e-03 5.2089047349355155e-03 -1.4313980579156578e+01 -3.9872311145777647e-03 1.8858659108151876e-03 -3.6835230873592546e-04 4.3687712593644089e-03 -2.2283353503439365e-02 -1.1018780398110866e-02 -3.1466151630957029e-01 -1.1580399334341082e-04 4.6514235600518816e-03 -6.8465940719426898e-03 -1.0573736779306842e-02 -6.8717725136124841e-04 -1.1803133611905060e-01 -1.9226821270208895e-02 -5.3330624691416651e-03 2.4496398846207796e+00 1.0423836324099161e-02 7.0771533553902088e-02 2.3524173785532184e+01 -1.0108941459724413e-02 7.4892652781844305e-04 1.0881862131757458e-03 -3.1193238679773187e-03 1.3694370112414108e-02 -9.1414863449469329e-03 1.4951982413829262e-01 -1.1777347840481959e-02 3.4671518943023777e-03 5.7510835575014761e-03 7.8333594326171034e-03 5.1325606648994796e-03 -2.7565821273716129e-01 -1.9195533356550221e-02 -2.5056451353607009e-03 5.9712247654884620e-01 2.7817076355229307e-03 3.6280760964115408e-02 6.0106218206976454e+00 -2.2020104660543192e-04 -2.9031829689990345e-03 6.6258924524159376e-03 2.1054166399665064e-02 1.1261413286433306e-02 1.4958843128838772e-02 3.0563968492043614e-01 -4.5642418726841317e-03 7.1466821220717552e-03 6.6373660361962617e-03 -1.8301384731676765e-02 6.2517084242024270e-04 3.5643275843377509e-01 2.8789174915759996e-02 -7.1030494748662507e-03 -6.6077712874063077e-01 7.6882132445413032e-03 1.2998961682734025e-02 2.9944234699123484e+00 -1.4733575498977408e-03 -5.2936231847492020e-03 5.8487335583372411e-03 1.1160292661030378e-02 -2.1125275270591715e-02 1.0193335234564775e-02 4.1311544511785697e-01 -2.7867417696612051e-02 2.5810370427166163e-03 5.8532449134864398e-04 -2.9717024659703384e-04 -3.1121844279032879e-03 3.5799656069754782e-01 4.2655700275645358e-02 -1.2660470756884479e-03 -1.1007726136668663e+00 -4.4912946533202103e-03 8.9110821491730947e-03 -1.0036874901448389e+01 1.0354095905067088e-03 -4.1399665154348911e-04 -8.6916066191978364e-05 -1.2156937339436683e-03 4.8597700686220102e-03 -1.3256530558393820e-02 -3.9765445778411040e-01 5.2426121024963853e-03 -1.8135183880103455e-02 3.1841367666595871e-03 3.0835452603736645e-03 -5.5109336937885205e-04 -1.0306826696412126e-01 -1.0393152423534802e-02 -4.8722301670506511e-03 9.5279584568745535e-01 -3.0419334157501116e-03 3.3854680786600172e-02 -7.8270415345366144e+00 5.6247308700369154e-03 3.8937483755618228e-03 -1.6906315216302491e-04 8.9143627414268881e-04 -5.0243896801212525e-03 -7.0890509440780895e-03 5.2929427256799499e-02 9.9066149587085928e-03 -1.1753258909621488e-02 5.2727422960569441e-03 3.7304677778400653e-03 -1.0432506146328867e-02 5.1937509114339184e-02 8.7732444725430493e-03 2.5587999582880137e-03 -2.3575948586875333e+00 -8.1985105924355355e-04 -5.1162492719536670e-02 -4.9450050491795583e+00 1.1303154399826352e-03 2.8273765562477661e-05 2.3008865301948796e-03 6.6197774082894850e-03 3.7708157060865499e-02 2.3199696822189253e-03 4.9062106611637638e-02 -1.1824024708182805e-02 9.4398706813475890e-03 -1.5411406654830474e-03 6.4857205358980347e-03 7.1265874493393489e-03 2.7382674407695540e-02 -7.8906617538606616e-03 -4.8018234878941315e-05 1.4180358976587506e+00 2.1141851527588431e-02 -3.7917404989594991e-02 8.5177905436137280e+00 -1.3048884934706299e-02 -1.8486410832437249e-03 6.5471649728179740e-04 -4.2651572604459499e-03 9.2729120208078011e-03 1.3871242437737082e-02 -1.1656561308520497e-02 3.5408002756249818e-03 -2.8179553805217864e-03 2.5225997085765346e-03 -5.1180337199809856e-03 3.0547059376097099e-03 1.7926725759967149e-01 2.4970865725137514e-02 3.4286303578701313e-03 -4.5071779042777926e-01 2.2718046964422672e-04 1.8719222539859869e-02 -1.9274061420737780e+00 7.0356481094716351e-03 2.8990801072114256e-03 1.2284082647515677e-03 3.2604856897883103e-03 8.0940225470231275e-03 2.8960831176422924e-03 -8.3635984601997199e-02 2.0041983571132647e-02 -1.0951225945532272e-02 1.5565724170688083e-02 3.7922565934013796e-03 1.0814027070290295e-02 2.5655153557773974e-01 7.2036537886282573e-03 5.2552007245541717e-03 1.3598820644586729e+00 -1.3986433752525014e-02 -1.1929266804241499e-02 -2.1543272144956756e+01 1.5502703915407978e-02 5.1725895902235974e-03 2.4823774946602104e-03 1.4921157345938810e-02 4.1178502226660307e-04 -7.7354408863673195e-03 5.3953430203802033e-01 1.1593906669330588e-01 -9.6773535925543691e-02 7.0411548717838696e-02 4.4903626213626452e-02 4.6282301814105899e-02 1.0817903894826739e-01 -3.8562562604895739e-02 1.8588245976996369e-02 9.2114887817609681e-02 -1.2638829216166425e-01 8.7951545308293209e-03 -3.1228187519574050e+01 8.0126211520898064e-02 4.1329896509904207e-02 1.7434875371165962e-03 3.8423531784423461e-02 -5.9896879902913008e-03 -1.0636879687132836e-01 2.1718251760749752e-01 -5.2081839481910128e-02 8.9178656717646670e-03 -1.9427687871896193e-02 -5.5097109805177027e-03 8.3088323425744275e-03 -5.6036911719769855e-01 1.7244194540222607e-02 9.0213480485309971e-04 -4.4226441202589595e-01 1.9706718446908300e-02 3.3212814169332083e-02 1.6285939225373397e+01 3.8063981856096385e-02 -4.0209649210775078e-03 -1.4278182079823010e-02 -6.6710713883517625e-02 5.4671432542719861e-03 5.4259047654191539e-02 -1.5276066921535424e+01 
      </Row>
      <Row Index="32">
        7.8840047443369012e-04 -5.0710678745107679e-04 -2.4609833810896823e-03 -2.5829467084950556e-04 -1.1822563829737009e-03 8.4350358047444391e-04 3.9731162738816505e-03 -1.0713126940019102e-02 9.3819932714349840e-04 -7.5277210874985512e-04 -3.7535563259028589e-04 -6.6637106209169097e-04 2.3560490170453363e-03 7.4355874227781584e-03 1.4084532478944763e-04 -1.3434478684850307e-04 5.4598693208763325e-04 5.0664274216039341e-03 -1.4865270198517484e-04 -2.4615686055417044e-03 -1.8600564945653309e-03 6.4364697549380151e-05 1.1674881734009294e-03 1.3133682532833826e-03 -6.9885009653152322e-04 1.3959909277102122e-03 -2.7046520795580582e-03 -7.0164227872417800e-04 2.0950954162715779e-02 -8.0462227811410689e-04 4.0133268780382161e-04 -1.0108941459940013e-02 8.2663878601923965e-03 -3.1542836371836356e-04 -2.1907475237929481e-04 4.2777835318409701e-04 -3.6440097408806460e-03 2.2512760719971964e-04 4.4794915889353783e-03 3.8662069116079251e-05 -7.7863980135098603e-04 8.1269436220612933e-04 4.0535668583456096e-04 -1.9822051068910337e-03 2.7024041904841626e-03 -4.7674245573796391e-03 -1.4876331416831053e-03 3.1214756866074778e-03 -2.4657345423775455e-04 -4.4923696599944146e-04 -4.7998567856554208e-03 3.2140555136664318e-03 6.1803695354539084e-04 2.0535360124164081e-04 -2.0068815346074159e-04 -5.5943567892736620e-04 1.8319075994307128e-03 5.7251265379052174e-03 2.3907462613788778e-04 -5.9201592034066521e-04 1.9818632458022713e-03 2.2747426069823808e-03 -1.2447483940243168e-03 -2.6340142850484935e-03 -1.1303888296232481e-03 -1.0845912717039052e-03 1.5491407234331428e-02 1.8378351865135662e-03 -2.2242503664857399e-04 -4.3636875873622749e-03 3.4655378192272553e-03 5.3137311694448851e-04 3.5158068687272519e-04 9.2555032175347524e-04 4.2693665125954072e-03 8.5166628435931480e-04 4.2331635931748129e-03 3.6569916270974730e-03 -9.3047840552505385e-04 1.0143669666692993e-03 2.8012254872705478e-03 4.9673156454542108e-04 -1.8725752270158259e-03 2.0811350462873773e-02 6.3015457770149164e-04 6.1260501717691485e-04 4.3442291028238274e-03 -1.1479199083561662e-04 -1.7963100297786472e-03 5.9732576345923527e-03 2.8000241198030047e-04 1.8643338582363580e-05 8.5982765775528477e-04 2.8729634183695743e-03 -2.4382769470757126e-04 -1.0120163760592396e-02 1.3986751666622641e-04 4.0658481230871849e-03 1.0266644484264794e-03 5.9366256739908389e-04 -6.6120687588654050e-04 1.7934929152005888e-03 -1.8543418756198000e-04 -1.0884608623731792e-03 -6.8901231243788039e-03 1.1722324171473224e-03 -6.0428228267291094e-05 2.4604545475372941e-03 5.5547779032441775e-04 -1.1132042610411244e-04 -2.0224164954052264e-05 1.1349636063700283e-04 2.0691853104330641e-03 4.8610621822165628e-05 7.5560013455125419e-04 9.8195450926598718e-05 7.5941078408503157e-04 -2.7482204509661658e-04 -5.8520081958131354e-04 3.0800944583174454e-03 8.3211848185233556e-05 3.4187373755769587e-03 -8.4111227428040241e-04 1.4860713577104057e-02 -1.4883830249731549e-04 3.2207786654209029e-04 6.0590375781208738e-03 -1.2878376316175888e-03 -3.2281514665627280e-05 2.6828589213683711e-05 -1.1720428238868206e-04 -9.9219987724819513e-04 8.4862834139415311e-05 5.5076739767989241e-03 -2.6127982455698888e-04 -2.0174348396319037e-04 4.9079402099925791e-04 1.9323172095869518e-04 -1.1629062799657771e-03 -5.5474852671234288e-04 -4.0545200703180307e-03 -4.3077794541357124e-04 -5.5648975374092344e-03 5.4446054650576651e-04 2.5173333843556914e-04 -5.6328026912662588e-03 3.3729725239092930e-04 -4.4000457279687788e-05 -4.3387566924255448e-05 2.7872956320569868e-04 -1.1092576830908439e-03 -1.1215506338723585e-04 -2.9811827450764300e-03 1.0333554254052506e-03 -5.0334525898915541e-04 -7.2933271851202490e-04 -4.9199334684137813e-04 -1.7256217070576313e-04 -4.0801407201964887e-04 2.4472843113398784e-03 7.1721765881551714e-05 -3.9056697755991687e-03 3.1671232472511184e-03 -5.1722095940316334e-04 1.6195840925461447e-03 3.7346479856295795e-04 3.9180793446424252e-04 1.1918123788333445e-04 4.2650353964167852e-05 3.0615961944445054e-03 -1.4496572430245736e-04 -6.6202651247783545e-03 3.2706101418429525e-04 -9.5583707231040470e-04 2.1316768756459705e-04 5.0848892199686067e-04 -3.6262162443432286e-04 -2.1230877035279937e-04 -2.7050933501708986e-04 1.1025608655964718e-04 -3.2959102656950408e-02 9.9727960083086402e-04 -1.8588626841123455e-04 7.6446840907491431e-03 9.2298159578574801e-04 7.2849481496525858e-05 3.9984467337785619e-06 2.1272850342418911e-05 -9.6329953379226617e-04 8.1030656264636548e-06 -5.7462607323557902e-03 -8.6277139462405806e-04 3.3620824647124237e-03 -1.5154208074792182e-03 -4.2727999558540494e-03 1.8266948003116570e-03 4.0555841074354886e-03 -1.4290792363583910e-02 1.2585317139353143e-03 -6.4416877507396844e-02 -8.3470653933696891e-04 -1.7733019137119673e-03 2.8870840026131994e-03 8.6343479730538950e-03 -6.7352532275276265e-05 -1.6435577625584111e-04 -2.2900180572419521e-03 2.5010340452611530e-03 -3.8678469959449206e-03 4.8866911611031225e-03 1.9719208846409606e-03 -3.6767006791677491e-03 -8.1301129462229456e-03 6.4899384839688405e-04 -1.4305629527683770e-03 2.9986626881407857e-03 1.1228808946347559e-02 -1.8583306011870429e-03 3.6664631807911143e-03 1.4998830574837040e-02 -2.7374986845844714e-04 -4.0469570196951712e-03 -7.3032593652775396e-02 8.3025259603981914e-04 -3.8353220071044795e-04 3.0506517056809587e-03 -1.2960008907603668e-03 6.9416814983165565e-04 6.5567884882454059e-03 
      </Row>
      <Row Index="33">
        -5.5637185951243069e-04 1.4532308102047575e-04 -1.1818159856465116e-04 2.0973047946323760e-04 3.0360577870986116e-04 -7.8491773295496624e-05 1.1367140765194332e-03 7.1255429062635155e-04 5.1668125091536971e-04 7.2967452696642843e-04 -4.1706303128758446e-05 -6.3297392289390561e-05 1.6415965445408798e-03 -4.2938675278222899e-04 4.1480318470541377e-04 -5.9467456542503162e-05 -7.5226185267506115e-04 -5.8871793120143746e-04 5.6963029080389833e-04 -1.2480223185874773e-04 -1.8347687485236385e-04 1.4988140510009337e-04 -7.1219599071169716e-05 3.7351992734564049e-04 3.7216960563255658e-04 9.9249747103980455e-04 4.9678521755546498e-04 -2.7587006878389243e-04 1.6781827517939121e-03 3.2663751169153025e-05 1.0917999280486874e-03 7.4892652871128007e-04 -3.1542836371902238e-04 3.2524579358554871e-03 7.1906051935809179e-04 -9.2528611837476929e-04 -5.5923217416704732e-04 5.1275633335723858e-05 -3.7188154284329387e-04 1.5737320801628935e-04 2.2729078413484058e-05 6.4806574984397052e-05 -1.4360173227073465e-04 1.7372595111572894e-04 7.7005238317376726e-04 4.0877262214698883e-04 -2.6229536454973551e-04 1.2390920405049785e-03 1.2992103499631039e-06 -6.2956620539417391e-04 -1.1458943235017754e-03 -2.9288052391159675e-04 -1.8109791193034095e-03 1.6636727402706832e-03 -1.6534700991862371e-03 1.1474672982334615e-03 -1.3273194613070730e-03 1.5803616943388388e-03 -4.8363951732541678e-05 2.2026019985144665e-04 1.1283442772189525e-04 -2.0164688244017886e-04 5.5414219482832273e-04 1.3137350135805402e-03 -7.5379304460915751e-04 -4.7945679685807075e-04 2.2490796578760394e-03 3.9285367708231087e-04 5.6152396655286723e-04 1.9799092109529237e-04 -3.4098934230960014e-04 -4.5876612459449292e-03 1.2436261619413105e-03 1.8820725319507270e-03 -7.1033121375460584e-04 3.9878943702332940e-05 7.4079085612073145e-04 4.1336781642711817e-06 -6.2887350129325892e-06 1.5658495519007545e-05 -3.3612982439717998e-04 -6.6113107759544799e-05 -5.5173988806328164e-04 -9.5009933881429198e-04 -9.7458451006920965e-05 4.0146794086509674e-05 1.7100549163436701e-04 -7.6943060651171163e-05 -1.1272515470382022e-03 -3.8748924980304221e-04 -1.7463708137211839e-03 1.1198195457285754e-04 1.2770671023036155e-03 8.3907841446078345e-04 9.1770125153815135e-04 5.4384668839124045e-05 8.0420392460039638e-05 3.7221640482995241e-06 -1.2098298320962862e-04 -1.1215868132123495e-04 1.3687236937763244e-04 5.1568249146047393e-04 7.3333995502816029e-05 -5.4756004241780397e-04 1.4770093409401386e-03 -8.3458767125930852e-05 -8.3717612702421539e-05 2.6332240700893336e-03 -6.2398269959181591e-05 6.1815158422423111e-04 2.4421603081056439e-04 -3.9307285522852749e-04 -1.1442492627365751e-04 -1.5662782183513841e-04 -1.3655781668703293e-05 -1.1443188367891467e-05 -2.4816776258469167e-05 -1.7650852534371896e-05 3.8577501531511450e-06 6.6046158885034846e-05 4.6038975468177309e-04 -2.4654557006529464e-04 -1.3728365809749911e-04 7.7346463611342731e-04 7.3373761040045494e-06 9.9743538701332359e-05 6.3904875874320512e-04 3.5030810333527135e-06 -2.5423605920676701e-04 -3.7893543299602543e-05 4.3193821738810885e-04 -7.3562731112749441e-07 2.4266203549120485e-04 -1.9522987204258734e-04 1.2434250132230869e-05 8.3252872875594092e-06 2.4318852060943293e-06 1.8422893550363272e-04 8.8166535804360823e-05 -9.0915136440039611e-05 1.3122380528298502e-04 -9.5260959798498579e-05 9.9055660535521395e-04 1.0958806152650249e-05 3.3668153519797516e-04 -2.4264138243523803e-04 3.8489028002103081e-05 -5.3746985535653252e-05 6.7775879736776422e-05 2.1116036966951617e-04 2.3062353860585743e-04 -3.3040232285196878e-05 -1.9870742044863707e-04 1.4560469519121224e-05 -1.1158087203920556e-04 1.5278168415479719e-04 -1.2516992231784152e-04 3.1113573412817647e-05 -9.2253956022773746e-04 -1.2397244824806364e-04 7.5372833135205718e-06 -4.8176067568796166e-04 2.0950495683987177e-05 -2.6630991732017658e-04 -6.5296525312996678e-04 1.2784744505661493e-04 -2.9944674084493019e-04 -4.2466883206407921e-05 -1.8120183628021367e-04 6.7064716331983673e-04 -9.0738431282797165e-06 5.3362458163086013e-04 1.9985911143881514e-05 5.5488681052502935e-05 -5.8662421609676562e-05 -7.3694290969071011e-05 2.7643555662096542e-05 2.6414621924804467e-04 2.8377342552876665e-05 -7.1461688174118059e-05 2.9492420578283527e-03 7.1970248709655725e-05 3.1599612053873960e-05 3.3546313520878834e-03 -3.6491972001845304e-05 -5.6665680168803661e-04 9.3351749840309345e-05 3.1279105009291135e-06 -5.7822762857115656e-05 1.4584505813041544e-04 -7.6474793100174149e-04 5.0433555388562873e-04 -3.6332964399984831e-04 4.3223262948673905e-06 -8.7264912230651287e-04 -6.4955309988743663e-04 -3.1276267695581634e-05 9.5856393445243097e-04 4.1302802417370510e-05 3.3645400746751567e-04 -4.2433916765481769e-04 -2.1296989330298697e-03 1.9376431420133899e-03 -1.1075638966679129e-03 5.8488322764031885e-03 -1.1486932656718836e-04 -4.1794297379335599e-03 1.0960956994952714e-03 2.9681690167208982e-03 4.4002395343585576e-05 1.2741519788796673e-05 -1.9361573142684781e-05 6.7211139868667967e-04 -2.8005618582781211e-04 4.1664990429917686e-05 1.0022981804897004e-03 -5.1307255132694509e-04 -2.9701355070118967e-04 -2.0175734553213437e-04 2.0602354342468508e-04 -1.6449668131006021e-04 -1.6147561027664010e-03 3.3340874881937115e-03 -1.2683643262713306e-02 -2.1592797495823875e-03 9.4926066620696376e-03 2.4644154168266852e-04 -3.9852411771720301e-03 7.1054646989016984e-03 
      </Row>
      <Row Index="34">
        2.2222791851241668e-04 2.2113114819396790e-04 -2.9770994542725401e-04 1.6689397132454477e-04 4.0157196431497833e-04 -4.0492141206502266e-04 5.6238154178226839e-04 7.2311545490732197e-04 -3.8197927084998888e-04 1.0272860347533275e-03 -5.2474009709026009e-05 -2.3352251419550205e-04 -2.0480867387632773e-03 -3.3087507517833584e-04 9.1362252956661474e-05 6.5952207036996057e-04 1.8125757347877162e-04 7.3086691046657273e-04 -4.5042924021180663e-05 -3.4401679615312514e-04 1.9899343513924851e-04 3.8525030266220277e-05 4.2764370695200622e-05 5.2720688916135794e-04 1.0408677150816181e-04 4.4680066708023027e-04 1.2085718403272042e-04 1.0441259566145171e-04 2.9098474715956099e-04 1.6694929179952639e-04 6.6782320494556020e-04 1.0881862134271003e-03 -2.1907475237925670e-04 7.1906051935794965e-04 3.2425114058728275e-03 3.4063384929116335e-04 -4.9235755164739325e-04 9.1052143462026758e-05 -2.1347978989310337e-03 4.2119528978761239e-04 -3.9423675376231587e-04 1.3695934443457502e-04 -1.4058170100546535e-04 4.3032681306569840e-04 1.6671031592797273e-04 1.7240496920507419e-04 -8.1898200867587209e-04 1.3602299727070635e-03 -1.8069821077699853e-04 2.8176861546701758e-04 -1.7958323516930816e-03 -8.0594126085040043e-04 -1.6429584920599611e-03 7.3029505619568950e-03 -4.6263031414157029e-04 1.7720220245788067e-03 -2.0459392935542739e-03 -1.1410769133783083e-03 6.2091275861711308e-05 -1.6281043351883660e-04 1.0625839929183568e-04 2.6890856144987064e-04 3.4318323138926045e-04 1.1711922018795735e-03 -3.5679929329106666e-04 -6.6344505371963120e-04 1.2723720859731530e-03 2.4538192447324104e-04 6.0939839670771326e-04 -7.3790249266125763e-04 -6.2684316016167621e-04 -2.1744497649842493e-03 4.9159960280933347e-03 -4.8908399954495751e-04 -6.4192020245842397e-04 -1.8409356995226010e-03 4.8045943539631875e-04 -3.9456511457990062e-04 -5.5975535183922995e-05 1.8810202960690362e-04 -3.0773074881709078e-04 1.7413080764577436e-04 5.6330901076331874e-05 -1.6904976369662011e-03 -7.7724593331836289e-05 2.2442562974911914e-03 6.5475570746206108e-05 8.3380254441901770e-05 -7.7742566304606076e-04 -1.6403453746670539e-04 -4.6662242864350972e-04 -4.0293753984391292e-04 -5.3705247105612346e-04 -2.4708274324517637e-04 -1.6785189762733715e-04 -8.2471908238535702e-04 7.8333562408730031e-05 2.2327031241856131e-04 5.4747512605550281e-05 2.8166642893578638e-05 3.3296177038470443e-04 -4.2823543011280465e-05 -3.3824324400640729e-05 5.3050440397366312e-04 1.4318927387207787e-03 7.6766869643833836e-05 -2.8033053900645768e-05 -1.9718003335463183e-03 -4.5115042052447791e-05 1.8427312872966174e-04 7.4424188164226449e-04 -9.6880767944221649e-05 4.6160905314247260e-04 -1.6664329121883270e-04 -3.2569205060042905e-04 -5.7968023645721053e-06 -2.4348559412088692e-05 1.5409381548829831e-05 8.5676893804077325e-05 -2.1271063031697737e-03 1.7914414660124634e-04 -1.5588131475288540e-04 -1.0570736327598419e-04 1.2078858130635389e-04 -2.0011381496619785e-05 -4.9460722490684802e-04 -3.4242017726088259e-04 -7.2061155578436473e-06 -5.5395669910280969e-05 -8.7774006825574330e-05 -2.5710360577949629e-05 -2.9638574477027987e-04 -2.1595676765080729e-06 3.2525221172697606e-04 5.5481548178817897e-05 -9.8545959499934366e-05 -2.1775681690152969e-05 1.5280399946325179e-04 7.1204628917385568e-04 -1.0504373106065079e-04 3.4256321734698919e-04 -2.6092035767149503e-05 -1.3658652299367337e-03 -2.5838478108278505e-05 -1.3082529066593073e-03 1.5185236427557314e-03 5.2907354670720554e-05 5.0689513621433703e-05 -3.6690392455364995e-05 -1.0982304751312386e-05 -3.7611875500397524e-05 1.7046773600926096e-04 -9.1622371289248883e-05 -1.0453782517061156e-04 -2.7601865078654309e-05 6.1522658085165298e-05 -1.6473979507378514e-04 1.0117979068793512e-05 -3.2471041831845835e-04 -1.7976678593299711e-04 -2.4580194946258313e-05 -8.9770457559984473e-04 4.8716211112982319e-05 2.0412619216849813e-04 6.2996054671216051e-04 6.3655271148492574e-05 -1.5763116245116893e-04 -1.5245634130118266e-04 -1.8440005433543839e-05 3.1300212558463616e-04 -1.7988676711274093e-04 -3.8919158326742535e-04 -3.7162756722357038e-05 -4.1277739257230116e-05 -1.4476194427700924e-05 -4.0330945149497175e-05 1.9422226731296592e-04 3.2841041448420098e-04 -1.3118664307719624e-05 -1.2795956239852648e-04 6.6421524986631265e-04 2.0940782118751206e-05 4.3589635142521278e-04 -2.7101506747802262e-03 -6.2583381600817792e-05 -3.0009940504323600e-04 4.5246327130427772e-04 -4.3410599765014799e-05 -4.1278963042676179e-04 -1.9133276918011045e-04 -1.8539287721375114e-03 6.5902545274298691e-04 3.0962845609545215e-04 3.9517243072688217e-04 -8.6213235465596274e-04 -1.2560020207528818e-03 1.0991247471625761e-04 3.0922094912339915e-04 2.1283985092969621e-04 3.6616107679430625e-03 -2.9624920480455803e-04 -1.8854700932510629e-04 -5.6888623718671528e-03 -1.5240050772845350e-03 3.8440056202912985e-03 5.0017367889598459e-04 7.0234292551747896e-04 2.6197194223755004e-03 2.5289846746532761e-03 3.1251460116740043e-04 -1.3854688095703976e-04 -6.2667239100696063e-04 4.5823559044905465e-04 -3.8231892196384802e-04 8.0968834464744690e-04 1.6079259660625191e-04 -8.0609680194354463e-04 -1.1608330012145363e-04 1.2646273834329222e-04 3.1117825584330103e-04 1.0399631682039634e-03 2.0401186239912194e-03 1.7858592858651583e-03 -4.3449455189857496e-03 -6.1711122447576684e-03 -2.1857872802683691e-03 -1.5184074773480190e-04 1.1769544987632991e-03 3.8898623821786342e-03 
      </Row>
      <Row Index="35">
        6.6599693317868610e-04 6.5617214572923223e-05 1.4190652709181184e-04 9.6375233737816578e-04 -7.8372581004798256e-04 4.5454594784170719e-04 3.4802792994876831e-03 6.8996166026496478e-04 1.9533234359495858e-05 5.4262410626804147e-03 5.9710929509919678e-04 4.2773246015562066e-03 1.4700338469396890e-02 2.9890055660717382e-04 -7.2969134196896549e-04 -2.1744736801174335e-04 6.3054941568458159e-03 -6.1636503395327748e-03 -3.2660881383827036e-03 -8.0117674564672559e-04 -1.2574203201915282e-04 5.1656388018442995e-04 -7.7088001479964723e-04 -6.6480047946687604e-04 -4.7047146908502091e-04 -5.4481656289177491e-04 1.1661841906728836e-04 -3.6318959425034672e-04 -9.4417570307747944e-03 -7.5511056106550127e-05 1.5569543043373185e-03 -3.1193238702869053e-03 4.2777835318619239e-04 -9.2528611837317063e-04 3.4063384929173407e-04 1.4695789853295629e-02 -7.7407361877653079e-04 -8.9864292097104580e-03 6.0448156692284802e-03 -3.4678104345974557e-04 1.0491900080873764e-03 2.0865969977585169e-03 1.8106917089966840e-04 -2.5583635048021577e-04 1.7775863642248337e-03 -8.0628831815840940e-04 -3.2228825257341238e-04 4.2453976760972040e-03 7.8159915321108359e-04 1.5479274602900007e-03 6.6445034385054225e-03 4.3510205614137024e-04 6.5431198277852466e-04 1.2524242093587129e-03 1.9232918261164227e-02 -1.2942362012266927e-03 6.9875647633328552e-03 2.9315456302067000e-03 -1.4481090633594726e-04 -1.6355198959354649e-04 9.1627375458819391e-04 2.2444383803636204e-04 -1.1914367099941248e-03 -5.6547809404442258e-03 1.0726901576467362e-03 9.6125221311149384e-05 3.5106404487791898e-03 -1.4768698202759483e-04 -3.7366604657664221e-03 -2.3845440494856263e-03 -4.0733979628581512e-04 3.3280040870204662e-03 2.7188547150085113e-03 8.6616526115957521e-04 -2.9916157294690854e-03 1.7471927476839795e-03 2.9935257288354611e-03 -1.2995209187842416e-03 -1.1698853977112900e-04 3.7982243332826751e-04 6.0712988420541514e-04 -5.4334761529562740e-04 -1.0400573359114554e-03 -4.1308679480930310e-03 8.3123703984111508e-05 5.8317591021977977e-03 -1.3776231516114679e-04 -3.4879320495882146e-03 1.4375394237791106e-03 -5.8629804840650728e-04 1.5107722149416422e-03 8.5863520316193601e-04 -7.1896572129615446e-03 3.8289821180445796e-03 2.2449122597406612e-04 -3.5043794908323697e-03 -9.3174944246116748e-05 -2.7980595911322650e-04 -4.4310828095808004e-04 3.0375329589928433e-04 -5.7502952373489260e-04 1.6206747773223349e-03 -5.5619912896453833e-04 -6.6096812365695930e-04 3.1283386092312362e-03 1.1661357125265255e-04 5.9664473096160886e-04 1.0252229815865377e-02 -1.5041511102652162e-04 -3.8224868493936333e-04 8.2527115968116015e-05 2.6291502855663893e-03 -3.1041968203215221e-03 -1.5173294168179172e-03 1.6942146185683349e-04 -1.2499892356883542e-04 -1.9838910976602286e-04 -2.7499699487048597e-04 -1.5298713550611636e-04 1.9547496922435468e-03 5.0362017044153912e-04 -7.3191193967759769e-04 -8.0912161355154106e-06 -4.8025041219393327e-03 4.1203352685349531e-05 2.3081422733726301e-03 4.6326374378513613e-05 5.5601337996707715e-05 3.0942116007548232e-04 1.1666271189304713e-04 -1.3165934917535433e-03 1.8053032040209055e-03 -2.8134112313227266e-05 1.1911657852426700e-03 8.9902223156441182e-05 -3.9572290720427420e-05 2.2428038240524187e-05 -2.4962815376958290e-04 -7.9569201063014268e-04 -2.0194977532816652e-03 8.1728565778433487e-04 9.2409097091618317e-05 1.2956711848252610e-03 -2.1366473512941255e-04 7.1040060569203837e-03 -6.1718365248601970e-03 -3.9394752531525355e-04 9.6633555786509610e-05 6.9672041183207567e-05 1.3015372491625434e-04 1.2481677766249697e-03 -1.3164833671698985e-04 2.2529022678710597e-04 8.6706328787705808e-05 -8.6771383339971989e-05 3.1691482319165965e-04 2.6304325927503647e-04 1.8655138102384797e-05 -1.6067637080024507e-03 -5.4863153103068552e-04 -5.5455731362708937e-06 4.7151692120200039e-03 -4.0048662432255744e-04 -1.7077612890505130e-03 -2.4222571496501644e-03 4.1189199853609127e-04 8.4622780338380722e-05 -3.3983758846839116e-05 -2.7960085498295018e-04 -1.8433454844059977e-04 6.9450069709015732e-04 -3.1203760490838891e-03 3.7918667308543857e-05 2.6220848326688169e-05 1.7175756765359717e-04 4.7648713348473628e-04 -1.2273947656622395e-04 4.9853946994271418e-04 1.2782062710299454e-04 9.7817352303923124e-05 1.5536507511921831e-02 6.2065547260087761e-05 -2.4502473561426831e-03 2.0363358665380416e-02 -6.2948092788601273e-05 4.3930201995686638e-04 5.3223057373579820e-05 1.0425384739269565e-03 3.4947554014329082e-03 4.1117812285493158e-04 2.2238245469795477e-03 1.0679572061745735e-03 1.2388740254382026e-04 2.7935588305870816e-03 2.9881878804981854e-03 1.8555824361185138e-03 7.6489437217600233e-03 -5.2881439456828544e-04 -8.9525480291046202e-04 4.4825673474452911e-02 2.4614107461821758e-03 -1.2606454371094603e-03 2.6143624480268191e-02 1.9918369939706682e-03 -6.0934174779295278e-03 -2.3501743139968138e-03 -8.4453312728698764e-03 1.6134768475650485e-03 -1.6955323670962551e-02 2.0339650972592549e-03 -1.7564365599639351e-03 4.6181432774521948e-04 6.4168270922134699e-04 3.2630433224883801e-04 -9.9002088594839395e-04 5.3158612786542193e-03 -2.4047638788369258e-03 -1.3953689774935858e-04 -1.6754876056559842e-03 -2.0885433059316377e-03 -7.2762373569937346e-03 -1.0519551086626406e-02 4.9018345297290660e-03 1.3448236753849414e-02 -3.9701331733035380e-03 -5.5579005300995396e-02 2.0241465600785860e-03 1.9455439369282554e-02 2.7964409970835137e-02 
      </Row>
      <Row Index="36">
        2.7032324654538420e-03 -1.8746364376639492e-04 -2.8965666801278322e-04 1.2256043078555734e-03 6.4353108439913608e-03 1.4293684541742515e-03 6.5203500772128900e-03 1.6309318381281870e-02 -2.7514955242320120e-03 3.7537228639255460e-02 -5.0703402237547808e-03 6.8733276842101246e-03 -1.2379948762217818e-02 -1.4955897768570308e-03 -2.1510520277825962e-03 -1.3216711876224473e-03 5.6137677607398561e-04 -4.2326067215298047e-01 1.0918211523925758e-03 -1.5976759134709861e-03 -4.6556081768449244e-04 1.3316603213600758e-03 -7.7146988546870753e-03 -2.1633522012161066e-03 -1.3982868097791173e-03 -1.3704231530043881e-02 1.2717521357068943e-02 3.4579022513275826e-04 -2.0091143947370271e-02 7.3415799330215498e-04 -3.5220751143506812e-03 1.3694370111359433e-02 -3.6440097408778596e-03 -5.5923217416655856e-04 -4.9235755164707407e-04 -7.7407361877421276e-04 4.9035062231300708e-01 -2.0825454565503079e-03 7.1095274626798138e-03 4.8852706288057390e-04 1.4726519724396437e-03 -1.8383566182008739e-03 -2.1365340387792739e-03 -2.7763638180396430e-03 1.9438983019292248e-02 1.2980656609840623e-02 3.3413202910616614e-03 -3.5104793348514629e-02 -9.4974537977119723e-04 -7.4293627836702920e-03 1.8644252806606421e-02 -1.7813239249447090e-03 7.7650060155557065e-03 -9.5762748938692851e-04 5.8930515808826509e-03 9.8730880709260366e-02 -1.5880625276294517e-03 4.0499379385315892e-03 7.0569770036989568e-04 -4.9919438112849563e-04 1.2513069434227477e-02 5.9452925287444489e-03 2.5153333269785794e-04 -4.2454814237562186e-02 2.5696601321433723e-03 4.5137892126960047e-03 5.8058252145829492e-03 -5.2171097950045181e-03 -4.6984518591642623e-04 -2.5550907587725380e-02 4.7256031997268709e-05 9.5001654414977720e-03 3.1844489576196870e-04 3.5949857558622107e-03 -3.0620675209591319e-01 4.5370813954293942e-03 6.8914510695371189e-03 -1.3327932979119161e-03 1.5878611414783736e-03 5.8729078045906768e-04 -1.1724779638090377e-03 7.5004512633423828e-04 -8.2686280165901460e-04 -3.5274329189960207e-02 1.8851624800245714e-03 2.3436145818418477e-02 -7.9678993473472626e-04 -9.0604015093824833e-04 6.1964596258446969e-03 -1.0829634237814667e-03 3.1523057696190024e-03 8.1061874694609171e-04 3.8059448917697122e-04 1.6540169392627632e-02 1.2332931604300545e-03 -6.0687064835183799e-03 -1.7880567891085182e-03 -2.2400762354324397e-03 4.1193432206183406e-03 4.1451337608850863e-03 -2.9056299504836474e-04 2.7103901340084190e-04 -7.1464159539775694e-04 3.2999947931058957e-03 2.3514030229435878e-02 1.5461329014793026e-04 4.0375960314940349e-03 5.2391156418458706e-03 9.3671533409797223e-04 -3.0219851163772330e-03 -7.9483863766555021e-04 2.0809466967821179e-06 -1.1534927332270840e-01 1.4832455594585444e-03 2.6748357649111210e-03 -1.8254471821825546e-04 -3.6384410001920331e-04 -2.3438910755756133e-03 5.8199964703387703e-04 4.4575977358391247e-03 6.9001399665186841e-03 -4.7485558736987780e-03 2.7452903387459211e-03 -3.9400684390171248e-02 1.4277233223368322e-03 1.8541269571098456e-03 2.2373451238655306e-03 1.0102860227065786e-03 9.8269444595060510e-04 4.9083744829971510e-04 -5.2239221349993517e-04 1.0213299401941425e-01 2.0363639360637675e-04 3.9906383608005747e-03 5.8618730638198711e-04 1.2082954922258329e-03 5.5069274433534193e-04 -7.6320035159390363e-04 -2.3238723651233645e-03 -7.9503501532563678e-03 7.9788070200537062e-03 2.1852042872605604e-03 1.3378804957514791e-02 1.3059563341583295e-03 5.9053840608815503e-03 -1.3546703796510684e-02 -1.7274619659602588e-03 4.4378337503412133e-04 8.9793346845298453e-05 -7.0396712139126250e-04 8.8861809601693348e-02 -2.9108884546376698e-04 3.7938120910963047e-04 2.6468011349024823e-04 -1.9350253581374398e-04 -1.3301684475210112e-03 5.1254917082843576e-04 8.2015324859600197e-04 -5.2372042213986690e-03 -6.8688214571757666e-03 1.1578151597130763e-03 2.9518361744341026e-02 1.5570780190217182e-03 -7.3513278748330718e-04 -2.3438309577471728e-02 4.4470385392718045e-04 4.8287374894938979e-04 7.8753727632635551e-05 2.1795469694362293e-03 -2.7992942545386378e-02 1.0590874203033358e-03 -9.6078161578991919e-03 4.1453693627000929e-04 1.6464175152248552e-03 -1.8821256165404152e-03 3.7907990631294553e-05 -1.0344988335370564e-03 1.3517663271738123e-02 1.0026190276929358e-03 -1.2994207629625997e-04 7.2829118910913801e-02 9.4669996795358324e-04 -4.4813048776955588e-03 3.9118706484093657e-03 -7.3457532685339798e-04 2.8295626557984089e-03 5.0949343234939670e-04 9.9497271213493674e-04 1.5192212830758087e-01 4.5856177506851210e-04 2.1096774129667761e-03 -3.5567746372800590e-03 -3.3950429287231895e-03 6.3844028591139180e-03 1.6457365381526215e-02 2.5952757693407697e-03 6.1093233840461600e-02 1.5676073277720096e-02 -5.5161154272808412e-03 1.0349103754870886e-01 -8.8156995395446500e-03 5.4723342157206034e-03 2.0674902214397273e-02 1.7206262480878045e-03 -1.8062603257628710e-02 -3.4288874493221132e-03 1.0956308622989182e-03 -1.8943804393332715e-02 8.3366532097119486e-03 2.7465828996821873e-03 -5.1606133679005760e-04 6.0949208898163111e-03 -3.7992833225313022e-02 -3.1721558131278344e-03 -2.4867006758407303e-03 2.9827344271337243e-02 -2.0576437476079505e-02 4.7060440725409372e-03 -7.2148946865087903e-03 7.3943169479787230e-03 -4.7853094718631247e-03 -1.6135328607975175e-03 2.9579755892477976e-02 3.4876214541089509e-02 2.0642876460585744e-03 -1.4478478829620924e-02 9.7901154064215776e-02 3.3868050379038230e-03 -4.9168464516682331e-02 
      </Row>
      <Row Index="37">
        -4.6085533757060718e-03 -1.2473523091869557e-03 1.1511045611826559e-03 -1.2885626823716432e-03 -9.6218023334310523e-04 -9.4019968583020563e-04 3.5772800127377123e-03 -5.1847688681886826e-03 -2.1526732756099324e-03 -1.2377879207119413e-03 -9.1325090346559455e-04 -2.0538472373230199e-03 5.7278811944088126e-03 9.7905656181945366e-04 3.9645720011037035e-04 -1.5311123610676542e-04 -3.6649133228852365e-03 1.8117241743270925e-03 2.0748847434786201e-02 -1.6424585127272628e-04 -7.6900783118862058e-04 -3.7792787307362741e-04 -7.3409165203059713e-04 -1.4773261199845233e-03 -6.8290789042170508e-04 7.7716228228637274e-04 -4.1966980593119126e-03 3.6655909913347814e-06 3.5135573960631827e-04 -2.8053835809783691e-04 -5.4612289416653137e-03 -9.1414863427630166e-03 2.2512760719323372e-04 5.1275633333470669e-05 9.1052143460237933e-05 -8.9864292097211265e-03 -2.0825454565291390e-03 6.3682037187138107e-02 3.6921698990590446e-03 -1.7102574118764932e-03 1.8445667164342103e-03 -6.7124445324261437e-03 3.3761652250077212e-03 3.8789119647723814e-05 -9.6672768857507824e-03 1.5938525706229441e-03 -4.5758703407235883e-04 -4.4656634114079399e-02 -2.7087023266337456e-03 3.1848755381734886e-03 -2.2074338647743372e-03 5.7339311632069838e-03 -1.0291085445382514e-03 -2.2191715328777795e-03 -1.3994102732220938e-02 5.0553157690869334e-03 -5.2336747679038897e-02 -7.4872241905148407e-03 -2.3757496340255516e-04 -8.2834063191877219e-04 -1.8427248642627204e-03 -1.0685340467405510e-03 1.6128056280191410e-03 -2.9923641149221612e-03 2.4252279204870549e-04 4.6091018541545995e-03 1.9797170430355671e-03 -1.7928967368224524e-03 -2.7146567806101874e-03 4.0601577326120075e-03 3.4523305467845005e-03 1.3954963569397707e-03 -3.4382584949327645e-03 -3.6867316567783682e-03 2.7658937204476375e-03 -1.9147493246339558e-02 -8.0533912611609228e-03 2.2219988587421913e-03 -3.1230060178522034e-04 8.7303373762069418e-05 9.7312541109673134e-06 9.6052728434091982e-04 -1.3591800785917076e-03 1.2778287185803094e-02 1.1765689224634279e-03 -2.1137703742819258e-03 9.3747943924296639e-04 -9.7413965251890193e-04 3.3545092856641645e-03 1.4390899009890836e-03 9.6874117571223883e-05 -9.2722158580681386e-04 5.2027574313315067e-03 1.2955569814917644e-04 -4.0720697322637056e-03 1.1353161563518205e-02 -1.7669393487865307e-04 -3.0407687958694529e-04 -3.4383112317816597e-04 -7.9504548500988021e-04 5.5145320157130038e-04 2.5419542682908703e-03 -6.9415237992690999e-04 3.9934853077152315e-03 -1.2892619254385635e-02 7.4460516628680135e-04 -3.0814400806317708e-04 4.9780732385967114e-03 3.6693500366329735e-04 -1.6485254190812571e-04 -8.7525780533477762e-05 -2.6339313407416501e-03 1.7897214575959657e-04 7.9136327269631150e-03 -7.8797739702674008e-04 4.5447276025489727e-04 2.1362750770349825e-04 5.8945591342859515e-04 3.6769895281280399e-06 -4.6835575196696186e-03 6.9396243002947753e-04 1.6065481476167107e-03 1.9966445075479513e-03 9.6626531229818957e-03 1.5587866839093757e-04 7.3683304300630912e-04 2.2028889060121334e-03 -5.9705812370845811e-04 1.7385599099107565e-04 2.0134627625208439e-04 1.0034551665789059e-03 -6.5630350678247840e-04 2.1555775124291743e-03 -2.3604316180143685e-03 -6.0374773268418889e-04 1.9761727875682565e-04 -5.7833264509676743e-04 -4.3044461403905467e-04 1.5709114835987695e-03 -2.6550050920008585e-03 -1.2732195695810966e-03 1.0092320130682712e-03 -5.7588750296349682e-03 4.3692153460709422e-04 2.5653498731882411e-03 -1.0953416804362348e-03 9.8880798422524489e-04 -1.1986091504633152e-04 -1.5450724046580066e-06 1.5712998986233213e-03 1.4480937058225269e-04 -2.6388367669557540e-03 2.8065785573991413e-03 5.9675787023406434e-04 2.7278776772499472e-04 1.7133878098226876e-04 1.3236222386673324e-03 6.8920485392553045e-04 -1.6350009986184242e-03 1.4321158000187850e-03 8.5425709849646335e-04 -6.2068037255074149e-03 1.2573458074284340e-03 -8.8420057029731927e-05 1.0156714521087906e-03 -4.8582276516050035e-04 -1.6505788402133002e-04 -4.7215817488944004e-04 4.3784184389909526e-04 7.8544834274265826e-04 -7.1315830055011815e-03 7.5607193274267338e-03 -5.5238643318010396e-05 2.5550128227261857e-04 -8.3390446563257590e-04 -5.4019932196575093e-04 -1.5311379156982626e-04 5.2627329825261603e-04 2.9416472889370762e-04 -5.4141691845856655e-04 -1.9266372945988999e-02 2.6695653808997969e-04 -4.2503862627999941e-04 1.4388394431779972e-02 4.3346522590371399e-04 1.0288836171599430e-04 -3.1634874048998648e-04 -1.5316561485154952e-03 -2.6270828923958840e-04 -3.1472619311374659e-03 1.2203237233072293e-02 -4.2167160405650744e-03 2.6715579849212650e-03 -8.6989157580345342e-03 2.3613834011747059e-04 -5.0001466140549428e-03 3.0425381952440406e-03 6.1455755155561927e-04 -2.4438521069528275e-03 -6.7661800150938284e-02 -1.9679617125259096e-03 1.9980814997416010e-03 2.6184021506844291e-02 2.8161136011042491e-03 -1.0783857256427285e-03 3.0024916530905360e-04 -5.1345556948198421e-03 3.7623421135712463e-03 8.8341080748999740e-02 -5.0773131590037268e-03 -2.6469162124389363e-04 7.9245798170313783e-04 6.4119171913333047e-03 1.5823428721433231e-03 1.9669533574581061e-03 4.6348317286075882e-03 6.2049990509381375e-03 4.0065694152879184e-03 1.6023814325086408e-03 6.5140091625295379e-03 -1.8529174566000433e-03 -1.4548852864391748e-02 -2.1732555636659042e-02 9.1511644141512791e-03 2.1333061307635594e-03 5.7773409707852760e-02 -5.3097143899685090e-04 -1.2085944753291183e-01 5.8574627590335673e-02 
      </Row>
      <Row Index="38">
        1.7640003250742073e-01 -7.5643298250765989e-04 -1.6607287105816493e-02 2.6909780595598906e-03 -5.5701950411608456e-04 -1.5367289867720046e-04 7.1768647188647366e-02 3.0822943448963903e-03 -8.6143561791120248e-04 -1.8872406555430743e-01 7.4540831961051462e-03 -6.0646304762274061e-04 -3.1182729063884196e-02 -1.4798170462898285e-03 -3.4387311164339740e-04 8.9196809850521108e-05 2.0894676601553035e-03 -3.5648359446343869e-03 -3.0903878844223682e-03 -1.4855033966819287e-01 -1.7198739059422928e-03 -3.3557678952151337e-03 -2.9518592389136099e-04 5.0573801750815051e-03 5.2696461654561100e-04 -4.3817279507477297e-02 -4.4335940093268465e-03 1.3085234501428724e-03 1.0703236835148378e-01 2.8087691635159235e-03 1.1914583314060478e-02 1.4951982413126075e-01 4.4794915889291975e-03 -3.7188154284362521e-04 -2.1347978989305905e-03 6.0448156692456245e-03 7.1095274626746807e-03 3.6921698990586282e-03 6.9934956477963972e-01 2.1326277317412850e-03 -6.1225230988390857e-03 4.2509241139873774e-04 -8.0887277256952439e-04 6.0925158638900495e-05 2.6876880026860922e-02 2.9458368825618355e-03 1.1300518965172467e-03 2.7385813562375305e-01 6.4389749604735515e-03 -3.9428260177414550e-03 1.3530885939406234e-01 2.6432061238142565e-03 1.3901098315456141e-03 -7.6364975723280425e-03 5.5501702877004955e-03 -3.3107313074154099e-03 -1.9871946954688469e-03 3.6025112397960202e-01 -5.0785331305781486e-04 6.2981120610058113e-03 -4.0054214947832754e-04 -1.8642515824383483e-03 5.5635795247219785e-04 -3.4165889286912554e-02 5.2543691594205879e-03 2.5328252128765860e-03 -1.3110272411541246e-01 -3.6995679612525567e-03 -5.6234127567100171e-03 -5.3755517523720320e-02 1.0608582801792691e-03 3.5688947775721061e-03 -6.0843576630137675e-03 6.3405504487000237e-05 2.6569213373901501e-03 -1.2226314372217177e-03 5.0983452312540023e-01 7.0343496416862550e-03 1.7969640409215559e-03 -3.1005282630701967e-04 -2.5924450964003309e-03 -8.2817661540555282e-04 4.4260522025283550e-04 -5.0507359771785332e-03 2.9162133723805717e-03 -2.2719420204530283e-01 -6.2503803343553210e-03 -2.1884296864063506e-03 -8.9872092969865980e-02 -1.0394647651979757e-03 6.1515888213220233e-04 9.7342966559760789e-04 -4.6006824324741347e-03 7.5633008930788698e-05 -2.8884854777490032e-03 -5.4358951835805791e-01 3.9630273416902751e-03 1.7691100949645766e-02 -3.7783532690758206e-03 2.3829232959590402e-03 3.1893885567263087e-03 -1.6800858116671633e-02 -6.0719495168780058e-03 -5.9058961415069892e-04 1.6031766054751942e-01 5.0999199852786500e-03 6.4760190003324567e-03 8.3604380162469405e-02 4.7645803334610748e-03 9.7741760512356471e-04 -1.6473920916876019e-03 4.8664777624048529e-03 3.9142570927831119e-03 9.5363268247400882e-03 3.7002431393853286e-03 1.0313890098273860e-03 5.2189210084725608e-03 6.1824216669344179e-05 7.3191359009360836e-04 1.4609173294555973e-03 -4.4797807909563621e-03 -2.1044395082634813e-03 3.9051742135111575e-03 2.1551166162268010e-01 3.4368751484376416e-04 1.8755643088059102e-03 2.1647837661078889e-03 -6.1700487990180375e-04 2.7857000829378158e-04 -5.0201167296253825e-05 -1.1620243613573776e-04 2.8138172994775640e-03 1.1243522693624719e-03 3.0101590263514588e-01 -3.8975771364818329e-03 7.3293289252528071e-03 2.2328482988715464e-03 -4.1356708915353648e-03 -1.2428712142475290e-03 6.4334562154293173e-04 6.9722531560362146e-03 3.9684196221945944e-03 -2.3864451754822069e-01 -6.6839710861522038e-03 1.4740971934540260e-03 -1.4835468614435854e-02 -2.1041339169881419e-03 -1.2020672243204284e-03 1.0150282585356448e-03 -4.7837528291708852e-03 -7.0495553826046848e-03 -3.6151968434977528e-03 -9.9294628181922001e-02 3.7429711364822971e-04 1.9573994083607240e-03 -5.9699036942627856e-04 2.8753619107191319e-04 -1.0663524740576816e-03 -1.9551770318740586e-02 -4.2164094228835935e-04 -3.9998387429460592e-04 3.2030458274956028e-02 -6.6362782882633253e-03 -1.9079945522486180e-03 2.5742587035253450e-02 1.3280472457045283e-05 2.3199986166392032e-04 -3.5842046865561250e-05 -3.3783212502625859e-04 3.4185213395777486e-03 9.2373940002159823e-04 -2.7347581701972673e-01 2.3049727201968615e-03 -9.7685865792990906e-03 -3.6951727770228003e-03 1.6033428044760032e-03 -1.3446484755353494e-04 -1.6076065250307560e-03 -7.8476303154675182e-04 -1.8565625820050726e-03 -2.6659137667369737e-01 2.3864203842856503e-04 2.0076170048180797e-03 1.2288283942878508e-02 3.0578662199304872e-03 1.8503632927261426e-03 -6.0199567741701801e-04 9.5153077058678179e-04 -3.5957779137349398e-03 4.5602738523752755e-03 5.3870381135985768e-01 1.1253263102250784e-02 -2.4567101988374369e-02 -1.8740838169439021e-02 1.1849153049973521e-02 5.8950807896679322e-03 6.9503793226803043e-02 -1.6696349582384355e-02 -1.8546938576138879e-02 3.6261326284889839e-01 4.7394376143866476e-02 -1.4362134822885533e-03 6.0967047941634434e-02 1.5175906101086573e-02 1.0463656429167737e-03 -2.5725068486490300e-03 1.5209233482091224e-02 -7.3447159888367173e-03 2.6235183394722739e-02 2.7358642647697473e-01 8.6976887377940657e-03 -1.7549026918896669e-02 1.2456298368523314e-02 -6.4969846136626180e-04 -7.0094322583865321e-04 7.4234679133704851e-02 -5.8419051854783945e-03 3.0296961181358120e-03 5.1207136519329628e-02 -2.9345852271200165e-02 -7.2068876336275761e-03 7.9355784797134538e-02 -1.7496406798072128e-02 1.3861960881017668e-02 8.9567004389587371e-03 -2.6616823207957521e-02 -1.1140211093528759e-03 -5.8969586381843377e-03 -1.7983731304035516e-01 
      </Row>
      <Row Index="39">
        9.3840584018989076e-04 3.6118278787716234e-03 1.3287800651200915e-04 -1.8480048291904822e-04 -3.8969769648717614e-04 3.2148485008067526e-04 1.7581221455150689e-03 1.7742381498419238e-02 2.7968608153297668e-04 1.1654052245752000e-04 -1.4762021184713684e-04 1.0728128378498583e-04 1.0412123108680116e-02 -5.6243140111864216e-04 7.1259683325817103e-05 -2.7888698280200427e-05 4.3569864294452270e-04 -1.2542221102270429e-03 -1.1666302538458329e-03 2.7132584184794833e-03 -3.7813044195423931e-03 1.7753408641434446e-04 1.7140887716596693e-04 -7.0295934235508131e-04 -6.5673417380686036e-05 7.2736052600275939e-04 7.0733658086840128e-03 -1.8670337865454639e-04 -2.4074579951760544e-04 5.0913362729372059e-04 7.9071056838066894e-04 -1.1777347840329355e-02 3.8662069116191777e-05 1.5737320801723445e-04 4.2119528978792811e-04 -3.4678104346143605e-04 4.8852706287581815e-04 -1.7102574118762846e-03 2.1326277317394527e-03 1.3661657606152943e-02 4.0181690844179004e-04 1.8033207869907412e-05 -4.5615568376099029e-04 -1.0558782189328420e-05 9.0414397950330967e-04 4.2338152496123292e-03 -4.4322194992490365e-04 1.2640646924682794e-03 1.0831930248962228e-03 2.1843192197078612e-04 -6.7855334954280977e-03 -1.4459086446033680e-03 -3.5711517676336076e-04 9.6452839596713504e-04 2.0241288963143578e-03 -6.4115004215895433e-04 2.4393578681910161e-03 -3.1046079982645913e-03 4.7733611083100088e-03 -2.7041106050312879e-04 -3.3616992043729321e-06 -4.2715840128327177e-04 -1.7349307894378027e-04 -1.3465201415158385e-03 -6.0845792254512164e-04 -7.0449179867119733e-04 -2.7668510595886264e-03 -3.2763185099179764e-04 -6.9457201394245707e-04 -1.3014970357360101e-03 -8.8866758602107812e-04 -2.9834799860912738e-04 9.5995177067687313e-04 7.4023248351142031e-04 -6.5521256531420394e-04 5.8659603188794887e-05 -9.7296382630917833e-03 6.4449022858312568e-03 -2.0149355497176349e-04 1.6476742028228436e-05 -1.1086368746233977e-04 1.2793027554081765e-04 -3.3670246401189315e-03 -4.1919527369261189e-02 1.3934205725429916e-04 -1.3065568027546215e-02 -1.3252260961803021e-03 -4.1889081539522681e-04 2.7962554391443017e-03 4.0782688046999728e-04 -9.1909038423633081e-05 -4.2277442209664833e-04 1.4489184570183463e-03 4.1507887565593801e-03 -1.6228948368272253e-03 1.9499400358260893e-03 -6.5115770860665282e-04 9.2720319908107945e-05 4.3477848274554702e-06 -7.2996875636151590e-05 -2.2117785336007046e-04 9.4016989276783734e-04 2.7764597384361391e-04 -1.0088659904103994e-03 2.2369750544310868e-03 9.2990150959537232e-05 -2.1340394295999620e-04 6.3037489579934880e-03 -1.1674232535962030e-04 -1.5329285010369812e-05 1.4603545166247894e-04 -1.3475051767859492e-05 -5.1626813190284570e-04 -6.4938140811562247e-05 -5.8658618428683584e-04 -6.6609002290621711e-04 -5.0324848930832777e-05 6.5627267473667957e-05 -4.4837278406457438e-05 9.1735298454669566e-04 1.3420075110988534e-04 -5.0128226708354541e-03 -3.4867289135515154e-04 -8.2141403616237119e-04 9.4649317726037355e-05 6.0080196898205582e-04 3.4733842078436550e-03 2.7653744268521096e-04 -5.1899423361095312e-05 -6.0973122267817480e-06 -3.0485083800434274e-07 1.2519827228324801e-04 -1.4507846620617770e-04 4.1643526968440647e-04 1.7291692639920342e-03 1.7188320676531901e-04 -3.1602527880185649e-04 1.1069321055357699e-05 -2.6155725887343803e-04 -8.3769615160921560e-04 6.7390561104856720e-03 -2.8675512795604677e-04 -9.9621656936996119e-04 -3.8298219624485839e-04 7.4423733671929429e-04 -7.7826904494853189e-03 -6.1928317628569816e-04 -1.0499283516053390e-05 -1.6469241969848476e-05 1.3258013546213980e-04 1.9425994688061169e-04 -3.4947931212312236e-04 1.5607896177485814e-04 -1.7719333929440786e-03 1.5682749662093915e-04 1.8324080868441001e-04 3.5079531155604235e-04 6.2185874531484747e-05 -6.5831009287157507e-04 -5.8158278463303834e-03 -7.9265929783587437e-05 6.2600715832767800e-03 -3.2189454066243158e-04 -3.8574780193875030e-04 2.7848845702922453e-03 1.9137552712964763e-04 -4.7116198831271476e-05 1.5005634956570188e-06 -2.4046072347634791e-04 -7.4179859587832769e-04 8.1368314940386943e-04 6.5223678507947760e-04 1.1669421730203032e-03 8.2044860172248048e-05 -1.1216483512317864e-04 -1.4341588770393730e-05 -1.7585223539998021e-04 -1.2792905657775912e-04 -4.5285259562681513e-05 -9.8203602932215922e-05 4.8456102507675684e-03 -2.4435670638955800e-04 -6.2152353788162836e-04 1.9446416940017794e-02 -2.5506287677936853e-04 -8.3722208898830521e-05 9.9893953613488726e-06 2.5017805716246811e-04 3.8664948338894799e-04 1.7450933576777474e-04 -1.0407149486048733e-03 2.4740695967219303e-03 7.1570376790984491e-04 -5.3008287809590618e-04 6.6948088118919829e-04 3.2155668771339163e-04 2.4882246832067210e-03 -7.6907044223881380e-03 -6.0499942102601022e-04 1.3884408728032094e-02 9.0713813816094280e-04 -2.2570050025533450e-03 7.4765740804675074e-03 -1.9171151479436552e-03 2.6130943165924225e-04 -5.1283860033627684e-04 4.1799881773561527e-05 -1.8508466517377269e-04 -2.2379819594883863e-03 -7.4689427079299014e-04 1.7132036747494608e-02 -2.3009174693299221e-04 4.7792854923906294e-04 2.0555134105949136e-04 -4.1335441388950925e-04 2.1857930969171749e-03 -2.3357305513032379e-02 -8.2414375917272604e-04 -9.6027689147263961e-05 -1.5820012566672525e-03 -1.0427742417827100e-03 -9.2827111405912079e-03 1.5415006447635788e-06 -9.2526513161871374e-04 -1.7561683360761899e-03 -5.2598904566428899e-03 3.5376831407173484e-04 8.6393636203689842e-03 6.8349780656805715e-03 
      </Row>
      <Row Index="40">
        2.8600891658872741e-03 -1.8000200164341784e-04 1.8558695129083765e-02 -1.0873698921143706e-04 1.3024732817859979e-03 2.5911181754701036e-04 1.2826228796723178e-03 6.6999820513390725e-04 -1.5414219372929326e-03 3.0409803716452966e-03 4.8931997073832197e-04 4.7905744315004245e-04 8.8080978580618030e-04 7.4379683391862374e-06 -1.9689661512996021e-04 1.9620829980511475e-04 9.2004305407183181e-06 -2.3901797904978400e-03 -1.4125698771992731e-04 -1.3405777792703660e-03 -1.9902745533476843e-04 -4.1825661011109377e-03 -1.2483574233809777e-03 -1.5939590164938677e-04 -6.3108769113926974e-04 -1.5461356953101121e-03 7.6272537439875127e-04 -3.2137550308258831e-03 -1.4376763302947501e-02 5.6016065382957954e-04 -5.1318501172196301e-04 3.4671518943829582e-03 -7.7863980135097822e-04 2.2729078413054890e-05 -3.9423675376283607e-04 1.0491900080866502e-03 1.4726519724410012e-03 1.8445667164305414e-03 -6.1225230988370474e-03 4.0181690844112846e-04 2.2458164561279678e-02 -1.2495523807520028e-03 -1.7508669221329171e-03 -7.2766261925253999e-04 -1.2509357447870381e-04 -4.1365237846198964e-04 4.3486772986912389e-03 -8.9136872016516155e-03 1.5089839709733980e-03 5.1448988136697238e-04 3.3183663976270594e-03 2.0140264156579381e-04 2.3206105281906161e-04 -4.4732721716437109e-04 8.5499594988594323e-04 -2.8761303287840978e-04 -1.9174250597706012e-03 6.3607187018652200e-04 -2.1140721634828872e-04 4.9388188599086679e-03 1.0457296033567810e-03 1.3645454070951822e-04 4.0459560633088415e-05 -2.6108597506332119e-05 -1.7723684924908305e-04 1.3343109477277433e-02 8.5536881254139607e-03 -3.7228440925283135e-04 6.6469679209889710e-04 -4.5742343110111161e-04 1.1342492686796813e-03 2.8544894919593512e-04 -8.4435002838178369e-05 -2.8496350464577499e-04 -1.9866042925176172e-03 -1.1311288634947760e-04 -2.4427010483353273e-03 -3.5023463744399130e-05 4.3199959518438000e-03 3.4657641309680104e-04 3.1379458898379842e-04 1.0278264239541978e-04 2.0750287695513181e-05 -1.8491946557856187e-03 3.9564571116125213e-03 5.1433914192287947e-03 -3.6495300919128781e-04 7.3771914973375856e-05 -3.3492231653370896e-03 6.9057393859915835e-04 -7.4086785678299284e-05 1.2940867532869587e-04 -5.7949699036327108e-04 -1.0830634938549383e-03 6.0861958873965893e-04 -2.0236210716259861e-03 3.6088824952120911e-04 -2.5517710032591880e-02 -1.6494256169748756e-03 4.2232610955291665e-04 -5.3234343354124154e-04 -5.2630799113400923e-04 -3.5266997895504757e-04 6.8955526536289384e-03 -1.2303971372812566e-02 1.3848672758110230e-04 -8.6885816712493989e-04 -2.7072121393054704e-03 -5.4395446916789716e-04 2.3449038789777218e-04 -2.9496014260790485e-04 9.8092193513268922e-04 2.5515154346423229e-04 -1.1629754680622418e-04 -5.6774443281243370e-04 2.1769372914445025e-04 -3.4054586094545659e-03 -2.2848192601899586e-04 1.5899436578166275e-04 1.0238513486704598e-03 6.1507666149266532e-05 -6.0130167191575420e-04 7.2758327633412083e-03 4.5260645229343310e-04 1.3516002718127682e-05 -3.4431238829927321e-04 3.1237522771410120e-04 1.6159932511641297e-04 1.6338404361018386e-04 1.3769736577508925e-04 -5.6882849251708740e-05 1.7529401197528306e-03 1.5217341633975978e-04 -2.8575569339791551e-03 5.2427640541152093e-05 2.0014160631109364e-03 3.8322226826810045e-04 -1.5343521443447327e-04 -7.5197977014201833e-05 -2.0124116826891053e-04 1.8964226366674210e-04 4.5605993122017994e-03 3.9642410640433889e-03 -3.4304911935287795e-04 -7.0472558645574487e-04 -3.1119757548214722e-04 2.1015645154342784e-04 -4.0249598816331360e-05 7.2521363278577026e-05 -1.4646568470221444e-04 4.1368082794954029e-04 3.3480777306350374e-04 2.1780384815499806e-03 6.4776937611938507e-06 5.7334952689114954e-04 -4.3881966334303937e-04 2.1827247081657869e-04 2.5353723474388391e-04 -2.5821403005081220e-04 -2.9230605674106236e-04 3.7202432893159464e-03 6.1854671837625053e-03 -1.0659252596396896e-04 3.5684602631311235e-04 -1.7379972691955459e-03 2.7861164735250310e-04 5.4880506697254890e-05 1.5482375894021981e-04 -3.3831781779008249e-04 -1.0276488355423150e-04 8.5667192659068594e-05 4.0562410123094871e-03 -1.7510534663850701e-04 5.0904066963763511e-03 7.8525441049271424e-04 -3.3771269498871284e-05 2.2663840193099083e-04 1.5104677023619608e-03 2.2054741280621985e-05 1.5057476117048851e-03 9.8833545266887694e-03 -3.8873008483330721e-04 5.5393585949531474e-04 -3.2560301816659809e-03 2.3531970540749034e-04 -1.1353866874614705e-05 6.0021738622292805e-05 -2.6793315030692097e-04 1.0129350763553296e-03 5.3390140395610883e-05 5.8872309746109408e-03 8.0066217135000498e-04 -1.3234127662665528e-02 -1.9912668674333042e-03 1.7507175613725046e-03 6.8914869069002427e-04 3.5219396626417383e-03 -5.9431114618157231e-04 -1.3936608107440480e-03 -3.2921192400735162e-03 1.8540921073172344e-03 1.3801682031528554e-03 1.0738186084330581e-02 -3.8382426207767863e-05 -1.9882984030362538e-04 2.3346480596411106e-04 -4.0008640762486644e-04 3.3814156038558616e-03 5.5884689943774216e-04 -3.0366033200994597e-03 9.9182386942259812e-04 2.2846281218540328e-02 -5.9043307002031916e-03 -4.5594204951402784e-04 -3.6671956355249476e-04 5.7912822848762979e-04 -7.2239756827769091e-04 1.7588865680028463e-02 -2.9017240492199177e-06 -5.2680964791057094e-04 4.6614352564410943e-04 -1.8132813389397616e-03 2.5651551445044114e-04 2.0000668312770004e-03 5.4211726424265689e-04 -1.7927515778749224e-03 9.1260960351951343e-04 -5.1971846951540217e-03 -1.1515301457582927e-02 
      </Row>
      <Row Index="41">
        -4.3031579425599834e-04 2.3184659274325049e-04 6.4185726770476029e-04 3.5298583378905084e-03 4.4017511235320350e-03 -4.6007276288458716e-04 -2.2240793810278051e-03 -1.6368064515804434e-03 -2.1787821223390900e-03 -1.5051741706049726e-03 1.1896106057966041e-03 -8.1918243685588643e-04 -2.6479037745948952e-03 1.6639032568491613e-03 6.5424404648140987e-04 1.9480809675113454e-04 8.1765491015255284e-05 1.4879619961511098e-03 -1.5543480595488432e-03 -6.6586255410226031e-04 5.6607037691880856e-04 -3.6255839200808639e-04 2.0348089386291270e-03 3.0164619366414604e-03 -3.0092771823633617e-04 4.0597545329014578e-03 -5.3918341669996679e-04 -7.3401829162811046e-04 -6.1375036396123794e-03 5.0220570747207054e-04 6.6113365313329869e-04 5.7510835576053410e-03 8.1269436220769687e-04 6.4806574984127520e-05 1.3695934443476530e-04 2.0865969977603349e-03 -1.8383566182025961e-03 -6.7124445324265297e-03 4.2509241140151199e-04 1.8033207869742017e-05 -1.2495523807511087e-03 9.9937380219391660e-03 -2.0316668502621139e-03 7.8926801608444419e-04 -6.8425200953372428e-05 1.0228706095699400e-03 1.3040514682309578e-03 -5.1705375501983697e-03 1.1215389119715062e-04 -3.2102524798678644e-04 3.2611513288860472e-04 -1.0760206648043232e-04 -5.3704409304688137e-05 2.2996191793266964e-04 6.2631991419604223e-03 4.6059452420256185e-03 4.6786759588865225e-03 1.8814654395400837e-03 4.2770106353015504e-05 4.3365470622697599e-04 1.5789148740842280e-03 3.4743389189780221e-03 6.6693889824282035e-04 5.2308770861021377e-03 -3.3708401176699718e-04 1.7772032415449761e-03 -2.7030115129639820e-03 -1.7247725574925932e-04 -2.2753744165842716e-04 -2.8087478778773267e-03 -8.1917937116797804e-04 -9.4908020780733952e-05 7.1876355246806964e-04 2.5915598029380995e-03 3.1076313030003952e-03 1.0409938503384293e-03 1.2686398183488767e-03 -7.8315646691866705e-04 3.6039949949277523e-04 -5.1191058477839495e-04 1.4372309731507937e-03 -9.1528012159721589e-05 2.5096372320225907e-03 1.5630123592230011e-03 3.5631536604879138e-04 -4.8653769789471224e-03 -3.7286353776416065e-04 -4.6498874316566545e-04 -2.2032107832621328e-03 -1.7034640081388993e-04 6.6293160420709035e-05 4.4899042660491570e-04 -1.9700645876036043e-03 -1.4355262568037444e-03 1.4719828788021042e-04 -3.4871929860030848e-04 1.3126962394202114e-04 -1.1692341578528414e-03 1.3120851723724045e-03 -4.3878935832217605e-04 5.1086498394549863e-04 -6.3194795220390607e-03 4.8668415655209153e-04 3.4631978916893590e-03 -7.8489760744208936e-03 -1.0321493529179640e-03 3.8286029845969495e-04 -3.5471970879191184e-03 -2.8935945111069393e-04 -2.1010671512946731e-04 -2.1489582483704469e-04 1.6333084566981903e-03 3.3526998878844350e-03 -1.7692859858833817e-03 -1.7313607036464895e-04 -1.3458640027930874e-05 8.5050332207514678e-05 -4.3001169167339879e-04 -4.8219771390538031e-04 -1.8027424263966788e-03 -5.2435933054706396e-05 3.9181130118848100e-04 1.3743668265318969e-03 1.0853532411818911e-02 -2.4232046845589026e-04 2.4715332814822947e-04 1.4835162956395864e-03 2.6293768856497309e-05 3.7335673403143897e-06 1.6693606898630768e-04 -7.5038741727713422e-04 -1.1493769251241306e-03 -5.2703089102407175e-05 4.1483154205275430e-04 -9.4163969880539135e-05 -3.4342822938185510e-05 -2.5914023189775582e-04 1.2864914363868978e-03 8.4972963426806864e-04 2.2393875700936032e-03 -1.5621826181342648e-04 6.7956540339217679e-04 -4.1343658048224596e-03 -3.9254770512331990e-04 3.6852565710153006e-04 -3.0300352831336141e-04 -2.0821277005277474e-04 -8.9114912897891505e-05 -6.9379974414640895e-05 -1.0478109167029940e-04 8.0326877092781832e-04 5.5501327130797829e-06 -1.0392155429542541e-03 -9.7966967510169532e-05 3.5314758832364441e-04 -1.3245265997127052e-03 -5.5352369675664218e-04 -1.4135178393489753e-04 3.9856438133394657e-03 1.4252655684228455e-05 -7.6771732075222112e-05 5.2742496613190637e-03 -8.1235217380699280e-04 -2.3921450921765390e-04 1.2140014802357602e-03 3.0535969035148838e-04 1.4179441446759088e-04 1.8882737533926610e-04 -6.5437185224048440e-04 -1.9207729675062638e-03 1.1873761753112546e-03 1.3113448641197557e-04 -8.0080512440362231e-05 8.5306399871847710e-05 7.5377449968236127e-04 3.8895908277101631e-04 4.4081051227058877e-05 -2.8429281303739913e-03 2.2974877554473769e-04 -1.5820326004310444e-04 -2.1025323630706257e-02 -5.3486291539056163e-04 -7.8478054276394675e-05 -5.8686975461039737e-03 -3.4614206263021923e-04 -1.6775562486509468e-04 -1.5604507664196865e-04 1.1711522190504242e-03 -2.1711408845329246e-04 -2.1733119578649387e-04 2.8453613763292779e-04 6.3762433336154306e-04 -1.4731326828699961e-03 1.0562128267487366e-02 -1.9832781240090632e-03 -1.6300499874260235e-03 -1.6140500986150205e-02 6.3824604510616476e-04 -6.7729961808887774e-04 -1.4122440727639698e-02 6.4346504670260117e-04 -2.0686522757321526e-03 -1.2655907108704456e-02 1.9264310666445407e-03 6.5479671008557261e-04 -9.8884885807499850e-04 -1.4772064647439725e-03 4.4740554580012751e-03 -9.1703016198315494e-03 1.1829182947481372e-03 -1.2527216849973146e-03 1.1772760325297442e-03 -7.5703787759188856e-03 -2.7879285369293546e-03 9.1543041429628397e-04 -9.3741602138724851e-03 9.4839642611695054e-04 2.6875656365885729e-03 1.5742052109053374e-03 -4.9377803941479861e-03 -4.7616674732775879e-04 6.1343965043359865e-03 -1.4371189867810480e-03 -3.5361880071177118e-04 -1.9291534142004932e-03 -1.9220276887374071e-02 -9.3681295411756878e-04 1.6665654694670354e-02 4.8074245077753082e-03 
      </Row>
      <Row Index="42">
        -6.8602883012044511e-03 6.1575445801265833e-04 -6.6347953974227325e-05 -1.3632149079379041e-03 1.2579222586717348e-01 -3.0051299697010251e-04 -5.1983451087328396e-03 -2.0322291320499630e-03 1.0103314192003634e-03 -3.5556307879463400e-02 -1.5165913530415227e-03 -1.3411173592183176e-03 -1.6949058961136076e-02 1.3032958349151816e-03 -2.1905289544781915e-04 4.8811869722462710e-04 -8.3349452919393970e-05 2.0294237756530546e-03 5.9533974512099947e-03 6.3536526059448928e-04 1.5366633658008295e-03 3.4666409631929629e-04 1.1793971590263340e-03 6.6306248175847557e-02 -1.1991593758459845e-04 -2.0698378748594676e-03 -9.2721689764296107e-04 6.1630086860293629e-04 -2.7894941386250038e-03 -2.3571684352843110e-04 -3.4221756063164410e-04 7.8333594316575272e-03 4.0535668583585902e-04 -1.4360173227178155e-04 -1.4058170100514703e-04 1.8106917090254706e-04 -2.1365340387818066e-03 3.3761652250128386e-03 -8.0887277258492873e-04 -4.5615568375929980e-04 -1.7508669221318399e-03 -2.0316668502604672e-03 6.0436096573689133e-02 -1.2093070232156149e-03 -4.2813760817359357e-03 2.8049508561782421e-04 -6.7126426319817113e-04 9.1758348610587216e-03 -8.1450833169291665e-04 1.0534560576209336e-03 -5.1712875513114653e-03 5.4096942924520056e-04 7.7360206337925646e-04 3.0142167903605336e-04 1.9209041839392954e-03 -4.4097658402824976e-03 -1.3639148187303985e-03 -3.8483819013080955e-03 -3.0907706760431456e-04 5.9458735584199339e-04 6.0337534598002805e-03 7.8469156140942176e-03 -5.2664585691938328e-04 2.2940500305350031e-03 1.0555460226891193e-03 1.2264116847454716e-03 1.3077447926882674e-02 4.4393364590916381e-04 -4.1029725313101919e-04 -1.6228229849458709e-03 -3.8104468109572152e-04 8.8483786233645319e-04 5.3573516379669915e-04 9.1827331834024343e-04 2.0931026108369222e-03 7.3521267394175999e-04 -1.1196568221684411e-04 -1.5074271600396538e-03 -3.1679841070367948e-04 1.4666138235611553e-03 -5.5334964036712342e-03 -4.0937988173581075e-04 1.0531133969072098e-03 9.7427014544415602e-04 5.1352490565648168e-05 5.0646877751686636e-03 -6.5339235820804920e-05 -3.5972508360949821e-04 -3.8524503624020046e-03 -8.8269212258328209e-04 3.4739596126962587e-04 2.2157997163257254e-04 -3.3873055484066363e-04 -6.8543930981149540e-04 -1.1278222175800656e-04 1.7416943397530471e-03 -1.4569106702157697e-04 2.6064714509654221e-03 2.5974887243286043e-03 -2.5776562944202254e-03 -1.2057360051300967e-04 1.8309842826056723e-03 4.6507979875325134e-05 -9.2096194211671134e-04 1.1051895091568731e-02 3.7768984329031741e-04 -6.3781151372456187e-04 -4.8174425823658273e-03 1.6880094392326562e-04 -2.0347284773192893e-04 6.6189233852489564e-05 4.0745427003397935e-05 3.4339771798367301e-04 1.1086194884836267e-04 5.5965533515700550e-04 -4.0456552973115820e-04 3.7291693797292117e-04 -7.9635044331885074e-04 -3.4864416122832032e-03 2.3103256669923106e-03 5.2883609310723327e-04 -2.4588137855373760e-04 -1.1915793416514059e-03 1.7901308994706655e-03 1.1758901363239250e-04 -3.4810255775378530e-04 -2.9788417895325603e-03 1.3625834058613302e-04 5.5728046784144002e-05 5.0787029995018242e-05 -5.4888360534335141e-05 -1.8957431241843972e-04 1.5153921942157034e-04 -2.2887932262693478e-03 -1.7305000069057748e-04 4.2872383614752220e-04 3.1771848315957146e-03 1.5526171415353444e-02 -2.8086342339937406e-04 1.9821866308592463e-03 -4.1350113488264296e-04 9.8082867397432209e-04 8.7188428164752391e-03 5.1372059623770727e-04 -1.8559262103079151e-03 8.2172839267649067e-03 1.7486166578521540e-04 -1.5731389774545541e-04 1.8758292376773147e-04 -1.3907110033633424e-04 -2.0607747648546180e-03 7.8874734421284791e-04 1.9491804057562706e-03 1.4745793516408607e-04 -2.2967620775757444e-04 -2.1645523667202255e-03 -1.5043904016653231e-02 -4.5963656242890448e-04 -3.1515894066198175e-04 8.4555776915296033e-05 -1.7503840339850069e-03 -5.7249409517105276e-03 4.2028691120916343e-04 9.6392493910981650e-04 -1.2035340706475495e-03 -6.3488402602447603e-04 2.2290962717066954e-04 -7.8980828040911208e-05 5.5610698554383123e-04 1.5085295599132739e-03 -9.8494389855277109e-04 1.8338373725482401e-03 -3.2919593877861670e-05 5.9716556960544547e-05 2.4076230430978888e-03 -2.1724277668588952e-03 2.0693760439990206e-04 4.5753019817768741e-04 8.8948626852496603e-05 8.1698403366540183e-04 -3.9675193341199219e-03 1.1157369723856789e-04 1.4606941324169431e-04 -1.7652182372133396e-02 -1.6861927618805708e-04 3.1696538794765859e-05 3.8648596113404041e-05 1.3608208953603217e-04 -3.0203927170733905e-03 -2.6185058582122540e-04 -8.2857852495408779e-03 1.0424950916402384e-03 3.1377878488927516e-03 1.2820485068857669e-02 3.4189803332042815e-02 2.6220239457858206e-04 -2.7513634138109349e-03 -6.0973762755970771e-04 -1.8209344775008646e-03 -1.8825589106008546e-02 -3.5575375124333661e-03 6.7171020790932979e-04 -2.0516656046516202e-02 -3.2986134153148829e-03 -1.3441777807847218e-03 6.5778989237342243e-04 -2.2431671880056223e-03 -9.0266203579264133e-03 7.5355572574316038e-03 -1.1534221019974811e-03 -3.4453593081544553e-03 -1.6485333089127649e-03 -3.7236766997079299e-02 -3.7994836796653365e-02 -8.5766383159615114e-04 -1.3033455755083190e-03 8.6816321310147215e-04 -1.8284455749373910e-03 -3.6259771389128125e-04 3.0352634284969548e-03 1.4862779520210395e-03 9.5717643469455868e-03 1.6324082005114773e-03 3.5541038194102925e-03 -4.0943268483559919e-04 -4.4373046988793151e-03 -1.3456933080074303e-03 -6.0817977868857448e-03 3.6486678128991652e-02 
      </Row>
      <Row Index="43">
        3.1195792956732662e-04 1.1494070254080631e-03 -1.8727402154160300e-03 4.5842320640907715e-03 -2.5255888791732893e-03 -1.6800837232985307e-02 -3.7957488264311352e-03 4.1152971471544236e-03 -1.5672540857501597e-03 -1.5421041419245718e-02 1.7604406999712852e-04 1.0532522592730936e-03 -6.2660699727099534e-03 -3.4933736018940929e-03 3.5073613930645953e-05 3.2030562872565639e-04 -7.5110914989582559e-05 1.5582985731654436e-03 1.0204286544245088e-04 -1.9848423639531321e-03 1.2059391111606949e-03 8.6080695603497903e-04 6.8013739719753369e-04 -1.6933195382233535e-03 4.7702570176436365e-03 2.1256529704711535e-03 2.7191950704987628e-03 1.0651975116756501e-03 -1.7610973786980955e-02 -2.2933932855544680e-04 1.1037090751091216e-03 5.1325606653449540e-03 -1.9822051068924544e-03 1.7372595111346360e-04 4.3032681306502674e-04 -2.5583635047171237e-04 -2.7763638180358929e-03 3.8789119631496560e-05 6.0925158647378089e-05 -1.0558782190795996e-05 -7.2766261925290981e-04 7.8926801608654104e-04 -1.2093070232135211e-03 8.6119461629504179e-02 -2.8908530613071461e-03 1.8813948120923077e-03 2.6495599862954985e-03 1.6022791163680921e-02 6.8448030874767489e-04 -5.7188521141085568e-04 1.3615435083810468e-02 4.7404748354307929e-04 2.3669161388918160e-04 9.7961726469579188e-04 -1.2859413513206797e-03 -3.5457592090830468e-04 -5.9825211087206204e-04 6.1761053061835103e-03 -3.9222815579408044e-05 -1.1077142779371925e-04 -2.8328313595247043e-03 -1.3884177544835324e-03 4.7747694276573785e-02 6.5037804881278218e-03 2.1796894671889514e-04 1.6756149335691794e-03 1.4391351615353487e-02 8.8253016118655463e-04 2.7401035597530564e-04 1.6668001490737494e-03 5.8803064986534244e-04 1.1046677011655216e-04 5.3647437407682887e-04 1.7821833676102895e-04 1.1064593602115591e-03 -4.4551364928051062e-06 6.7495935489885403e-03 -1.6013064366874330e-03 -3.2557568788359192e-04 -1.7495078611849402e-03 -1.2992677311344236e-03 9.9717496414212271e-03 4.1899070966192643e-03 -7.6791054768531319e-03 2.5198429593087379e-04 3.1556675746296892e-02 3.5973736362931996e-04 4.0446382899633673e-04 -1.9314130487938508e-02 -2.6945678828990951e-03 -1.0324770400740331e-04 -1.6828358867587278e-04 1.4219053674556811e-03 -3.1939010554786311e-03 -4.8705357754530443e-04 -4.8073368828091875e-03 -3.6753551482632046e-04 3.0689961682456961e-03 -1.7048397779188755e-03 1.2963873118170194e-04 2.6068858636404020e-02 -5.8565632375923680e-04 -3.0854109706716476e-04 4.5035927349904945e-03 -3.0235367350179856e-02 -4.4347513894720653e-04 1.3928133394488719e-03 -1.3777516239696405e-02 1.5607763279820697e-03 -6.6117396773048774e-05 -1.7268974113418558e-04 1.4503072600658958e-05 -6.5059523949951778e-04 -3.0134075210608665e-04 3.5844102878024309e-04 3.3937048418234746e-03 8.3609907486140601e-04 -2.9522049523047385e-03 -1.3185989309993061e-03 -1.1937866158565022e-01 -4.0806251453088752e-03 1.0424717513976890e-03 -3.5162117551321148e-03 -1.9601961534542689e-02 -3.0887752706026395e-03 2.3158932900987569e-04 8.5786559904673723e-03 -4.9353277235979079e-03 1.4879308451874657e-03 -6.1845137917193658e-05 -1.6387098845288583e-03 3.3005728398033899e-03 4.6674239846355992e-04 3.4672451550675186e-03 -7.5262482705727859e-04 2.5502328592808617e-05 -6.3760164266299705e-04 5.1130598670532724e-05 4.5449915821390990e-02 2.7058992065658030e-03 1.1676878131472613e-03 1.6703104677205376e-03 -5.6258924212651759e-03 7.2127913971128141e-04 1.9941383113478363e-03 4.7268561267088671e-03 1.6860368215462092e-03 -4.6053331734157582e-04 -5.4020454317331998e-04 4.9305841540505215e-04 -1.7064298542348081e-03 2.0381967152496546e-04 -4.5708771853585767e-03 -4.4219246869296475e-04 -4.2747030687869140e-04 2.9949501976076027e-03 8.8073428184687330e-04 2.4519814364501111e-04 -4.5477816281355157e-04 -2.4004874650172536e-03 6.6988253628937186e-04 -2.1522037780595991e-02 -1.4422596523072243e-03 -1.4712475666248687e-03 9.7035136729850535e-03 7.4597961907396355e-04 -1.9767200627086450e-04 -4.6539388148220118e-05 -3.9830480968557460e-04 2.6839539833197860e-03 6.8363607763402556e-04 -5.5246416690427434e-03 4.5512570273802502e-04 -5.8260476644489650e-04 -1.7641862197622087e-03 -9.3521371354113260e-04 1.2523244021274126e-02 4.6728278817070976e-04 3.6548978870284802e-04 -1.0176927952446700e-03 -9.6861313887466244e-02 -4.5459792767350057e-05 -8.1557127540409554e-04 -2.5314007723000076e-02 2.7088779478191691e-04 6.9288611098636569e-05 5.3422500038413438e-05 -2.2339386324784317e-04 1.5632061675796994e-04 -1.5881188872496821e-04 -9.0160224406264835e-03 2.8039273804537179e-03 1.7101274761103116e-03 -3.9304001270370160e-03 -7.9030034318618712e-04 -2.4015774163724992e-02 -8.6270740981176340e-03 1.5408095511485215e-03 1.5794654784992634e-03 -1.4226126865322533e-01 -1.5609046942998321e-03 -1.0041044173320431e-03 -1.2183289561028543e-02 -4.6933988116204372e-03 7.2262086862671113e-04 1.0348502936351313e-03 -2.5756234279426409e-03 4.5925162227159876e-03 -1.2215384099525332e-04 2.4370928215380894e-03 -1.3498417386064423e-03 -2.3537505567960597e-03 2.8087772874228457e-02 7.8962937943353323e-04 4.3292385343138284e-02 -6.5884585932254290e-03 -3.8923672922567352e-03 2.7724363790807786e-03 8.1095086668460069e-03 -7.7863420988664479e-03 -1.4212300964852396e-03 1.7282110637491951e-02 2.6437671153890598e-02 1.0810776005537731e-03 -1.6495063713099960e-03 4.5725520468369758e-03 -6.8804981124881469e-04 6.9532276295254441e-04 -5.3641612009697831e-02 
      </Row>
      <Row Index="44">
        3.3777822408374708e-02 4.9572812004246216e-04 -1.5876042856120126e-03 -1.3224483160862772e-04 4.3116108285646531e-03 1.7186033244544863e-03 1.7595908017012737e-01 8.1420067530348647e-04 1.0225876219101919e-03 -2.0958575850975603e-02 8.5741165939786455e-03 -4.1564863435873192e-03 2.2405453051595337e-01 -6.1920015656461800e-03 -1.5478484692078576e-03 -7.1287231637868619e-04 -3.2616117178251209e-04 -2.8691256708500576e-02 -7.3157177888341519e-03 -4.2562220449882171e-02 -1.3506600213223021e-03 -2.2894419240981484e-03 6.4221807740895637e-03 1.9818822594460384e-03 1.0114594620853345e-03 -3.4521129535613711e-02 -1.1082101560019007e-05 -2.1620509049717629e-04 9.4888417435647410e-02 -3.9231401224039024e-03 1.0068461823255215e-03 -2.7565821274917468e-01 2.7024041904754048e-03 7.7005238319568202e-04 1.6671031593325225e-04 1.7775863641925761e-03 1.9438983019258449e-02 -9.6672768856991623e-03 2.6876880026674529e-02 9.0414397951132583e-04 -1.2509357449391398e-04 -6.8425200958765683e-05 -4.2813760817194610e-03 -2.8908530613288852e-03 1.9362829167906670e-01 3.2530605020982348e-03 9.0341819224435370e-04 -5.5519541404400893e-02 1.2627143215703809e-03 3.9850627702338933e-04 -1.2543603643826629e-01 -3.1784545173304231e-03 -1.2752332265370024e-04 1.1520418121127975e-03 7.3040076207322308e-04 -7.0667285920344948e-04 1.0803625434443364e-02 1.8425738028663319e-02 -1.3239034304116061e-03 3.4323614075359565e-04 2.5159868954583043e-03 3.3400134653479427e-03 -1.2885917720442939e-03 -1.5169095945557309e-01 -2.0081579139333799e-03 -4.0323356467967565e-04 8.8090548237141603e-02 -3.0423997817529899e-03 2.4569265622687029e-03 -1.2755557595555800e-02 3.3041530027416400e-03 8.8567160830258125e-04 1.9057386639011178e-03 -7.4283386419508402e-04 -2.3989194907329286e-02 5.5326392623259186e-03 3.0647328773932586e-02 1.3648912602162722e-04 5.1050132188330821e-04 8.1023048347925175e-04 -2.5942764665475848e-03 -4.9924550280893787e-04 -7.3040046041207410e-02 6.4820783637996593e-03 1.5262956358674806e-03 3.0915162703094801e-02 2.3222127303962337e-04 2.5984004349831726e-04 1.8533972673267884e-01 3.5072445937528798e-05 -5.7663222152693708e-05 6.4729726602347042e-04 -8.7638110402509222e-04 3.7068831823142967e-03 8.7977023094590323e-04 -4.6625001378898391e-02 2.1318546088220751e-03 2.0228163516304836e-03 -7.4057131121983925e-03 -4.2375394858303690e-04 -5.7501974501643024e-04 7.1044955230475715e-02 1.2708813911826546e-03 2.9303040728024753e-03 -5.2418900217032771e-04 4.6155546096472546e-03 -2.5189767190848108e-03 1.8260800572595148e-01 -2.7364821115856597e-03 -1.1991371849868503e-03 -1.1415556183268517e-04 5.5159485034053809e-04 8.3903782863346127e-04 -3.1411117407570757e-04 7.8564556621838477e-03 -1.0858321106383545e-05 4.1666262374930735e-04 -1.1875358372761017e-04 -4.0625309829360229e-04 1.9552321769856981e-03 1.1090545701759585e-02 1.7372434683287936e-03 7.5299593127998998e-05 -9.4119392639286814e-02 -4.9848897153676776e-05 5.6336145305262793e-04 8.5598416475999084e-02 2.6885785702067351e-04 -1.8775163428505178e-04 -1.3424223655604528e-04 6.2233117261933208e-05 9.1707718425696819e-03 -1.2764755733310484e-03 1.5570744798455133e-02 -5.3019171397888009e-04 1.9781056613309687e-04 3.4027104075531871e-03 -2.6343265343417273e-04 -1.0718964336121622e-03 -6.0726439555687094e-02 -1.5316437140150824e-03 -2.2989896239633675e-06 8.0064592339439536e-02 -4.2518982747657514e-03 -1.7124727937357248e-03 -1.3709906073922085e-01 2.7444148459335521e-03 5.1269744143164471e-04 2.1124146379004839e-04 4.2411946324967141e-04 6.5120776539809395e-03 1.5661906846563653e-03 -1.2817121818333298e-02 8.5688378807521372e-05 1.6093769292786168e-04 4.1741914523539189e-03 -9.9416285385461878e-04 -2.5007424880644016e-04 -7.3641814015075316e-02 -1.3478783705511144e-03 3.7093140009117776e-05 2.7774888925635288e-02 -4.7547461858186216e-03 3.0535134520148777e-03 3.0919547585970264e-02 2.3564196730715657e-03 4.1787991239320820e-04 4.3596042915812483e-04 -8.6162241993350836e-04 -5.6977203968999190e-03 3.1922775606167530e-03 -3.5797711303752866e-02 5.2522160331105517e-04 1.6014374268202847e-04 -3.3095898843119352e-03 2.9289195409438508e-04 -5.2202602301533473e-04 1.4775519840879308e-02 -6.4656013561445892e-04 3.9973838466196836e-04 1.7458936161953043e-01 2.3823495260441169e-03 1.0727457202402086e-03 4.9711746366064313e-01 -1.5404617762694560e-03 -2.4552243571808333e-04 3.3533364500170715e-04 -3.0451062879598102e-04 1.4441170953725338e-02 1.8172581566093878e-03 7.1358043360431112e-02 8.2758146656432916e-03 5.6515021828479331e-03 -3.6998956049163242e-02 -2.3149930033084247e-03 1.6163626262606960e-05 4.0253481557699300e-01 3.5202871222912990e-03 9.7071801895844238e-03 -2.5038470372323740e-01 4.6384732108065499e-02 -1.0427527022789800e-02 2.9947016078259936e-01 -3.3643949091422758e-02 -8.8160108704391366e-03 -1.8516057202823946e-03 -5.4991545310866721e-03 1.7091440291449319e-02 -1.3894563788835435e-02 2.9260964601650341e-02 -2.1876021727941714e-04 -8.7598173459953774e-04 2.9272621136929820e-02 -2.0791948925605805e-03 -1.5214321747427670e-03 2.1863986791583567e-01 2.6647472644136805e-03 9.7604023687178354e-04 -1.8531172575228062e-02 -1.0254746096901912e-02 1.2778390240021191e-03 -2.7316559131772855e-01 5.4123797682180258e-03 -1.8334439528670393e-03 -1.8969745876584558e-03 2.0884187852388547e-03 8.4146699984738501e-03 3.7478597730810484e-02 4.1335000380172772e-02 
      </Row>
      <Row Index="45">
        3.7861418161708573e-03 -4.5587866124967985e-04 1.6844646556631038e-04 1.6242913734509094e-03 -1.2484871008597836e-03 8.1952431825259905e-04 -4.6628281301836980e-04 1.0316537874958208e-01 -1.1108964080186272e-04 1.4269367276487088e-04 1.1366550174729453e-04 2.7140107861616455e-03 3.2694422454892180e-02 -6.6645390364716024e-03 1.0799778173700529e-04 1.6571651324229794e-05 -2.8139950207196132e-03 -6.1463161477476949e-03 2.7004648146632705e-03 4.0341374989852907e-03 -2.0800479534940575e-02 1.0333010224373440e-03 1.7406982248116673e-04 -3.2011545625839355e-03 7.8470501790482705e-04 3.9964822774183478e-04 4.4572490729157227e-02 -4.7291672760358533e-04 -2.7647422218555151e-02 1.4133144529247695e-03 4.8349262491217820e-03 -1.9195533355176764e-02 -4.7674245573782002e-03 4.0877262214802316e-04 1.7240496920557791e-04 -8.0628831816161733e-04 1.2980656609832275e-02 1.5938525706225629e-03 2.9458368825575412e-03 4.2338152496101539e-03 -4.1365237845510799e-04 1.0228706095724276e-03 2.8049508561026754e-04 1.8813948120970647e-03 3.2530605020557601e-03 1.1727653511414479e-01 -1.6385562830584614e-03 1.9052152731383082e-02 -1.7387936243447131e-03 -2.5110701574352461e-03 -7.4960980351850282e-03 1.6441850800578660e-03 -7.5313930175653632e-04 -7.9065537400127561e-05 1.5712999284776610e-03 1.0765034360774566e-03 -1.4034659848830081e-03 5.2306902038123937e-04 8.6078251332716502e-03 -1.3857090515728525e-04 -2.1287151773167114e-03 -3.0979780647891579e-03 4.8735082945592528e-04 -5.8605463752908760e-04 1.5514780639482487e-02 -2.0531668197818964e-03 -4.8342544588895198e-02 7.1596206097081748e-04 -1.0204362385322907e-05 1.9530940971220545e-02 -2.7772316400194587e-03 -8.1112580002225450e-04 -1.2361231681922488e-04 -7.9730677794246849e-04 -6.8692773824105546e-04 -1.9287978286912644e-03 -2.0893412086903540e-02 3.2068210145646231e-02 -1.3230703789031475e-03 4.2136011251381611e-03 2.6338586798830832e-03 -9.9979394467365409e-04 -5.0764143937052641e-03 -1.8822242709749282e-01 2.8093128791459865e-03 3.3914797297740495e-02 -1.8106644698645535e-05 -1.0880906428874515e-03 -6.9868147184983798e-03 9.7338719492236180e-03 -7.8283077605315488e-04 1.3636430129844099e-04 2.4205166215475471e-03 4.0205929807324292e-04 -3.0119952547432716e-03 -6.2710497999100834e-03 -2.4702608878052808e-03 5.2449317071151524e-04 -1.0335871975315533e-03 -4.0104215756514832e-04 -6.3104705008702917e-05 -1.1996584449224094e-03 2.7349269164442360e-03 -1.6443556840004931e-03 2.4272287493791123e-02 3.4591652092656354e-04 5.5297917757580594e-04 1.7580098700498259e-02 -1.9051478409752316e-04 8.7840382582833739e-05 1.0456456464366193e-05 4.7000780276722611e-04 2.8868274292536116e-04 -4.4439383654537915e-04 -1.2541402069468077e-03 1.5250329091882316e-03 -4.9332400286129785e-04 7.5327315649259628e-04 1.0463856408984818e-03 5.5844120342903885e-05 -7.7914363836700459e-04 -2.8692064164283430e-02 -7.2072473675779264e-04 -8.6047360779708537e-03 -4.3652639449821493e-04 -6.2591922375891413e-04 -2.4075517308475014e-04 2.3959851536459287e-03 -1.0391553172163441e-04 -1.5790355942044837e-04 1.2321413597765132e-03 2.6359928585234504e-04 4.3981084803151882e-04 2.1981250702955632e-03 3.7041631480630183e-03 2.4087281162938484e-04 -1.6414820104589786e-03 -1.6806908408133956e-03 -5.4061653112910321e-06 2.1495626397742811e-03 3.7566495177815795e-02 -9.6972986987506045e-04 -6.6305016415752066e-03 -2.3563453271419353e-04 3.2746467994101622e-04 3.4869411421141194e-03 -3.0127698683519231e-03 2.7959691939839825e-04 -1.2228684938092046e-04 -1.9582444377932717e-03 2.4117288683612927e-03 1.1535760931152259e-03 1.4261982335669887e-03 2.7750371738760062e-04 2.2967133550357705e-04 1.9968831105965507e-03 1.2023761628888741e-03 -8.8459831444897587e-04 1.1892975232360645e-04 -3.5677094674910537e-02 -3.5828445146677884e-04 1.4212165319639924e-02 -1.4620928379229479e-03 -2.0034277142919870e-03 2.3572377139302603e-04 2.3940993015269130e-03 -2.6006899606956495e-04 9.8021280264350141e-05 1.6298407795814845e-03 -3.9377202501554853e-03 -1.6549606202147151e-03 -5.6522539329602085e-03 2.7216511368217382e-03 1.2049180586222246e-04 -4.2392786775377893e-04 -5.0437562599472149e-04 -9.7609266629649451e-05 2.8656048426616400e-04 8.1033925303046084e-03 -5.3458396798828538e-05 5.3304992121138095e-02 -5.0266620973965915e-06 -2.8641589887760921e-04 3.6288649243734400e-02 -2.7384579599472477e-04 -5.2531957922396112e-06 1.4429323139390998e-05 -1.3486742860968160e-04 1.0004538034760202e-03 -6.1621545624706685e-04 -1.4140165884978462e-02 -3.6628746745735720e-02 7.8911617397356762e-04 4.2738398935420613e-04 1.0728619119035339e-02 6.7584935432991790e-04 2.0621919891242848e-03 1.3853864246832459e-01 -4.7368962839821650e-04 1.8171213093686744e-01 -2.3314645082110619e-03 -1.0336968702212238e-03 -1.9382172488953131e-03 4.1990806522680148e-03 3.4243423986206074e-04 -2.4487757976740738e-04 6.2905318001847980e-03 -1.0151712456813865e-02 1.6265699331476477e-03 2.2068745055776329e-03 5.6606199037636896e-02 -7.9533981552244162e-04 1.5077376740334263e-02 -1.8068795651530719e-04 -2.3089318553570857e-04 -6.7866200164893968e-04 -1.1011891558028586e-01 -1.9699957881988981e-03 -4.5814990692955122e-03 -4.1082923090604972e-03 1.3100767098983557e-04 -1.0841913355357433e-02 2.2613465939883580e-02 -1.4588457549611338e-03 5.1001338315238278e-04 -1.1857231331837980e-02 1.9611052399307822e-03 -2.6458814646178447e-03 4.5660658649158324e-02 
      </Row>
      <Row Index="46">
        2.9614487993532071e-03 -5.1480861135959864e-04 1.7068358617363000e-02 5.2152063785325308e-03 -7.1912988108573427e-03 9.7756264284293466e-04 4.3689019682423107e-04 -1.5130426835114625e-03 -2.2974734860524419e-02 1.6965891882748441e-02 2.7760848510172760e-03 8.4742606749997618e-04 2.3801521937438785e-03 -1.1534359922702364e-03 2.6592063938189574e-04 -2.7870456129659574e-04 9.1215498765569603e-05 -4.3479219506404867e-03 1.1226288283450422e-03 1.0584147757476403e-03 2.2698032169997102e-04 -9.4609838382849060e-03 -3.0930874999949209e-05 -3.5860151046795963e-03 -9.8879730378878539e-05 -2.0997071350039864e-03 -6.9818030719351657e-04 3.5915103444887284e-03 -1.3339160519155513e-02 1.9666867389247400e-03 -1.7189229691806085e-03 -2.5056451346117115e-03 -1.4876331416829188e-03 -2.6229536455103265e-04 -8.1898200867701332e-04 -3.2228825257230899e-04 3.3413202910614892e-03 -4.5758703408737417e-04 1.1300518965156742e-03 -4.4322194992661886e-04 4.3486772986892387e-03 1.3040514682309164e-03 -6.7126426319592813e-04 2.6495599862941810e-03 9.0341819226269493e-04 -1.6385562830739794e-03 6.0795361880441608e-02 1.9569498674036900e-03 -8.3189380292543989e-05 1.4724351812153355e-04 6.1734907966091157e-03 1.2271165798371116e-03 3.7410018231254227e-04 -3.4977756069050764e-03 -2.1274791540966329e-03 2.9558020296974272e-04 3.7751379065104756e-04 -1.5467707100449424e-03 -8.0233225910851698e-04 8.9511190715422500e-03 -8.8435900392146247e-04 -1.6694880039209688e-04 5.8509352277161036e-04 1.9175307790460713e-03 -2.9905327534531863e-03 4.7216176429291788e-02 3.0377666533708603e-02 -2.0604191057937171e-03 9.4556476120620687e-04 -5.5752658130008292e-03 3.0441663430980023e-03 2.5970236502611448e-04 -3.2056881110022746e-03 -3.3347499586350283e-04 -3.3365782020557677e-03 8.6337953854279538e-04 -5.7266936238056544e-03 -1.1560127223108618e-03 6.2942470942306400e-03 -1.5745231748760247e-03 1.4931768110848509e-06 2.3737761879716931e-04 -5.0592726992104015e-05 1.8137789697436624e-03 6.0068116595771714e-03 2.7851242330950710e-04 -4.9700422553200507e-04 -1.8259402351602540e-04 1.4278101094608031e-03 -5.1988984623560215e-04 -5.1632004570045537e-04 -1.8007101405328498e-04 7.2869215539948101e-04 -3.7302100671165947e-03 -4.0530321275356052e-04 5.2855430571391859e-03 -6.4816504057324054e-04 -2.4789812077193361e-02 -1.4947888317363969e-03 9.4617191672491949e-04 6.8886574837998546e-04 -1.6158623632039995e-03 -1.8947293536753724e-03 6.0606051717713182e-02 1.3670188257917704e-02 -5.2903745058757430e-04 -1.8653971149690078e-04 -5.6030948717754984e-03 2.2206136121858443e-03 -6.5551230422249205e-04 5.0585202803583331e-04 -4.4631159209521597e-05 -3.2141986081952179e-03 -1.3513838863465294e-03 1.2570967436826841e-03 -5.4379009429089914e-04 -3.5551860546073621e-05 1.4178156321794037e-03 6.0094543398490734e-04 7.9700422703460425e-04 5.7041950682511916e-04 -7.3223153378552258e-04 2.9612184747047458e-02 6.0242443471758556e-03 -2.6594898693623782e-04 1.0120601493649774e-03 1.5327113606229403e-03 1.5336087372394228e-03 9.4721035143695547e-06 5.1336786095592855e-04 7.1104409814818259e-05 2.6374405885393609e-03 -2.1153251665773087e-04 -4.7801569738074173e-03 -2.3998633452391571e-05 3.7298297697347486e-03 -7.0008263472551248e-04 -1.3754223247557694e-03 5.3436460316774433e-04 7.6001165783570876e-04 -1.2108448021232730e-03 1.4533228700775894e-02 1.3890500275249105e-02 -1.0731016183736549e-03 1.0921093861690123e-03 1.9865672556207414e-04 6.3386558635340968e-04 -1.7995988960622374e-04 3.8423741999575822e-04 -5.9272743313666773e-05 1.2127459772870355e-03 -6.2145940959708909e-04 4.8932904040682561e-03 1.1448320958007993e-04 4.7246735153305078e-03 1.2904763604798585e-03 8.4770735946682052e-04 1.0553652984161138e-04 1.0047986651583471e-03 3.8991787172670822e-04 7.5076775649128959e-03 6.5177420132807029e-03 -3.9977040432585681e-03 1.5232244928844590e-03 1.4550969885007703e-03 5.3750311770731952e-04 2.8330783858189967e-05 1.9147349719980666e-04 -4.6270394611824892e-04 -3.2965354605184183e-04 -1.7928330964372963e-04 9.1848946562835074e-03 1.9276796292811877e-06 4.9467849966871730e-03 -1.0729009628408495e-03 -5.3018344700420843e-04 7.3592986890299200e-05 6.6740094176636353e-05 2.6795840979958044e-04 1.6471124216549252e-03 1.5043214531878575e-02 -1.4739404627694453e-03 8.8127622223640876e-05 -6.2701583248373494e-03 -2.1930097900428136e-05 1.8564930686030669e-04 -3.3336808388290969e-04 -1.9917193600929280e-04 3.3093475573867676e-03 -4.5640447163712333e-04 1.6331629764491026e-02 4.9795533773778350e-04 -2.5179527618005414e-02 -3.4262549295991135e-03 2.6059549542679162e-03 4.3305699820734784e-03 7.8692406271391006e-04 -4.4263477822848547e-04 5.1738591600366535e-02 2.6535032790796796e-02 5.8156244790444614e-03 1.9458178650549282e-03 3.8820833173472957e-03 8.6010182222325026e-04 1.6214621879202898e-04 1.0605410930906731e-03 1.4415496507016704e-03 3.5858487955720058e-03 -1.1495913878605229e-03 -3.7492990769598111e-03 -1.7652870323921152e-03 2.9838489399324881e-02 2.0982388405275953e-02 2.7847879416060747e-03 5.5539908069060181e-04 -1.0717633378047320e-03 2.7082672120243949e-03 5.3208130958381561e-02 -1.0206285132832059e-03 -1.5324442430715013e-02 -4.2856429964448998e-04 6.0587809695199779e-03 7.3944264163906814e-03 2.7749341226082427e-03 5.0819598544420384e-03 5.1482074432299529e-03 1.5824215737832634e-03 2.2523851263680766e-03 -6.2173340966498750e-02 
      </Row>
      <Row Index="47">
        -4.9125126643283820e-02 -3.4186366506231466e-04 7.2287064219718200e-03 -7.7495125120288716e-03 1.3695556480442300e-03 2.3137128272917359e-02 -1.0694830372277875e-01 -7.2726311682423418e-03 -1.6672730204417043e-02 8.4941461891480330e-01 -9.2694282794615907e-03 -1.9793719181558700e-02 -6.5249890077698325e-01 4.9313489894370482e-03 9.8758600747397840e-04 3.6809884433504207e-04 -1.5631280331904022e-03 1.5134413512379314e-02 -1.8904424660948091e-02 1.3452265222175264e-01 5.4093257280514520e-03 -4.4009291117327320e-03 -8.6661638692424152e-03 8.6549918812677262e-03 6.0290514747871615e-03 9.0708394534821490e-02 -9.3413845937435312e-03 -5.7455120525570225e-03 9.8139127888504252e-01 -4.0668999052590410e-03 5.0702872217103234e-03 5.9712247654761086e-01 3.1214756866410134e-03 1.2390920404718592e-03 1.3602299727031864e-03 4.2453976762191091e-03 -3.5104793348534447e-02 -4.4656634114164484e-02 2.7385813562396555e-01 1.2640646924507309e-03 -8.9136872016448432e-03 -5.1705375501887585e-03 9.1758348610914142e-03 1.6022791163649019e-02 -5.5519541403941997e-02 1.9052152731259084e-02 1.9569498673749006e-03 6.7122028048455462e+00 -4.0154719618921371e-02 1.2246513539570326e-02 -1.5402368163950086e-01 1.7726392962543289e-02 -2.7787313967910787e-03 6.4161157447282834e-03 6.7710571376342121e-02 3.0936779131835339e-02 3.0397754295716617e-02 -1.1955157611640743e-01 3.1700522329538433e-04 1.0807014964053037e-02 -9.9225688456146093e-04 1.1145656769772569e-02 8.0022436646974646e-04 1.7452069663013325e-01 4.6178714447511655e-03 1.9405179902959698e-02 -3.7830190027688992e-01 6.9659708390693853e-03 1.3505076417029169e-02 2.5723124370486161e-01 -1.8313332041894250e-05 -4.2086900446724447e-03 1.5759292111506049e-02 2.9893117709728176e-02 1.0934995024165284e-02 1.3451475654511200e-02 -1.3296958639256179e-01 -4.8042190168473553e-03 4.4096888663031075e-03 -5.1737543208711934e-03 1.8910624650798624e-03 5.2828025714652532e-04 8.8345116224897435e-02 2.7460833466971479e-02 6.1552006655736236e-03 -9.6389046299752090e-01 5.5201879541915133e-03 9.4089108935385152e-03 -3.5548145173688717e-01 -5.3155556370564419e-03 -1.5625305113934392e-03 5.2158857961031565e-03 -5.9582013072998485e-03 5.1155175354791194e-03 -7.8727018083450950e-03 1.2912584522620141e-01 -9.9195509252800185e-04 -6.8438974869005006e-03 4.1014009891781880e-03 5.1886049025240237e-04 1.5648712177247857e-02 -1.1362945682449433e-02 -7.7978778919558633e-03 1.6203915761789714e-02 -3.6884471249748424e-01 -6.0926132180815400e-03 -5.0123132210132329e-03 -5.8623892703406166e-01 5.5750935024036601e-03 3.1230736400826029e-03 1.1181812989072321e-03 -4.7842042376790156e-03 -2.2635183253823604e-02 -9.2044206843891266e-03 4.2347325473592434e-02 2.4593848715785196e-03 -6.5300847339867796e-04 1.2619471211929596e-03 -6.7848640624939144e-03 -1.8345079720597957e-02 -8.8361652481050948e-02 1.0375687199032639e-02 9.7775146666023993e-03 7.4559675557894600e-01 -6.6521949494890813e-04 -8.3579424293009144e-03 -2.2551441631431346e-01 -5.0263752059351114e-03 -2.9554317374307351e-03 -2.5327151373363416e-03 1.6020508854795616e-02 3.8695474072331509e-02 -1.0482258071209394e-03 -7.3718556058514434e-02 -7.8860193245539577e-04 -3.0026645152806657e-03 3.7794497022828836e-03 -7.8050833034219724e-04 7.8037533917298466e-04 1.1047365571889553e-01 -5.3432788197132087e-03 8.4753838838960028e-03 -5.0434913115645941e-01 5.1680410234219969e-03 -2.0640114001189314e-02 4.8695914088983727e-01 2.9959866643795917e-03 1.5252579945792700e-03 3.4982502152473703e-03 -2.0181818556882565e-02 -3.1649133297502505e-02 4.4604814130813422e-03 -4.1945506597717008e-03 1.3432990629453148e-03 3.3044892797499566e-03 -2.4108362311768723e-03 2.3792088723677551e-03 -3.9516638319857522e-03 4.9526746716216902e-02 6.2011360068314758e-03 -1.0409079714670151e-03 -5.6495394303208135e-01 1.3161522660473310e-03 1.4509742626537370e-02 7.2930078089257222e-03 -2.7963502777631809e-03 1.3329911844001373e-03 -1.7510268809637908e-03 1.6145916826536037e-02 2.8387112276431897e-02 6.1793538913663959e-04 1.7576079395983824e-02 -3.8019526313132941e-03 5.4433731564812165e-03 1.1913956223525029e-03 -4.3704722653127789e-03 2.2108346121431047e-02 1.5290430640518166e-01 -1.9627462121904221e-02 -5.5430298839320765e-03 -1.5396147188602503e+00 -4.6709798754703208e-03 -5.0035139885861654e-03 -1.1758804896304715e+00 1.3611109053063206e-02 3.7406701316098877e-03 7.5704051346264910e-03 -3.7817210252873143e-02 -1.4258670699042994e-01 1.6201461449812490e-02 4.7083711488483296e-02 -1.9300436332809829e-02 5.1110090198540382e-03 1.5491371606963365e-02 -2.4405018216103101e-02 1.3358627175402110e-01 1.1882834744676971e-01 -4.1118188211781731e-02 -3.8098252666181560e-02 4.3353327390658647e+00 -7.9221590290583691e-02 -5.5404590919498536e-02 -1.1633264153435965e+00 5.1534099870514105e-02 2.1222871002244646e-02 2.4775731239419577e-03 -1.3364911799265694e-01 -3.5373970697102830e-01 -2.4272738920512280e-02 -5.8547938008696399e-02 -1.7876024220021949e-02 1.0700740984986683e-02 -3.6121315999833793e-02 -1.6972739438125550e-03 4.2465542451048718e-03 -2.3715223682256431e-01 7.6167979669354707e-03 2.1639273404515824e-02 1.6707616205447434e-01 -7.1859429671934372e-03 1.9611513024165195e-02 6.2060627214299047e-01 1.1351198520105245e-02 -2.9058529329835527e-02 -2.2524208111303623e-02 -1.4138504746296812e-01 -5.6374877043370991e-03 1.2306422407308068e-01 -5.2519509639388451e-01 
      </Row>
      <Row Index="48">
        2.7857474077570255e-03 -5.3045487072543259e-04 -2.1137557595771791e-04 -7.8245265131904394e-05 -9.1784036286501175e-04 -6.5164406264152180e-04 8.7916895789680299e-03 -4.2468943588232048e-04 2.3498101567685558e-04 -6.8221357337636124e-04 9.9859715319028063e-03 8.9982389181615012e-04 -5.2228911082763674e-03 -9.1823942745427494e-04 -3.7135908229572235e-04 -4.9398575917649246e-04 2.4026590148371854e-03 8.5322904078496964e-04 -2.7685877187234643e-03 2.0626437702877497e-03 1.6614416447854256e-05 -3.0909810477446412e-06 4.1744321874392551e-04 -5.5580633980548307e-04 3.1273794301210937e-04 -3.8876368964995828e-03 -3.7295150197275237e-04 1.0757879680085886e-03 2.4187062981479920e-04 1.8578091896027543e-03 -3.7124783529818642e-04 2.7817076345655334e-03 -2.4657345423705426e-04 1.2992103503517362e-06 -1.8069821077665868e-04 7.8159915321143779e-04 -9.4974537977183388e-04 -2.7087023266260351e-03 6.4389749604656593e-03 1.0831930248958606e-03 1.5089839709725079e-03 1.1215389119618698e-04 -8.1450833169241293e-04 6.8448030874586601e-04 1.2627143215765309e-03 -1.7387936243457654e-03 -8.3189380295356735e-05 -4.0154719618961832e-02 1.8172196175885977e-02 1.8372796259235680e-03 -1.9616604980192687e-03 -3.8758217239857587e-03 -5.7684450525706619e-04 -6.8052830692447337e-04 4.9192262500619942e-03 -9.4045058023261869e-04 2.7196445443065358e-03 -4.9276723110456208e-03 -5.1118950606841938e-04 -1.9271531471816037e-04 3.9052323517087500e-04 -3.4505802511988109e-04 1.8044690281646054e-03 -4.8878817519460074e-03 2.0716791337209006e-04 4.0473259293716311e-04 6.6728644831917094e-03 3.5508111944496839e-03 2.5204166994146036e-03 7.0538786808804765e-04 -8.4557427784446508e-05 -9.7916787355440348e-04 -3.3760798710980397e-04 8.2017649533760561e-04 -1.2700878674254488e-03 1.1289911188099438e-03 -7.1188342024763318e-03 -3.9358119286293618e-04 -1.2073106812067486e-03 9.9607581023999567e-05 -1.2926158681000471e-03 6.5569635883914188e-04 -3.1605206505635683e-04 1.2710563279062226e-03 1.7387435064720909e-03 1.0470671037718371e-02 -3.5816290085625667e-03 1.1708655329189209e-04 -5.9313809418259922e-05 1.5197792627236442e-03 3.0995338941171595e-05 5.6284972245311494e-04 -3.6579196016536322e-03 -4.2947468647815193e-03 1.8726553195259326e-03 5.2210863775041198e-03 3.4773329729406201e-05 1.1628643942300887e-03 -3.3067014976600573e-04 -4.8741956660322983e-04 6.6040869599307374e-04 2.8974383198659150e-03 -1.7751315142116491e-04 -2.7608697272492257e-04 -1.4667737473927911e-03 -3.7607719525466557e-03 -1.5572500977093929e-03 -8.2966082700581256e-03 7.0154794755110660e-06 1.2985735860800217e-05 1.3173868940576859e-04 -9.3165256458062817e-04 -1.5624943694754860e-03 1.5204357131239981e-03 -6.0026041552474485e-05 2.0410180726058817e-04 1.8475747404101371e-04 -2.4177952196471637e-04 4.6483599561635306e-05 -2.8930803061032228e-03 8.8224743549602559e-04 6.8915979015173956e-05 -4.9355848179175217e-04 -8.8783050280074466e-03 -1.9578958218399024e-03 -2.3601582458471215e-03 -2.9949593737503832e-03 -3.6480330195693030e-05 4.3766696611213497e-05 1.5078102003203756e-04 -7.8188716803225531e-04 -7.9198133597269734e-04 -9.2931819941240862e-05 -3.6147255937579031e-03 -4.4038451533442730e-05 -4.6941851525651029e-04 2.2320895918604767e-04 -4.0802551423329826e-04 1.2253439992930899e-03 -3.2310611145460865e-03 1.5973240353408689e-04 2.3399003140754242e-05 1.0115315766144134e-02 -3.6751161066911012e-03 -5.3788623558284317e-03 2.3129320132138087e-03 4.2176302892153153e-04 2.6222898814692581e-04 2.4980123703035001e-04 -1.5453583090757408e-03 -1.0861633948071306e-03 1.1502026583562392e-03 -5.6162807020097502e-03 3.6204441564707856e-04 -1.4400778001685773e-03 6.4633642798204993e-05 -1.5578539811260030e-03 -2.8469530443045107e-05 -2.6754924654725284e-03 6.1831498100053950e-04 1.3967870412879312e-03 8.2200485246770871e-05 -9.3864410686103836e-03 -2.0040899019408524e-03 -2.2828420056772991e-03 4.7976723899107452e-04 3.3967059892880285e-04 7.2886986957713365e-04 -3.7860940139910490e-03 -3.4506947382228880e-03 3.1894060640036952e-03 2.6044473371872288e-03 -5.1594883406527368e-05 -2.7149612078562139e-04 -1.4452267327419834e-04 -5.4103378930630424e-04 7.7104221726441175e-05 1.0970644060767053e-03 -8.5379940632875637e-05 4.0774902923265851e-04 5.0908993797686526e-03 -5.2803952463032139e-04 1.3844087724641510e-03 -9.4939315186784723e-03 -2.4129234867760311e-04 -6.0009559407729965e-05 3.4811259647551739e-05 -1.1220853110084140e-05 -6.1094511797310513e-05 1.0702989211741813e-03 1.3897960197453818e-02 9.1027391798422343e-04 2.6945156298352054e-03 -2.2991328448418481e-03 -2.3083685537125722e-03 -3.2863411492379336e-03 1.5314853080860807e-02 8.5925176158704354e-04 1.0746403784867814e-03 -6.0288205671621908e-02 2.3643371143725694e-02 4.2430050646892993e-03 -4.8640897029739172e-04 -5.5216280082823477e-03 3.4262761611350123e-04 -4.6483969402411323e-04 1.5485933754637375e-04 -8.4336442913021670e-04 -1.6970609834624677e-03 -2.0514654237486479e-03 -8.1636154122753906e-04 -1.0942432562596619e-03 -7.6425785659611604e-04 3.3659044117344229e-04 1.3259524512242472e-03 9.8834881769827958e-03 1.8748537211798338e-04 -5.4995949334112407e-04 -1.5516294202055499e-03 -4.6080090696710110e-02 4.1987028989153054e-03 5.1127522020402542e-04 -3.3329363112607193e-03 -3.2909840646663923e-03 3.4720012262306490e-04 -1.2492811719341182e-02 8.4234133584350484e-05 9.0871566963457977e-03 2.6069560958317259e-03 
      </Row>
      <Row Index="49">
        9.0191253129106620e-04 4.5413262257853148e-04 2.1365299024803108e-04 2.8233874266964066e-04 -5.9367588638233656e-04 8.2028194796669295e-05 2.8684495243813321e-04 -2.3164836890648488e-03 1.3108976405536052e-05 -1.4637056084198186e-02 4.8257429885952951e-04 -6.9251094823412213e-03 -3.8637554146286668e-02 2.0194401358111444e-04 4.7072120499081285e-04 4.6774133778014807e-04 1.5981916738211665e-03 9.2192942909015071e-03 2.2714985999199044e-04 6.9236837389857753e-03 4.2478484108200351e-04 -8.3282904318103534e-04 1.5130471970511961e-04 -6.5933374729618133e-04 9.1555257685310698e-05 -3.2888565272805662e-03 -1.3887993225824692e-03 -3.6720637919854943e-04 1.2127843157265783e-03 -2.7415443161928283e-04 3.2708552717597705e-03 3.6280760963244063e-02 -4.4923696599942996e-04 -6.2956620539689808e-04 2.8176861546620746e-04 1.5479274602965658e-03 -7.4293627836636567e-03 3.1848755381646381e-03 -3.9428260177187188e-03 2.1843192197304662e-04 5.1448988136613624e-04 -3.2102524798828004e-04 1.0534560576196117e-03 -5.7188521141400550e-04 3.9850627708049036e-04 -2.5110701574315906e-03 1.4724351811820039e-04 1.2246513539541315e-02 1.8372796259260834e-03 8.5583926500879287e-02 1.4194544485910399e-02 9.6687266646503086e-04 2.3581164296228169e-03 1.7459295388634279e-03 8.4142681279184006e-04 -2.3706303304055765e-03 -3.0772367857100427e-03 -1.9089308424710349e-02 -5.1552433373819610e-04 2.5827121033537175e-04 -1.2813227025243907e-04 -2.3781848948515537e-03 -9.2023730628039944e-05 -4.1234353259248574e-03 -2.0429369508456249e-03 9.2056037203054912e-04 1.4267956594136127e-02 2.6567825924878907e-03 3.5657836962963603e-02 1.4769965168840105e-02 6.2099687709847758e-05 3.4373951901785337e-03 1.3541468392231448e-03 4.4601687107061492e-04 2.6552861363453584e-03 -1.6594539378285379e-04 -1.0656003232612902e-02 -3.8330630332292226e-04 3.5223192642710316e-04 2.5265427591480982e-04 -6.8436561087042991e-04 -8.2974621974461499e-05 -1.9177529991370613e-03 5.6968737951063053e-03 2.3654442797160780e-04 4.2396375354851190e-03 7.7978051563998285e-04 1.5128355488417263e-02 -1.0635578112881017e-02 -4.4239960919658945e-04 5.4538814988926219e-04 -1.8733952964675692e-04 -2.0589229562654830e-03 -2.4411283546482074e-03 6.3931693775762244e-04 1.3347214849981248e-02 -1.0957990299491609e-04 -1.2060778512949892e-03 1.3699458821011179e-04 -3.2138502183111058e-04 -3.6246193868025647e-04 2.4307641658869242e-04 1.9022761496445334e-04 -5.3551902060095663e-05 -9.1087979582912051e-03 -2.5408774456172007e-04 -3.8824260654442720e-03 -3.3923509767569818e-02 3.9598212211852253e-06 -5.6638774601600798e-04 5.8244792326433623e-04 -3.2418114183450914e-04 2.3006117020129904e-03 -8.8822891556424857e-04 2.0115237892135429e-03 7.0132876106801024e-04 -8.5770037795847905e-04 2.3018835858496390e-04 4.0259713478454852e-04 -3.0991819433254936e-05 4.6463757806083396e-04 3.0446830208780626e-03 2.6844929531047044e-04 -8.3937002311023357e-03 -2.0375793755569548e-03 -3.0339847151067665e-02 -2.1882265016648583e-02 -3.5685620403417705e-04 7.5790894280586144e-04 5.9063376781858922e-04 5.1589480809474913e-04 2.9633625686012362e-03 -8.4324471138796930e-04 4.4436682551296097e-03 1.6230713343912372e-03 -2.1277158377655094e-03 -5.1588974916710255e-04 7.0968410218943262e-04 -1.6558877181828378e-03 -1.1009787313171399e-03 2.7269943195307473e-03 -3.7246235637744670e-05 -2.6943422055724350e-02 -5.4701184532723376e-03 -7.6439050891609822e-02 1.1378748503915403e-02 -1.1964340129969830e-03 1.8581409478457712e-03 1.2007126099542055e-03 3.1111105552799577e-03 8.1434927973409645e-03 -2.1265696056786609e-03 1.0139893215313153e-03 -4.8510650314173001e-04 5.9511181998515145e-04 8.4902097040616225e-04 2.0935585290188241e-04 3.8691864961356843e-04 -4.6151781949019949e-04 3.3921979042667028e-04 5.5130555172789274e-05 9.3011900788286250e-03 -1.2498849461983752e-03 1.3300569304982851e-02 2.1492381971732755e-03 4.5058516229485191e-04 -2.9839663623641992e-04 -2.5279022869073228e-04 -4.7674196357739423e-04 -1.7439597437139392e-03 2.5439830067225389e-05 2.4934316368304919e-03 -6.4065942110719471e-04 9.6293702049969100e-04 1.2581615071390636e-05 -1.2221978998261471e-04 4.4116207430463145e-04 1.0216269296498652e-03 -1.5056312610647316e-03 -1.9750788707313969e-05 -2.6925281131152043e-03 1.5615859953493512e-03 2.5512205236578697e-02 -6.1227519903102795e-02 3.9648735164438814e-04 -4.2755098922380493e-05 -2.1621011071765997e-04 -7.1237578126622696e-04 -6.0138760492204554e-03 2.6653160915683953e-05 -1.0344664555992561e-02 -3.6472416443097109e-03 4.3242291914054980e-03 6.2834004146599884e-04 3.6809535559980744e-04 4.5437394726144647e-03 9.2934891816174956e-03 -1.2042722350160642e-02 -1.1892333900496239e-03 2.1543536413670683e-02 1.4652837680079227e-02 6.9634911003083888e-02 -8.3835767799384980e-02 4.8104370694775980e-03 -8.6457258173558982e-03 -1.7693303523682534e-03 -7.5592544162138755e-03 -2.0154688286418056e-02 3.8641838133950442e-03 -4.3526268737349161e-03 -5.2407516227934809e-04 7.6574418858071751e-04 4.1670112078500748e-03 1.0479139405711233e-03 -1.0077726390136975e-04 3.4839083710405767e-03 3.5752524223156661e-03 8.6253717982308700e-05 7.4063656793076993e-04 -1.2742410314895557e-02 4.5424033112068767e-02 4.0606666407302025e-02 1.7667132474083586e-03 1.4481110463428407e-02 -1.7400837215143373e-03 -1.2613676644213426e-02 -1.7755646561145165e-03 -1.0147779182623027e-02 -4.5051533205860174e-02 
      </Row>
      <Row Index="50">
        -4.3959810366710997e-02 -1.1160437978573108e-02 7.3328741921656615e-03 2.2647751359247156e-03 -2.2543272976433149e-02 -6.4398013343628970e-03 -2.1080126184356007e-01 -2.9655537299136298e-02 -1.6908365326385824e-03 -2.0102795057312051e-02 -1.6798573996558430e-03 4.0387955827411837e-02 -2.8447316194662449e+00 1.4935181535126671e-03 9.6470968741346752e-04 7.2779256979161938e-05 -1.1627312716431428e-03 -8.0881156248978226e-03 -2.0614898656232733e-03 5.5220827003161332e-02 -8.7165705895217542e-03 -4.8559159075978187e-05 -7.1918433657140761e-03 -1.5899180717031669e-02 2.7951842058913101e-03 -5.8803501938385239e-02 -2.0377614380195953e-02 2.5414065686923948e-04 3.6090383448019026e-01 4.9607583216169857e-03 1.2095830110542494e-02 6.0106218206979065e+00 -4.7998567855687419e-03 -1.1458943238045194e-03 -1.7958323517763830e-03 6.6445034393030344e-03 1.8644252806929273e-02 -2.2074338654713976e-03 1.3530885939643431e-01 -6.7855334954835290e-03 3.3183663976088518e-03 3.2611513286684435e-04 -5.1712875510094847e-03 1.3615435083650596e-02 -1.2543603643431567e-01 -7.4960980356292874e-03 6.1734907963652014e-03 -1.5402368163904612e-01 -1.9616604977046289e-03 1.4194544486201721e-02 9.0811379810609196e+00 5.2247381208898637e-03 -4.9217247764410388e-04 -9.3691883623313321e-04 2.6249799043078781e-03 5.2122424608749725e-03 -5.9078476831859739e-03 -1.5092471756744885e-02 5.0993017940013929e-04 1.1639845080672884e-02 -2.0570999207165123e-03 -1.3465453055184273e-02 1.0556516775185831e-02 1.8485904396045344e-01 2.4120839283607660e-02 2.8744268873334856e-03 2.4443277915304984e-02 1.0985170878335072e-03 -1.1444979566152289e-02 -1.7124382440384407e+00 3.1424145341503056e-03 -2.4619780103793767e-03 -3.1110822433188032e-05 -3.0163815795211458e-03 -1.9610094426965929e-02 5.3723454696159387e-03 -2.5580916577859165e-02 1.5517231902915540e-02 6.0773122209454300e-03 2.1869433723118448e-03 1.5519690467655778e-03 -5.6275947590606838e-03 2.4155654094529144e-01 6.5117563291607894e-02 2.2069199347427571e-03 -3.0050990021436652e-01 -2.6562111041350533e-03 -1.8684338556315128e-03 -4.1549545833836143e+00 6.6419883055974767e-03 6.4282135674135154e-04 1.8398317762172800e-03 -7.0260624228321335e-03 -1.7095789366781244e-02 6.7225084877620134e-03 1.3996612437081135e-02 -1.5430616298303286e-03 -1.5721357615009979e-02 -2.5345510968310418e-03 1.4084423258384549e-03 -2.7076866645713796e-03 -9.1485334893647588e-02 -2.3756335669414923e-03 9.5553661118633563e-03 2.8668197907584736e-02 5.1168141152157804e-03 3.1330478574510823e-02 -3.2709388550254044e+00 1.2966607499906796e-03 2.7018871998446847e-03 5.0673070424295220e-04 -2.7550315613842466e-03 -6.9654549267147980e-05 4.6488392202975008e-03 -7.9815141879180374e-03 4.7713772571056721e-03 -5.1592825642589289e-03 -3.1848425269773942e-05 5.3451210268517695e-03 -1.6599007570938067e-02 2.5433799464091682e-02 6.6819952284228202e-03 7.2191339217942130e-03 -2.6630038863361138e-01 -2.3762653927795144e-03 3.9607398571677686e-03 -1.7789479841885598e+00 6.4573507130637892e-05 2.7914516855966206e-04 4.3864499132555070e-04 1.2397726923545817e-03 -5.2514107306793345e-03 2.9166985793480649e-03 -6.0963685508712284e-03 -6.2210273862156017e-03 3.2001737749881350e-03 -1.9256616586581766e-03 -1.4206387943882599e-03 1.3546224673872818e-02 4.6117001056486986e-02 2.3478517729154304e-04 3.6405925513857394e-03 3.6851301977791162e-01 2.6214944446974219e-04 2.3356467436968117e-02 2.8358450383325362e+00 -3.7067320842407835e-03 -3.0276730405505593e-03 -2.2963473993975426e-03 7.2606387925580320e-03 9.7773776469409004e-03 -4.7422895132784451e-03 2.1883128907623631e-02 5.4559944366535749e-03 -3.7831777783582654e-04 4.0638246456481380e-03 1.8459060722975096e-03 1.7393719730085105e-03 1.4197678308374911e-01 1.6155809688555678e-02 5.4050665656015257e-03 -1.4874154250211874e-01 -4.7560258243716730e-03 -1.8090541582950995e-02 -2.5492802192866293e-01 3.5203157073040317e-03 6.4094574186890731e-04 1.0320303402271414e-03 6.4427302333144518e-04 -4.3223718260915547e-03 2.7745914425540974e-03 -6.1974721452979914e-03 4.2559592465162667e-03 -4.7069189420671335e-03 1.2899232192275149e-02 -1.3768167058238214e-03 -3.5832200860634478e-03 1.5286193010203747e-01 1.5068909644885697e-02 -1.5380960199838194e-03 -1.6371252234552694e-01 -8.8505647336495439e-03 1.1410789904443554e-02 -7.0343209621010123e+00 1.0448795077434195e-02 3.8596603924209334e-03 2.5950042919729768e-03 -6.1365247357608481e-03 -3.0842775734556169e-02 8.6580296524681154e-03 1.0765245165248520e-01 -1.8265893371348124e-02 -4.7362507774116172e-02 4.4654780964062238e-02 7.2209069800971745e-03 -4.8914122211419109e-02 -1.0426234445486190e-01 -3.3237020939824082e-03 6.5943354550918598e-03 -1.5150433166050452e+00 -3.9796571372015747e-02 1.5498409623990600e-01 -2.4309908701397291e+00 5.2889380313583784e-02 2.8963371141905732e-02 1.3987318983018417e-02 -4.3713912075350081e-02 -1.0466233487904886e-01 4.3425881583915346e-02 -2.9668505175123983e-02 -6.1938155387676781e-05 1.5862639610994982e-02 -4.3909220031013163e-04 8.4259510261662229e-03 9.5271820757986160e-03 -4.1945901379797779e-01 9.9511880239746969e-03 1.3106953692704502e-02 -5.2408781551365385e-02 -1.5674314954496574e-02 -3.4521029076406605e-02 5.5481890130931486e+00 -1.7288528321501184e-02 -2.0306986581997422e-03 -2.3414947386613677e-04 -1.8469440131260895e-02 9.8783120893231567e-04 1.8896826743126371e-03 -5.0828318898472791e+00 
      </Row>
      <Row Index="51">
        -9.0058958924446749e-04 -1.4153588089981933e-03 1.5766141671418911e-03 -5.9620396991544560e-04 -3.5144451167882359e-03 -3.3610823091207294e-04 -6.1205640130190756e-03 -7.1457986089857595e-03 -2.4970299188783840e-03 2.4369104898191996e-04 -1.1973259610736312e-04 1.9645514747037608e-04 -2.8274357302051634e-03 4.8051206373100298e-03 -9.3110135891839429e-05 -2.8118218739200149e-04 7.1109537593691964e-04 2.1349026269307410e-03 1.2017139656631446e-03 4.7224399479456752e-03 -9.9026234659973372e-04 -6.1460673748468461e-04 -1.5346871652522612e-04 -8.0730860875645460e-04 6.6884797886294922e-05 8.9644329327637565e-04 -4.7619750572565058e-03 1.1820121607591591e-04 1.5780370833890778e-03 -3.8901221228454649e-05 -1.3109081336574666e-04 -2.2020104584186129e-04 3.2140555136662020e-03 -2.9288052391204366e-04 -8.0594126085080028e-04 4.3510205613950985e-04 -1.7813239249428459e-03 5.7339311632084991e-03 2.6432061238269439e-03 -1.4459086446038487e-03 2.0140264156681079e-04 -1.0760206648135866e-04 5.4096942924312941e-04 4.7404748354537563e-04 -3.1784545173293294e-03 1.6441850800539472e-03 1.2271165798397828e-03 1.7726392962552073e-02 -3.8758217239866066e-03 9.6687266646906800e-04 5.2247381211203425e-03 7.3293488588845410e-03 6.8086451612096172e-04 -1.8486720555164872e-03 3.6497012742292556e-04 1.4170976712306639e-03 -4.9856603464783758e-03 -8.7309771399443625e-04 -3.7297076584711546e-04 6.3388631240565317e-04 4.5539336336077962e-04 8.7527298764450141e-04 1.3062155743330402e-03 2.6219010325075455e-03 -1.1948529938212763e-03 4.5155616863806237e-03 8.5039044120098460e-03 -6.5581436069029296e-04 2.1063882499344137e-04 -2.8566559199845187e-03 3.6813269964807204e-03 7.3024868277994366e-04 -1.2913642605755691e-03 1.2008849723980238e-03 2.3320173420955936e-03 -1.3684208700762567e-03 -2.6024548105102047e-03 2.0114529382087229e-03 6.3893308520544465e-04 -7.2125903629014637e-04 2.4064819551697508e-03 3.9149305756211927e-04 -2.2021800270231543e-03 1.7500451971551839e-02 4.1726575530626198e-04 -1.1198642481229149e-02 8.6600325185753890e-04 9.5885242998191948e-04 -3.7773873285564807e-03 3.2252826406284386e-03 -8.0505013546534692e-05 -8.3714422915790419e-05 2.1947635383975312e-03 2.0867318529963902e-03 -2.0521737278303351e-03 5.8018032295041183e-03 -1.5375833765899981e-04 -2.4138186352614961e-03 3.8123340741121026e-04 1.1890409346913089e-03 5.5749127194320040e-04 -2.2233289544217106e-03 1.2611321535706933e-05 5.6793755437893117e-03 -8.8536487984102047e-03 -4.2132455165094416e-04 3.0774300323640211e-04 -4.8916835124274138e-04 6.9436161370552585e-04 -6.4731913161187156e-05 -3.6964898806130192e-04 3.1164007967662778e-04 5.8214243501467696e-04 9.5092144513255232e-04 -4.7872000173015961e-04 5.3983998334602989e-04 -2.4584313679574046e-04 -1.3884380648380469e-04 -2.4418329696432610e-04 -3.7661306047315057e-03 -1.0953333821655739e-04 2.6513702219648117e-03 2.4029691669693841e-03 4.0561751072471230e-03 -6.9436717600939585e-05 -9.3739781087175426e-05 2.5929491245461067e-03 -1.0725126627599306e-03 9.3291171179593624e-05 2.4912241942347886e-04 -3.0049084436363635e-04 9.9334087407022126e-05 2.2215975392113341e-04 -2.9735314515905442e-03 -5.4208322584108938e-04 1.3928440503214057e-04 3.6859545499806808e-04 -2.4051815346674561e-04 1.4806706749293072e-03 2.1086367967981488e-03 -3.2611744184995023e-03 1.3214952398248850e-03 1.4567435649327533e-03 3.3483528437520732e-04 4.0630550401841124e-05 -1.5774158173442743e-05 5.4173860400781957e-05 -9.2330198549537439e-05 3.0410192350623658e-05 1.9205390453981141e-04 -4.2518181459638249e-04 -1.6366556829351124e-05 1.7633226608374619e-03 6.2555564889316042e-04 4.0216898023034313e-04 -9.3663769693588415e-04 -2.1319848605198810e-04 -7.0863640009298165e-05 1.0380581800409749e-03 2.2986059887411259e-03 8.6399836662979807e-05 -1.2637484260945159e-02 1.6850996799330688e-04 5.9491695098983291e-04 3.2436839412959273e-03 -8.4139768206902617e-04 1.2274874431082868e-04 -2.2826447008292890e-04 6.0813320646204393e-04 1.4853134260661635e-03 -1.5466665783670196e-03 4.0198340480334487e-03 -9.5693884213612316e-05 5.6645058201152093e-04 2.6129199549083801e-04 6.3967170473378996e-04 3.7135774072311414e-04 -1.2159515149332062e-03 5.1061861358373006e-05 -2.0523195477108446e-04 -1.7609912855398979e-02 -2.5170821478603608e-04 2.0047053804816495e-04 -2.2008837715189467e-03 7.8086960502904228e-04 1.1965662567217108e-04 -2.3589131995749226e-04 1.4037339813942210e-04 3.2413625905051979e-04 -6.9937676999884337e-04 2.3861290636029995e-03 -3.1329813022705523e-03 -1.8040987355521241e-03 3.7885002762996431e-04 6.7369876776652866e-05 -2.6355981082363646e-03 -1.2340965572107591e-02 2.9213725169902876e-03 4.7669119042845058e-04 -2.5317705965264083e-02 -3.7395762510085556e-03 6.8126905999856100e-04 2.6280803753382376e-03 1.2221014512618290e-02 -4.4649116845728309e-04 -7.3669348227960857e-04 -2.5598322577729971e-03 3.3577733054962824e-03 4.1215526091567239e-03 -2.7937438583302693e-03 1.0671084364771342e-04 2.6246529692354188e-03 -5.3271551402495239e-03 1.5407052223002644e-03 1.6625967917252697e-03 -5.9571525590179364e-03 9.2795128256564462e-03 5.1296339637271543e-03 1.2497220985522844e-03 4.1560954711936798e-04 -1.6609292625316928e-04 2.1157423991895446e-03 -4.0829012736034925e-02 3.0163282717296921e-03 9.3517586882007221e-04 5.4970973132464707e-03 -3.4312552639044090e-04 -1.6175834087648916e-02 1.1061949049129305e-02 
      </Row>
      <Row Index="52">
        -4.1159058295196088e-04 -7.6092813996416321e-05 6.5692550280329470e-04 -1.4715866882354409e-04 4.9490504226461359e-04 2.2423544644196560e-04 -1.1818258564193847e-03 -1.0256754930495354e-03 -4.8062485357909187e-04 -2.9773218651104605e-03 -2.9974429073086777e-04 -6.8098563101527329e-04 -8.5336445536277061e-04 1.0338733640205477e-03 3.1716553497351287e-04 -1.3885329942283080e-04 4.8303251960627575e-05 -9.3082766370070711e-03 -9.2158442332613091e-04 3.1326010472235155e-04 8.5274035164610573e-06 -3.0513129666060596e-04 -4.0491470042629903e-04 2.3692155887217181e-04 5.9055769289693277e-05 -8.8943071544532459e-04 -6.1563848132478510e-04 4.4858610918707513e-04 -1.6344218571742175e-03 3.1016474683532257e-04 -1.9620753238241972e-04 -2.9031829701136047e-03 6.1803695354605416e-04 -1.8109791193034793e-03 -1.6429584920599830e-03 6.5431198278189935e-04 7.7650060155551870e-03 -1.0291085445462925e-03 1.3901098315471094e-03 -3.5711517676134414e-04 2.3206105281742620e-04 -5.3704409304226701e-05 7.7360206337952903e-04 2.3669161388549520e-04 -1.2752332262495891e-04 -7.5313930175277999e-04 3.7410018230863806e-04 -2.7787313968199445e-03 -5.7684450525569250e-04 2.3581164296190560e-03 -4.9217247802157971e-04 6.8086451611938312e-04 7.1762183560261789e-03 -2.7574881546316458e-03 1.5426426909391430e-03 -8.3332085226352540e-05 1.8725177106649130e-04 -3.5157549872352201e-03 7.4893509084952696e-04 -1.1995770307177637e-03 1.2727293629596174e-03 -7.7262943554110822e-04 -7.1985448757741304e-05 -3.9686916232842366e-03 3.1308195645200510e-04 1.2431985547866281e-03 -3.9725412195721647e-03 -1.7432020270628521e-03 -1.5520577547039273e-03 -8.0629069025837663e-03 1.3753102368928906e-04 9.1126121344290243e-03 4.8300715304910175e-05 2.6785727072980493e-04 2.3878558199415256e-04 1.2528943918163225e-03 8.1427883319108371e-04 -3.2618938758204041e-04 4.4607323428411116e-05 3.6356503362769410e-05 4.6921823490264636e-04 1.2615573187425193e-04 -1.6527225064413842e-04 1.8367863335264079e-03 2.8508331633042561e-04 -7.6612502346193323e-04 -2.8664996418586997e-04 4.4382157899391407e-04 2.2341683961326630e-03 2.8809274232148937e-04 2.1405556381996144e-03 6.1403091521641849e-04 2.8640133040139975e-04 1.9063844066717415e-03 -2.7610896169176502e-04 -1.7835674457413360e-03 -2.3167782802082444e-04 -1.1325763553537227e-03 1.1377274528030667e-04 1.6734684420109626e-04 -3.7553352252847074e-05 -1.2721694496494888e-04 -1.0162693246993084e-04 1.0540492364939165e-03 -2.9953675810448777e-03 1.1991284614493622e-04 2.3289631369330366e-05 -1.7857957633169441e-03 2.0457151528281351e-04 -9.5377229570756128e-04 -6.8641754138082031e-04 1.4030923647347955e-04 -4.9056197730683792e-03 2.5295344638506930e-04 -1.7430749417346458e-04 1.1413055082731632e-04 -2.6589398259701125e-04 -1.0269173791837573e-04 -6.0466112388897532e-05 6.2525429600900550e-05 -3.0932874272741797e-04 3.4542057585016371e-04 4.8676096009817081e-04 -1.5466764682684764e-03 8.5777630376894553e-05 -1.2916868668633470e-03 -1.2833889489546335e-03 -2.0521992024717612e-04 4.7284588620884633e-04 2.3242343784875302e-04 -1.1546264843845073e-04 3.7757511898980347e-03 -2.5239460194786956e-04 1.7650309824386798e-03 -1.1205475808221625e-05 1.6066070895073153e-04 9.2788559842869905e-05 -4.9214331679474705e-05 -1.1438290539791821e-04 2.4586878256708904e-04 -1.9201050913256477e-04 1.7089645880736425e-05 -1.8604678929941242e-03 -5.9988036907057782e-05 -3.0234997592041559e-03 -1.2920161977731937e-03 -1.5088048302374743e-04 2.6062102352249108e-04 4.3245387988158722e-05 8.0872521410251300e-05 2.0558814669695211e-03 2.0279394809295879e-05 3.9562731438780654e-04 9.9439153762545144e-05 2.4766017551692654e-04 -4.8907346707922135e-04 -8.3245388618521932e-05 -1.4643341835062439e-04 7.0710565885997263e-04 3.4881961175570186e-04 -2.2244394608564040e-04 1.5742389078864261e-03 4.5851630768926422e-05 1.1290357528345508e-03 1.8552943456491278e-03 -2.0078876560293779e-04 1.8202349409089202e-04 3.4511508188981438e-05 2.3471696586712114e-04 -1.8023766179751121e-03 1.6852626397632908e-04 -2.0486798032655360e-03 1.0110486652445996e-04 4.2618501235877610e-05 1.0538939022429277e-04 9.7736515679515325e-05 -3.6485480539261920e-06 -4.1607847899770701e-04 -2.3327620042298472e-06 6.8486387538235478e-05 -5.6552664776921210e-03 -1.4731065896166494e-04 6.9377236182152765e-04 -3.3444566131608892e-03 5.8141309801363814e-05 9.7346731801772673e-04 -3.6299612364867540e-05 1.8771869155106177e-04 4.2245882905498251e-03 8.8800110426473077e-05 -2.5894584273497834e-03 -5.7181920888520589e-04 -4.1019190929980588e-05 -3.2696245953811078e-04 2.1788422112745966e-03 7.4802254270541261e-04 1.5110412510841793e-03 -8.2481474501805928e-04 1.9424462710870448e-04 -7.5839917958254906e-03 -9.1781834928822892e-05 5.5822155952082175e-03 -7.6041443378327411e-04 2.6937666278467158e-03 -1.4893975528796680e-02 -1.3922351129886561e-03 -1.3408144299681480e-03 -9.6106966370290356e-03 -2.0703737552434085e-03 6.9118506473624108e-04 -9.3942813172399897e-04 1.0331725863719713e-03 -4.0733875200170125e-03 1.6839263387709259e-06 3.2599773047957642e-05 1.1707671170194716e-04 1.0026488684436797e-03 5.9288000273885022e-04 4.5445266105464385e-04 2.3893179390181143e-04 2.7946740590681731e-03 1.3068422362042011e-03 -5.9494487958521207e-03 2.0096018662490587e-02 4.1903963208722358e-03 -1.8440252732850456e-03 3.1872605995898677e-03 4.0920158844788470e-03 -2.1737386728663023e-02 
      </Row>
      <Row Index="53">
        -2.6275069933690194e-04 -1.2788925749833142e-04 9.8043288437963533e-05 -3.4520946424178073e-04 -7.9642622701180761e-04 -8.2438680785465923e-04 2.2772362880478492e-03 1.3592586830507617e-03 -2.3250324156289578e-03 -8.2610728319498783e-04 8.5514991224362120e-05 -1.0165275630989942e-03 -1.0493932636397862e-02 5.3620032686396344e-04 3.4110551250550241e-04 1.2740176862303875e-03 1.3054932430711093e-03 4.6380293254495554e-03 -4.0003618426966847e-04 -3.7017635182422931e-03 -3.1414710165417572e-04 2.6635185971155689e-04 2.6700334071280517e-04 4.2169771005881596e-04 8.6177026818862884e-05 -5.1653875862303113e-04 -4.3966794704330156e-04 -9.2411232222654183e-04 4.4400864257199829e-03 -3.1034731702607725e-05 5.7638984104855379e-04 6.6258924530693264e-03 2.0535360124238782e-04 1.6636727402706288e-03 7.3029505619570077e-03 1.2524242093560195e-03 -9.5762748939098863e-04 -2.2191715328705088e-03 -7.6364975723270528e-03 9.6452839596655824e-04 -4.4732721716290308e-04 2.2996191793136968e-04 3.0142167903470483e-04 9.7961726469689842e-04 1.1520418121008791e-03 -7.9065537401195284e-05 -3.4977756069019435e-03 6.4161157447276684e-03 -6.8052830692564485e-04 1.7459295388655149e-03 -9.3691883601465520e-04 -1.8486720555152139e-03 -2.7574881546322434e-03 3.4998078048120065e-02 3.9789730241342382e-03 4.4531466536530647e-03 -2.5277797200259564e-04 -3.5734566327794148e-03 4.1991478982914758e-04 -3.9094904339238390e-04 -2.4743977361843820e-04 2.7161273849505511e-04 -1.9369396680802203e-04 1.4892151881290643e-03 -2.2906792427110752e-04 -2.3670511028025610e-03 -4.3188927353271858e-03 -2.9002076229284586e-04 1.7620437326068643e-03 1.4089452913097489e-03 -1.5367583666283866e-03 -5.1131687434219190e-03 2.5836798999036056e-02 1.4874409727103418e-03 6.6124216360209653e-04 -1.9640780294407486e-03 6.4129826832707432e-04 1.1097263639876231e-03 -1.3754268304172826e-04 5.5824477500499708e-04 2.0400736900107186e-04 5.1325883514055735e-04 4.3534934673179759e-04 -3.6459604972460813e-03 3.2430109177028488e-04 8.6469694708827193e-04 -2.0206719010635449e-04 2.6081712117009609e-04 -4.1416775296436248e-03 8.8438978440152731e-04 -1.1713454517750734e-03 7.3703933346039969e-04 -1.8264362078496054e-03 -1.3238104512315330e-03 -2.1525953277192617e-04 -2.9947087134417003e-03 -9.9662350588976181e-06 -3.5570392687147315e-04 4.4996402004817706e-04 6.9559772343064032e-05 7.9446921604459748e-04 4.0514850206507043e-04 -1.8160988791518200e-04 3.7374447236323141e-03 -1.0181623279969746e-03 3.5466968874819037e-04 2.8799699331911018e-04 -7.8258120669840864e-03 -1.5879255313368159e-04 5.5180057085119452e-04 2.6859208436302608e-03 -9.9053836439365025e-05 2.1691718838168102e-03 -3.0702382079448795e-04 -7.7427633140697560e-04 2.8674152293494120e-04 -4.5529923838542007e-04 -1.9834993347636457e-04 2.7564910028937841e-04 -7.3138705850595677e-03 2.2786800044163804e-04 -4.5030485859665461e-04 5.9750501664747216e-04 -1.7031637583971651e-03 -5.7276491518219990e-06 -1.0942026229469510e-03 -3.3712426020315878e-04 -2.6315903158345819e-04 -2.5730890211263994e-04 -1.3188872936657336e-04 -4.6777016671211005e-04 -1.4350490714288076e-03 -3.7312747619447362e-04 1.0376820962605601e-03 6.0799450491042743e-05 -5.8052439116209199e-04 1.3079781341101941e-04 -1.8125345126388786e-04 2.1964397443898017e-03 -9.6805030664915174e-04 1.2971969849228685e-03 5.4229962409213712e-04 -3.0257980025862048e-03 1.0831924239022031e-05 -3.2935965323462684e-03 6.2038389103804548e-03 6.4247002838529565e-05 1.3114707837480195e-05 -7.0273442396662553e-05 -1.2865109791588864e-04 -6.6647979557381157e-04 3.0664306029027852e-04 5.0861906395365669e-04 -1.5381906569374203e-04 9.0337867911438694e-05 -1.3605278527753831e-04 -5.3276424675202660e-05 -6.8026568473699648e-05 -9.3230420666364118e-04 -5.2055415682668305e-04 2.0795229118066808e-04 -4.0187318163242280e-03 -1.0999613739309409e-04 9.3575288323719734e-04 9.6010875381402627e-04 3.4834992085436885e-05 -4.2647716218572126e-04 -1.6241490463915573e-04 4.8233539572699303e-04 4.3312767084757731e-04 1.4927714767422329e-04 -7.2108178999577381e-04 -5.3675314459761023e-05 7.4440538129451968e-05 2.4953410406114098e-04 -2.3158017912878044e-04 6.6983066741192504e-04 1.4683662778787964e-03 -4.8729643022317834e-05 -5.0888580250057407e-04 -8.8916157865759279e-03 1.0002475049367154e-04 1.2810959535271963e-03 -1.4202341857263989e-02 -1.1003073708181206e-04 -5.6958980647717878e-04 2.6034723106960677e-03 5.2387783837576775e-04 -1.7960039832634550e-03 4.4447336986049501e-06 -4.5703114279736709e-03 -1.4069126445560584e-03 1.2011290221797279e-03 5.6155038489248644e-04 -1.4373221149204998e-03 -2.4262497882121623e-03 4.5501806845100017e-03 -2.7845140830028018e-04 2.9579427687728972e-03 -1.1312381122069497e-02 1.1765518455206108e-03 3.2882617702296654e-04 -1.6028513428762735e-02 1.8417084258663192e-04 1.1137730815350492e-02 5.0144476284764818e-03 -7.8806465320756594e-03 5.7228733394522040e-03 1.4760820983665741e-03 7.4102347072367569e-04 2.4035944679537419e-03 -1.3384988720262676e-03 -3.0446610311415118e-03 2.7695310019904386e-04 2.6177199950497406e-03 1.8561355431091402e-03 -2.2892032104089091e-03 1.4831741676194113e-03 1.0563237141207290e-03 3.1413195411000372e-04 2.1214118293194028e-03 6.7145105668315122e-03 -6.7256821209115969e-03 -1.2570962884617783e-02 -2.8740490598829375e-02 -1.0321960496695096e-02 -1.0518839935257508e-03 5.5005901923336825e-03 1.2868336788823641e-02 
      </Row>
      <Row Index="54">
        1.6189669264795876e-03 8.9322521244738682e-04 4.0346097566534844e-04 -2.0262046548861687e-04 -4.8178369545627967e-03 1.3919882920413581e-03 4.0413897794298022e-03 1.4186644635252052e-02 9.9591797175158179e-04 6.8913904483129951e-03 2.4698910102226562e-03 7.0970489826492553e-03 -1.3567710029310565e-02 -1.1507121840582471e-03 -6.6841148541127958e-04 -1.7456402588216444e-03 1.2551253112675582e-02 -6.0551325769120550e-03 -4.6443248554543801e-03 -1.8193390075322280e-03 9.8407652206077955e-04 4.3555480478892072e-04 1.3631908225453329e-03 -3.6770769167659978e-04 -1.2090904934110996e-04 -4.6889782766729518e-03 8.3260559770609848e-03 -8.2138120568465284e-04 1.8960072075160761e-02 2.1487766871299708e-03 8.6450670539356539e-03 2.1054166395707341e-02 -2.0068815345579427e-04 -1.6534700991854452e-03 -4.6263031414066347e-04 1.9232918261169022e-02 5.8930515808799377e-03 -1.3994102732202335e-02 5.5501702876803449e-03 2.0241288963162066e-03 8.5499594988902583e-04 6.2631991419572573e-03 1.9209041839340288e-03 -1.2859413513374093e-03 7.3040076214533900e-04 1.5712999284784629e-03 -2.1274791540970145e-03 6.7710571376125905e-02 4.9192262500627783e-03 8.4142681278309706e-04 2.6249799029205434e-03 3.6497012742617275e-04 1.5426426909345703e-03 3.9789730241386236e-03 5.4445457940331489e-02 4.2218285977616999e-03 9.3688475860621949e-03 4.1374541658661945e-03 8.1210405603954260e-04 -7.6742323836904709e-04 2.2511836980999840e-03 -5.3510482222020664e-05 -3.2238114178327060e-03 -5.2351052968589856e-03 4.9835858192085001e-04 -2.1365968316496451e-03 1.0316557108701052e-03 8.0527379373081113e-04 -6.3924649460511233e-03 -3.5663486426074087e-04 -1.7915816033198990e-03 3.8843241488361055e-03 8.9014791697931590e-03 9.9924497857589653e-03 -1.5700910209573982e-03 8.0626953551492632e-04 6.0434679623257159e-03 -2.5842219000034583e-03 1.3248146417246809e-04 5.1476871910288713e-05 -1.2498596694963671e-03 -1.4586624249237345e-03 2.9895990599631619e-03 -3.8369548687918420e-02 3.5582702123670984e-06 -1.6706912750265146e-02 -2.4023772977780633e-03 -7.8557510486255110e-03 -1.0849112028045838e-02 -7.8254106313383701e-05 2.0034896933387907e-03 2.9835819689084664e-03 -1.2453143274033874e-02 1.1789846797658585e-03 4.1530980187035049e-04 -9.1555657204093407e-03 1.0759248250719619e-04 -1.9236862070066735e-04 7.5938831721434350e-04 1.1610550433488981e-03 -1.3571667339898972e-03 1.7362020446398264e-03 -7.7173193359023290e-04 -3.2781675661645374e-03 9.7703135441321552e-03 2.6232618193161437e-04 1.9337866295973882e-03 -1.3443611207924384e-02 -4.9950155165376028e-04 -4.9667515009394142e-04 4.0040399292802834e-04 4.1036779507255166e-03 -1.8238957399922158e-03 -2.1299288173764340e-03 1.2712909051249000e-05 -5.7677029747695311e-04 -2.7997255526993926e-04 -8.7727456915700662e-04 2.8491865074165593e-04 5.5156186109845710e-03 1.2111510600582905e-03 -5.1773585031180888e-03 -1.4008712959618775e-03 -9.6581013078167743e-03 -4.6898347785432649e-04 3.8409304703927692e-03 -5.9964370149306889e-03 6.0232435470998730e-04 2.3574155155414527e-04 5.0491748316340047e-04 -3.1239109832114590e-03 5.6526146198448979e-04 6.4615046361060635e-04 1.1802229007648810e-03 6.6417710491828040e-04 -1.8516196133122847e-04 -1.2115001511275197e-05 -1.3015108560701909e-03 -2.3351185431322598e-03 -3.2402374547020026e-03 6.4906733833608081e-03 -4.5254973667799422e-04 -6.9135548453807434e-03 -6.6260273355028755e-04 1.2084438401355164e-02 1.3626603187358199e-02 -1.3124264464718714e-03 9.5845044345130217e-05 3.9334900594760567e-04 -5.6578056019185763e-04 2.2791927748776579e-03 6.1593119339491554e-05 4.0942227325134473e-04 -8.6182640986556770e-04 1.4698226353630816e-04 5.8518042773143537e-04 1.9947783161322619e-04 2.0840405379383758e-04 -1.7888649487988835e-03 -4.6859064862066480e-03 -2.4801103953968080e-04 1.0195421920353963e-02 -1.8726380862474515e-03 -4.5338342364189587e-03 -7.1391801267495225e-03 1.4372980721642026e-03 3.1931175621770349e-04 -1.5440036094990089e-05 -2.0401029571857346e-04 -2.5878039930411351e-03 1.5800296744163111e-03 -5.3530112111833629e-03 -6.2876126620725148e-05 -3.2454188075496865e-05 1.1805256765365078e-03 6.5669164480531086e-04 -3.5689515118954388e-04 2.5361799771809620e-03 -1.5994720737779863e-04 3.0264872933976304e-04 2.2605291199450178e-02 1.8111649371450693e-04 -4.5753925051290863e-03 -2.6102128352444909e-02 -1.0576039817673131e-04 6.3855844532634102e-04 4.5097003876389956e-04 2.9614160831246787e-03 3.1263013508184591e-03 5.0108955815920194e-04 2.4007297136301002e-03 2.6392460775466597e-03 1.5097204262892699e-03 5.9566832371843650e-03 5.5447371510171286e-03 4.6532482159536452e-03 1.5155571713421637e-02 8.5026956294226280e-03 -2.3104280933824465e-03 1.0102956212148136e-01 7.2046364814099271e-03 -9.2640741339076564e-03 -2.3321421219973243e-02 1.0300991593070962e-03 -5.8527164952630337e-03 -7.9951294571804221e-03 -2.3309087139410684e-02 -1.3934160678105538e-05 -1.0403941205684856e-02 3.9118946607362148e-03 1.5862541429892752e-03 -1.1677012471998129e-05 -8.6462951451688145e-03 1.2275947733419779e-03 -2.7822430917419476e-03 6.7545961717397577e-03 -1.9867220144648284e-02 -2.4808382641634021e-03 -2.5622813065696295e-03 -8.4215164230571123e-03 -1.2336373653550507e-02 1.4787544530158209e-02 1.4353530980753208e-02 1.4265443892244840e-02 -1.3349356039684807e-02 -1.1805385062722226e-01 2.3100268514750881e-03 3.5138227183275611e-02 4.5341975339988128e-02 
      </Row>
      <Row Index="55">
        -1.0671134231693868e-02 -1.0157309735730335e-03 -9.6235264070019828e-04 8.9933503814074503e-04 -6.3360037212995875e-03 2.1284967084958997e-05 -3.7934535234273332e-03 3.3982646318937715e-03 7.0531341044574830e-04 -2.7241888212167706e-03 -1.7260741417567751e-03 3.0619549993982720e-03 -1.2988136548262863e-02 -5.1789185303414119e-04 -1.6457958222021972e-03 -1.0634297966260324e-03 3.7690677273590060e-03 -8.7433428239261854e-02 -4.1642246404580800e-03 -1.8533323025733302e-03 9.9689749260398544e-05 -1.6534207364371240e-05 -4.9327698461234647e-04 -5.7571791350115439e-03 -7.4813034773620751e-04 8.8318947601260557e-03 -7.5312513547787468e-04 -7.6461887814996312e-04 4.5121220811255025e-02 2.5489647068807440e-03 -1.2930713111004872e-03 1.1261413285809763e-02 -5.5943567892722526e-04 1.1474672982335280e-03 1.7720220245790435e-03 -1.2942362012256254e-03 9.8730880709262628e-02 5.0553157690824144e-03 -3.3107313074173667e-03 -6.4115004215728173e-04 -2.8761303287806500e-04 4.6059452420257980e-03 -4.4097658402828289e-03 -3.5457592091002813e-04 -7.0667285918749913e-04 1.0765034360796805e-03 2.9558020296935133e-04 3.0936779131813724e-02 -9.4045058023262910e-04 -2.3706303304079669e-03 5.2122424606527717e-03 1.4170976712294722e-03 -8.3332085226497932e-05 4.4531466536544568e-03 4.2218285977624632e-03 1.6407897792432180e-01 1.6895209107458346e-03 -7.1610328786522390e-04 1.8016992500271829e-04 -1.1623504223455506e-03 2.0128234047300155e-03 8.1232606718528548e-04 1.6744173560723826e-04 -1.5229457954346094e-02 3.8028521597027417e-03 1.7031748275319952e-03 -3.6032305838274527e-02 -3.4401418125799754e-03 -1.7885449551402759e-03 -2.3549443288181982e-02 -1.2348837116805639e-03 1.8438970697065564e-03 3.0773256083754925e-03 5.7451183610658157e-03 -5.3710652392547450e-02 -6.9134438269680999e-03 1.8012210718792998e-04 1.3874746942269221e-03 7.2214470866077489e-04 -6.3372864775094323e-04 7.6183671031800071e-05 -5.3797642123231456e-04 -3.3744564232404406e-03 -2.8233138959077239e-03 -2.3300456598947424e-04 9.1105124569496043e-04 -1.2638753140426584e-03 -8.7849012950358841e-04 5.0491065060414009e-03 -6.7318122018014811e-04 5.0928995915280406e-04 6.0476421037590662e-04 -1.1784348049842662e-03 4.8043178751910817e-03 3.0196011213381134e-04 1.4327305173407606e-03 -3.0827791809160125e-04 -6.0209422256195439e-04 2.4326938804821791e-04 1.6685504342477868e-03 -4.8098235481671379e-04 3.1831088217328333e-03 -5.7860949977766446e-04 -7.5718683380092324e-05 -9.1971045122163364e-04 -3.6747476377578503e-04 3.8645636359376027e-04 -7.0211001114550697e-03 -3.3798822319585438e-04 -6.9898478590627586e-04 4.9756820890467027e-05 9.9128760111111725e-04 -3.3173483559207545e-02 -2.4550754140106176e-03 1.2271549512195071e-03 1.4810518901266570e-04 2.8659963799670951e-04 -6.7015727106299085e-04 -9.3791191576075692e-05 2.8443125370366303e-03 4.6437058267920356e-03 -8.3189294239007644e-04 2.4479997784099261e-04 4.2080878384286036e-04 3.1902328128750705e-04 1.2304637138933904e-03 6.4739438758687484e-04 5.1826862460503935e-04 1.9947803072074659e-04 2.0835396364613000e-04 -1.1447788121543442e-03 2.3332749872498424e-02 2.1010745844758181e-03 -1.1717896756055501e-04 -1.2123295057437679e-04 1.7860079331061328e-04 1.6169923786136863e-04 -2.9880228012727807e-04 -1.2045247565235363e-03 -3.4196084884990027e-03 2.2521178098797306e-03 6.0091941471346712e-04 2.6479320506709262e-03 -2.2986460875060080e-04 2.8072036087985258e-03 -2.6926962596359738e-03 -3.8188092431573183e-04 7.9322092806603030e-05 1.4020485694784377e-04 -9.2874670011307574e-04 2.0435561008676915e-02 2.9740576589148168e-04 8.0586231160349967e-03 -2.2120174301278051e-04 6.0440468537615016e-04 -5.9349325133571922e-04 5.7249334790391692e-04 1.2649665742239108e-05 -4.6454435732691118e-03 -6.7583730927810604e-04 -4.5443744477764465e-04 -1.0718728413072115e-02 -3.1089190466335875e-04 -1.4220848799727402e-03 -8.1485704097722378e-03 -1.8971194978264713e-04 -6.0613456411165478e-05 -1.3993343395943877e-04 3.2509184959775891e-04 -1.6746322899273032e-02 -5.7582761884930654e-04 1.1494500861577751e-03 4.6249294936260058e-04 9.5159813457717070e-04 -7.1452243198436569e-04 -3.2368769070513736e-04 -9.3005059081004908e-04 8.4635243088759370e-03 -3.8760104395578877e-04 -9.1730654218053485e-04 4.5516175011586862e-02 9.6014474959456894e-04 -1.6402391220644360e-03 1.2793864083906925e-02 1.4726634146716353e-04 8.4511299885620843e-04 8.3881445593220368e-04 -2.5678634966993163e-04 3.6442563829963540e-02 3.1978997544572924e-03 -1.7571936626966149e-02 -4.5492479733661908e-03 -2.0593689029217753e-04 2.6705814259913980e-03 1.7689718124556113e-03 -9.9029867202420378e-04 7.6930401257607819e-03 2.0899529399586725e-03 -3.0963894385274710e-03 1.2850540236590463e-02 -2.2243163092203438e-03 2.5960143448055042e-03 -6.8979337035202093e-03 1.5338279268149394e-03 -5.6981686098841276e-03 -2.2859551558536691e-03 5.7225472844060071e-05 8.9808034320610963e-02 -2.2158987171577282e-03 -1.3041817734073509e-03 3.2797887113578486e-04 1.2322107431601177e-03 -2.5100363065740550e-03 2.2853098871799416e-03 -1.5685345544019615e-03 8.5827521788154077e-03 -3.7318639106823938e-03 4.3425516597421401e-04 -3.2965422214758264e-03 -3.9251283132872858e-03 -2.2116769540947842e-03 3.5215002869486535e-04 8.0129099032055992e-03 8.7875818583244402e-03 -5.8136472839699646e-03 -1.1345977834676384e-02 2.9437807840141314e-02 -5.4301717901821976e-03 -1.0289791230059719e-03 
      </Row>
      <Row Index="56">
        2.3428771048819765e-03 6.5872225078246927e-04 -1.4967455815256270e-03 1.1766409939362133e-03 -1.5368625012826139e-03 1.1270941160823563e-03 -5.6832609672299531e-03 2.8696087867116256e-03 1.7148772323118458e-03 -1.6107015339894559e-04 4.7869985489058754e-04 1.2711735038572203e-03 -4.1677660338148570e-03 -3.9298972641811875e-05 -9.9022283287067067e-04 -6.2137495045312956e-04 2.9285342775065117e-03 -4.8861635611926642e-03 -1.6379867616963761e-02 8.9550591701437199e-04 -1.2436937729414397e-03 2.0212156430731709e-03 -1.5667730332318145e-03 -2.9263603301887819e-03 -1.0626763534948847e-04 -2.0226099956183186e-03 3.6588750402314981e-03 -1.2279620655744894e-03 -8.3508773333714759e-03 -9.1543507569055932e-04 4.9477706909984986e-03 1.4958843127544696e-02 1.8319075994364280e-03 -1.3273194613044222e-03 -2.0459392935524567e-03 6.9875647633434604e-03 -1.5880625276530891e-03 -5.2336747679044088e-02 -1.9871946954641562e-03 2.4393578681912642e-03 -1.9174250597762121e-03 4.6786759588869527e-03 -1.3639148187225142e-03 -5.9825211088658514e-04 1.0803625434480102e-02 -1.4034659848805788e-03 3.7751379063333257e-04 3.0397754295680812e-02 2.7196445443152290e-03 -3.0772367857173633e-03 -5.9078476835949800e-03 -4.9856603464776333e-03 1.8725177105846647e-04 -2.5277797199518490e-04 9.3688475860836673e-03 1.6895209107410381e-03 7.5761397372783520e-02 1.2489398179962530e-02 -2.2809601333854935e-04 1.4177812873233380e-03 4.5353015499964973e-04 1.1801634594402850e-03 -1.4134938892642029e-03 2.9602314403416041e-03 1.5086998644235107e-04 -3.8505355512610888e-03 -1.0032491750096018e-03 1.6534612735530914e-03 3.1254050167462736e-03 -7.1455681987231401e-04 -2.6848861224818589e-03 -2.2897049544272300e-03 -1.3189499312552693e-04 9.2936562262405228e-04 -6.6874165627980875e-03 2.2711258401689333e-02 1.1796755667720130e-02 -1.3527356601528706e-03 4.3358536212095844e-04 1.6495442372721492e-04 8.3189847435705122e-04 -4.3316582674787427e-04 1.0121128933847090e-03 -8.4253249530523711e-03 -8.6531688079749536e-04 4.8162342090984911e-03 -9.4889461525782259e-04 1.1612745301618939e-03 -1.0675615695787677e-03 -2.1236300215673157e-03 -1.2783828471122716e-04 3.4418449477003851e-04 -3.2333981281251426e-03 -7.4050289722432661e-06 -4.6868084854762015e-04 -1.2860673545332386e-02 -2.1535011343373767e-05 -4.6201190415482395e-04 -3.7663670338225903e-04 2.3548849175406743e-04 -4.8885135436842414e-04 -3.5941706124692410e-03 6.7216325215545757e-04 -2.1380903415738313e-03 1.0324009868336925e-02 -9.4445625850537714e-04 4.6377633675860294e-04 1.2685641207085263e-03 -8.0408368819222972e-05 3.0334823225634973e-04 -4.6132569633890110e-04 1.8611220462934060e-03 -1.9891906817571291e-03 -7.0615630481778930e-03 1.6676566587734420e-03 -5.8673143494730740e-04 -2.5664619077349956e-04 -6.5281221770622328e-04 -1.8804503092125727e-04 3.6836612110020183e-03 -8.9563382517270432e-04 -5.8517932282833689e-04 -1.1963007071058706e-03 -1.0006359239598361e-02 -1.6456319020681249e-04 -2.5472775374547310e-04 2.1205594058471000e-04 8.3085452360921307e-04 -2.4438982625789145e-04 -1.7107856905756481e-04 -3.9786452487275750e-04 1.1195383082783263e-03 -2.8296491084940367e-03 3.6911230582908558e-03 7.4607179414717159e-04 -4.4873206145567760e-04 4.1019268984141016e-04 -1.6301742842515701e-04 -1.4667825516404987e-03 3.4459393051294298e-03 4.0915030736282719e-04 -4.7055793558637186e-04 1.0226597805668314e-02 -4.9271149428635203e-04 -1.8161400284369494e-03 -2.0844842008784781e-03 -1.0660854364517621e-03 -5.3215563413195612e-05 1.7388303658652689e-04 -1.2454072185253435e-03 1.2149697238215654e-03 3.0121902421360947e-03 -4.3863115647964114e-03 1.0899905638473047e-05 -6.1670304857069425e-04 6.4580097070629072e-04 -4.0017247317336579e-05 -4.7100394644038028e-04 3.0240758488737848e-03 -1.5197556040584814e-03 -2.0728282360080652e-04 1.1306710564625760e-02 -1.8313740437748381e-03 -5.1076298883407333e-05 -4.5431097529160525e-03 -1.2337400244180147e-04 2.4642793233551371e-04 3.8904021081508089e-04 -1.0616201811037571e-03 8.1177908482524611e-04 6.1172713557678393e-03 -8.3772685905108262e-03 3.3496651672575340e-04 -2.8730758730533961e-04 5.1606057250634402e-04 5.2557528343933843e-04 2.4576594737268806e-04 -1.1952047633528068e-03 -5.4963407957566205e-04 2.8684346820421157e-04 1.8615393334374970e-02 -4.1839676520812080e-04 5.4735294920986552e-04 -8.0094233895479094e-03 -5.5712375057961200e-04 -1.3614381881734468e-05 -1.2008289877781810e-04 6.5720306078429196e-04 2.3963310753391601e-03 3.2611602630785797e-03 -1.9084249377658399e-02 5.0330955766275248e-03 -6.3601115581880001e-03 7.5085977504063400e-03 2.7412712963989874e-03 5.8460321319836091e-03 -6.5354886412676760e-03 -4.2122533429461307e-03 5.1584323131399299e-03 5.8138015596533692e-02 2.3243566166987646e-03 -2.9847160761995949e-03 -2.3260531100593895e-02 -3.1587617066734797e-04 3.5540198502743217e-03 -7.9319272586703734e-04 4.9914015919603301e-04 9.3433835160508429e-03 -1.0879527144840621e-01 6.3400174261136755e-03 4.8522939476943491e-04 -2.6593913362741120e-04 3.1487857640940739e-04 8.9758693879930275e-04 -1.6939696671282305e-03 -7.1936078667570371e-03 -4.2452916885233200e-03 -2.5823778141198265e-03 -1.5841331999265633e-03 -1.0096536631702981e-02 1.2729348256106342e-03 8.4079392430705599e-03 2.5131782554878572e-02 -1.0869356765215422e-02 2.9707193173946767e-03 -2.8780392028271866e-02 1.5027824832277627e-03 1.2478429786783933e-01 -8.3335281903263600e-02 
      </Row>
      <Row Index="57">
        1.2211725446875862e-01 -8.5509679091989865e-04 -2.4509689006683488e-02 4.4307005392846431e-03 -7.9270756120484610e-03 -3.0463708721066886e-03 1.7237207263786788e-02 -9.6040728472241831e-03 3.5688222829666351e-03 -3.7792256915057543e-01 3.0719677296115375e-03 5.0099080810152019e-03 -2.8758325766654202e-01 2.3570365085215919e-03 -7.4693684620490142e-04 3.7790181901055928e-04 7.9756217685707058e-04 -1.1856006955762770e-02 -1.2121156380540468e-04 -4.2105765057399536e-01 1.1943476876116656e-03 1.6203599554838188e-03 9.6314094840092694e-04 -2.7044731311987036e-03 8.3867884186095143e-04 -9.9827051613111117e-03 -1.1369733682123415e-02 8.7798699300467575e-04 3.9398975600424713e-02 3.9965462279979436e-03 1.4724344502471953e-02 3.0563968491566129e-01 5.7251265379002162e-03 1.5803616943310256e-03 -1.1410769133785303e-03 2.9315456302439875e-03 4.0499379385418033e-03 -7.4872241905371839e-03 3.6025112397965819e-01 -3.1046079982652878e-03 6.3607187018333011e-04 1.8814654395372249e-03 -3.8483819012832821e-03 6.1761053061784588e-03 1.8425738028897243e-02 5.2306902035998467e-04 -1.5467707100501604e-03 -1.1955157611654599e-01 -4.9276723110353027e-03 -1.9089308424717455e-02 -1.5092471758293868e-02 -8.7309771401208078e-04 -3.5157549872287808e-03 -3.5734566327836476e-03 4.1374541659296438e-03 -7.1610328785903787e-04 1.2489398179962641e-02 8.8349481270332220e-01 1.2026653586191954e-03 -1.4750777862487284e-03 -3.7351912556688295e-03 4.7398942131446353e-05 2.8962349562969896e-03 -4.7145907017331054e-02 -6.8998649909769727e-04 -5.5652862268987689e-03 1.7287871253220860e-01 -3.5025251508833087e-03 -1.9919623071601184e-04 1.4262572120355799e-01 2.2302643225877313e-03 -5.4345550412998617e-03 -2.9691565847090769e-03 -1.0116156669048660e-03 -9.9059903909288760e-03 4.1678954556721680e-03 8.0405000178197727e-01 3.8296349999533685e-03 6.9537832538302258e-04 -3.3990335638067748e-04 -2.2068717355829826e-03 -1.6170324334219060e-03 -4.0800223373087096e-03 1.6922777782590437e-02 9.8718074948411783e-04 -2.6537676314387681e-01 -6.5207675635134965e-03 -9.8206773360175661e-03 -2.2768390816706852e-01 -1.6711122467114948e-03 -1.9249039018328076e-03 4.3105795606508028e-04 -1.2354463412389783e-03 1.4443597990781692e-03 -3.1031876454890028e-03 -8.0603008902377782e-01 6.4158809132577911e-03 2.8226929328900599e-02 -4.1185925043181280e-03 5.2154979763250819e-03 5.3034368280369905e-03 -7.6380529142516633e-03 -8.9493649673897217e-03 -1.0189526812153162e-02 1.7368808140174455e-01 1.0639974257456841e-02 1.6463028636797952e-02 3.6247324231646005e-02 7.0677003933918622e-03 2.8917177264570510e-03 -3.9710927492683313e-04 -1.6822774066079047e-04 -6.9809946746432570e-03 4.1234595259934184e-03 -2.0657429024758756e-02 1.8202106816683312e-03 8.2751177460869928e-03 -7.0856627605064490e-04 1.4223486572438925e-03 -6.1686888101453972e-03 1.0026233692290443e-03 -1.5704120342739311e-04 -5.9354755216839330e-04 3.2230244595906665e-01 1.1291082944737373e-03 1.1492832164070040e-02 -4.8814953819740214e-02 -1.4824799077592808e-03 -3.7374653412723506e-04 -1.8429440238829087e-04 4.5987798894970211e-04 2.2057467286860019e-03 8.9206238702610463e-04 3.9810057896647832e-01 -6.6116184913693078e-03 9.9334619746973378e-03 1.6752377113839533e-03 -6.9018560410955433e-03 1.4069536703444916e-03 3.1698453782116713e-03 7.1617225779096886e-03 4.2020801002216456e-03 -3.6514308266197010e-01 -9.0130119326901886e-03 1.3770263955131569e-02 1.9872822287510417e-02 -3.7022360427488104e-03 -2.8925647580034155e-03 1.7282080420658258e-04 6.8434337709389692e-04 8.0092383684265273e-03 -4.6550207900789625e-03 -6.8107013261716629e-02 -2.0272859201767328e-04 2.7567029994498247e-03 2.3900822936929536e-03 9.2942845703603005e-04 -1.0750148106389995e-04 -4.2888407926969536e-03 4.5483459657109648e-03 4.9060219745542151e-04 7.3317675160423812e-02 -5.0939598867134608e-03 -8.1396346576702722e-03 3.8479651966127904e-02 -3.4084255829624989e-04 -4.8083142860976083e-04 -4.9064862592490543e-04 1.5021588418014792e-04 -1.4608712012822503e-03 -1.7160643304274803e-03 -3.8529400331361163e-01 4.2059892111698761e-03 -1.3053937815680377e-02 -4.0918034047554451e-03 5.7370297245872611e-05 8.2135948243010392e-04 7.8615193287868805e-04 -3.4184359569302721e-03 -2.5862458453264530e-03 -4.5730709352537546e-01 2.4007642049968061e-03 1.0611855062552609e-03 -2.6387882127781026e-01 3.0743741477127716e-03 1.9035125582058236e-03 -2.9058734467758869e-04 -1.0441751942264733e-03 1.5535861482262874e-02 1.6828780455233547e-03 9.9363382032200340e-02 2.3736308977707409e-02 -1.7917836117145487e-02 -2.0174399232161036e-02 1.6542663017419513e-02 4.0854915731096987e-03 2.2979682304500100e-02 -3.7079449483542429e-02 -2.9814877784277688e-02 -1.3955200420766833e-01 3.9091904820724679e-02 1.3365941023209043e-03 -2.9394339797668678e-01 2.5593134443082345e-02 2.2063985871836493e-02 8.9475755370184516e-04 -5.3552829448312300e-03 2.2196552200063380e-02 2.5867006494665282e-03 3.6019996571630841e-01 3.1212518177174374e-03 -2.6854606092166340e-02 2.9737363865714385e-02 3.9827474433960213e-03 2.4776637405720583e-03 3.1615279708404977e-02 6.6691066986099209e-03 -3.2908583831991745e-03 7.5099146951831147e-02 -2.4082797396112132e-02 -2.6753388495787817e-02 2.0229021896719862e-01 -3.1871724495666387e-02 -1.5094272055287516e-02 3.7222134622383113e-03 -1.4409056136702172e-02 5.4036160197842601e-03 2.1971736372928229e-02 -3.0021645399244712e-01 
      </Row>
      <Row Index="58">
        3.0523671932420719e-03 -5.3556850377796893e-04 2.1490854951385660e-05 -2.7366239119936645e-04 -1.9170908757044404e-03 3.3841673233938832e-04 -2.7478923196559211e-03 1.3234828446126725e-02 3.2527400508512412e-04 -3.4403825235697588e-03 -1.6096744863107980e-04 -1.4120048797037886e-04 4.5747146153170149e-03 1.2489595787468458e-04 2.0077605310067086e-04 1.9387411427860906e-05 3.2721623504257814e-05 1.8160598475412447e-03 -3.6079045290449108e-04 3.4667404951828837e-03 -7.5283874802816167e-03 3.5568749529639964e-04 4.3603676532889867e-04 -1.2045009782970936e-03 1.8510593261474251e-04 -1.6339554487786179e-03 1.9770999829413446e-03 1.4745668736758615e-04 -5.2669125555006970e-03 4.3789091255894629e-04 6.3563287476671232e-04 -4.5642418724800501e-03 2.3907462613837353e-04 -4.8363951732233873e-05 6.2091275861647909e-05 -1.4481090633727050e-04 7.0569770036605782e-04 -2.3757496340468234e-04 -5.0785331305291080e-04 4.7733611083099385e-03 -2.1140721634813848e-04 4.2770106352870973e-05 -3.0907706760722559e-04 -3.9222815576848107e-05 -1.3239034304099511e-03 8.6078251332719243e-03 -8.0233225910692667e-04 3.1700522331400355e-04 -5.1118950606791370e-04 -5.1552433373981774e-04 5.0993017946087543e-04 -3.7297076584715374e-04 7.4893509084884347e-04 4.1991478982866728e-04 8.1210405603771236e-04 1.8016992500160492e-04 -2.2809601333596483e-04 1.2026653586279443e-03 1.3174690644476461e-02 2.5945512006725997e-04 5.4075857568152314e-05 -5.5606385373733807e-04 5.6220032569448994e-04 1.2011785094995673e-03 -2.9815002955756297e-03 -1.6150526866778956e-04 -2.3568007045448591e-03 9.4325170417563055e-04 4.1466004362565416e-05 -9.2894936917138626e-04 -1.1269030311317064e-03 1.1567924651574163e-03 4.4194331087038117e-04 -2.9280968569593584e-04 3.7260875937094576e-04 -6.0841380200947698e-04 -1.2450315935617490e-02 1.7411971939764192e-02 -4.9562324056466091e-04 -9.1704193135582054e-04 3.7614876453223448e-04 -5.5592378197458128e-04 4.9152596211412686e-03 -2.4969771705632061e-02 -4.1619667032084112e-04 -6.9301066899397305e-03 -1.1440017202915247e-03 -3.6284113779038590e-04 -1.6825235168687856e-03 5.3876121963627663e-04 -9.7377735126687875e-05 -1.4546568495906039e-04 4.4537485872488548e-04 -3.4197647037548309e-03 4.6233159956747338e-04 -1.2411739264290497e-03 -1.1849452283043799e-03 8.6147596432162299e-05 1.6240788138538942e-04 4.3179311659509001e-04 -4.6350238496029771e-05 -9.4662717209645234e-04 -5.8943516905095154e-04 -9.2797927553206808e-04 -1.3053172841919099e-04 -1.4604286130559963e-04 -1.0123582475247462e-04 -3.3767249493602478e-03 -2.0103675697552618e-05 -6.3302845097227439e-05 3.8248585552382735e-05 2.1847220617308310e-04 8.3055903348797067e-04 -8.1874489412947149e-05 -8.6831250991900371e-04 3.5820410337213332e-04 -1.1954795968489211e-04 -1.2793259149385572e-04 -1.1399882171910352e-04 -4.0622352527967679e-05 -1.7071073491278397e-05 -3.8469951763430051e-03 -4.7211639963495281e-04 2.4879282962240248e-03 4.6682673352281198e-05 1.8577147516647100e-04 -1.8033702541029317e-03 1.3984640602152196e-05 -2.8684712595670472e-05 5.4124072219234945e-06 -1.2463542305432996e-04 -7.8371870740733679e-04 1.2410552381844522e-04 4.9646427701303085e-04 1.7228468819037832e-03 1.6490520074359635e-05 -8.2374728919062799e-05 -2.7804017667963746e-04 5.5459227245246816e-05 1.0488805851732884e-03 5.6385438651069385e-03 -2.8874181553467302e-04 -1.6223047713677888e-03 -2.0408700339125693e-04 3.7133688770355595e-05 -1.8347482429551948e-03 -4.1159340643990335e-04 -1.9112750761362735e-05 -4.2890330188871570e-05 1.3923212611248128e-04 -5.4866406589159636e-04 -5.2550053741883722e-05 -2.8491703673201585e-04 -6.8127256556745248e-04 3.4016354231691717e-05 -7.2082893765758240e-05 8.7027352366198223e-05 2.8939781418901335e-05 -5.0705968258133241e-05 -4.2511849840633133e-03 3.6584617446570164e-05 -1.8702542475305950e-03 4.0833330763117952e-05 -2.0945458034295661e-04 3.6187663389374708e-04 -1.0411345411857073e-04 1.1859453963604178e-04 3.6210491502241685e-06 -9.7139429947866798e-05 1.3087187640679065e-03 -1.1359568582788293e-04 -1.2281413664769359e-03 1.8423161263134938e-03 8.4984547499629778e-05 3.9088887043091326e-05 1.7943199850397712e-04 -1.3036266511719501e-06 -1.1188623450956547e-04 6.2823427405995082e-05 5.0926609649252705e-05 -5.1767296464440803e-03 -1.5384156089572922e-04 -3.2822616814794656e-04 -6.5893476240364013e-05 -2.4638817176490005e-04 1.3354142152880658e-04 -3.7174893874735915e-05 1.7753612015935027e-04 -5.4272797949371022e-04 -1.3678172724018267e-04 -6.8332601602934737e-03 -2.3714725242746610e-02 -1.6735757487636865e-04 -4.1392779673432231e-04 2.1385853149511716e-03 -4.1686856164511863e-04 -2.6979969843478032e-03 -7.7158143644464293e-05 -7.9324440003813177e-04 1.7763002986505017e-03 -1.5751687652704877e-03 -1.8175419094660704e-03 6.7127775419215663e-03 1.1955325494477109e-03 -1.6086149499593074e-03 -1.5265435991983353e-04 1.3170921408643616e-03 1.3701713364275493e-03 5.4537341729765307e-04 2.1853814288623187e-04 2.0615554747964848e-02 -2.4631662880953971e-04 -1.7746294315757055e-03 7.1336975665303357e-04 -3.8948659204656377e-05 -2.2090658700818283e-03 -1.8057802347327755e-02 -8.9624153763323132e-04 7.0354427645907347e-04 -6.6532416118804828e-04 -2.0590111343889508e-04 -2.5840722430659118e-03 -5.5549654590093187e-03 5.0056981758975598e-03 -4.3567484316188080e-04 -2.9612831067540703e-03 -4.0363345706441277e-04 1.2785302095557056e-03 6.5771177379755026e-05 
      </Row>
      <Row Index="59">
        1.1409754181503744e-03 -4.5956709443375213e-05 7.1096256662917350e-03 -5.2441338863176245e-04 1.6388853863523751e-03 1.6050356757749617e-04 -4.2166723695431958e-03 -4.2632515548191724e-04 1.9946752922224328e-04 -1.8239123244120914e-03 -2.3219307753397610e-04 7.6974820738255276e-04 -4.5057800043052376e-03 -2.3296750955648362e-04 -3.9820732043879380e-04 1.2056739924974793e-04 -1.4144302350788444e-04 -2.3521941922711141e-04 -4.4504885492385846e-04 -4.2969552458808347e-03 1.1353759437862307e-04 -2.4933122541500943e-03 -1.1734409421730564e-03 1.2967969203806426e-03 -3.9253177604751249e-04 1.0777834513915965e-04 3.4177097947287252e-05 -1.7241206946999009e-03 -5.6787271137175299e-03 4.4025743045206895e-04 -4.6791370153197176e-05 7.1466821227677002e-03 -5.9201592034022112e-04 2.2026019985119496e-04 -1.6281043351912446e-04 -1.6355198959457662e-04 -4.9919438112982356e-04 -8.2834063191812319e-04 6.2981120610111976e-03 -2.7041106050456384e-04 4.9388188599090070e-03 4.3365470622619548e-04 5.9458735584227984e-04 -1.1077142779293211e-04 3.4323614075208730e-04 -1.3857090516345880e-04 8.9511190715435840e-03 1.0807014964072881e-02 -1.9271531471755300e-04 2.5827121033822342e-04 1.1639845080911648e-02 6.3388631240584095e-04 -1.1995770307169223e-03 -3.9094904339325321e-04 -7.6742323837061463e-04 -1.1623504223460621e-03 1.4177812873232424e-03 -1.4750777862408138e-03 2.5945512006652575e-04 1.7606476067531671e-02 -1.2186769150940549e-03 -1.5081059661812843e-03 -5.7586663904397612e-04 4.1832452713677915e-03 -1.0869586034653791e-03 3.7198311220839192e-03 -1.0256873239772757e-02 1.4139782222744824e-03 -4.6934697645049526e-04 -2.6531202383868191e-03 1.5170968336807047e-04 -2.2854460899232698e-03 -5.7562835719775240e-04 5.3436168982025118e-05 -1.3433462295035156e-03 8.2507143781004725e-04 4.3840099755710071e-03 -1.8325406979691899e-04 5.2347538733231135e-03 -4.3266416451373524e-05 -2.6165639000697016e-04 -1.0277087284751830e-04 2.2524829660280272e-03 -6.7193207145532785e-04 1.8569533989991338e-03 -2.3551349952033451e-03 -4.5722212633555331e-04 -2.1186561447609207e-04 -3.6994358384356829e-03 1.9403534343731196e-04 -6.2069278441360194e-04 -5.7992965517853477e-05 2.4291704508885262e-04 -5.2035034862292495e-05 -4.0915300938087346e-04 -5.5379876041525278e-03 1.6065208908351287e-05 -1.1606267947986009e-02 -1.0389607993537111e-03 1.0542346247136083e-03 -1.4079697488149942e-04 -1.7703970027215426e-03 -1.1033653711523255e-04 4.2206011950243500e-03 9.8544416802867976e-04 4.1755575586615668e-04 6.3598636914133626e-04 -4.1752244843644704e-03 5.1202470886063949e-05 1.4195799015556568e-04 -6.5562454314094883e-05 7.6151264779700088e-05 -1.0295978142990589e-03 -6.1873028580752181e-05 4.7209194236080831e-04 1.9145228181592687e-05 -9.4120052523639225e-04 -1.0912945823411051e-04 1.4769020068530628e-04 1.7648054479247992e-03 -2.3291725189288764e-04 -2.3304850491014193e-04 5.1330081077130855e-03 3.9992583459268136e-03 3.1001985842825028e-06 5.6894683696978175e-04 -2.1739693314786201e-03 1.7664029240439241e-04 -6.8086154001562125e-05 4.5349090271919038e-05 9.0282077173818565e-05 -9.9741483853842822e-05 -1.5558174187482732e-05 2.3515705241390489e-03 -8.5241680939299527e-05 1.7813036881854016e-03 5.7320818441519033e-04 -1.7567314404103420e-04 -3.8700405856482761e-04 1.2659884304491581e-03 1.0905025011371568e-04 3.3862562904097668e-03 -1.6236582132967033e-04 -1.7740600737219946e-04 5.8464362581331602e-04 2.1456499514052041e-03 -2.4685239650167453e-05 8.5838950535846784e-05 1.1357959941067086e-04 -1.3507045884293521e-04 4.9212457896076500e-04 -1.4345311228878841e-04 6.8413426796947114e-04 6.1754222546747325e-05 9.5421355557252785e-04 3.1208796037841997e-05 -6.5276252511212163e-04 9.5730706813620253e-05 1.3982530402397633e-03 2.5454321555352932e-04 2.4575584999483816e-03 2.5185230394769165e-03 -5.4756238968359803e-04 -3.6566117846429519e-04 1.2643665793090619e-03 -1.1304211642689324e-04 8.6738357682953834e-05 8.9292807181525977e-05 -3.3024575506578578e-04 9.1161795156690035e-04 -2.3250029385579740e-05 -9.7792770286165686e-04 -1.3713866589604249e-04 3.2232305703385499e-03 5.7695806992840402e-04 -2.2608415010465926e-04 4.3050282836640166e-05 1.3077206721256573e-04 -1.3052760573210203e-05 1.4213105505011211e-03 2.3725254338714460e-04 -4.0119981709368685e-04 -3.4804881354008480e-05 -7.7879898201103082e-03 2.9516433783387280e-04 -1.4917144840151760e-04 7.5512897487978024e-05 -1.2807591388917569e-04 1.9622836944936835e-04 -3.8500791834598881e-05 1.2721707389762540e-02 1.3418781622708207e-04 -2.0435038620405008e-02 2.5067035841722599e-03 2.5584433746428789e-03 1.7198064317184719e-03 -4.5197368376611773e-03 1.2930454008146502e-04 4.7820113768389143e-03 2.4860480790711938e-02 -1.6041642551017513e-03 1.8213425284501423e-03 5.3112112662936362e-03 1.3982821378363561e-03 2.9291347147605284e-03 6.8949753755211823e-04 -2.0664055955268946e-05 -6.4786091022199423e-04 -2.7311651658736549e-03 1.4989548812932157e-03 2.3311455876332118e-04 1.3754571332019565e-02 -4.0180034183417979e-03 -7.9964231511946431e-04 -6.1128274748009398e-04 -3.7492908007986971e-03 1.4218526573459597e-04 1.2789539044393741e-02 3.8563251525010984e-04 -2.3497959065387503e-03 -7.2956364057448573e-04 4.6400869523450317e-03 6.3853103462814791e-04 -7.9567650753914476e-03 6.4234025925179173e-04 2.0973138853537889e-03 -3.0709391959958998e-04 3.5350778897466750e-03 -1.0504683152909448e-02 
      </Row>
      <Row Index="60">
        -1.6254356690225125e-03 -5.1335847901674207e-04 3.9632437206268759e-03 -7.1114011265960651e-03 2.0209303209986446e-02 1.6576408514563647e-04 1.7487043239404407e-03 -3.9008834482495989e-03 -1.2322353527635366e-03 -1.1372217441470767e-02 -1.4605249149159596e-03 -2.3638445208214289e-03 -1.1436195053956238e-02 3.6908650813598583e-03 1.1376346570333884e-03 3.6844686814788678e-04 -1.6491537805663354e-04 -5.5547933523711485e-03 -1.3616314591606378e-03 9.3287489944179902e-05 -3.6391672403712078e-04 -1.8879900912867863e-03 -2.0551489880033017e-03 1.2044862235732033e-02 -6.0958871822607789e-04 -3.5618557988275051e-03 -2.5862153256390559e-03 -1.5636578065487687e-03 -3.0300332279618869e-04 -5.9555035859277898e-04 -6.6181628627041619e-04 6.6373660353988839e-03 1.9818632458037154e-03 1.1283442772190956e-04 1.0625839929189092e-04 9.1627375458827771e-04 1.2513069434224859e-02 -1.8427248642631146e-03 -4.0054214947412431e-04 -3.3616992032614487e-06 1.0457296033562085e-03 1.5789148740835562e-03 6.0337534597989127e-03 -2.8328313595262005e-03 2.5159868954774053e-03 -2.1287151773161034e-03 -8.8435900392302893e-04 -9.9225688459736450e-04 3.9052323517143011e-04 -1.2813227025371132e-04 -2.0570999209850171e-03 4.5539336336041701e-04 1.2727293629593676e-03 -2.4743977361789556e-04 2.2511836980980346e-03 2.0128234047289001e-03 4.5353015500045231e-04 -3.7351912556689432e-03 5.4075857569215293e-05 -1.2186769150946246e-03 1.2833875913547904e-02 1.0513648081943671e-03 -2.1779624167309994e-03 1.1922138924237140e-03 1.7308600017002555e-03 2.6445148378035710e-04 -7.4512980345438906e-03 -1.6391308087928842e-04 4.9811170015050428e-04 7.2689486415900006e-03 3.0064557310126782e-04 2.0367827511315788e-03 5.9167640135267545e-05 1.9523140542429391e-04 -7.5598122413407676e-03 -1.0370423283930809e-04 -2.2220516720491672e-03 1.7087559702878216e-03 1.1193021497715805e-03 3.2962271123903285e-03 1.0989820483964241e-03 -4.0476791719973201e-04 -2.1265252142187649e-03 1.0292766741124698e-02 8.7381484558075873e-04 -9.9199747765575941e-03 -1.1619415663689618e-03 -6.1268648022998705e-04 -7.3684804841223084e-03 1.6761796981623316e-03 7.2596882995385912e-04 9.9135443222434535e-05 -9.7773276933457807e-04 2.2010771333274264e-03 3.4655869390940938e-04 7.8773876869445841e-04 2.0342939852637301e-04 -8.0268435645710675e-03 2.6293900826388499e-03 -6.5072763884461027e-04 -7.2305540345682959e-04 4.4668133664878427e-03 -2.0851111868886590e-04 -1.5417953089442926e-03 2.6815744284207684e-03 6.4133110433905495e-04 1.4431311455871763e-04 -2.9737803427049014e-03 -1.0551550285256117e-03 -6.7432426631554591e-04 -1.5855548434381826e-04 4.1358497537445844e-04 -7.8317163273654514e-03 1.1381798770926008e-04 -3.6259932612042745e-04 2.8812729334641129e-04 -1.7404254235388696e-03 -1.1074244481955049e-03 -1.2590758423886858e-03 4.6884849700842401e-03 1.4759870075438733e-04 1.4734955477222404e-03 -3.7279856363783403e-04 -5.2854268589126452e-03 -2.5638049837135423e-05 -3.8282869568537659e-04 -1.0827568478037897e-03 -2.6708415119292884e-04 1.6879947249991557e-04 9.2598098847838060e-05 -2.6197981111844131e-04 3.8935769450423319e-03 1.4883718720090644e-04 -7.7835346243188691e-04 -2.7922174388180974e-04 8.1164356771868274e-04 2.7969362495638629e-03 2.9793256550693370e-03 -1.5833211753654541e-03 -1.3607821715875873e-03 -1.4128783637464420e-03 2.8872987279486654e-04 7.9495639859447215e-03 -1.8027605542979530e-04 -1.8270326274630951e-04 5.4714466746839108e-03 -8.1266320865883374e-05 -1.6552324700904798e-04 -5.1596650357564906e-05 1.1920997203643577e-04 1.0906105933296002e-03 2.8292438469039850e-04 9.0733433664997275e-04 6.4375463562554836e-04 -2.2037529908867579e-05 -1.7387688137234852e-03 -3.4265588142330383e-03 -7.4175268905293974e-04 -3.5940379732000865e-03 1.7488587477039047e-03 -7.7810549316359597e-04 -1.4832089839161566e-02 -1.8142040952622797e-03 -6.4307531411849760e-04 -3.4552442767568081e-03 -9.6093604725525550e-04 6.4014227142973308e-04 2.6385803269943827e-04 -3.7854577464602841e-04 1.8257685819432438e-03 -2.2707379391531668e-04 1.4572103083236587e-03 -1.1443585583462623e-04 1.7526733907010533e-03 2.8923681392161501e-03 7.7010198636245399e-04 -3.6106797130110895e-04 2.9172679762693885e-03 -1.6992802990439598e-04 7.1486896763942552e-04 5.9289012085061866e-03 3.6701776409684165e-04 7.1890541163662435e-04 -1.0423164477963320e-02 -3.3359653307404229e-04 -1.1060213673902593e-05 -1.3042251821636971e-04 4.2050111378933754e-04 1.6498076377793845e-03 1.9119330872123357e-04 -3.0530524857497188e-04 -1.6620545762092509e-03 -4.8449137430847059e-03 5.1132583816623292e-03 3.6201832592621147e-03 1.3542814350671244e-03 1.0824903600323186e-02 -3.2732409337281063e-03 -4.7164969315639741e-03 -1.9663841123140735e-02 1.4190683986099045e-03 -1.7787020275582626e-03 -1.1232154705978936e-02 2.5027408438977440e-03 -2.4572846995144985e-03 -2.4180868628873953e-04 2.7434490236457308e-04 -5.9930986427027683e-03 -1.5042535129798562e-03 -6.6898543162131549e-04 4.6952699717371822e-04 6.8547554459671336e-03 -4.0808950343305020e-02 -7.5232681757514920e-03 -2.0429727765391014e-03 6.5484451554833996e-03 4.5677122898395272e-03 -9.6069682097951260e-04 -8.1631962403966351e-04 -6.7627317430601960e-03 3.2934342227020769e-04 3.6485210793441190e-03 -2.0615814881966517e-02 8.3196684430599851e-03 6.1543958503301093e-05 -7.5067912197646081e-03 3.5556584442119807e-03 2.5846774536362940e-03 5.3990267873135819e-03 
      </Row>
      <Row Index="61">
        -2.7615538270238981e-03 -9.7667080782674735e-04 -4.3181782150687742e-04 -7.3727379517129989e-04 4.0633640203736686e-02 1.1543981525039915e-04 8.3798276469250112e-03 -8.2938237202834410e-03 -3.2577443351502859e-05 -1.4278605495533725e-02 -2.1082421146297152e-03 -1.0412427207714542e-03 1.3878225296869884e-02 2.9386510623304945e-03 -7.7258237300202245e-05 2.7715523067177510e-04 -1.2254263869872369e-04 -4.4485300731467144e-03 8.1209117537552836e-04 -1.4533305492527293e-03 -1.3530716041599015e-03 -6.6281833061977713e-04 1.2135492591779657e-03 2.3494356911590741e-02 -7.2142639668607011e-06 3.5361357510522509e-03 -5.5849351199852770e-03 3.2321967642671284e-04 -7.1077901890643780e-03 -1.2059520759080729e-03 -6.6211608816743595e-05 -1.8301384731657322e-02 2.2747426069835786e-03 -2.0164688243896629e-04 2.6890856145048853e-04 2.2444383803277063e-04 5.9452925287374198e-03 -1.0685340467341889e-03 -1.8642515824454919e-03 -4.2715840128254611e-04 1.3645454070990853e-04 3.4743389189781752e-03 7.8469156140923216e-03 -1.3884177544830206e-03 3.3400134653231162e-03 -3.0979780647866885e-03 -1.6694880039215543e-04 1.1145656769766976e-02 -3.4505802512124761e-04 -2.3781848948508655e-03 -1.3465453055172105e-02 8.7527298764669822e-04 -7.7262943554348706e-04 2.7161273849725560e-04 -5.3510482227792089e-05 8.1232606718361494e-04 1.1801634594343254e-03 4.7398942131349209e-05 -5.5606385373563371e-04 -1.5081059661801264e-03 1.0513648081935667e-03 3.8159993245719448e-02 -1.2157448220432947e-03 -4.7533786220100328e-03 4.1287788774197181e-04 5.7847525065067161e-04 5.4111760335279757e-03 -3.0600239632971437e-05 8.4382134545422103e-04 -3.2189906430666326e-03 2.8141526375363660e-03 -8.2885190201374551e-04 3.5915597015918985e-05 -9.6956766715202087e-04 -2.4392643568479644e-03 -9.3658895934018035e-04 -2.2212296298825610e-03 2.5675704985059777e-03 4.0458842102417819e-04 -5.1029995952164842e-04 6.6673458618425885e-03 -2.0468373440948612e-04 -1.3737322403837120e-03 1.6547173451126773e-02 -1.3401821426767269e-04 7.2767739253025709e-03 5.5799237168219218e-04 3.2579465009028620e-04 4.8424859733042780e-03 2.4104984935791000e-03 -5.0195691856221025e-05 -1.4440506171538796e-04 -3.3487219790908230e-04 -1.5477042474235925e-03 -8.0909796970074499e-04 1.0145674347702693e-03 1.0543256536516867e-04 -1.3134741689134997e-03 3.5630004866594764e-03 1.2207199503170554e-04 -2.0756422304905224e-04 1.2744550258677362e-03 -1.0938557435306498e-04 -4.8190557793123762e-04 2.0745489571097550e-03 4.7082310389849635e-04 -1.0591159456137655e-03 9.8458768561122123e-03 -1.3721837681616718e-04 -1.2194450173773198e-04 9.7966976406139755e-05 5.0756069415397052e-04 4.9245346764207470e-05 7.1291204037453104e-05 -1.0737480708411518e-04 2.7566694226304790e-04 -3.2433265127051678e-04 -6.6803511172253919e-04 -2.8638015585245253e-03 2.9469306045860344e-03 2.1308005479312928e-04 2.1115139998157161e-03 -1.0064230500380533e-03 2.7479627811787879e-03 1.2066098128020626e-04 1.8649381894220987e-04 4.1091882802257729e-03 -6.2846005636903895e-04 2.8056262211122298e-05 -1.1404229156858055e-05 -1.4655765028047916e-04 1.9531640315632523e-03 6.0301861640743581e-06 -1.7705775900800705e-03 -4.6593101397286903e-04 -3.8519955604463820e-04 2.6800618011419480e-03 9.5285852182547346e-03 -5.6149513876295183e-04 -1.3749036971248277e-03 -2.4134641274381726e-03 1.2466143633294369e-03 4.2655703318357566e-03 -1.2833868068131229e-04 -2.9312539320182742e-04 -5.1267855473042800e-03 7.2903084819903540e-04 7.6327831526049300e-05 3.4516596304396655e-05 -9.2817479782818972e-05 3.9315146750224742e-03 5.9290870468851659e-05 9.0501982094828501e-04 8.1601635887224109e-04 -1.9852426150040233e-04 -2.7430067659918178e-03 -7.6183904324423346e-03 -7.4931087160990187e-04 -2.0744972294950512e-04 2.1965051217285869e-03 -1.7031361274457699e-03 -4.8227643922729158e-03 3.1222250436351018e-04 -9.0974275405412627e-05 2.2181509445431402e-03 -7.9581402231123461e-04 -1.0435079559419015e-04 -5.3621674194259672e-05 -3.8959992569629481e-04 -1.8051711173604802e-03 -3.3135885175135382e-04 2.5701137701309232e-04 2.0094576826845976e-04 6.0276043769578384e-04 2.3038268833580444e-03 1.7817310240166306e-03 1.9642216676986433e-04 -1.4169570935686215e-04 -2.8788021730122662e-05 8.5160645084962638e-04 -9.6636713157381600e-03 5.1860516885495931e-04 -3.7932698906272553e-04 2.0338991996399575e-02 1.1739794428055369e-04 -1.8766251540416643e-04 2.2738142592596705e-05 1.8337249795830589e-04 2.6649212955216287e-03 -4.6254987713855713e-05 -3.6083465222420605e-03 -7.8571177266998325e-04 2.8944303483808328e-04 2.3590917017019396e-02 -2.3839202007185492e-02 1.2052881398089514e-03 7.0445446516116811e-03 -6.9623865427322681e-03 -2.6117943816826102e-03 -1.4381660962532045e-03 -6.6708308835245617e-04 -4.9059092130522399e-03 1.6559316330209128e-02 3.1793403934044029e-03 1.8214345536975743e-04 5.5915433111326622e-04 2.2328404084147714e-03 7.1095627592027578e-04 1.4232207465811053e-03 -6.1215884638304852e-04 1.6652970436277868e-03 1.3784953533902936e-03 -3.6053427519363024e-02 -1.8267333312987119e-02 -1.2147656424989321e-03 2.4460496340829134e-03 7.8928647998687401e-03 -1.4102082879094650e-03 5.3020600883559813e-04 1.9578489045105202e-03 3.8721291249906031e-04 -1.2737885305131747e-02 -2.6046140437440912e-02 -3.0245321731333080e-03 -4.7839209043813290e-04 -1.1379851221491660e-03 1.4631976666360401e-03 4.2385066854619281e-03 3.8361435782145861e-02 
      </Row>
      <Row Index="62">
        -3.3331581704338004e-04 7.6395930874667930e-04 -1.2992162919699957e-03 2.2772380348483985e-03 -7.6011299465057584e-04 -1.7541131654605465e-02 -1.2050473835394484e-03 3.0414208572820452e-03 -5.4847956949505652e-04 -1.3113021223445820e-02 -1.2898992644159036e-04 3.6603823538338548e-04 -5.0968000787843248e-03 -2.0748097573368364e-03 -1.0023175436698131e-04 2.8511891986174331e-04 -9.8085695321922578e-04 -1.0398903935709101e-03 3.9868434570299385e-04 -7.2116178945541565e-04 5.8638227628755684e-04 6.0112935478371515e-04 8.6924645959204227e-05 -7.3876460589938908e-04 3.1254785964675152e-03 9.6599133099283668e-04 2.2054202544300478e-03 3.5448315125555588e-04 -5.9816888503511634e-03 -3.5586772947334745e-04 4.1194876137259917e-04 6.2517084325364181e-04 -1.2447483940257534e-03 5.5414219482689472e-04 3.4318323138875576e-04 -1.1914367099900222e-03 2.5153333270103162e-04 1.6128056280093651e-03 5.5635795248273889e-04 -1.7349307894511297e-04 4.0459560633004932e-05 6.6693889824393122e-04 -5.2664585691772348e-04 4.7747694276575312e-02 -1.2885917720338591e-03 4.8735082945229672e-04 5.8509352277368032e-04 8.0022436650684092e-04 1.8044690281655631e-03 -9.2023730623891353e-05 1.0556516775457325e-02 1.3062155743314436e-03 -7.1985448754863235e-05 -1.9369396680896100e-04 -3.2238114178234113e-03 1.6744173560825915e-04 -1.4134938892553326e-03 2.8962349563094181e-03 5.6220032569266436e-04 -5.7586663904434301e-04 -2.1779624167297743e-03 -1.2157448220441874e-03 5.8328882421398415e-02 8.0540851873351846e-04 7.7306548111764212e-04 1.2668323416414841e-03 1.3872152848524055e-02 8.0414949833214865e-04 2.2378742232465054e-04 -2.0502327781954932e-03 -8.5824622190545127e-04 3.0331409958166188e-05 -6.7416882477556301e-05 -2.1708850766632461e-04 -1.9994937994767537e-03 -1.7965411321453459e-03 2.7547266755269112e-03 -3.8971481239338801e-04 -2.3089871921341820e-04 -9.3848048967165587e-04 -5.3128528475704373e-04 1.2841663211495696e-02 8.7332453723377632e-04 -6.6570632391627083e-03 3.9603778430075121e-04 2.9046132402206659e-02 -1.8429707121100924e-04 4.4789426643596271e-04 -1.4750218973990314e-02 -1.5751791596213646e-03 1.4791218507259976e-05 -2.9882725095122767e-04 2.2510386759009514e-03 -3.2904710816582250e-04 -4.8937454741937447e-04 -1.0579000830916521e-03 -3.4934414293565541e-04 2.0662854131124515e-03 -8.0919608849383551e-04 -1.7364105563030504e-05 2.0209467144179330e-02 -1.9544414461521512e-04 -2.9596521940231991e-04 8.6197867958219597e-04 -2.0496477084182410e-02 -2.9793376762592009e-05 1.0508069799318445e-03 -1.2447995610941842e-02 1.0256382528328035e-03 2.0663036474725493e-04 -8.5909016241826034e-05 -1.3176333929908516e-04 -1.5041416871380111e-03 4.7831096263477058e-04 -1.5025187976449583e-03 2.8518325413169239e-03 8.3480915515819765e-05 -2.0746847971068591e-03 -1.4113927895916022e-03 -9.2987671638706443e-02 2.4273606668693271e-03 1.7909712658107022e-03 -2.5436938278934540e-03 -1.5294082832284096e-02 -2.6365564509077608e-03 -3.6106283551049824e-04 1.0026232507531319e-02 -4.0876051070921167e-03 1.0223616442312606e-03 -1.2054749723480578e-04 -1.9065793932526397e-03 1.1593967524998749e-03 -2.0639379950801173e-03 1.8668464061934627e-03 -7.4574054299334717e-04 1.8354317173318799e-04 -3.7631950285285301e-04 4.3511094244942005e-04 3.6450535542469895e-02 -2.1781973777918601e-04 4.6042202517789974e-04 1.2370517085099220e-03 6.5760796848652377e-03 8.3894242315090328e-04 1.6432297690445129e-03 2.2166738100217742e-03 1.1339394514223730e-03 -2.3714066087323276e-04 -3.2313943085981631e-04 6.7047046631575342e-04 -7.0726125602497514e-04 3.6591279177036176e-04 -3.6193688791624073e-03 -2.5719001980599758e-04 -4.2957712859956199e-04 2.1510047272270839e-03 2.7654269462432102e-04 1.5413506634365803e-03 -7.2406247652330447e-04 -1.7633409887091445e-03 3.2541476375175086e-04 -1.5512263367979895e-02 -1.1850708668388636e-03 -1.1236462125030558e-03 6.8987864816829614e-03 3.5435704367189989e-04 -2.0775184152765837e-04 3.7840567486346899e-05 -6.7734951795247848e-04 7.9708677659780756e-04 7.0482668641184965e-04 -3.2783440953405478e-03 4.0264821308277107e-04 -3.7115578737361137e-04 -9.3945384314073402e-04 -4.4198439266162698e-04 1.0532849436488158e-02 -2.3245841671567244e-04 2.9380760633790056e-04 -3.8497378987870079e-04 -5.0430878574839834e-02 1.7486555245385687e-04 -2.9347507939021561e-04 -1.8221947690542140e-02 1.5637016053029215e-04 6.9396985552726503e-05 2.3600765554706926e-05 -2.8396866779140188e-04 1.8007541741418970e-03 -7.1228278547530530e-05 -5.6868793363856335e-03 1.7135885452159816e-03 1.2862869668276971e-03 -3.2705081397280860e-04 -7.0918014524803008e-04 -5.0930611812742693e-02 -4.2571856566495682e-03 1.8697860644568325e-03 -2.0503904639037228e-03 -1.2322384426198339e-01 -2.2566103291905403e-04 -1.0176496516074766e-03 -5.3717866445404105e-03 -1.4717579046454490e-03 2.3033921628243411e-04 5.7237263605514370e-04 -9.4552605286038721e-04 5.2731880269608952e-03 2.6784187756105065e-03 3.9686588783496846e-04 -1.7849293727120838e-04 -1.2356003038369806e-03 1.6141012804596053e-02 1.9409889925070881e-04 3.3945800626970508e-02 -1.5754517463303086e-03 -3.3007851620469692e-03 5.1800216832460690e-04 3.3541812714086407e-03 -5.5827730591771433e-03 -1.1229363083815219e-03 1.1419046396746582e-02 1.5298553017081690e-02 -1.5810310175508307e-03 1.4955245787285623e-04 1.0039883580314407e-02 7.3633104807001683e-04 -5.5233444713067553e-03 -3.4914173417108098e-02 
      </Row>
      <Row Index="63">
        -1.2844934845057727e-02 -9.2965304752096146e-04 -1.1051529803460108e-03 5.0298856398457541e-04 5.1279436772518469e-03 2.3841950529581780e-04 -2.2164800258945497e-01 1.3680993498055784e-03 3.0120938466514382e-03 9.3435757649746876e-03 -9.5869155642529860e-03 6.3896882897355248e-03 -2.2502188115301136e-01 3.3046926167794232e-03 -1.6006997169903600e-04 -9.2740272427856022e-04 1.7037967732038174e-03 5.1284276973727332e-02 -6.0783685266069601e-03 3.5242864019622011e-02 7.0793834988374033e-04 3.3200609855170982e-03 -6.5972645760835717e-03 3.8202064373158151e-03 -1.0556178629023694e-03 6.2539835233239874e-02 -6.9428040369266201e-04 -9.9797491196230992e-04 -9.7015343294511891e-02 2.0299473244562343e-03 -3.3569333487586117e-03 3.5643275844977751e-01 -2.6340142850356111e-03 1.3137350135554986e-03 1.1711922018743104e-03 -5.6547809404033965e-03 -4.2454814237535166e-02 -2.9923641149861430e-03 -3.4165889286702167e-02 -1.3465201415267575e-03 -2.6108597490324958e-05 5.2308770861115329e-03 2.2940500305164077e-03 6.5037804881539138e-03 -1.5169095945562908e-01 -5.8605463757856364e-04 1.9175307790604348e-03 1.7452069663076930e-01 -4.8878817519363406e-03 -4.1234353258549072e-03 1.8485904396568742e-01 2.6219010325125159e-03 -3.9686916232538061e-03 1.4892151881178636e-03 -5.2351052967609599e-03 -1.5229457954328632e-02 2.9602314403849202e-03 -4.7145907017058009e-02 1.2011785095005199e-03 4.1832452713670316e-03 1.1922138924456635e-03 -4.7533786220405050e-03 8.0540851874679256e-04 3.0719802086120751e-01 1.5003762097233302e-03 -5.4171818583111965e-04 -2.6255194658525660e-02 3.2868746526436990e-03 -2.6618100426409096e-03 1.0985421347557178e-01 -1.9557458504229214e-03 -6.1332679855195926e-03 1.6104101418537449e-03 -9.0036057259938198e-04 3.2334313654950569e-02 3.9838316011625739e-03 -4.2188124163037362e-02 9.7679483427104419e-04 2.5204178507630404e-04 -3.0116580688337169e-03 3.3237911016508193e-03 -4.2848833900463890e-04 1.0837998849666999e-01 1.9061484089764047e-03 -3.1425982557697907e-03 -4.5677739382853133e-02 2.0549084239854798e-03 -6.7063778477131821e-04 -2.2633427645549098e-01 -1.0930577915222127e-03 -1.3673702307656858e-03 2.5265249067283192e-05 1.5485003994084989e-03 -3.9020212554633782e-03 3.6708648290212365e-04 4.3869373625095062e-02 -2.1524666954355317e-03 -3.4866238356579208e-03 9.4203094652846216e-03 5.1645209328441289e-04 3.1636507007298240e-03 -9.4238992876288452e-02 -2.7954215429624335e-04 -3.6556993399043279e-04 3.8665387112899081e-04 -9.5767981775478992e-03 3.3651206636683387e-03 -1.7203408193254699e-01 2.3071032730208768e-03 3.6871230469291954e-04 -5.4934042951507395e-04 2.5307381086194835e-03 2.7194844773603070e-03 -5.5604876799886004e-03 -8.1584075770744224e-03 7.0255205542461494e-05 -1.4013924534976401e-04 -2.5977702077173377e-04 6.5134443398277679e-04 -6.1229815607669671e-03 -1.9598825951089430e-02 -1.4967135607744124e-03 -4.2809136431561437e-04 1.0489693308145628e-01 -5.1530599389374148e-04 2.9889266798950971e-03 -7.8378361474368496e-02 -3.5699588970204113e-04 -5.8500904778996485e-04 -1.2082579358796980e-04 1.3062404549566951e-03 -1.7357894161601495e-02 -4.6708664432326685e-04 -2.4852237589632509e-02 4.5748052200992716e-04 3.6713444853627656e-04 -3.5195391782430066e-03 4.3949247174777670e-03 1.6989701541010285e-03 8.7534230187144180e-02 -8.6333406163389970e-04 -1.6890326240622477e-04 -8.5942476294842335e-02 5.6672534429253541e-03 7.1484553962158697e-03 1.5966796988967857e-01 -1.6241234713412710e-03 5.1492222339572815e-04 5.6660379807724995e-04 -2.3530969561273009e-03 -1.1112564138577398e-02 1.9236903313828591e-03 5.6143680017425868e-03 6.7423684468157256e-04 -3.1776353748525638e-04 -6.4948562547830872e-03 -6.3709846769793854e-04 -1.1114831051644014e-03 9.0094879171272221e-02 5.2754202651761339e-04 -3.4192249680813796e-03 -2.1933188395204029e-02 6.2181297299873511e-03 -5.7764745927080009e-03 -5.7698188501063896e-02 -2.2455669271078935e-03 5.5864874833885445e-04 6.0448002574550741e-04 -1.6722731484198443e-03 1.5967956108698257e-02 1.8545573174282293e-03 3.6253896429010210e-02 -4.9483271049111620e-04 -1.6670116457140132e-04 4.7765828473131933e-03 1.4832610319204026e-04 2.6671060502077670e-03 -2.1871582399294674e-02 2.3672483790695160e-03 1.1954598518347452e-03 -2.0129097243730149e-01 -4.1166893479967232e-03 -2.7997515863219455e-03 -5.5502049712396773e-01 1.6319782163627156e-03 -1.0015208083482097e-03 -2.2139480812955850e-04 -3.6706689364924541e-04 -2.6230453452973312e-02 -2.7175028942076963e-03 -2.6221283441338353e-02 -1.1195563407790373e-02 -1.9462294270742919e-02 5.2898796291372736e-02 -9.8882849906953979e-04 1.4224490568859988e-02 -5.4209202364239473e-01 1.0364934486033432e-02 6.2167116721670284e-03 3.0620321695377045e-01 -5.8327867903170912e-02 8.0765978434124072e-03 -3.4313533553926867e-01 2.3363553641180840e-02 7.4775354885157838e-03 -5.1669743790950830e-03 1.7438920105615194e-02 -2.2655266358192826e-02 -3.5831569820162223e-02 -2.9432049949416617e-02 -8.9022122868991863e-04 1.1170916084464989e-03 -4.2208742768500930e-02 -4.1456371237053175e-03 3.0791836276590550e-03 -2.8958722825863931e-01 -5.5877258312947431e-04 5.0765615609300180e-04 2.0553653931935253e-02 1.0668953119691710e-02 -6.4481749330093738e-03 3.0961943144766524e-01 6.3460039993330775e-03 -2.4869582560067910e-02 -2.2274164928311781e-03 2.2368893454242679e-02 -1.7630959108188446e-02 1.2508827748803960e-02 -5.2530473486022571e-02 
      </Row>
      <Row Index="64">
        7.0141479586049993e-04 -4.8138992916749385e-03 -4.0506285645593859e-04 8.0007667967123448e-04 1.8485764803094636e-03 6.6153434474241352e-04 -2.7398362759444594e-03 1.0495929318231560e-02 8.1798867632519676e-04 3.1567711051800895e-03 -2.9433945931475942e-04 2.5854675866352483e-03 -2.1586046824098037e-02 -1.5348928689776467e-03 -4.7039106465300573e-04 -9.0465068059093838e-05 -1.0208142652345003e-03 -1.7383888642760748e-03 1.5634845348064816e-03 5.6023826969808788e-04 -8.8028102234827092e-03 8.7478251076746755e-04 -4.2496512842100757e-04 6.1709042441587814e-04 7.1492533581292775e-04 -8.7507432831782778e-04 -2.2027633677526408e-04 -2.3458537727780865e-04 8.5702278383884833e-03 5.6393270413292564e-04 8.4291489106402134e-04 2.8789174915560878e-02 -1.1303888296231345e-03 -7.5379304461057652e-04 -3.5679929329172910e-04 1.0726901576491674e-03 2.5696601321445744e-03 2.4252279204598458e-04 5.2543691594310049e-03 -6.0845792254582193e-04 -1.7723684924838591e-04 -3.3708401176739313e-04 1.0555460226885326e-03 2.1796894672013872e-04 -2.0081579139141076e-03 1.5514780639480018e-02 -2.9905327534516177e-03 4.6178714447615565e-03 2.0716791337337071e-04 -2.0429369508471185e-03 2.4120839283536810e-02 -1.1948529938223893e-03 3.1308195645381870e-04 -2.2906792427321472e-04 4.9835858192405491e-04 3.8028521597031177e-03 1.5086998644468427e-04 -6.8998649909018939e-04 -2.9815002955759264e-03 -1.0869586034659056e-03 1.7308600017007930e-03 4.1287788774073408e-04 7.7306548111781602e-04 1.5003762096989694e-03 6.0138179417313642e-02 -2.1741603389729140e-03 -2.2526937390567436e-02 1.0803520280072074e-03 -4.6703727749971592e-04 1.3001815249602089e-02 4.6614127396568004e-03 7.9237745846563647e-04 -7.1629570238302862e-04 -8.6857209919919830e-04 -2.8163999641196008e-03 2.7660650708335533e-03 -6.2608232971634314e-03 1.8957327468539772e-02 -1.6723555206549431e-03 1.2251516063636475e-03 -1.0628572866036301e-03 -1.8681485562883522e-03 1.5671502322725035e-02 6.0496220582406113e-03 1.8137981965226091e-03 -6.0788668099691634e-03 -1.1424345665051461e-03 -1.0542565675947992e-03 -4.4272267283993472e-03 1.9286386919594237e-03 1.4744449869136126e-03 7.2633853985889021e-04 4.5466432552829488e-04 -7.2403056770064048e-03 -2.0762476786795880e-03 -6.9503916344331174e-03 -1.0941409061918329e-03 5.0421954745854744e-04 -5.1652653036294367e-04 -8.1099261983970058e-05 -1.2778369292697558e-04 9.3848253206077134e-04 -1.6904971841375299e-03 -3.0986637699710550e-03 3.0184859484098311e-03 9.0807047585934300e-04 5.1604923544257221e-04 -2.3784430306959203e-02 -6.7175715048113952e-04 -1.3330756512373084e-04 -1.6194443043216779e-05 1.4173023942438251e-04 -2.9558882074986297e-03 -3.4939407094829200e-05 -7.5892822579382013e-04 1.7882344738812395e-03 -3.5091624380708189e-04 -7.5704291423780296e-06 -1.6211052562170938e-04 4.8247840473208264e-04 1.1074883278432146e-03 -5.2464943408033222e-03 -1.3099352640878817e-03 -8.7492346701029122e-03 1.2975225786102107e-04 1.7069410070599880e-03 -1.5980885283668478e-02 -4.5266721910440142e-05 2.1134721889269409e-04 -1.0464425732237617e-04 2.8573999411436821e-04 1.0444240904587121e-03 -3.5156086289600541e-04 3.3302847680887482e-03 -6.3035348317033767e-04 3.1676273404256279e-05 3.0137764824156971e-04 1.7929381518300754e-05 2.0829010611653816e-04 -2.8329102715983021e-03 1.0066778236961321e-02 -1.0356129662493197e-03 1.7586569672637361e-03 2.7196365056208962e-04 3.3484053819543879e-03 2.1934052626839673e-02 9.4683605710003504e-05 7.9731749961610377e-05 -1.7221287072409459e-04 -4.8279307271004656e-04 4.1071541412941717e-03 7.5956881210391815e-04 4.1214014596135939e-04 1.3049891122101373e-03 -8.5284086305896165e-05 6.3361720569728511e-04 -4.7612360068667592e-04 -3.2142121636219434e-04 5.8516244378851306e-04 -3.7132357011971651e-03 3.6125639890747727e-05 2.0808224228172634e-03 -1.0054794591337485e-04 -1.8890785898053736e-03 -6.7919490327081888e-03 5.4409876035183273e-04 3.0191217834304117e-04 2.1917799171894924e-04 4.1788828855412151e-04 -1.7842945254914477e-03 -1.1096250383026973e-03 -6.2520117770814582e-03 -2.5761665194035978e-04 -2.9436853748998583e-04 1.1789190095177961e-04 -2.5797537551339357e-04 1.6253783504674535e-04 2.0289799068202467e-03 5.6319178085440218e-03 1.5020310850788335e-04 3.4066741213483812e-03 3.1226176037755268e-04 -1.1804726654017694e-03 -4.8741236685851064e-02 9.2426517540328680e-05 3.2498143608420045e-04 7.7177177128610739e-05 -2.2029578713295356e-04 4.8541788378985325e-03 2.9054758574074968e-04 -7.7387263568094306e-03 -3.0873112503487541e-02 3.6192829588820811e-04 -1.2069738049689362e-03 2.1300985182346045e-03 -3.6422662247836621e-04 5.3708829295556031e-03 -1.1610717729146298e-02 -1.3087808960604626e-03 1.3700750600983073e-02 -2.9185248397078228e-04 -9.0791993755254090e-04 -3.1007083181440187e-02 -5.1076775870795626e-03 -4.7477482010272463e-04 8.1923157103988716e-04 1.6729547099030243e-03 3.9492577152726010e-03 -2.9799259451185121e-03 2.5102240481535004e-03 1.5625985644289964e-02 -1.2482562185410443e-03 1.7074162568471753e-03 -9.7810690870976072e-04 -3.7179323039595159e-04 7.1601200369808288e-04 -1.6060182283944451e-02 -3.6179131967109760e-03 -1.5328699809259237e-03 1.4481028682811134e-03 -3.3296774586767386e-03 2.6117558228125965e-02 8.4522148485564642e-03 3.5019643336748696e-03 1.2588740740733558e-03 -7.0798989220001015e-03 2.9027581910012513e-03 -5.5538159666229479e-05 -2.1915742681365015e-02 
      </Row>
      <Row Index="65">
        3.1819223022238555e-03 -3.4759206606625590e-04 2.1470026359136613e-02 3.4083555200445596e-03 -2.2594045861464487e-03 8.0170809697725548e-04 1.1456910761507184e-03 -3.3129856143031136e-04 -3.8106498567445142e-02 3.0205833362521695e-02 1.3752558637877559e-03 7.3112342336514868e-04 6.1073785261727132e-03 -1.0574919183415432e-03 5.3390463146285767e-04 6.3225287446528147e-05 -4.6045888985484597e-04 -5.7749755690911300e-03 6.0213282310199803e-04 3.0758838823784496e-03 1.1392320247035096e-05 -1.0089701546427562e-02 -7.7287968985900247e-04 -9.4839371117436122e-04 -1.0076086469150841e-03 -3.0972900218382074e-03 5.2998792707888674e-04 2.1435242744189675e-03 -2.0356836664441380e-02 1.4722094142591814e-03 -2.0518465347942882e-03 -7.1030494743453687e-03 -1.0845912717032705e-03 -4.7945679685933856e-04 -6.6344505372089441e-04 9.6125221310873346e-05 4.5137892126946577e-03 4.6091018541365540e-03 2.5328252128734574e-03 -7.0449179867204757e-04 1.3343109477276075e-02 1.7772032415448030e-03 1.2264116847462009e-03 1.6756149335684853e-03 -4.0323356465260529e-04 -2.0531668197970405e-03 4.7216176429294633e-02 1.9405179902984404e-02 4.0473259293982732e-04 9.2056037203341878e-04 2.8744268874980605e-03 4.5155616863777163e-03 1.2431985547914776e-03 -2.3670511028060313e-03 -2.1365968316531675e-03 1.7031748275318295e-03 -3.8505355512387929e-03 -5.5652862269093273e-03 -1.6150526866846914e-04 3.7198311220828853e-03 2.6445148378273498e-04 5.7847525065099492e-04 1.2668323416391931e-03 -5.4171818585249838e-04 -2.1741603389746028e-03 8.1843765952781367e-02 1.7722606729692281e-02 -1.2082641676032630e-03 5.1996025125794509e-04 -7.7762086007808762e-03 2.3774707935946713e-03 2.6287635064931427e-03 -1.5696296126038838e-03 -4.0479458450793108e-04 -4.4328894057947266e-03 -9.1725814160075478e-04 -1.1293038291292454e-02 -8.5433710363902460e-04 5.8046506349932331e-03 -1.3420237342467445e-03 1.8478071931349316e-04 4.3392719934372075e-04 -3.2537243746466990e-03 -6.8040256432744251e-04 1.3314242471232252e-02 -3.7299300630273535e-03 -3.0233155255091071e-04 -6.3505771764879333e-04 6.1297675932436846e-04 -1.6968349233316589e-04 8.3447257522539049e-05 -1.9796623764980429e-04 1.6721231344235304e-03 6.7572858337922037e-04 -5.8236913990306061e-04 1.0129465634825613e-02 -1.0881221936068271e-03 -2.9865681918875269e-02 -2.6439957476254215e-04 1.7472190944957720e-03 4.7169851208097614e-05 -2.5042674864834838e-03 -1.5585802622181491e-03 8.1774313737546026e-02 2.2308756529476864e-02 7.2144673763575450e-04 2.4234136510364515e-04 -9.4801510845153869e-03 3.7604736099851651e-03 -1.5283104271159688e-03 -1.6113900763671443e-06 1.1236225072905576e-04 -1.7782786259267561e-03 2.4900247808772929e-03 7.1005946394886443e-04 -5.8533758355005377e-04 -3.8164255997584929e-04 1.9481491764538755e-03 4.0816274771180491e-04 7.3777427858849913e-04 6.9579681029034030e-04 -1.1518097271259902e-03 3.9081286685989661e-02 2.8759354213541907e-03 -2.6841291682894175e-04 9.2862613982966011e-04 -7.5892380459666176e-04 2.1003338651730281e-03 -3.0380857022295189e-04 3.2485803974744939e-04 -2.7438198950550594e-04 3.7040902186925746e-03 1.7733342084721992e-03 -7.3385111325613983e-03 -3.6722894128577918e-05 4.3793692978213832e-03 -1.8029620348918843e-04 9.1786218527417900e-05 7.9171236054063334e-04 -6.9727175384294918e-04 -1.2315154997118744e-03 2.0000198668885527e-02 1.3389812660061735e-02 -5.5881718893044602e-04 6.7358511323294557e-04 -5.8644326885506359e-03 9.4852838952654245e-04 -2.9182342194946070e-04 3.1560385895921443e-04 -1.2772234096314252e-05 1.4736541161186776e-03 2.0714218159963854e-05 6.5860122612636657e-03 2.8914111831372658e-04 5.3538542498905960e-03 1.9864761559351875e-03 -4.3659902780832094e-04 4.5721447106621127e-05 1.3353137261487916e-03 3.2930008225073859e-05 1.1627666943958236e-02 8.3325273587857018e-03 -4.8166253261959779e-03 1.9971978976393370e-03 -2.1438873185886109e-04 4.9568116683592570e-04 1.3029248176981266e-04 2.2978996462226162e-04 -6.9564377799697600e-04 2.1462304302751617e-04 -9.6511308538466123e-05 1.2205445655942230e-02 1.6428253911185972e-04 6.4195011163345281e-03 -5.8941148390512352e-04 -2.8019128458576419e-04 2.8295162654022588e-04 9.4491720506666935e-04 2.8061122318416359e-04 2.1421016914257474e-03 2.5339896536125998e-02 -1.2795608233214793e-03 1.6976321296540949e-04 1.7782362680494046e-03 1.9264119571197518e-06 4.6056040373842024e-04 -2.2944367019506513e-04 -1.4253828295700751e-04 4.7312253200579354e-03 -6.5213687593136259e-04 2.1478964742522949e-02 1.3382450261665554e-04 -1.9052824720518714e-02 2.8447748351230579e-03 2.5790577719331177e-03 3.0807991626017437e-03 4.1008921826662225e-03 -6.1723344264178436e-05 3.1590313858869977e-02 9.8837658417838203e-02 3.8624370170801808e-03 4.4247608487417642e-03 1.3941686082727944e-02 4.8541314850724469e-03 -3.0444131783945476e-03 1.1324483724507760e-04 -3.5573020261608663e-04 1.0101304006990969e-02 5.7964997653736673e-03 -6.3530397687528439e-03 -8.0724774979657517e-04 3.5658384254058761e-02 1.5486813711309463e-02 3.5722034786105257e-04 1.0262811728126886e-03 2.0055618769796585e-04 1.4190494398818062e-03 6.9429446877768641e-02 -2.3367340640700817e-03 -1.7136855037354844e-02 -5.2331564320799262e-05 -3.6410468659264783e-06 1.0014346573319344e-03 1.2098730572106527e-02 3.1870659864327321e-03 5.5424904305369522e-03 2.3789191111625511e-03 -1.2947869089556405e-02 -5.5438258113461363e-02 
      </Row>
      <Row Index="66">
        -9.3924948276638220e-02 -1.4018758622666480e-03 1.0272329060171254e-02 -1.7976335076252403e-03 2.1457331312937627e-02 3.3434100272057479e-03 6.5308691645772840e-02 -7.4393193469823204e-02 -1.1737275983993954e-02 -1.5986062689668179e+00 -9.0000257345669559e-03 -1.8057711294522605e-02 4.8480063585701227e-01 2.0894193956002147e-02 1.4554407016063101e-03 1.7348986872672773e-03 -3.3684579518140200e-03 1.6964405105161610e-02 -8.7474430256923134e-03 5.2752679044269057e-02 3.7641015716506181e-03 -4.2545786013028497e-03 3.4397374882314180e-03 1.2840302675050652e-02 1.0846319910075897e-02 -6.0173707011775449e-02 -4.0225898343799492e-02 -6.0391124673714880e-03 -6.8224985546235217e-01 -8.2892298857522514e-03 -1.2408964960649499e-02 -6.6077712874395189e-01 1.5491407234322543e-02 2.2490796578922695e-03 1.2723720859772747e-03 3.5106404487400592e-03 5.8058252145808398e-03 1.9797170430661953e-03 -1.3110272411550705e-01 -2.7668510595900936e-03 8.5536881254033373e-03 -2.7030115129712123e-03 1.3077447926880842e-02 1.4391351615361703e-02 8.8090548237124366e-02 -4.8342544588904066e-02 3.0377666533707749e-02 -3.7830190027717503e-01 6.6728644831801553e-03 1.4267956594123832e-02 2.4443277913999140e-02 8.5039044120094401e-03 -3.9725412195844578e-03 -4.3188927353163681e-03 1.0316557107877961e-03 -3.6032305838278156e-02 -1.0032491750191427e-03 1.7287871253212139e-01 -2.3568007045503764e-03 -1.0256873239773284e-02 -7.4512980345589896e-03 5.4111760335334158e-03 1.3872152848537798e-02 -2.6255194658445530e-02 -2.2526937390580162e-02 1.7722606729693863e-02 5.3958390503752742e+00 -2.9200851886027883e-02 9.7551825543313458e-03 -4.7339421891334155e-01 2.2064346361067334e-02 1.3283939004758334e-03 -3.6211007757805730e-03 -4.2067943882481869e-03 -1.7691598145092247e-02 -2.9030905236083798e-03 -1.5161612217470166e-01 -3.7291184981697034e-03 -3.2659223058077724e-04 -1.4058420383352865e-02 1.6402474286962732e-02 7.6377496072160440e-03 -6.8443717272922783e-02 1.6839610059653198e-01 8.7928863169874916e-03 1.3979287148528208e+00 1.9972008909313610e-04 7.9600743101717487e-03 3.7291327770499549e-01 5.2211017701850378e-03 -1.0695255639259285e-03 1.3902429281811683e-04 -5.2434007729584564e-03 1.0061233626741106e-02 7.2379784411994996e-03 1.5558586851467449e-01 3.0303636300678892e-03 -1.7204923609854268e-02 6.0669362328037886e-03 -9.5324781525520184e-03 1.0074627726616540e-02 -3.5696784526324278e-03 5.6235138311102224e-03 3.4628185140345449e-02 -1.0563052830729482e+00 -7.3111339257237581e-03 -8.1033461175584708e-03 1.2058873202103260e-01 4.1826276246147804e-03 2.1281991195001623e-03 -2.9761746182875451e-04 -6.1316664901719335e-03 2.8943729317111120e-02 -3.2867749227206916e-03 4.3022987581537109e-02 7.7432544445039941e-04 -2.4246126136261842e-04 -5.0846192159958482e-03 1.1809870046221339e-03 -3.4257668703946732e-02 7.0362355892662432e-02 2.1851973642655120e-02 1.5579939083359626e-02 3.4625609456738954e-01 9.3131928221339144e-03 1.8025579599679282e-02 3.1077451868636030e-01 -9.7479045518023034e-03 -4.3309667758151468e-03 -2.3521809281539276e-03 2.1518980244849711e-03 -5.4861635255453012e-02 2.2677557113106594e-03 -1.3296652936898901e-01 -1.9014003480890829e-03 -2.5924896771149786e-03 8.1274366630053781e-03 2.3670422914932208e-03 1.9687254037377644e-02 -7.6777502532228328e-02 -2.8834878516565899e-02 1.1508084937738642e-02 2.9534933120285611e-01 7.8632028296383430e-04 -1.6575699066321427e-02 -3.7757147951062819e-01 6.6056091211459693e-03 3.5528651592018714e-03 2.5153774672509611e-03 1.3549981765219154e-03 3.7071244600044670e-02 -1.3645185760870499e-03 1.3760403638926097e-02 6.3538464456315037e-04 4.5574112668753282e-03 -1.2067119231115770e-02 8.8632426458138402e-03 6.0615644457259754e-04 -3.3925874771195796e-02 2.4687753127945800e-02 1.4659134330435274e-03 6.7727821728705795e-01 8.5572246901297194e-03 1.8596032204844584e-02 1.8441822049463497e-01 -7.2717863587543957e-03 -3.2979759228912659e-03 -1.1886451138720042e-03 -4.1562440441168238e-04 -2.9649025594568092e-02 8.7891439314704556e-03 3.5588615934172396e-02 2.8518856685219585e-04 1.2973364236173474e-03 1.5674471118718291e-02 -1.9791185820856084e-02 2.1914725412782478e-02 -1.2136495176531022e-01 5.1876798658241855e-03 -7.7739529168885705e-04 -1.1713434134954737e+00 -2.0787579914684690e-02 -2.8875368711356118e-02 5.6779045225232372e-01 1.0210032848745453e-02 1.3442005085873204e-02 4.3373103070863698e-03 -1.0066236161078971e-02 1.7954051428141776e-01 -9.6458367592668522e-03 -3.5966647689164988e-01 8.3713757944755413e-03 3.4069163732523486e-04 3.0269117680293986e-02 -5.8669551111402513e-02 3.1667437558203684e-02 -1.6438621210138032e-01 -5.1738737185083712e-02 3.5448127181140821e-02 -7.2716011784524373e+00 -2.8358820017845537e-02 -7.9753778445558393e-02 6.5533270947698963e-01 3.7243139738988726e-02 2.9873411377098529e-02 8.1891753781494422e-03 -4.0662864124048029e-02 5.0610639040475847e-01 -2.9857055028806909e-02 -9.1427364838163383e-02 -1.7131450963933700e-02 2.0849975831336139e-02 -5.0965296287250925e-02 -6.7730298485563015e-03 1.1347711269552380e-02 1.5257067219036632e-01 9.1194189619093854e-02 3.6673484617896358e-02 6.4788976191091169e-02 4.1854814747544933e-02 3.1126342065181944e-03 -3.0808864359618249e-01 -1.3536354367617354e-01 7.7870345180228728e-03 3.1895542260146868e-03 5.0921945660192050e-03 1.6034096707323404e-03 -1.3044138548424396e-02 9.2533833455913941e-02 
      </Row>
      <Row Index="67">
        1.9805936063496763e-03 -3.9569680476948441e-04 -9.8790477659731549e-04 -1.8475863106239159e-03 2.0599493964490066e-03 -6.2435253263130408e-04 -6.6323160475234896e-03 7.8300343637445155e-04 -3.2490712486685420e-04 -9.8630438185244307e-03 -4.9755451080884501e-03 1.0612243959538525e-03 -5.9009079642572404e-03 2.7107070089598903e-05 -5.1384042345167325e-04 -2.0267492169374435e-04 4.0848225563785577e-04 5.9881969313931929e-03 -1.0423451720068563e-03 5.4458882798927022e-03 1.4723022936835410e-04 4.1498023782059190e-04 7.7558184747651248e-04 7.2662686727363590e-04 1.7843021730169079e-04 1.7359490748290653e-03 7.6123339679750387e-04 5.5714068572472811e-04 -2.5173305306987331e-03 -2.1505504520986062e-04 -8.0145399725971289e-05 7.6882132448972129e-03 1.8378351865144297e-03 3.9285367708239653e-04 2.4538192447333927e-04 -1.4768698202744440e-04 -5.2171097950065096e-03 -1.7928967368204948e-03 -3.6995679612533972e-03 -3.2763185099253566e-04 -3.7228440925182998e-04 -1.7247725574901472e-04 4.4393364590847653e-04 8.8253016118608821e-04 -3.0423997817622672e-03 7.1596206096883231e-04 -2.0604191057927677e-03 6.9659708390753527e-03 3.5508111944492671e-03 2.6567825924898036e-03 1.0985170879589390e-03 -6.5581436068896438e-04 -1.7432020270633612e-03 -2.9002076229256088e-04 8.0527379373156356e-04 -3.4401418125801914e-03 1.6534612735505149e-03 -3.5025251508822297e-03 9.4325170417510710e-04 1.4139782222752292e-03 -1.6391308087908459e-04 -3.0600239633436777e-05 8.0414949833202830e-04 3.2868746526523622e-03 1.0803520280078423e-03 -1.2082641676022833e-03 -2.9200851886032719e-02 1.3374494702042553e-02 -1.6377216241685467e-04 -2.3445199071172595e-03 -1.5596130155681601e-03 -2.4130121423906236e-03 -2.6500114712200220e-04 -6.4190001746631240e-04 5.0433050105786609e-03 -9.5281248928073348e-04 -9.8138256914922888e-03 -5.2586069488052417e-04 -1.1489279382771739e-03 1.3321166040357740e-03 -5.2173703295611829e-04 5.0786742880875712e-04 1.8307357716360363e-03 -6.5922971050508261e-04 1.2401652642241856e-03 1.0057405020157173e-02 8.4298767545320369e-03 -5.4479427150373120e-04 -6.0134091167167725e-03 2.8517738493951282e-03 8.7712151065580824e-05 6.0712958795200614e-05 -6.6969554717294551e-04 3.2364459666577652e-03 -5.9267854408767695e-05 9.6748648861460021e-03 4.8500851873897960e-05 2.2335468720670673e-03 1.4545879674715239e-03 -2.2833861101643409e-04 6.2717000855683940e-04 -2.4134332112424506e-03 3.9391954220209492e-04 -2.6383194378514900e-03 1.8833192831053808e-03 3.0513219007610999e-03 -9.6351192343094251e-04 -6.2611451675797514e-03 1.0278136517777767e-03 5.7439374978541786e-04 1.6209143314996458e-04 -5.0367134083834504e-05 6.9120491192528029e-03 -1.2567345448471915e-04 -9.3052854702080356e-04 -2.4717726159164538e-05 2.7954504005611654e-04 5.2934688091088480e-05 1.2529318565098033e-04 -1.4494052008068217e-03 -9.2549129224816021e-04 -1.2285511916231275e-04 -1.9629388306006464e-03 7.2387770120555528e-03 -4.7303086940840783e-04 -1.5474475507021349e-03 -3.1557708108456151e-03 -4.4686559563889824e-05 4.7489453251515020e-05 7.3616997066071072e-06 4.8425406644051383e-05 -2.0292822558175931e-03 -7.6760909926240628e-05 -6.4584309556763734e-03 1.4058392304368414e-04 -8.0593053544089665e-04 8.5988815035859814e-04 8.8198586585017374e-05 7.1281363261501080e-04 1.9834292392636637e-03 9.9354294651170932e-05 1.0985442590178543e-04 3.7357949312642313e-04 2.2612782248275735e-03 -3.8540171224680886e-03 1.1259390193165686e-03 6.9674274847936755e-04 5.5176633584055727e-04 1.6489308846426865e-04 -3.8181133455558161e-04 1.0536969048591522e-03 3.0224240705680811e-04 -5.7398410726872233e-03 5.0164491254094373e-04 -1.4335197019339266e-03 2.2461331596130853e-03 -1.3680091688108229e-03 4.7097439845984225e-04 2.0016225569556081e-03 -9.1543236173981246e-04 2.4128033338372823e-03 1.2807464836677052e-02 7.9680288495452799e-03 -2.3820005781532601e-03 -6.2816930898321743e-03 2.6030115505404497e-03 9.1143816746013613e-04 4.7316052490499385e-04 -7.6023913078108779e-04 8.4968523124619132e-03 4.3739372144663280e-04 6.6427269959774479e-03 -1.6931027793219645e-04 -4.2806769010566236e-04 6.7486261109333970e-04 -1.8306069236165116e-04 3.6810553061926367e-04 -1.7120143166992046e-04 6.3039401395307648e-04 8.0421964899814484e-04 -1.5491009398165834e-02 2.4206644823139842e-03 9.5803101041855971e-04 -1.0166227756329138e-02 6.8309178688013086e-04 -2.8247530398948996e-04 8.7643580450583500e-06 -6.1283233057040466e-05 -2.4835688130305199e-03 2.1502963941341332e-04 3.3161613611300891e-03 -1.6243691729281593e-03 1.0931721231003245e-03 2.9417181501106594e-03 -1.0736283625244216e-03 -1.3211470942999914e-04 -7.9722631907248737e-03 4.3836407402464399e-03 -2.6405959479739774e-03 1.2529641754666514e-02 -1.5375764782015303e-02 6.1467059512566894e-03 5.5522043524960374e-03 2.1211948431888936e-03 2.3255485244036986e-03 -1.4938872341233034e-04 2.2649430567669641e-03 3.3143490764637332e-03 -9.0318440939423511e-04 -4.8258028382295939e-03 -1.1630076534685019e-03 -2.3807047731086630e-03 -1.3875547997561901e-03 -6.3488097713236872e-04 6.3356221759346956e-04 -6.8315484578289273e-03 -7.1713862151871364e-04 -3.1662331268861783e-03 1.2872312715409842e-03 3.7498940197336898e-02 2.9860030029692994e-03 2.4758287324826676e-04 -2.1846516173376143e-02 -8.6062601486353325e-03 6.3740969608320130e-05 -2.6692752878094209e-03 -2.6872305137346109e-03 5.3991216205437160e-03 1.2898392590197960e-02 
      </Row>
      <Row Index="68">
        3.9517230763281798e-03 -2.3101216010482561e-04 2.9031480362545770e-04 -4.5801042170993825e-04 -4.1293754873980180e-04 -5.4424488276324373e-04 8.2547455658601061e-03 4.9593449716259274e-04 4.8999808406026868e-04 -2.7053587140404289e-03 1.0227762509911922e-03 -2.1709503051186199e-02 -2.5698895680504652e-02 -1.2163136093551050e-04 -4.5496397200000052e-04 4.2965101233793305e-04 -3.3771854430445416e-03 -1.9523165933592948e-03 -1.1369710977822238e-04 2.4264322576484920e-03 -5.5121848888089152e-05 -8.1724074472094843e-04 -4.5683558112464152e-05 -4.8252947693594450e-04 -1.7455435762966931e-05 -3.0915128668427411e-03 -3.9443377449040326e-04 -5.1854423781604042e-05 2.5468557817754367e-03 -3.8566971369619150e-05 -1.2172449139241259e-02 1.2998961684026256e-02 -2.2242503664994919e-04 5.6152396655153106e-04 6.0939839670751811e-04 -3.7366604657636049e-03 -4.6984518591633440e-04 -2.7146567806182048e-03 -5.6234127566854308e-03 -6.9457201394299418e-04 6.6469679209728294e-04 -2.2753744165896622e-04 -4.1029725312947962e-04 2.7401035597761358e-04 2.4569265622695347e-03 -1.0204362385382538e-05 9.4556476120508798e-04 1.3505076417105855e-02 2.5204166994175002e-03 3.5657836962968037e-02 -1.1444979565681024e-02 2.1063882499031822e-04 -1.5520577547020603e-03 1.7620437326059703e-03 -6.3924649460430846e-03 -1.7885449551392416e-03 3.1254050167530308e-03 -1.9919623067932157e-04 4.1466004361669133e-05 -4.6934697645186277e-04 4.9811170014956579e-04 8.4382134545027410e-04 2.2378742232393150e-04 -2.6618100426421885e-03 -4.6703727749657087e-04 5.1996025125523870e-04 9.7551825542998571e-03 -1.6377216241743840e-04 7.8220031098605827e-02 2.7096798542956435e-02 9.0229240640074624e-04 -2.7898368523232011e-03 1.1721164136251254e-03 -1.4896095327857671e-03 2.8014639042334422e-03 1.2774380797361666e-04 -2.9486045774364360e-03 1.2830893937806898e-03 9.5707309741996371e-05 1.7705179016216932e-04 -1.9018198462128488e-04 -2.3920468882650259e-04 -3.6653606855548901e-03 2.9635923438703360e-03 7.0141255054423368e-04 4.8111009007474337e-03 1.5777946823414268e-04 3.5930544641193017e-02 1.2694892174044625e-02 1.3476204663590539e-04 -3.0645267789324872e-04 -3.3492572481472882e-04 4.1598711582359338e-03 8.5615662823257388e-04 -1.3895328241794735e-03 7.5043804235603098e-03 1.9206170661710239e-04 -6.2658317935927049e-04 -1.8125863843259857e-05 -3.4631404466806018e-04 -6.8723660360006395e-05 3.0280917874355995e-03 9.5298302406183403e-04 3.1977481514465478e-04 1.0449639537284845e-03 4.3439339503928767e-04 -5.8146698556140863e-03 -1.4092867310864954e-02 -2.9327342109127430e-05 2.2918294728550902e-04 5.8547268606782394e-04 -6.9452629564122190e-04 -1.9476170440879139e-03 -2.5155994829116651e-04 3.2586897714339536e-03 7.0370884937775990e-04 -2.0591959128199032e-04 -2.5744142862603236e-04 4.0606926496590393e-04 -9.3727106194053250e-04 2.3635864203942255e-03 2.6875319366464591e-03 -4.2092901287828796e-05 6.0862023216816177e-03 -1.0782028854461408e-03 -3.0721279933605686e-02 -6.7069772845566311e-03 -3.0531951889629276e-04 -8.3293972549847324e-04 2.8960972634735566e-04 -1.0576093961446849e-03 -2.8891008764832526e-03 8.0261646016416277e-04 6.1015090512041396e-03 1.0660447283470918e-03 -1.0295045111408702e-03 -9.8075428157481047e-04 7.9107056829402734e-04 -1.2673258257952860e-03 4.7195210503138407e-03 2.8452000837016654e-03 -4.9573204677922234e-04 -8.0277760718318117e-03 -3.6580083604411577e-03 -7.9210188679367771e-02 -2.0625375639227173e-04 -8.2306707235038786e-04 -1.7505597874877062e-03 6.5708590140792916e-04 -4.9712459296095100e-03 -4.5922198337918375e-03 2.6613254003222345e-03 1.1922606222816053e-03 -1.6082165592895548e-04 5.6438249846874902e-04 6.2867024480366053e-04 2.2230557911384619e-04 3.0726254133176282e-04 -2.5239417341880871e-03 -5.9442920195484916e-04 -1.3288237577998479e-04 1.2311428071514197e-03 -1.0367824974473754e-03 2.0430366941949663e-02 1.0555696527703162e-04 4.6401383112987314e-04 2.1379591131729563e-04 -1.1754919452530016e-04 7.9013002219115516e-04 1.0212327339675972e-03 -4.9367163835470351e-04 1.0305030519589566e-03 -4.3510786711815105e-04 8.8716129976319281e-04 1.5850925640751396e-04 -9.7432672650716538e-05 6.6211009941845322e-04 -3.2685869042162977e-04 -9.3071314772563121e-04 -2.1989121250845609e-04 -1.5013008667708223e-03 1.1819565503616246e-03 2.9683014730836496e-02 -2.6143451798299910e-02 3.6286118404112470e-04 2.0832730076098763e-04 -8.3599089412904662e-05 1.2510525862939055e-03 -3.6084268745529679e-04 -8.0476079499313302e-04 -8.2294263456014483e-03 -4.7958499268391337e-03 4.4543709962786976e-03 1.6382809529214577e-03 -4.8140839955974849e-03 3.8264591520549558e-03 3.4301043109783158e-03 -2.0441608933134759e-03 6.3919820266275843e-04 1.0981239539989612e-02 1.4700645338231734e-02 1.6230432236005541e-02 -7.2332583348818980e-02 1.7195786551036799e-03 7.2971991812809563e-03 -3.8678175670678848e-04 1.2692776569535181e-02 -3.2257145539310254e-03 -8.7161457495881032e-03 -8.6690418647900058e-04 3.4111120324951038e-04 9.3128570122957919e-04 2.9999068130627023e-03 7.9540592823844694e-04 1.7391771417804547e-04 6.5122545554229128e-03 2.2512351704883542e-03 4.2360362967222608e-04 1.0704966396461050e-03 -7.6322411137136111e-03 5.4701355020039713e-02 1.9854411645060313e-02 3.1021594214086529e-04 -1.4802323826544303e-02 -1.7443328071815741e-03 2.5912745364444146e-02 -4.4333856383028730e-04 9.2503423756883502e-03 -5.4871148237094589e-02 
      </Row>
      <Row Index="69">
        -7.7307127608969170e-02 2.5370359881402016e-03 -9.0937923511944518e-03 -2.5118868320799497e-03 1.2960120918585715e-02 -1.9183904151344848e-03 3.4928843246320729e-02 3.5368383863390515e-02 9.2570519945086565e-03 4.8169573137023747e-01 -1.0882537413878903e-03 5.1271772843302088e-03 -3.8456118986025132e+00 -4.1334844563006403e-03 1.7849663029978480e-03 -9.5777905773814431e-04 7.1904355324581629e-04 -2.2239537688539562e-02 -2.7142631665719730e-03 -6.9429689118575055e-02 -3.1218669106786601e-03 6.0226113108852175e-03 -8.3098524178870925e-03 9.9571182172724093e-03 -2.1332074928102074e-03 -1.3437685364849905e-02 1.6202071253770592e-03 -8.6060713321662874e-03 7.4313374037390290e-01 2.2993008520762314e-03 1.0307425647676283e-02 2.9944234699144090e+00 -4.3636875873394260e-03 1.9799092094519022e-04 -7.3790249270588859e-04 -2.3845440491275099e-03 -2.5550907587494009e-02 4.0601577322540994e-03 -5.3755517522361629e-02 -1.3014970357757907e-03 -4.5742343111832007e-04 -2.8087478779176278e-03 -1.6228229847281561e-03 1.6668001490027784e-03 -1.2755557593306932e-02 1.9530940970970273e-02 -5.5752658130989730e-03 2.5723124370497885e-01 7.0538786825757763e-04 1.4769965169001864e-02 -1.7124382440374575e+00 -2.8566559201284960e-03 -8.0629069023707700e-03 1.4089452911728584e-03 -3.5663486364478914e-04 -2.3549443288079619e-02 -7.1455681967624862e-04 1.4262572120443195e-01 -9.2894936922443584e-04 -2.6531202385204899e-03 7.2689486417276683e-03 -3.2189906430710735e-03 -2.0502327783399315e-03 1.0985421347260578e-01 1.3001815249639392e-02 -7.7762086008892339e-03 -4.7339421891274469e-01 -2.3445199071964328e-03 2.7096798542734835e-02 8.9810397956357519e+00 2.9813808125821835e-03 -1.1498091086388411e-02 1.0265996336115647e-03 4.8437772897963532e-03 -2.4354232109491392e-03 1.9481150500212478e-04 -8.0208213111148605e-02 1.5327434827092645e-03 -3.4848179084514541e-03 8.7490533926448677e-04 3.0337865766227878e-06 -3.0641860265171166e-04 -3.0027171959923195e-02 -3.4768094093308832e-02 8.7227510339360492e-04 1.1732964333020846e-01 -2.4950204737468340e-03 7.3918241906411677e-03 -9.7046399312182530e-01 -1.0803949509426689e-03 7.3798501634796121e-05 8.5134742596585083e-04 1.6463601260397406e-03 3.9631116716750014e-02 -7.2950692072009105e-03 -1.0263760504974268e-02 5.7165076789583730e-03 9.6147743622503647e-03 5.7114045021785312e-03 -4.5565497445888125e-03 -1.7538060661363326e-03 3.6088648617227055e-02 5.8901184802085844e-03 -8.1977338913779476e-03 3.7286204385296062e-02 -7.2012397385965779e-03 2.7248552594997810e-02 -8.8225718506437711e-01 3.9881645928218409e-03 5.8065888207635601e-03 1.1187537822479313e-04 3.0589413861980943e-03 -5.3766811154007194e-02 1.6221550373747263e-03 2.1962993451964508e-02 -4.3284122683973081e-04 1.1472380584631181e-03 4.4944799810085791e-03 -6.1829310113079823e-03 -6.0227311982708181e-04 8.0877923738811724e-03 -3.8330342730446996e-03 -2.9011685890059993e-03 -7.9236761147399948e-01 -1.6943061938402212e-03 -1.4141653764108579e-02 -5.3187379985921712e-01 -4.7217423934256065e-04 7.0081182489614778e-05 2.3376701655576735e-04 2.3607492411505861e-03 2.7940180931288694e-02 -8.7323934212335530e-04 -6.2671521615581399e-02 -5.4914552265335767e-03 2.4224336498259412e-04 -8.6524562350729708e-03 1.3898536769153752e-02 3.0280797783194466e-03 -4.1545084145147175e-02 1.6108887645809975e-03 -8.8122838072914600e-03 6.9302044971458587e-01 4.1597811304159493e-03 -1.5475553687475900e-02 2.0224365657632006e+00 -3.4797795514850773e-03 -6.1471058507382203e-03 -6.0243639515501074e-05 -3.9281301959454935e-03 1.1166664912468646e-02 3.8924291276009044e-03 2.0059535977305525e-02 -9.4469012712221877e-04 -3.3306460876667172e-04 4.5036843139117412e-04 -3.2553883823016605e-03 -1.6075139113668757e-03 -2.5191109629325803e-02 -4.6488108491580249e-03 -7.6234386015231305e-03 -1.2983933209353427e-01 -2.3130137713758860e-03 2.3637111762761787e-03 -1.1259955070568139e-01 4.5879836063701478e-04 1.3211085422947400e-03 6.8480970246231898e-04 -5.0020032161309132e-04 2.7589699052258783e-02 -6.7784934627646010e-04 -7.2655628537661249e-02 6.6455821053598620e-03 -2.0468092710798887e-03 2.9302784582162199e-03 8.5965419559820740e-04 -4.2687429479077305e-03 -5.3539564879802326e-02 1.8485135463533843e-02 7.5661516333795057e-04 5.6097226981609172e-01 1.5551117576567738e-03 3.0580859467740074e-02 -3.8206005132541563e+00 4.9100942814989139e-03 5.3533148865237308e-03 1.7750748772885328e-03 5.8592366987289188e-04 7.0021791559358920e-02 3.0595699926678488e-03 -2.1607097702742831e-01 3.6975183818551138e-02 -7.6793511263533647e-04 4.4762357572819073e-02 -3.5080421420827353e-02 -1.2206627097158640e-02 8.1876987324299530e-02 1.3867514304351980e-01 2.3223590277656365e-02 -9.7307347896207164e-01 -7.9024528078787057e-03 1.3063560144695424e-01 -1.3688419315980198e+01 1.4347376404933332e-02 5.9473756654542069e-02 4.1273524735339091e-03 1.0837680733106744e-02 7.6271874532641615e-02 -1.2203432800945876e-02 -3.5332309459581879e-02 1.8077888634433197e-03 -1.2337641104173401e-02 -1.0498591320746098e-02 -5.9692622109218281e-03 1.7411651278402551e-03 9.7298091729742020e-02 -2.6864847032107134e-02 -9.7480615446554272e-03 -1.3535833518226167e-01 -1.0336515812156388e-02 5.4899859394012887e-03 2.8494319283986753e+00 3.5245390072947094e-02 -4.9104192287846488e-02 -3.2318425565735533e-03 1.2892925354198656e-03 4.5120100291127715e-03 -2.3709428492710814e-03 -2.7493499340507426e+00 
      </Row>
      <Row Index="70">
        8.5428577304423083e-04 -2.2472453784201608e-03 1.8990696769749858e-03 -1.9636388209761306e-03 -3.3700880031342808e-03 4.1868047624358889e-04 5.5853175281548820e-03 -6.5748780055790556e-03 -1.5768724976467439e-03 -5.9660125222378568e-04 2.0462287094950770e-03 5.8188231818724796e-04 1.8524945702658793e-03 3.1976900405914005e-03 -5.6297995017928119e-04 -3.3995993214466173e-04 -1.3477679878835870e-04 -4.3123592506169664e-03 5.7143772820753436e-04 1.7516968544355697e-03 -2.6714396676068113e-03 -4.7014885734518539e-04 -8.6250297024169289e-04 -6.6588978491595018e-04 3.8756395287959668e-04 -2.1003787233136052e-04 -4.3948233971416052e-03 7.6480322529680800e-04 2.5949604308998300e-03 2.5196200385487356e-03 2.0994922319773337e-04 -1.4733575501689744e-03 3.4655378192271508e-03 -3.4098934230935814e-04 -6.2684316016206306e-04 -4.0733979628740206e-04 4.7256031996742789e-05 3.4523305467886508e-03 1.0608582801840865e-03 -8.8866758602178871e-04 1.1342492686795664e-03 -8.1917937116941504e-04 -3.8104468109694174e-04 5.8803064986691703e-04 3.3041530027535316e-03 -2.7772316400240930e-03 3.0441663430986676e-03 -1.8313332068996269e-05 -8.4557427785035609e-05 6.2099687709680357e-05 3.1424145340490095e-03 3.6813269964807004e-03 1.3753102368968409e-04 -1.5367583666300545e-03 -1.7915816033246164e-03 -1.2348837116797576e-03 -2.6848861224849684e-03 2.2302643225917927e-03 -1.1269030311324871e-03 1.5170968336721967e-04 3.0064557310046638e-04 2.8141526375352788e-03 -8.5824622190443060e-04 -1.9557458504385482e-03 4.6614127396560987e-03 2.3774707935952260e-03 2.2064346361079415e-02 -1.5596130155690899e-03 9.0229240640124812e-04 2.9813808125338515e-03 7.6485545195279572e-03 -1.3056599148475912e-04 -1.2372364317683154e-03 2.8779219983141177e-04 -2.1590022807019393e-03 1.2416800959911649e-03 -1.9567820416653212e-03 3.5681705254543925e-03 5.1670568785455013e-04 -1.6105162425795881e-03 2.3354562136501788e-03 1.7766949124018577e-04 1.2146796813528767e-03 1.4614936442997436e-02 3.1615437381473516e-04 2.2048601331530748e-03 2.5324097676350556e-03 1.3213191530551483e-03 -5.4399060622650763e-04 7.3443426807178400e-03 -5.8639837918420294e-04 -2.6153623837911347e-04 1.3463267702507728e-03 -3.6312282561002714e-03 -5.7964077289019041e-04 2.7420740908244137e-03 -3.5002229328510385e-04 -2.2880939012143667e-03 3.6094180141304539e-04 8.5122244444074278e-04 1.3682483397730271e-04 1.9791446042596974e-03 -6.5014972901939567e-04 5.4718402475731863e-03 -9.8223772535040929e-03 7.5901540150505537e-04 1.3977704940582687e-04 -3.0031800207880321e-04 9.4091654325841381e-04 -5.9880383313937966e-05 -2.3459875178980373e-04 -1.4642713270093290e-04 -2.0811258342252987e-03 8.7030933546847189e-04 -2.0433975153723305e-04 6.6993480118033514e-04 -3.4910586172833165e-04 -2.1375292696896794e-05 -2.3258941303474947e-04 -1.3636313262439907e-03 6.1456776114056366e-05 1.5579769101331938e-03 2.2997709294531009e-03 2.6459535976527671e-03 -1.2240714706951037e-04 1.9953163950687299e-04 1.8054501167581449e-03 -1.2019898469329529e-03 1.1968710486588447e-04 1.3300437893764335e-04 -5.9837771758572932e-06 1.3889484466669266e-03 -4.3792264214220777e-07 -1.8327527268512875e-03 -4.7555243002943845e-04 7.4138811266990720e-05 5.3676119799989509e-04 9.7467166047463709e-05 4.5768300866873171e-04 -1.5810816682565317e-03 -1.7830168092174753e-03 1.2234968736002712e-03 6.6533247812916411e-04 4.1434045995172853e-04 7.2900746603888006e-04 6.8533503833179132e-05 8.8319669222739698e-04 -7.5862665214825173e-05 2.0666883925430309e-05 1.8834066375707101e-04 5.4866147131566725e-04 9.5702546935514266e-05 1.3875711079877895e-03 6.4922687411323680e-04 -2.0131155620193436e-05 -1.8219132294754392e-03 -8.4908440571996625e-04 -2.3503740157961722e-04 -6.3546083849228691e-04 2.1146681048872726e-03 1.2348708499058383e-05 -9.0115623532303069e-03 2.2434632144260249e-03 6.6873124209107168e-04 4.9131101387510090e-03 6.4181525421905228e-04 -7.5762910163596872e-05 -1.5406257702193257e-04 -2.6047711450677413e-04 -1.8708636413654264e-03 -8.3185092463983938e-04 2.1925464171851502e-03 -1.9573039527817485e-05 6.6283064456635634e-04 1.8968396820590418e-04 2.7145431257842860e-04 5.1348182884700192e-05 7.2863285235388506e-04 3.6631599421025674e-04 -2.3741378889821302e-04 -1.6302228919006796e-02 4.9566627637372628e-04 -1.0387470819699161e-04 -4.2334991245573939e-04 1.2690301473154302e-03 3.4663284294583199e-05 -1.4257725111661309e-04 -1.5373794942566264e-04 1.6188681879725792e-03 -2.1208376831237212e-04 3.1482524322840599e-03 -3.5910085985111995e-03 -1.8990499808006246e-04 2.6946310280752221e-04 -4.6240645202398891e-03 3.5252514920399857e-04 9.5526359546427991e-03 -6.6395836899299735e-03 3.7582893677371686e-03 -5.2097944977802596e-02 1.6156001306413478e-03 -1.4800988616716366e-03 1.9752330950031372e-03 4.8125972406264719e-03 3.3799434767683794e-04 -4.0455058937079603e-04 -1.6307858529852534e-03 -1.0364217667951261e-03 7.8001640761086880e-04 -1.1534742581925540e-03 3.3904751787045811e-03 2.6023140111911640e-03 -9.4931823668485717e-03 9.2873905333026668e-04 6.4448062964255707e-04 3.9385789127749423e-03 6.7053158701799688e-03 4.8613159611428595e-03 1.1485694387195851e-03 1.1527525598732078e-02 -8.0505736550770621e-04 1.1044723037139945e-03 -5.8886793762269060e-02 1.2827529682489451e-03 1.2565740364508643e-03 7.7640082186422729e-03 6.9758931925734992e-04 -8.8873570674156202e-03 -1.1213972852134151e-03 
      </Row>
      <Row Index="71">
        -7.3296911672308322e-05 8.8756240961117977e-05 9.0756417896240005e-04 2.3938485319956328e-04 1.0020255857691729e-03 2.6312538186301996e-05 2.2944835150268909e-04 -9.7783417507584544e-04 -9.4459205274379301e-04 -4.1686301972292394e-03 -1.3295716049487093e-04 -7.0637393117509856e-04 2.7280607358370901e-03 1.0500588740529886e-03 9.3066796072625510e-05 2.1444131480365903e-04 1.3648009663198158e-03 -1.2829402639302054e-02 -2.8158685538628991e-04 -7.9138125253785940e-05 3.5071158439358308e-04 -4.2886500924217696e-04 -5.9895441797836423e-04 7.7277623131377648e-04 -2.3965403597914214e-04 6.7875700735720371e-04 -7.6779800650530886e-04 6.6925236929092982e-04 -3.7353172427396775e-03 7.0402891430559683e-04 8.1118412639476223e-04 -5.2936231880522655e-03 5.3137311694577015e-04 -4.5876612459451963e-03 -2.1744497649846678e-03 3.3280040870265568e-03 9.5001654415009656e-03 1.3954963569261115e-03 3.5688947775669999e-03 -2.9834799860448905e-04 2.8544894919364967e-04 -9.4908020780366462e-05 8.8483786233380449e-04 1.1046677010873376e-04 8.8567160837327297e-04 -8.1112580001378438e-04 2.5970236502067048e-04 -4.2086900447724229e-03 -9.7916787355315795e-04 3.4373951901680300e-03 -2.4619780115031631e-03 7.3024868277723250e-04 9.1126121344295569e-03 -5.1131687434218037e-03 3.8843241488405872e-03 1.8438970697071573e-03 -2.2897049544121136e-03 -5.4345550413358312e-03 1.1567924651595641e-03 -2.2854460899247057e-03 2.0367827511320498e-03 -8.2885190200843173e-04 3.0331409952543027e-05 -6.1332679855954225e-03 7.9237745846057195e-04 2.6287635064871431e-03 1.3283939005201972e-03 -2.4130121423897944e-03 -2.7898368523281980e-03 -1.1498091086981077e-02 -1.3056599148534767e-04 1.9733583230750352e-02 -1.9330217637207262e-03 -4.1958102774476407e-03 -5.8080287325859570e-04 3.7140386849795343e-04 3.0449067322231085e-03 -1.7447734301332535e-03 -5.4494268103347232e-05 3.5772327199046217e-04 2.3211493256825033e-04 2.3635561709679743e-04 -1.1926413562212135e-03 1.6855459355916702e-03 6.4262199520009888e-04 1.8911380095989472e-03 -1.9795941317198029e-04 4.9447814397307870e-04 5.0820110550269249e-03 4.4668321773058618e-04 5.3875457966372411e-03 3.5923278129134381e-04 -2.6215676349962591e-03 3.4837974607282024e-03 1.6520680922946229e-04 -4.7209116873098127e-03 -3.0484565119599295e-04 -1.6167540532583827e-03 -8.5827563080800997e-05 2.7625334780662883e-04 5.8308660174545318e-05 4.9180347145501811e-04 -1.6929249905409756e-04 1.6327555000936386e-03 -5.4817125482983890e-03 3.4237443851708863e-04 1.3896641133868368e-04 -9.3433709036763561e-04 2.0954197693588811e-04 -2.1840850266639377e-03 -1.0530263838319774e-03 1.0375491391727578e-03 -7.0983893796516175e-03 4.8171182394638840e-04 -7.2240537193335452e-04 2.7349028098467773e-04 -4.7302120314221844e-04 -2.8362439798581326e-05 -1.2086508154470842e-04 -6.0910100570708478e-04 -6.2971890304422710e-04 3.6496360301239148e-04 6.3837728036164739e-04 -1.9821175161416349e-04 1.4287311904840391e-04 -2.8060689485077941e-03 -2.5844039970253085e-03 -2.7078130757399741e-04 1.0954755027570565e-03 3.0115835586968023e-04 -7.8118406639395889e-04 5.8465622803123563e-03 2.2384377968381886e-04 3.3116401929909438e-03 1.1950846270992338e-04 1.7386132042081242e-04 1.9326711218188989e-04 1.4888798041652010e-04 7.8762881904548144e-05 -2.5635411300143328e-04 -8.9670931079847364e-05 2.9722149773145991e-05 -3.4784540528688887e-03 -2.9353380629418085e-04 -6.6365842351821325e-03 -3.1479040641251288e-03 -1.3589971522542254e-04 6.9924422438382772e-04 -1.3740718398877843e-05 -2.6629297781808529e-04 3.3006291672552160e-03 -2.7988094691646401e-05 1.4266784764228463e-03 -2.5944286865127973e-05 4.1173030065912533e-04 -7.7582837371857887e-04 -2.2120896305395654e-04 -2.1728949402522791e-04 4.2842407212237204e-04 3.9472839861531828e-04 -3.0344537421472426e-04 4.7602271520059275e-04 6.2735554592849090e-05 2.2945290385279768e-03 3.8192338041014295e-03 -1.4049503756310148e-04 5.6218709736416286e-04 9.6667602815880480e-05 3.9953007525351017e-04 -2.9020542063670895e-03 -3.9134469798629556e-04 -4.4727372481789531e-03 2.0408686459986650e-04 -5.2659625264102306e-06 1.5893965601780768e-04 1.2732285467774120e-04 5.4233306906930012e-05 -9.9457577125029576e-05 -2.8778025039724080e-05 1.1004190227095599e-04 -7.8163670244501219e-03 -1.7759738221027996e-04 1.6038659892403484e-03 -5.6747111204726031e-04 1.6615045882556803e-05 2.0479861829370135e-03 -1.7474288033085219e-04 6.5656578584161792e-05 6.7679557058147183e-03 -2.8583024530338182e-04 -2.2444041660251123e-03 3.6797216086892522e-04 1.7162341811038971e-04 -8.2202306478747580e-04 2.4004652720027103e-03 4.6483358667857291e-04 3.9358114706562917e-03 -1.6801831307727152e-03 -4.8841149999219848e-05 -1.2150851907169604e-02 5.5664696099095223e-04 1.1146155402591770e-02 8.4908347316726626e-04 2.6893527417582355e-03 -3.2490149600949508e-02 -1.4314475907987142e-03 6.9247208339347169e-03 -9.0206833883816166e-03 1.9930226288562350e-03 1.9864961483616050e-03 -2.5334863828180430e-03 1.4134579486497301e-03 -4.5362381749352726e-03 -4.1666990018849410e-04 3.8024867693544419e-04 1.4550933922323954e-03 9.9170113948571269e-04 7.4525436961152454e-04 8.4544419563792588e-04 2.8211899295351285e-05 5.7474921053803640e-03 2.9981779512570222e-04 -7.2654260293550836e-03 5.1957390731982668e-02 7.6250185881947298e-03 -1.9251623848161387e-02 4.6458064513367429e-03 -3.8580888703993281e-03 -2.6571478592874207e-02 
      </Row>
      <Row Index="72">
        -1.0325976044021435e-04 8.6869998455857108e-05 7.0317005111338732e-05 -4.8395145180779798e-04 -1.1079326852484295e-03 -3.4567928031958731e-04 1.8244878539274239e-03 2.5435208854599199e-03 -1.3244317258307768e-03 4.4946873200868431e-04 2.8567424186715269e-04 -6.5038987394226699e-04 -9.0025116672732830e-03 3.5088600616521175e-04 3.5331034240218551e-04 2.6184560336647063e-04 2.0769785556139829e-03 2.1076828306920304e-03 -1.1305888355038641e-03 -3.5576359075894654e-03 -1.6972969654673015e-04 2.6624167322158304e-04 2.8164140455030039e-04 3.6024609705956334e-04 2.2493906845765660e-04 -5.8329945153844792e-04 4.0220533401851943e-04 -6.4337910100717606e-04 6.1314161665672884e-03 9.8397679151038210e-05 8.3869052989931844e-04 5.8487335585502009e-03 3.5158068687381503e-04 1.2436261619414258e-03 4.9159960280936842e-03 2.7188547150073647e-03 3.1844489575767743e-04 -3.4382584949265811e-03 -6.0843576630148499e-03 9.5995177067680830e-04 -8.4435002837116718e-05 7.1876355246706025e-04 5.3573516379564444e-04 5.3647437407539945e-04 1.9057386638967680e-03 -1.2361231681904923e-04 -3.2056881110009115e-03 1.5759292111488077e-02 -3.3760798711023645e-04 1.3541468392240241e-03 -3.1110822371616109e-05 -1.2913642605744471e-03 4.8300715303681990e-05 2.5836798999037132e-02 8.9014791697914104e-03 3.0773256083743619e-03 -1.3189499313248296e-04 -2.9691565847095869e-03 4.4194331087095656e-04 -5.7562835719697459e-04 5.9167640135068811e-05 3.5915597015018230e-05 -6.7416882478205412e-05 1.6104101418558878e-03 -7.1629570238150586e-04 -1.5696296126022566e-03 -3.6211007757842584e-03 -2.6500114712204605e-04 1.1721164136252096e-03 1.0265996336702443e-03 -1.2372364317666802e-03 -1.9330217637219533e-03 2.3512470145830529e-02 3.6075207749795201e-03 1.8948573682699144e-04 -1.4670587922056672e-03 1.6872552837988442e-03 4.5272324516085899e-04 -1.1224240093079228e-04 2.3666153249377736e-04 1.1882648756204872e-04 2.3117628337086349e-04 8.7625608177680989e-04 -6.6647647949876487e-03 3.2746826295629305e-04 -7.8950218736606459e-04 -2.1795276928194413e-04 1.0209582409562721e-04 -3.2661578191035545e-03 5.4929121126702247e-04 -4.4235557423019656e-04 1.7833589451825074e-03 -1.8533310273117049e-03 -5.5498024043375282e-04 -4.3192168233503053e-04 -3.7889746904083872e-03 -4.7735529819803552e-05 -2.6448816846455698e-04 5.2783292740846296e-04 1.8533790756439773e-04 5.5132041544020849e-04 4.4408184835628250e-04 -2.7944867846560532e-04 2.0654002754137016e-03 -2.0319853066903121e-04 2.0790687215550984e-04 2.3804920660712144e-04 -6.8125164917783865e-03 -8.2300272831222182e-05 3.8145544246270113e-04 1.9495567175492441e-03 3.8096907766477629e-04 9.4704329560340900e-04 -4.1801046704099493e-04 -5.2395123819626299e-04 1.6705403776685369e-04 -3.5851582628957887e-04 -2.6077414109384512e-04 2.0606569800432720e-04 -4.9811034406313272e-03 2.6141459514091318e-04 -7.9493641159442824e-04 7.3933532140702148e-05 -2.1512349775054396e-03 -5.7758384481007671e-05 -9.5316742795860442e-04 -7.0651829457868409e-04 -2.4719476022240093e-04 -1.7887114791139818e-04 8.7917647217201564e-05 -7.0997425331385258e-04 -6.5937836133017624e-04 -3.6371393127770935e-04 1.4351617132475365e-03 1.2866173923443139e-04 -3.5602358260919159e-04 1.3554099051677230e-04 -3.3336560709216280e-04 1.4177956461579910e-03 -7.0273143215245895e-04 1.7084291576810692e-03 2.3026388730207879e-04 -4.0993633724975779e-03 -1.2372336434297014e-04 -2.7176673387174204e-03 5.8410915691942122e-03 -5.9063691205838836e-05 8.5060002243728724e-05 1.1231350892769561e-04 -2.4725504405929982e-04 -1.2506025954697319e-04 2.9751440309537069e-04 3.9850687087501779e-04 -1.7215162945538771e-04 6.1642298085488141e-05 -1.6784120522107229e-04 -2.9060602990391149e-05 -1.8516614696067156e-06 -7.5036583763276113e-04 -9.1970539461326550e-04 -1.0324243207639064e-05 -2.0671095746601187e-03 -2.4492834502423287e-04 6.1696063670783408e-04 1.1152480873022341e-04 1.6181090697483971e-04 -1.8361432207530189e-04 -4.7137238960825133e-05 5.7549494874331488e-04 1.6962421649570694e-04 2.8297706684853041e-04 -1.8941818519290551e-03 -4.9974198725248164e-05 2.0058331270062614e-05 3.6562724136431703e-04 -9.6767472919330965e-05 5.5563936762236172e-04 1.2766612902592100e-03 -6.3818003260602771e-05 -2.4078527717440911e-04 -5.5133603475986930e-03 9.4272880701672975e-05 8.8921010617319229e-04 -1.3038798126880247e-02 -4.1092311696040281e-05 -1.0279987617038444e-04 2.2064805296629721e-03 9.8735309979167997e-04 -8.4953088794894010e-04 -5.6052648494840629e-05 -4.6165141308677597e-03 -6.7095016299470542e-04 1.0783712016800011e-03 1.2183090449534228e-03 -3.1199145353318558e-04 -1.1494222248633807e-03 4.4679561151019561e-03 8.0470095844356994e-04 1.2341991402008651e-03 5.1323456332771304e-03 1.3523502743815682e-03 2.4969080537125894e-04 -1.3509834782262198e-02 3.2116724543050895e-04 4.3913415169694898e-03 1.5264561080966703e-05 -1.2339270698720824e-02 2.8794088754643499e-03 1.8160223803584326e-04 1.1332368483773295e-03 1.6443960595867420e-03 -8.8277936199641113e-04 -4.7792456470218047e-03 3.9661494822550511e-04 1.7197721940779140e-03 1.7172763773801720e-03 -3.6577934393089606e-03 5.8133106335923922e-04 6.2515897630281995e-04 -6.1625939760356126e-04 1.8184391360279910e-03 5.7367970736441724e-03 -4.7935317330346471e-03 -9.0863117098002599e-03 -2.3344685196063093e-02 -1.6831189915988684e-02 -3.4262222884808572e-04 9.8015064534996039e-03 1.2018566615490970e-02 
      </Row>
      <Row Index="73">
        -1.2941890714689153e-04 6.4150379428836238e-05 -3.3489430951096424e-04 -7.8500468339226331e-04 -1.8829130831606990e-03 2.4967734182473195e-04 3.2774025061655452e-03 6.5699317307083146e-04 3.9403486662488549e-05 -2.5176245252381269e-04 8.5015300657771188e-04 -1.0217565149083212e-03 -1.3125684872114463e-02 5.5054777568302158e-04 6.4077884175136723e-04 -8.9010602574081334e-04 9.6987866570690732e-04 2.3979081200900558e-03 -1.0621811445176053e-03 -1.0680765164565592e-03 1.8542539270437848e-04 6.0491480813436999e-05 1.1424270713569903e-03 -5.9366079502097893e-04 3.9859498899996650e-04 -5.2366057809361856e-03 1.3854968392138368e-03 9.7834267064471001e-05 1.3950798556978269e-02 6.6403848320774353e-05 1.2153166768725035e-04 1.1160292661728910e-02 9.2555032175362637e-04 1.8820725319507402e-03 -4.8908399954446583e-04 8.6616526115976006e-04 3.5949857558592591e-03 -3.6867316567730877e-03 6.3405504491520492e-05 7.4023248351024775e-04 -2.8496350464518941e-04 2.5915598029376636e-03 9.1827331834168791e-04 1.7821833675982918e-04 -7.4283386420410935e-04 -7.9730677794534856e-04 -3.3347499586348309e-04 2.9893117709734962e-02 8.2017649533854681e-04 4.4601687107397037e-04 -3.0163815792838555e-03 1.2008849723984050e-03 2.6785727072883500e-04 1.4874409727116957e-03 9.9924497857613852e-03 5.7451183610657012e-03 9.2936562261658343e-04 -1.0116156668968368e-03 -2.9280968569666155e-04 5.3436168982124973e-05 1.9523140542476898e-04 -9.6956766715291035e-04 -2.1708850766726494e-04 -9.0036057259392302e-04 -8.6857209919729596e-04 -4.0479458450782754e-04 -4.2067943882580505e-03 -6.4190001746681461e-04 -1.4896095327853703e-03 4.8437772899321274e-03 2.8779219983200808e-04 -4.1958102774479270e-03 3.6075207749802405e-03 1.1508662414981632e-02 1.9419526553801775e-03 1.4054957450882950e-03 1.1804208737532795e-03 1.3646780783659052e-04 1.3211808524268842e-04 -9.0864086192922813e-04 2.4870330931469481e-04 -2.8380610858878570e-04 1.5833782861514566e-03 -3.9878081598496568e-03 -4.2269609762518590e-04 -1.1081507128028134e-02 -5.3358911287537669e-04 8.3872161856206546e-04 -6.3060772502790963e-03 1.8310313323698047e-05 -1.7533403659444106e-03 1.3337230654057639e-03 1.5315533981647643e-03 -3.5133230030059866e-03 1.1547848164433078e-04 -1.4498587767489239e-03 1.7683707518283218e-04 6.7948018560789938e-04 6.3269154965335409e-04 2.9917716148636781e-04 -9.0795158147330850e-06 1.2542067548857604e-03 -6.7200698822147834e-05 -3.3537576426568758e-04 2.2485961926281203e-04 -1.5257402026941282e-04 9.8920437930475258e-05 -1.0954323075718281e-02 -3.9202166469050494e-05 5.6706753620212294e-04 6.1757981324220057e-05 5.7210414927007496e-05 2.3258446161133961e-03 -6.8259342278363113e-04 7.8980220979837923e-04 -1.9790180183790586e-04 1.8476427689889576e-04 -3.8647443233338842e-04 -9.5095302342649624e-05 3.8755167400053483e-04 1.0494486996726346e-03 -3.2846020183633111e-04 -3.4904586746999826e-04 -2.4683925809242391e-03 -1.2139786192011327e-04 -7.3557988705951871e-04 -4.9742644755379484e-05 -1.5557115941620172e-04 -3.2001488477654736e-04 2.6800396365712692e-04 -6.3277831720456835e-04 -1.6193337991953702e-03 2.4563320265055810e-05 4.5230174644304150e-04 -7.0689074650324198e-06 -5.6426648638535290e-05 2.4240634164471520e-04 -5.3948822265097846e-04 -1.6025937810264408e-04 -1.8770380171082186e-03 8.1091909356101419e-04 -1.3713171982505229e-04 1.2137112530476966e-03 -2.9519180647170136e-04 -2.2476549129301984e-03 6.2590197563272554e-03 -1.5539611306155139e-04 1.1068123844885293e-04 2.4314280546838251e-04 -2.6736593051816630e-04 2.9173824482466563e-04 -1.6158230810906448e-04 -5.2463119796731551e-04 -6.6872173029025941e-05 -1.6409631597222221e-05 -1.5061334054588529e-04 2.2043214100178621e-04 9.4100924047533542e-05 -1.3369055302408081e-03 -3.2670546299171793e-04 -4.1190678475786998e-04 1.3342592586240432e-03 -6.7052839232068797e-04 2.7852915945409014e-04 -1.8095139979301678e-03 1.5674607867044731e-04 -1.0144327041705295e-04 -6.7950040277896251e-05 6.0652931958860305e-04 -9.1725651158159824e-04 5.6266689499234052e-04 -7.4963940464362359e-04 -6.5238116212508368e-05 -1.2118680134047450e-04 3.7591159576556209e-04 2.2458557481078371e-04 3.0992570906894707e-05 1.6289919332625124e-03 -4.0215740354871456e-04 1.3029105227300118e-04 -6.6355091582869820e-04 -9.6481417111692069e-06 8.3193637996259678e-04 -2.0296171607176783e-02 9.1527731705704293e-05 -4.4543960763451264e-04 2.0827056502161243e-04 1.1182318684917769e-03 -2.0540481485407493e-03 1.5178196002227492e-05 7.8277366318048672e-04 6.8289714223899317e-04 7.7869401231344282e-04 1.4974242649746861e-03 2.5339008376683795e-03 7.9789655477159756e-04 9.7554049107632032e-03 -1.8636322963944902e-03 -3.5648500660314254e-04 8.5715568411915549e-03 3.0956400576253092e-03 3.4587483045578518e-03 -1.8394914687217601e-02 1.8611309142903222e-03 6.4226711143461328e-03 -3.5242983045247487e-03 -1.7668026596121184e-02 -5.0616017685372813e-04 -3.5488475936094827e-03 4.6739087077205324e-04 1.0390563832001726e-03 -6.7099294721840552e-04 -5.1324107365699661e-03 8.3719264602500677e-04 -3.0407850724900609e-04 4.7482712870564438e-03 -1.6090441635693430e-03 -5.4664205969858414e-04 -2.2947836952512640e-04 -2.7636010530275399e-03 2.3139768320230196e-03 8.2365112788832066e-03 -3.3563728559848661e-03 -1.8583424647370450e-02 -5.3039656839045796e-03 -8.2510795618427144e-03 -7.7673071146083870e-04 7.8379185135232631e-03 5.1517537797130426e-03 
      </Row>
      <Row Index="74">
        8.7397037134278807e-04 2.5689699955631280e-03 -2.0600322792069664e-03 -2.5033862390347792e-03 3.2804922959521030e-03 -7.4372841801640386e-04 3.2215763572803601e-03 -3.6541862255312458e-03 2.1711844565679311e-03 -3.0544650320150080e-02 4.6155050001935455e-03 -3.2651265656235690e-03 2.2326023581348942e-02 -3.4138108064401622e-03 3.5422189763175717e-04 6.6544995789579104e-04 -1.2226319693802823e-04 3.5132189534865316e-01 1.6085711850224917e-03 5.6674983706688775e-03 -1.2302014092541308e-03 2.5528233821693613e-04 8.4972749327785514e-03 6.5671122191928444e-03 2.1724213107108051e-03 -1.4548584629403283e-02 1.5621344663324659e-03 -8.9470198301905973e-04 -1.1814855653746736e-02 -4.1142179228830268e-03 3.2698912246751227e-03 -2.1125275272389388e-02 4.2693665125942163e-03 -7.1033121375506034e-04 -6.4192020245883163e-04 -2.9916157294675267e-03 -3.0620675209591092e-01 2.7658937204568072e-03 2.6569213373669465e-03 -6.5521256531507379e-04 -1.9866042925172217e-03 3.1076313030008393e-03 2.0931026108319331e-03 1.1064593602108513e-03 -2.3989194907331507e-02 -6.8692773823911518e-04 -3.3365782020576204e-03 1.0934995024094452e-02 -1.2700878674259328e-03 2.6552861363410285e-03 -1.9610094427564562e-02 2.3320173420971623e-03 2.3878558199325051e-04 6.6124216359861494e-04 -1.5700910209574259e-03 -5.3710652392545216e-02 -6.6874165628081853e-03 -9.9059903909628488e-03 3.7260875936954551e-04 -1.3433462295048236e-03 -7.5598122413426463e-03 -2.4392643568493799e-03 -1.9994937994769809e-03 3.2334313654949959e-02 -2.8163999641226817e-03 -4.4328894057970719e-03 -1.7691598145062049e-02 5.0433050105786253e-03 2.8014639042287098e-03 -2.4354232112528962e-03 -2.1590022807024788e-03 -5.8080287325742736e-04 1.8948573682375097e-04 1.9419526553775858e-03 3.5480440279632436e-01 -3.0869823445960174e-05 -3.5740863203001794e-03 -1.1989218575451099e-03 -1.6592772429069036e-03 -6.7157049111912781e-04 -2.1527139604798351e-03 -3.8214026909426727e-04 4.9010793701654287e-03 4.3715796011989383e-03 -1.2366581226934681e-03 -4.7163572393316144e-04 1.3663497885203491e-03 7.8610810665010779e-04 1.2103065365653976e-03 6.6130965169791884e-04 -2.7005304255687396e-04 -3.1117488351353620e-04 1.2786596104494858e-03 8.9616439026329875e-05 2.8595958743246608e-04 1.0439818570022186e-03 1.7477309440684468e-03 3.0313789619254945e-03 -1.9409095470328882e-03 -2.2753905883300413e-03 -3.0204763617302567e-04 -4.3063184380258412e-03 -8.3192454874639202e-05 -1.6001783233692932e-03 -1.1414248655120779e-02 8.2113960597119534e-04 -3.0807105881882355e-03 -1.2334387621694587e-02 -1.2819078258448982e-03 1.2928036497049250e-03 3.6889826240980405e-04 9.1386520300421872e-04 1.0765351140984369e-01 -7.4085367568964993e-04 4.2650290465640062e-04 -9.5094298064783700e-04 1.9092852670398938e-04 2.0833643104135411e-03 1.2211895836959034e-04 -2.2546781209134767e-03 -9.1924900155201002e-03 1.4668086917875756e-03 -3.0072149350049929e-03 1.8641572537493878e-02 -1.2461548220186469e-03 -2.3876326353611073e-03 6.6554965294041146e-03 4.1226616407699526e-04 -2.3055732763912432e-04 -2.9969913623180411e-04 -6.7664989528638461e-04 -8.6542394055681593e-02 -6.0713786304122941e-04 -4.1449442247492030e-03 9.0414232353691441e-05 -8.1853290531955821e-04 1.1915890450922236e-04 1.2148096491640674e-03 1.4274472025245953e-03 8.0305420286996398e-03 -3.2799206448379252e-03 -2.0834029554674185e-03 -4.5181912348603095e-03 -1.2270103158572515e-03 -4.5155794078150643e-03 -2.6150896013170666e-03 1.1958387721263757e-03 -4.1484478554214266e-05 2.9754479701226739e-05 1.0096293564327893e-03 -7.1217346650968211e-02 7.4877049633221009e-04 -4.9437919221094750e-03 1.3705037712183820e-04 -4.6621983882844890e-04 1.9509218055572576e-04 -1.1641507629229220e-03 -1.2253733492749649e-03 9.5089997745422539e-03 6.0861155870012285e-04 -1.1076294570410744e-03 -1.0507589469912842e-02 -8.9742706263103156e-04 7.7448067131992773e-04 4.3155341016287707e-03 -7.5957241103615999e-05 4.2997599683668040e-04 1.4601650062517901e-04 4.4478320041824518e-04 2.6422394458094491e-02 -3.5086715758173015e-04 8.7310983881092961e-03 -8.9140688250865206e-04 -1.7073693119247484e-03 2.0842679323356131e-03 -3.4722048914610792e-04 7.1348059387853810e-04 -1.5954170930240978e-02 1.4102676063769554e-03 -3.0978138563590696e-06 -5.0308658950034890e-02 -1.1310682085865183e-03 2.6370617773970504e-03 9.4682008844393373e-03 1.5246972472606113e-03 -3.5064528260237218e-05 -1.6592102624819223e-04 -3.8193379811155849e-04 -1.2646281385697805e-01 -1.3543323725298080e-03 1.0332795115436832e-02 9.3419830391184983e-03 1.8281523821348372e-03 -5.1428315129172265e-03 -1.1352137395072960e-02 -2.1588632243098212e-03 -3.4910133177858869e-02 -2.7776957074396539e-03 8.4095695756155487e-03 -5.9708172986860694e-02 1.2139594744248866e-02 -6.2044114668133379e-03 4.6239963223841940e-03 -9.7616352673618439e-03 6.8782908282532945e-03 2.3977423395064455e-03 1.9910065601828966e-03 -1.1501065334069964e-01 2.0325579244264507e-03 -7.6476015222065596e-05 -1.5721839312177714e-04 -5.6780197513377831e-03 1.6724361647146867e-02 -1.6881167379211642e-03 1.2151393143393341e-03 -2.5912433791484026e-02 4.7627893160515147e-03 -4.9318217350766769e-03 4.8827272602305575e-03 -3.2089029768300088e-03 4.2554694511233362e-03 -9.5838031586626821e-03 -9.6100427220249529e-03 1.9509059767349041e-03 -1.0703386514681040e-03 4.9637037726279103e-03 -8.0423654277618523e-02 -9.9901363650649697e-03 4.5773103439430869e-02 
      </Row>
      <Row Index="75">
        3.0772644657530109e-03 -3.3446819553919495e-04 3.1726088055350488e-05 2.2829130808965322e-04 5.2944324027550370e-04 7.4292322185011905e-04 -7.6057123385392051e-03 -9.5109311671007007e-04 2.6544551475080112e-04 -8.5154614860187827e-03 -1.2414275248049257e-04 3.9925540935600162e-04 -5.0254046403999109e-03 5.2007595416416592e-04 -1.7876371916373569e-04 -5.1142250600505956e-04 6.5895594674674418e-04 -3.9971502261576183e-03 -6.5268494880919318e-03 1.6702195966029065e-03 -7.5128072156687136e-04 1.4879985434271270e-04 -7.4514927416288084e-04 -1.1694494734127703e-03 3.8503597470463530e-04 -3.8000839148963558e-03 6.5185208902567493e-04 4.7792473012829573e-04 -8.5015930399547912e-03 -3.1530304912546418e-04 2.5324015942319866e-04 1.0193335233704914e-02 8.5166628436141804e-04 3.9878943702715067e-05 -1.8409356995223794e-03 1.7471927476892181e-03 4.5370813954227762e-03 -1.9147493246346063e-02 -1.2226314372160152e-03 5.8659603189498534e-05 -1.1311288635187239e-04 1.0409938503388519e-03 7.3521267394390660e-04 -4.4551364974249053e-06 5.5326392623523957e-03 -1.9287978286897291e-03 8.6337953853598409e-04 1.3451475654494782e-02 1.1289911188132550e-03 -1.6594539378661510e-04 5.3723454693415107e-03 -1.3684208700766407e-03 1.2528943918147240e-03 -1.9640780294391631e-03 8.0626953552409564e-04 -6.9134438269691581e-03 2.2711258401694447e-02 4.1678954556718661e-03 -6.0841380200999393e-04 8.2507143780937917e-04 -1.0370423283930646e-04 -9.3658895933784736e-04 -1.7965411321483945e-03 3.9838316011321512e-03 2.7660650708316997e-03 -9.1725814160888153e-04 -2.9030905235964966e-03 -9.5281248927991426e-04 1.2774380797023893e-04 1.9481150487621335e-04 1.2416800959919386e-03 3.7140386849469453e-04 -1.4670587922035114e-03 1.4054957450907665e-03 -3.0869823442608579e-05 2.3912456060352454e-02 3.3908287042270918e-03 3.8974279287834479e-04 2.8758194120136887e-04 -3.2240392648474892e-04 4.1386003787868830e-04 9.2856907607042141e-06 1.9927300908640644e-03 3.2308207391421595e-03 -2.0310877174056774e-04 1.2865769453327403e-03 -6.6990934619631792e-04 2.9514911975053585e-04 -5.2206592773424987e-03 -2.2832360161165795e-04 -1.7302842854026446e-04 -3.9001164411388029e-05 -1.7396297164551985e-04 7.5478336543824409e-04 5.0486525764169843e-03 -4.5214287971669306e-03 -2.0341476675123701e-04 -1.2539408878186132e-03 -7.2810270487121297e-05 4.5245989413361730e-04 1.9057884864919525e-04 -4.1080147162084451e-03 3.5322629576203595e-04 1.2977724077323745e-03 1.5702943159005434e-03 -6.2945304216672571e-04 6.7473670466786030e-04 -2.1281896651210042e-03 2.0702125921828469e-04 1.0204883771624404e-04 -4.8843597939390306e-04 4.1603390255152934e-04 -2.2206206868032050e-03 -3.1651069295468839e-03 -7.4634013269569977e-06 5.1331380778556202e-06 -2.9964822792821061e-04 -2.6416617089210790e-04 -1.6202674837440217e-04 3.7066327608142793e-04 -1.7019054916231329e-03 3.4393905997826647e-04 4.5060788139663927e-04 -5.3177239407289911e-03 5.4754980938125607e-05 7.8678882257603774e-05 -1.4491018970501646e-03 1.7246530730347315e-04 1.4818220161236513e-04 -3.1871909885253236e-06 4.4038529854316171e-05 1.8204474888700029e-03 -1.1426432435318601e-03 7.9178778752795817e-04 3.3302680176619591e-05 3.8480109363443239e-05 1.1011600708196894e-04 7.3927644123816349e-05 -4.1002593662059635e-04 3.3995589926177450e-03 -7.3987775459150246e-04 8.7366684654242117e-05 5.8177348824388943e-03 6.0837497068273044e-05 2.9930618669772417e-04 1.9337847178491074e-03 -3.7213437381640056e-04 -8.9743075302522828e-05 7.1081200427308586e-05 -3.3357320941806637e-04 2.8610740264909361e-05 1.4020633913266391e-03 -2.3452119107085778e-03 2.0886897098379258e-04 -3.3819499596534318e-05 -1.7834100790628700e-04 -3.6643435676844693e-04 -3.4676551660708238e-04 4.1337793988110473e-03 -1.9565288480294374e-04 -8.9837130504768830e-05 8.1494276619992756e-03 -8.0790377764601920e-04 2.6370261728043271e-04 -9.4953706617673106e-04 -4.3550599512534415e-04 -1.0896606175157721e-04 1.4498463388698188e-04 -4.2108874724829603e-04 -1.4604923559139865e-03 3.4778597180360193e-03 -2.8338685434878942e-03 3.3299853671151869e-05 1.4472170790692736e-04 3.6010148546868537e-04 3.0405408657560573e-04 1.1367112110664907e-04 -1.5579130736891301e-03 2.1822126671289455e-04 1.1590149145651113e-04 -1.6404482307181417e-04 -4.8286168788635845e-04 -5.8583125352103227e-05 -1.1729298827048817e-02 9.0975716489127877e-06 3.0200250635739102e-04 -2.3428554730187503e-04 5.4870981639299572e-05 1.3805027346803309e-03 1.2375098325555481e-03 -5.8651302631263919e-03 -3.8339006025279207e-04 -2.7184728286229346e-03 3.7326725635529120e-03 4.5639838138398676e-03 3.5539099895498067e-03 -6.3465889634864931e-03 -3.2051100921407735e-03 3.3547012239919221e-03 7.6600084318225597e-03 -7.2409647296902552e-05 5.4764306059638685e-04 -1.0533380536679182e-02 1.6166501687402001e-03 1.5213704197657571e-03 -6.7978770029801191e-04 -2.4558092572605746e-04 -1.0709384609043443e-02 -5.4961790802093693e-02 2.0128116994248269e-03 1.9734244160586655e-04 1.2186168198958984e-03 -2.2778566617628554e-03 -8.2658635428528365e-05 -1.7170500515970320e-04 -7.9365743311203066e-03 9.1708415748099643e-04 8.5468154414595240e-04 -4.7624558040925877e-05 -4.2182377108132742e-03 -4.9801447886271572e-04 8.9119922940381416e-03 5.4668546710310737e-03 8.9393897434210581e-03 3.8767581122072237e-03 -4.9126586503881031e-03 1.0543762140416929e-03 3.5828537248024477e-02 -4.0079755075062909e-02 
      </Row>
      <Row Index="76">
        1.1124308909035854e-01 -3.1417136199500158e-03 -3.4618325242084746e-02 4.4924950156134819e-03 5.4882072794510545e-03 -5.0515678342471669e-03 5.1052896232922598e-02 -3.5103349114603041e-02 4.3171542454532932e-03 -5.4592900774039066e-01 3.9076166648822439e-03 -3.2109774867561391e-05 -3.4764981317437815e-01 8.7852008105179964e-04 -2.6022132964667599e-05 -3.3398263807791605e-05 1.0415188529979795e-03 -6.7448449936128464e-03 1.7992909126264556e-04 -5.7750775109370212e-01 1.6407882633603030e-02 2.5009442547374583e-03 2.1080226740598823e-03 6.3023932438630581e-03 -5.8196622793271757e-04 -2.6396617932128830e-02 -2.5879543271223625e-02 2.7246643288243444e-03 -2.9042980426773113e-02 4.5821322769275842e-03 1.7552229387429286e-02 4.1311544510890030e-01 4.2331635931653648e-03 7.4079085611263723e-04 4.8045943539626323e-04 2.9935257288852156e-03 6.8914510695394782e-03 -8.0533912611839842e-03 5.0983452312541599e-01 -9.7296382630901283e-03 -2.4427010483404343e-03 1.2686398183484188e-03 -1.1196568218257985e-04 6.7495935489707004e-03 3.0647328774223270e-02 -2.0893412086909924e-02 -5.7266936238144495e-03 -1.3296958639284640e-01 -7.1188342024606959e-03 -1.0656003232634603e-02 -2.5580916580878466e-02 -2.6024548105333658e-03 8.1427883319795669e-04 6.4129826832688697e-04 6.0434679624021270e-03 1.8012210719492439e-04 1.1796755667724895e-02 8.0405000178190900e-01 -1.2450315935625888e-02 4.3840099755574485e-03 -2.2220516720504735e-03 -2.2212296298733669e-03 2.7547266755044578e-03 -4.2188124163373697e-02 -6.2608232971774758e-03 -1.1293038291291579e-02 -1.5161612217461240e-01 -9.8138256914917926e-03 -2.9486045774872460e-03 -8.0208213112882731e-02 -1.9567820416746661e-03 3.0449067322580376e-03 1.6872552838047561e-03 1.1804208737428989e-03 -3.5740863202537998e-03 3.3908287042263008e-03 1.5909660081875536e+00 -3.4161036895236307e-02 -7.1149946455671409e-03 -1.5747957162786097e-03 -2.9803063981614919e-03 -1.1766039067154449e-03 -2.5571937335405151e-02 8.0740433819189050e-02 -8.1780999853187097e-04 -1.2055482287409802e-01 -2.8774634691350887e-03 -3.3594645818620858e-03 -1.4281793675203858e-01 2.5972158135805640e-05 1.4729867173374211e-04 1.3914341171868362e-03 -3.4626591105293989e-03 2.2385202014341132e-03 -1.0919018864756769e-03 -1.0330087063517193e+00 4.3555773941935019e-03 4.0299820803610095e-02 -2.5849288021318655e-03 2.9962054542219847e-03 5.8151579013909008e-03 -1.3075709327243827e-02 -2.2983247556438234e-02 -1.1316334529148795e-02 2.1232721361773199e-01 1.6236332714301360e-02 1.6589654015875897e-02 1.8152972050879426e-01 6.3225282465899802e-03 3.1096609570418119e-03 2.0529027851950185e-03 -2.3332766961663230e-03 2.0789711484805462e-03 2.1496541125758488e-03 -1.1242898991625339e-02 1.6937622878065994e-04 1.1421523286177848e-02 -4.3811062306485255e-04 1.7896972736085228e-03 -9.0894671700822750e-03 -1.0707111612739961e-03 1.0871676792067003e-02 -3.9372926044149367e-03 4.8164460374536255e-01 1.1435898149440397e-03 6.2893809536756426e-03 -1.2697503924117282e-03 -1.7833035248518289e-03 3.7480279667127239e-04 1.2549762503205608e-04 -9.5759665437574783e-05 2.7779929917932655e-03 8.7348642867191018e-05 5.2986469010487935e-01 -4.8133384190216085e-03 1.2232173152255773e-02 9.9194430441610889e-04 -4.1281306877945885e-03 1.7131271147678637e-03 1.0384941458233991e-02 -1.1155233210522111e-03 1.1774410119465483e-03 -5.3054549382164518e-01 -1.5298272243126590e-02 1.7318875589372486e-03 -1.2517387766848742e-02 -8.6067828665909894e-04 -3.8568709564067464e-03 -1.2820032117579427e-03 3.7670502913163622e-03 -1.5695441370195350e-03 -3.5002685919780377e-03 -1.9093541612704712e-02 1.5125865768116468e-03 2.1893787397593012e-03 1.3547169484124516e-03 1.4345865130938051e-05 -1.1442629473975841e-03 -1.3373166254832689e-02 1.3751076427044762e-02 -2.0856865743631462e-03 1.5879520454303880e-01 -5.0227779692268125e-03 -5.5486505703475492e-03 8.0335369080870578e-02 3.8011180863571376e-04 -1.7599247448676913e-04 1.2613008074827126e-04 1.1128620374256069e-03 -1.6595345934394823e-04 -1.6900755910740362e-03 -4.6008213706347162e-01 6.0931082384297480e-04 -2.1463505150751905e-02 -4.5852329384499747e-03 -9.3717587163535043e-04 -1.3774334282145419e-03 4.3179332835653547e-03 -1.7910387692661019e-02 5.4773964019804019e-06 -6.5159222901627833e-01 2.8532211174656552e-03 7.0068043605535117e-03 -2.0510113084006942e-01 3.2117840281702531e-03 2.9334879054910661e-03 2.0065511852847464e-03 -2.3236752652197800e-03 1.1155489862772136e-03 5.0895737589510561e-04 4.9342774511798249e-01 5.0747520634785603e-02 -3.5100916706929747e-02 -1.7141937397667908e-02 8.3674403638042093e-03 -3.2797426396665051e-03 3.3099096813769616e-02 -9.1067691612100127e-02 -1.9422422800784309e-02 9.7867216586194128e-02 6.3180193921890865e-02 2.1846724072046981e-02 -2.2095309508149796e-01 2.0044707540511658e-02 1.2337138171407431e-02 9.0583079907821263e-03 -2.1890627367104107e-02 3.6934053777824480e-03 -2.9736958302807939e-03 4.8006813152662486e-01 -5.8607775097590853e-02 -4.1885185832145080e-02 2.9797618658790714e-02 -1.4171270381679538e-03 4.4182915485907982e-03 5.3589201139321994e-02 5.8324111556602033e-02 -1.0236595351414177e-02 1.1442956555502395e-01 -2.8009923230927297e-02 -1.6001359064926141e-02 2.2500464868943049e-01 -1.7939809015412062e-02 1.2212883254923049e-02 -1.8472749465707726e-03 -1.6939642062351060e-02 1.5336372155858010e-03 2.0945413268567872e-02 -3.7891948323677876e-01 
      </Row>
      <Row Index="77">
        1.0293224873992068e-02 -1.2694062360094677e-02 1.0728320410658531e-03 -3.0136307763524743e-03 -1.1055999946760535e-02 1.8279992812982606e-03 -1.1986191421496613e-03 2.8976903724089821e-02 7.2744646405808002e-04 -1.9475849193242689e-02 2.3037847229356902e-03 3.1695754155894405e-04 3.4574350873136594e-02 4.8343681968497209e-03 1.1733324530550904e-04 -3.7103323039903231e-04 -1.3564467652425129e-03 -1.7475229470745616e-04 4.8607381243477750e-04 6.6682593754732872e-03 -3.8528627308802563e-02 1.5497537198289821e-03 -6.9586865755439297e-04 -4.0894829725792343e-03 1.5624885290669768e-03 -2.7332281936515027e-03 -7.8632670051420571e-03 1.3220807899698662e-03 -5.1609251869436587e-03 3.9349596020136976e-03 3.0611442386415874e-03 -2.7867417694350749e-02 3.6569916270981300e-03 4.1336781655423004e-06 -3.9456511458037507e-04 -1.2995209187943889e-03 -1.3327932979262554e-03 2.2219988587449092e-03 7.0343496417235377e-03 6.4449022858285741e-03 -3.5023463744607297e-05 -7.8315646692185461e-04 -1.5074271600496025e-03 -1.6013064366728310e-03 1.3648912602051352e-04 3.2068210145638355e-02 -1.1560127223039047e-03 -4.8042190167678633e-03 -3.9358119286209180e-04 -3.8330630332233245e-04 1.5517231903621642e-02 2.0114529382081357e-03 -3.2618938758349411e-04 1.1097263639839882e-03 -2.5842219000188228e-03 1.3874746942238144e-03 -1.3527356601527171e-03 3.8296350000118079e-03 1.7411971939763033e-02 -1.8325406979592543e-04 1.7087559702826235e-03 2.5675704984956770e-03 -3.8971481238338147e-04 9.7679483427000335e-04 1.8957327468542950e-02 -8.5433710363595414e-04 -3.7291184981633752e-03 -5.2586069488056060e-04 1.2830893937883702e-03 1.5327434831586828e-03 3.5681705254567539e-03 -1.7447734301385661e-03 4.5272324515647838e-04 1.3646780783813919e-04 -1.1989218575390870e-03 3.8974279287847056e-04 -3.4161036895158509e-02 9.6145607811760278e-02 -3.3555702808492262e-03 -7.3564807419382316e-04 4.2638720576526970e-03 -3.6497780052973023e-03 4.7450086936369693e-03 -2.0130209569355240e-02 -1.9603224558729232e-03 -7.9493899634908161e-03 -7.5629935292407524e-03 -4.6313617766752906e-03 -1.1099282906389396e-02 8.6762857623065362e-03 5.1403533444184177e-04 6.6797791362947605e-04 2.4995694864805443e-03 3.2259261075778499e-03 2.1300651462803979e-04 -2.1628056724165838e-02 -4.3154470879722493e-03 -2.4447424089495684e-03 1.1004291158492000e-03 1.8664174677268199e-03 -7.4266155332104462e-04 -1.3063769179316024e-03 -2.8950807230482089e-03 6.0342739914630988e-05 -1.3126835790711888e-02 4.3712315792130254e-04 1.0919097310489430e-04 -6.6176736763146060e-04 2.0677650083164749e-04 1.6257292604480607e-04 2.0432147565805996e-04 -6.4606223478909353e-05 -1.0400848134401765e-03 6.4087494578302919e-04 -3.0691583064275385e-03 6.3321557030058062e-03 -1.1895805041076297e-03 -4.6240934129861252e-04 -5.7264435051699117e-04 1.9094453888472886e-03 -8.1444156519987904e-06 -8.2935985466615850e-03 -6.8522222350111354e-04 1.6708377971059535e-02 -4.1662395287092027e-04 -1.3047771089520668e-03 3.7718991008297564e-03 -8.3007059911587749e-04 -1.3496609555214674e-05 4.4621382455572317e-05 3.9495409310830708e-04 1.2925762858659318e-04 -2.7061973039192722e-05 8.8357904519734271e-03 7.6743445717006526e-04 2.5762356687530365e-04 5.6334551145420075e-04 -1.7535398780341744e-03 -9.2272915976061615e-04 1.7267555444453195e-03 1.4959932572337589e-02 -7.5877694891368533e-04 -1.4037325230655781e-02 -3.3087718986905173e-04 -1.0735049322598239e-03 -2.2541141850682678e-03 -8.6472261695922520e-04 1.1713617103414870e-04 -3.3666797571697691e-05 -1.9072586461302125e-05 1.8657452600813998e-03 8.6737348481804558e-04 3.8016657614065030e-04 8.3280158937301240e-04 6.2511575415803754e-04 -2.2484538183823377e-03 -3.8815581899512286e-04 8.8376087038646509e-05 -1.9557181604340666e-03 -9.0028126749261000e-03 -4.3679784885214363e-04 -1.8420672875623944e-02 2.2356269536863167e-04 9.6731972628301410e-04 1.2996462002069720e-02 -1.1522835138397139e-03 -4.3345723758241245e-04 -1.8611179729683888e-04 -1.3075805918327061e-03 2.5155240926799660e-04 -1.5109235837340966e-03 -1.4348374805612303e-02 4.4895905483610717e-03 3.6951100584729253e-04 9.3757568797588509e-04 6.2788902489796061e-04 -2.4271259853932874e-04 -6.3272891654968851e-04 6.4526863809175831e-03 3.8751586683576875e-04 -4.1463310890655157e-02 5.0912954934294037e-05 1.1494072977456127e-03 1.7363756627475517e-02 5.2810431154459540e-04 -2.1136493478704369e-04 -2.1701607452278231e-05 -3.7119263094560545e-04 2.4576400611939055e-03 -2.2429550034002311e-05 -2.4384555217661988e-02 -1.0504145820681748e-01 -3.4301647579953508e-03 8.7494052805117684e-04 2.9333813284507845e-04 4.4653127023037400e-04 -2.8899597389248971e-03 4.4467578764472951e-02 3.3756839834892275e-03 -4.8319721928556103e-02 3.1646187371179302e-03 4.6433409666794888e-04 3.5919231632492332e-02 1.6290966106725251e-02 3.3122162907282351e-03 3.1080652370303759e-04 -1.7381139274641932e-03 6.9376927803436513e-03 -4.1050911366147789e-04 7.4410599924015115e-03 8.4721222242448130e-02 9.0605419957766309e-04 -2.0278317285685514e-02 3.8745694181902216e-03 -1.1434265097825750e-03 -1.0382378806658189e-03 -3.8457510695815794e-02 -1.4862587019285403e-03 4.0420009440176050e-03 -6.9157829421421374e-04 1.2977054038014729e-03 -8.3065911242172497e-03 -6.3402860405329303e-02 -4.8924645626279763e-03 -1.1647743087708096e-03 7.6745289538535117e-03 1.0772126097267243e-03 -5.9794426924671884e-03 -6.4216942529331513e-03 
      </Row>
      <Row Index="78">
        4.0046552871898129e-03 8.8395473103412706e-04 1.4012951362472804e-02 -7.1432079409631296e-04 -2.1701064868551844e-03 2.5607855925145870e-04 3.6806410576233940e-05 4.0705234765957445e-04 3.4636981840234136e-04 2.8719306686846302e-03 -2.2941444291041512e-03 3.3208562953956217e-04 3.8601839358520795e-04 5.8596040428070088e-04 -2.1251766696042283e-04 3.9390553227763616e-05 1.1583561798233062e-04 -1.5040796064036575e-03 -5.3661921086748613e-04 -1.5299323757131111e-03 5.4516560529841926e-04 -9.0448437043138437e-03 -1.0139818291506255e-03 -1.4966595014255166e-03 -6.0775003235664232e-05 -1.4020185189534441e-03 1.7234973361531796e-03 -1.3059577979858752e-04 -8.0308213802271350e-03 1.5769145227089338e-04 3.2931749280852574e-04 2.5810370431482710e-03 -9.3047840552449158e-04 -6.2887350134092045e-06 -5.5975535184269939e-05 -1.1698853977121270e-04 1.5878611414782764e-03 -3.1230060178921715e-04 1.7969640409298271e-03 -2.0149355497262050e-04 4.3199959518440178e-03 3.6039949949210216e-04 -3.1679841070380438e-04 -3.2557568788441765e-04 5.1050132189595088e-04 -1.3230703789098037e-03 6.2942470942324892e-03 4.4096888663093248e-03 -1.2073106812056926e-03 3.5223192642858114e-04 6.0773122210795449e-03 6.3893308520444295e-04 4.4607323429750323e-05 -1.3754268304242952e-04 1.3248146417095194e-04 7.2214470866033276e-04 4.3358536212715400e-04 6.9537832539345867e-04 -4.9562324056513904e-04 5.2347538733228784e-03 1.1193021497725823e-03 4.0458842102390757e-04 -2.3089871921446939e-04 2.5204178506177052e-04 -1.6723555206550056e-03 5.8046506349934586e-03 -3.2659223057418529e-04 -1.1489279382785025e-03 9.5707309743767524e-05 -3.4848179083830644e-03 5.1670568785508507e-04 -5.4494268101389488e-05 -1.1224240093130229e-04 1.3211808524263118e-04 -1.6592772429061958e-03 2.8758194120387815e-04 -7.1149946455497659e-03 -3.3555702808494570e-03 2.2023643210303073e-02 -3.0583550839433093e-04 -6.7627767953004625e-04 -8.0452142282745089e-04 3.5958018806438348e-04 -6.3631609091394647e-03 -6.9345380672430068e-03 -3.5886890533971538e-03 -2.9389585388700512e-04 1.2637061660526348e-04 -7.8003374947308579e-03 -3.6142280912635286e-04 -1.7373564557844091e-04 -3.5424752749984960e-04 2.9189428486575599e-04 -2.4251336320591232e-03 4.5940571225550064e-04 -6.6662857490890348e-03 -5.9065175197535913e-04 -2.7624187597762973e-02 -1.3928344870379819e-03 -9.7048884768398641e-04 -2.0336767676228714e-06 -1.3731781035487057e-03 2.4942827893011648e-03 3.5981057875325321e-03 -1.3049298491709785e-02 2.9028045597989799e-03 8.9653592407664025e-05 -7.6880741260730162e-03 -1.5625532324576590e-03 2.7189466069627130e-04 1.0886112332680244e-04 -4.7088544303067648e-04 -6.4502348867124127e-04 4.0401732486248327e-04 -1.3412118878954882e-03 -3.6592368782611268e-04 -4.5522293900477845e-03 -3.9462031395315475e-04 -4.4269270478356176e-04 1.2886632988179281e-03 -1.4048566659519146e-04 -2.5797222539345366e-04 4.0586064796768618e-03 -5.3353699880302613e-03 5.5594256121563540e-04 5.4346913010830389e-05 -5.4506565906586868e-03 -2.6520838150404058e-05 8.9517442162139046e-05 1.2882525406670252e-04 -7.6241692891012582e-05 8.6644040436639758e-04 1.4783627578765501e-04 1.4678922557000845e-04 -3.1988773414864642e-05 1.5537454760751435e-03 7.9081801973823708e-04 -3.6984974638193207e-04 -3.3142740698352741e-04 2.8536067864067503e-04 -1.6558886562382407e-04 2.4741790451044965e-03 3.0069520248559283e-03 -2.9123580611976619e-04 1.8327733749381369e-04 2.6675063783976327e-03 -8.4329469649810224e-05 -8.2476208964973175e-05 9.6685082366441738e-05 8.7028570222790692e-05 3.0751700219858804e-04 -1.8842111837714275e-04 2.0558046212512116e-03 2.5714835944290113e-05 3.6479908186791109e-03 -2.8913002928488470e-04 -1.3879897049211276e-04 -1.8631517705869696e-04 1.0117353021547974e-03 -8.4186615922120234e-04 1.2543261183275629e-03 5.4044101681210641e-03 2.2570431645400142e-04 2.0312035617812627e-04 -5.0847599717673830e-04 -1.1054939665253058e-04 -1.8730960435701325e-05 2.1536886046833945e-05 2.0263454717447992e-04 -6.2347251126165792e-05 -5.7476871217855552e-05 6.9172754587833347e-04 1.0950012301806926e-04 5.8417243668203367e-03 1.0295734275081367e-03 6.5470778345919382e-04 -1.0335385884586596e-04 1.6335492632995391e-03 -5.9468241391443584e-04 7.1640920160439289e-04 1.5356405997426536e-02 -5.6547854186171122e-04 1.4204080467065209e-05 -8.2379001265543983e-03 2.8117299480233599e-04 -9.0237871989126261e-05 -1.6235255403417588e-05 1.4856433065677573e-04 4.0526444902783641e-04 -5.8519591641331128e-05 9.1085307231483659e-03 4.4232666685069715e-03 -2.3019384933192402e-02 -2.4849319986891940e-04 2.8071159929270113e-04 8.2967515767554318e-04 3.5603767520275206e-03 2.8895837474040139e-03 1.4056557896653049e-03 7.5282724066269655e-03 -2.3294142808763093e-03 -1.6616987700084659e-04 5.9735284044382109e-03 1.3784336306442769e-03 2.5716306504942562e-04 1.7386958906466385e-04 -5.0359238918651437e-04 5.2421085797211501e-04 -6.1263338089151994e-04 -9.7338625044497695e-04 -3.2324721957762677e-03 2.1588904067550985e-02 -8.9501579614950540e-03 9.5001748027207509e-04 -4.8445564845403944e-04 8.9121245062474819e-04 -1.3735015682455518e-03 9.4444081074090934e-03 -3.4440225245132238e-04 4.0831510595813270e-04 -3.3524647984695772e-04 4.6179686125141818e-03 4.8691640533741112e-03 5.0011543288472175e-04 4.3131814919390753e-04 -3.9694067554443694e-04 5.6213391234357897e-04 1.0571721053944413e-03 -1.5610185374627635e-02 
      </Row>
      <Row Index="79">
        -1.9457169515656857e-03 2.1552903064720854e-03 2.0964065451998457e-03 -7.8923998554104088e-04 4.0103694224352861e-03 5.8541794849178996e-05 2.1775644802843525e-04 7.8727634440082326e-03 3.9337557252814334e-04 -1.4312548451112517e-03 -4.9165196785471467e-03 -1.6460517484698754e-03 -1.3346780668137881e-02 3.2137555924165854e-03 5.1861123798054671e-04 2.2316685190239456e-04 4.1999322304174611e-04 -1.4036926128907761e-03 1.2098964882543495e-04 -1.0994732959764275e-03 1.0914226028858904e-03 -5.9438794669943763e-04 -2.4373396181913176e-04 2.6126329711615923e-03 -6.1394950126372749e-05 -3.1613941203932489e-03 4.1607619388542572e-03 -3.7794537281543843e-04 -1.2501043545281171e-03 -1.7526431872989193e-03 -8.4473453442092047e-04 5.8532449158832378e-04 1.0143669666694954e-03 1.5658495519127241e-05 1.8810202960693832e-04 3.7982243332625301e-04 5.8729078045909391e-04 8.7303373762843105e-05 -3.1005282630491154e-04 1.6476742028434082e-05 3.4657641309775991e-04 -5.1191058477864215e-04 1.4666138235603938e-03 -1.7495078611845776e-03 8.1023048347451249e-04 4.2136011251389920e-03 -1.5745231748740471e-03 -5.1737543208618120e-03 9.9607581023468308e-05 2.5265427591540657e-04 2.1869433724037712e-03 -7.2125903628977449e-04 3.6356503362849207e-05 5.5824477500510247e-04 5.1476871906699570e-05 -6.3372864775190427e-04 1.6495442372708698e-04 -3.3990335637501534e-04 -9.1704193135511407e-04 -4.3266416450479708e-05 3.2962271123903363e-03 -5.1029995952172127e-04 -9.3848048967133787e-04 -3.0116580688283965e-03 1.2251516063644073e-03 -1.3420237342445605e-03 -1.4058420383354253e-02 1.3321166040354349e-03 1.7705179016389797e-04 8.7490533930090209e-04 -1.6105162425788851e-03 3.5772327198992142e-04 2.3666153249353537e-04 -9.0864086192948184e-04 -6.7157049111973496e-04 -3.2240392648438245e-04 -1.5747957162730031e-03 -7.3564807418950717e-04 -3.0583550839335429e-04 1.0247785364146951e-02 -2.3252774283795963e-03 -6.3989419799713844e-04 4.7003366920923967e-03 -1.4342959247506420e-02 -6.8697763562165781e-04 -8.0757195572063178e-03 -2.1061289895430574e-04 -2.5767222306759610e-04 -2.1462837236689847e-03 1.1830477412995851e-03 -6.3217539131265633e-05 -8.9814954306230085e-05 -1.2907589997559468e-03 4.9966301972911437e-03 -1.0259794695682833e-03 2.4061239679579183e-04 -7.5329130011567592e-04 -4.3774329140762944e-03 -4.7195374485211803e-04 -5.7669842100725732e-04 -5.2132516341137211e-04 2.5840533503215151e-03 -1.1937397712876337e-03 -2.9170176942364110e-03 1.6231589473421348e-03 2.7153234950362329e-03 4.5688640711941467e-04 3.5894452479995342e-04 -2.1512766444803984e-03 -3.9949937104085309e-05 8.3013673970087313e-05 -4.5154108960607339e-04 4.2667646710715067e-05 4.2371980377555103e-05 -9.3054807442305432e-04 1.8747908150650635e-04 -1.1307106242652949e-03 -3.1701439418449755e-04 -5.1437232791017029e-05 3.3368482362917829e-03 4.7984271133386450e-04 -2.4507472635477319e-03 -1.1302117632915974e-03 -4.7478197031757471e-03 -2.4084605114965685e-05 -5.2551989203886151e-04 -5.9818788734503636e-03 3.4205063536452265e-04 2.0428541252456227e-05 -4.5416262692269359e-05 2.2762016686278584e-04 9.7123784114278022e-05 1.6129830678385942e-04 -5.7647251628156759e-05 -2.0166289940339466e-04 3.6221153583217245e-04 4.6017002640377856e-04 1.0762370993649788e-04 -1.2727847080799266e-03 -1.2659114386162750e-03 3.3972755181195884e-03 -2.4011607648930416e-04 1.2491243495659854e-03 7.9063440756732312e-04 -1.4921346288499513e-04 3.8423074102178489e-03 -8.6515933584492240e-04 -7.6856928289560492e-06 -1.5607837659242617e-05 -3.4479257934839886e-04 5.7162773877935085e-04 -1.7139150030138597e-04 -2.5813176195427223e-04 1.1230528681033121e-03 3.0799393236355908e-04 2.5798208357493959e-03 -4.5543936292233300e-05 -4.6448626557798892e-04 -8.4347019011689166e-05 -1.9698995795480387e-03 3.3004662411472373e-04 -5.7849018093932558e-03 -4.0528175530915329e-04 -9.3539859751040795e-04 -8.1542159441854167e-03 4.2337569623890705e-04 1.6075584368543559e-04 1.7565753499961066e-04 4.2593892826659797e-04 2.9780798178888346e-04 1.0958106605264695e-05 1.5977367438253717e-03 -7.0988361403966733e-04 9.8385821972355120e-04 1.3592898449083070e-03 -2.3016820240826246e-04 -2.8354116344948572e-04 2.4348806369794609e-03 8.7545950528874865e-05 4.8706590083200373e-04 1.4156943866144894e-02 1.2691732231734283e-03 7.5963987866830532e-04 -2.2667645527496005e-03 -1.0165991663741653e-03 -7.2913106396429832e-05 9.5891482394824899e-06 -2.2474926247175169e-04 1.3345695784094946e-04 -2.5959572040896300e-06 -5.0038361381096741e-04 8.5998675979522704e-04 -3.4970761959074448e-03 -1.4547811926757816e-03 -6.3128938537673762e-05 4.9909581273411760e-04 1.1627440871482077e-02 6.3472372924132207e-03 -2.9374224084871507e-03 1.6624245517510988e-02 -3.2638993756494471e-03 1.7100965524419198e-04 9.4835607432705027e-03 1.2232466332071251e-03 -2.2172129104644674e-04 5.9940179492562560e-04 8.6636365114972711e-04 -5.1999533578041875e-04 4.3001703352275509e-04 -2.9084500061316715e-04 -2.2736634433205127e-04 3.6284686871110349e-03 -9.5365769208050760e-04 -6.8906388434527188e-04 -1.5382198728165174e-03 4.2864714546631839e-03 -8.9999998704084153e-03 -2.3629046541643502e-03 -1.6791751993109202e-03 2.0849541853901715e-03 3.0666920155087395e-04 -2.6710663691481076e-03 -2.8107797258880868e-03 1.3501894906885830e-03 -1.9172798805892232e-04 -2.4885161848665345e-03 1.3607916305391965e-04 2.0078014305262466e-04 8.3354487042136601e-03 
      </Row>
      <Row Index="80">
        -1.4630804736229849e-03 -1.7001870144307013e-03 9.3240985026827455e-04 6.9485227325555136e-04 -1.0218725976806717e-02 2.1799773171157864e-04 -2.6352089177193241e-03 -1.4379809180866468e-03 -3.3044674292740376e-04 5.4077516680168802e-03 -3.2553458783703745e-03 -1.3813598822000894e-03 4.5272378096986587e-03 6.1676355925542195e-03 1.3685943096587369e-04 3.3032040311378481e-05 9.7519572894453135e-04 -1.3837415256550776e-03 -3.6675966700999880e-04 9.0039586918760905e-04 -3.6088233625598222e-03 -1.3415302116599401e-03 1.5443412189048321e-03 -9.3027374295990006e-03 3.9576768680064239e-04 3.6501392708303826e-03 -3.6715796057825278e-03 7.0174286696692185e-04 1.0585319588892722e-02 -1.6429051722664572e-03 -1.0138607727390517e-03 -2.9717024502673439e-04 2.8012254872702594e-03 -3.3612982439666520e-04 -3.0773074881675078e-04 6.0712988420185180e-04 -1.1724779638138116e-03 9.7312541124487673e-06 -2.5924450963866474e-03 -1.1086368746287157e-04 3.1379458898546549e-04 1.4372309731505162e-03 -5.5334964036729065e-03 -1.2992677311312630e-03 -2.5942764665665141e-03 2.6338586798832363e-03 1.4931768146896063e-06 1.8910624651287122e-03 -1.2926158681001048e-03 -6.8436561086637759e-04 1.5519690472931558e-03 2.4064819551706694e-03 4.6921823490191777e-04 2.0400736900207626e-04 -1.2498596694999128e-03 7.6183671031355982e-05 8.3189847435580916e-04 -2.2068717355494538e-03 3.7614876453307485e-04 -2.6165639000557891e-04 1.0989820483960668e-03 6.6673458618406942e-03 -5.3128528475427620e-04 3.3237911016725796e-03 -1.0628572866005631e-03 1.8478071931703893e-04 1.6402474286949076e-02 -5.2173703295716281e-04 -1.9018198461595755e-04 3.0337868963670189e-06 2.3354562136513237e-03 2.3211493256444934e-04 1.1882648756259689e-04 2.4870330931586575e-04 -2.1527139604822776e-03 4.1386003787821472e-04 -2.9803063981296285e-03 4.2638720576596428e-03 -6.7627767952769396e-04 -2.3252774283800820e-03 4.1275688344404177e-02 -2.8823986554446859e-04 -1.4714195083796282e-03 -9.9002633868887080e-03 3.5110496110649092e-04 6.0800950369230833e-03 -4.9605100756942855e-04 1.0030219352092020e-03 -4.1943266273611890e-03 6.5241354921647815e-03 7.2550195499287984e-06 -2.7225640612092705e-04 -1.5195486417189590e-04 1.5451409714546532e-03 -4.8241598904666394e-04 2.2422478229280132e-03 1.8544866476372243e-04 -4.3811222367080727e-03 1.2616162352890427e-03 -2.1405927808079558e-03 -2.3301857879224751e-04 -2.2379537362829322e-03 3.9533653820559081e-04 -1.2488766890252469e-04 -6.7644362368606825e-03 -6.8968920713402722e-04 -4.0329490844908267e-04 4.2703827136990613e-03 -5.9542759400704477e-04 -4.7763117995679101e-05 -3.5893004111147698e-05 3.0279872054022358e-04 -6.2191081695134494e-04 2.4091747149117412e-04 -6.9223747509894462e-04 8.9177345352302144e-04 -9.3276715056860374e-04 -3.1464311989094491e-04 -9.4820326679673174e-04 1.5107991610718539e-03 4.1263761254669781e-04 -9.6577844913381698e-04 1.6787077961842177e-04 1.0419773647163455e-02 6.2900026678334303e-05 1.7702157528919418e-04 3.8943174316946119e-03 -6.7728134980701122e-04 1.1265355966487835e-05 -1.0674501316650098e-05 9.1605277988972365e-05 -2.1135106952646643e-05 -2.0465324507842886e-04 -3.0610301259452605e-03 3.0166787813414042e-04 -3.5166465867933223e-04 2.1304483784937160e-04 1.6367274257314546e-05 -7.0497409000968431e-04 2.1080580499698489e-03 2.3669164981090125e-03 6.7718155220264191e-05 -1.1043523813677111e-03 -6.6908091300784496e-04 1.0023408826374588e-03 1.9045699120692205e-03 -3.4083590419465865e-04 -2.8750198290351282e-05 4.3213152443424591e-05 2.1004089970794751e-04 5.4853286274543413e-04 -9.4728713687999627e-05 1.4878207748652006e-03 4.1335889577547567e-04 4.1619946649304983e-04 -9.1884165288901769e-04 4.5287341014424720e-03 -1.6107129586742305e-04 1.2092931587930622e-03 -1.0271736885903160e-03 -2.2300972153982006e-04 -2.0332633609674855e-03 -9.2319506359811974e-04 -1.0515365936771305e-03 4.7789585345778818e-03 -1.0773959394419100e-03 1.0311613449262395e-04 4.2020509524962404e-05 -2.1078298689159239e-04 -3.8259444588145675e-04 -2.3357094114118127e-04 2.6114223282063045e-03 2.4788419956759701e-04 7.3475296556811133e-04 4.3953470601559895e-04 3.2510285646679933e-03 -2.7642630121383726e-04 -1.7351365679417457e-03 1.0731927248449273e-03 2.0712104937234036e-04 -1.8057537007468153e-02 -3.8670819837375084e-04 -1.2820587246422264e-04 5.1533423336336259e-04 3.9556373302476440e-04 4.1891896397684659e-05 1.0037102120363448e-05 -1.1712454085975924e-04 7.0360241071915769e-04 5.4947362586287019e-06 -1.1337010837935146e-03 -3.2938709210181384e-03 -4.1981829905846464e-03 2.8519142377553298e-03 -3.6251725183087426e-03 -6.2298669873455878e-04 -1.3634710493791266e-02 8.9376885068395868e-03 -2.0338974293668752e-03 -3.8595390418018037e-02 -4.4860585731185364e-03 -2.8619410574500818e-03 1.3456816071930167e-02 1.8167987197420334e-02 3.7414471340121470e-04 4.0995967739463008e-04 -8.7361588129868388e-04 3.5435498283933158e-03 -3.1464629598778266e-03 -1.7629907696093822e-03 6.7986550436576277e-03 3.3423334236552340e-03 -8.2613954153277110e-03 2.1035908961936868e-03 -7.4479862201005552e-04 -6.2177084521392598e-03 -6.2968868165036371e-03 8.0094957314508219e-05 1.6735875240965169e-03 -6.1079950851618200e-03 -1.0273368397587697e-03 -4.1809008927658764e-03 -3.7971135103354071e-02 2.6942658415368519e-04 -1.8758981997178833e-04 4.4810990873940066e-03 2.3752570877045524e-04 -1.5741239791869223e-03 2.1059307408131674e-02 
      </Row>
      <Row Index="81">
        -3.8193427722395864e-05 8.0738336177173979e-04 -5.5127229449280840e-04 5.3423600378159873e-04 -1.2099420985165377e-03 -7.5246936434772340e-03 -7.8356441053791101e-04 2.3382691208253259e-03 -6.1638288302260074e-04 -6.9384366898703892e-04 -1.6664715741429494e-04 1.0719662497182076e-04 2.0262357875769840e-03 1.7205574957417831e-04 1.8108067840153495e-05 1.4028744939137297e-04 -4.9711007448061584e-04 -1.4643738643656790e-03 -6.6192154782847854e-05 -1.2911175009818615e-04 1.5325512399429861e-03 2.5912136605580997e-04 1.8900698316771122e-04 -6.6479512927199256e-04 -4.3997037907339267e-03 -2.7841917553178813e-04 1.3020909471007835e-03 -2.5659308532532878e-04 -3.9849711326836804e-04 -1.5230666431260195e-04 -4.3406475184001609e-04 -3.1121844276139621e-03 4.9673156454493395e-04 -6.6113107759708487e-05 1.7413080764564317e-04 -5.4334761529564312e-04 7.5004512633636581e-04 9.6052728434001548e-04 -8.2817661540342952e-04 1.2793027554055324e-04 1.0278264239607421e-04 -9.1528012159569692e-05 -4.0937988173577172e-04 9.9717496414217406e-03 -4.9924550281110411e-04 -9.9979394467366862e-04 2.3737761879886218e-04 5.2828025715662141e-04 6.5569635883871774e-04 -8.2974621973118390e-05 -5.6275947589641828e-03 3.9149305756218150e-04 1.2615573187490332e-04 5.1325883514039211e-04 -1.4586624249232913e-03 -5.3797642123197542e-04 -4.3316582674688591e-04 -1.6170324334191383e-03 -5.5592378197489732e-04 -1.0277087284708451e-04 -4.0476791719949029e-04 -2.0468373440975674e-04 1.2841663211496112e-02 -4.2848833900257003e-04 -1.8681485562883258e-03 4.3392719934603921e-04 7.6377496072111140e-03 5.0786742880865434e-04 -2.3920468882566070e-04 -3.0641860260571807e-04 1.7766949123999799e-04 2.3635561709770789e-04 2.3117628337091770e-04 -2.8380610858851313e-04 -3.8214026909569061e-04 9.2856907611503633e-06 -1.1766039067104897e-03 -3.6497780052986289e-03 -8.0452142282662949e-04 -6.3989419799698188e-04 -2.8823986554443043e-04 2.7872178778748542e-02 1.4291852139619934e-04 -8.1822906028013349e-03 2.1584069197164539e-03 2.5240682179646728e-02 -1.1631078198603637e-05 6.2602002362117113e-04 -3.6867846224412082e-03 -7.5554677052227896e-04 3.1249794152798482e-04 7.4544762290651347e-05 9.1799057873932733e-04 5.2871745721853923e-04 -9.5172631581540764e-04 2.0366044901401871e-03 1.0277147292416623e-04 1.1523339026915970e-03 -1.7518125975941306e-04 2.5400823596027141e-04 3.9617170889138945e-03 -6.4597227305362276e-04 -6.7916365745997577e-04 3.9979979697500032e-04 -7.2115621292110294e-03 7.9180678751756065e-05 3.7118977140755856e-04 -2.2541063895997748e-04 4.5004999668337629e-04 -8.0748604348481300e-05 -4.8289692751642019e-05 -8.6620553660948449e-05 -4.9782655083625209e-04 5.5207591458625489e-04 2.2376152608854991e-03 -5.7635630109590915e-04 -2.7186701637907720e-04 -4.4744387761080635e-04 -5.5214398557476823e-04 -2.6402505735113487e-02 2.2618494925603595e-03 1.0317675565077323e-03 -1.0237130244473531e-03 -1.8346931497094932e-03 -1.1384159583494192e-03 -2.2647876511308878e-04 1.2274001794484124e-02 -7.4206346567760168e-04 6.7324211220261179e-04 4.6565135623396244e-04 -2.7718627965588342e-04 -1.0634181336249479e-04 -1.7974846997162947e-03 -7.0556616580419451e-04 5.8168241417619771e-05 8.4821919774550610e-05 -3.2947820688773353e-04 6.5801873189953492e-05 1.0218005314240714e-02 -4.8329943610784197e-04 -3.2676376131889301e-04 5.3012878511707621e-04 5.4126480895354987e-03 5.2508773580948521e-04 4.6135628696532672e-04 -4.9467568290547659e-03 5.8357118442074600e-05 -1.0270870856322111e-04 -1.6339244668004177e-04 1.7693727973192507e-04 -5.8233421634290615e-05 3.5921396464874873e-04 -1.2697219771914056e-03 -2.4601141112373269e-04 -2.0935499307519166e-04 5.7606424568129220e-04 2.1249608776284512e-04 3.1727965365277479e-03 -9.0104687387405801e-05 -1.0110355566330630e-03 4.2041543974497551e-04 -6.6118822718241096e-04 1.3959429942521630e-04 -2.8564270511679396e-04 2.4364273213041687e-03 -5.3477862160647037e-05 -2.5031607494528109e-05 4.1740849397424158e-05 -2.9959342979535264e-04 1.1002965278458059e-03 2.0706394456607245e-04 -3.1189883334148405e-04 1.5486654506366698e-04 -2.6414676104489734e-04 -3.9763384257829576e-04 -1.2464081036693786e-04 4.3146932473610384e-03 -6.3007373167787073e-04 -3.5385769448012273e-04 -1.1419954177515409e-04 -7.2203293677002558e-03 -1.1419683137333398e-04 -1.7497049767895695e-04 2.7711428238548913e-03 1.5389595466697408e-04 8.7579728208049643e-05 3.7105039424957986e-05 -8.3080235282054565e-05 7.7165897571690022e-04 -7.1449875377874368e-05 -1.1945380711335177e-03 4.4684201525824795e-03 6.5534159010430812e-04 -7.8650489727824947e-04 -6.9208906450116559e-04 -1.0936904260024706e-02 -1.9485974164397102e-03 1.7304829416477626e-03 -6.1751736894825383e-04 -3.2667317815205557e-02 -1.2221803919366704e-03 -7.7083209704379330e-05 -5.3601460440968890e-03 1.2780078695445302e-03 -1.2661241292982522e-05 3.6502980152683493e-04 5.1399559419313214e-04 6.4986080110537511e-05 -5.0047990505730174e-04 -9.4743104636583336e-04 -4.1775183405017985e-03 -5.4582159960195309e-04 4.5737598626332211e-03 6.6389493949877440e-04 9.6309337134579780e-03 -1.7086522998910900e-04 -2.9557142450768281e-03 4.1868108324994086e-04 2.0440530085105507e-04 7.2407573017907304e-04 -2.0143782079156715e-04 -5.0306064683592385e-04 -4.1207092300246098e-03 1.3229581611650877e-03 -2.6390613633113302e-04 4.2681367865167021e-03 3.3881215407880621e-04 -2.4207145189291046e-03 -1.0748127442179462e-03 
      </Row>
      <Row Index="82">
        1.1157575052930999e-02 -4.8967394955094987e-03 2.8336335643284194e-03 -8.8726726642525980e-05 2.9221071291882965e-03 3.6566823912063300e-04 -9.9929550819511603e-02 -9.1882839587819846e-03 3.2780780342225261e-03 1.5341363677716657e-02 -2.2176029849721888e-03 3.0791369168886307e-03 -2.8487360887250013e-01 -4.2842965898192550e-03 -1.2318744806156384e-04 -2.1725483504954606e-04 4.1125982173448577e-04 1.0808150984040433e-02 -1.1438529993764227e-03 1.1668792585846077e-03 1.6676510280745627e-04 2.4862018577737066e-04 -4.9025328480254730e-03 2.0182013942622312e-03 -7.7020665981802905e-04 7.5937899728190095e-04 7.0149284334439050e-03 -5.3035239637705400e-04 -4.3732594716352935e-02 3.8338417669389066e-03 -9.5927927650207856e-04 3.5799656070288677e-01 -1.8725752270065568e-03 -5.5173988808449731e-04 5.6330901070683614e-05 -1.0400573358686840e-03 -8.2686280163390968e-04 -1.3591800786378339e-03 4.4260522040473482e-04 -3.3670246401260430e-03 2.0750287701390424e-05 2.5096372320242283e-03 1.0531133969044204e-03 4.1899070966253116e-03 -7.3040046041084494e-02 -5.0764143937440647e-03 -5.0592726993842208e-05 8.8345116225136522e-02 -3.1605206504388742e-04 -1.9177529991025732e-03 2.4155654094703038e-01 -2.2021800270278437e-03 -1.6527225061768736e-04 4.3534934671778103e-04 2.9895990600428690e-03 -3.3744564232263685e-03 1.0121128934152679e-03 -4.0800223371686428e-03 4.9152596211392901e-03 2.2524829660191259e-03 -2.1265252142019242e-03 -1.3737322403972740e-03 8.7332453723068450e-04 1.0837998849647779e-01 1.5671502322734898e-02 -3.2537243746399991e-03 -6.8443717272890225e-02 1.8307357716283229e-03 -3.6653606855727161e-03 -3.0027171958948884e-02 1.2146796813635955e-03 -1.1926413561495037e-03 8.7625608177131775e-04 1.5833782861380263e-03 4.9010793701846911e-03 1.9927300908868378e-03 -2.5571937335190142e-02 4.7450086936130509e-03 3.5958018806442338e-04 4.7003366920866929e-03 -1.4714195084033488e-03 1.4291852139289990e-04 1.7753231236824196e-01 -5.3263475121516635e-03 -8.6423748460751071e-04 4.3649382734173514e-02 -5.6934297811460644e-03 9.4202822419616177e-05 -1.4455103431922112e-01 3.6315503917853337e-03 7.8931648724731018e-04 -2.3926886340561171e-04 3.0792528998219758e-03 -2.1001782990553441e-02 -3.5236490599882542e-03 -8.0724393998650792e-04 -6.5626128825766279e-03 -6.3064070668456124e-03 3.4869515117883203e-03 -2.0953439692625885e-03 1.9203224383171104e-03 -5.0235729050014236e-02 -8.1839586069108357e-03 -3.6563651589327150e-03 -1.3020451170631109e-05 1.9259511011506950e-03 3.2077535119262052e-03 -2.5247653252287916e-01 -2.6759551972681335e-03 6.2001484681676895e-04 1.5899885098187593e-04 -3.4167839185641233e-04 2.6673699375997758e-03 -1.7643223361222021e-03 -1.5607042722427522e-03 -8.1470673638422975e-05 -1.4769821805542434e-03 -3.0723892211476892e-04 6.1162591425722003e-04 -3.0275797189430187e-03 -5.9497527629285875e-03 -5.1470267409022743e-03 -1.5634235118715339e-03 3.0775131131782762e-03 1.8871786620842631e-04 1.4880310933364739e-03 -1.3022836241730840e-01 -5.2955760791338559e-04 -4.2049900643331998e-06 6.2899669620697374e-05 6.3479389488143743e-05 -2.5633400358600067e-03 -2.5048500724222933e-04 -3.9961064216487499e-03 2.9454387502619839e-03 2.6203335726383164e-04 -1.9042609888499412e-03 2.1607428500347381e-03 1.2473036629313894e-03 3.2942224802475009e-02 1.1419590587198322e-02 -7.8345117310453169e-04 -2.7154160105331573e-02 1.8026572714377530e-03 4.3851006114205135e-03 1.7756743990555890e-01 1.1853079347055753e-03 -1.7733928505912636e-04 -1.5163956037651937e-04 -1.0547798209253067e-03 -6.2780887563332246e-04 7.6127871413710882e-05 -2.4207770298492193e-03 2.2645725520606405e-03 6.1384776453457350e-04 -1.8760974503438266e-03 -4.8528265203107157e-04 -7.7126713564776989e-05 5.5671494216160355e-02 7.0231536883704759e-03 -6.0526327973286619e-04 -2.1108250407879836e-02 3.7435490371215772e-03 -3.8270391585578344e-03 -6.8436208895050754e-02 2.4303302308526595e-03 -1.4806495095892876e-04 1.1084779013684209e-04 7.1610626324441692e-04 1.7706424187089453e-03 6.6168416217582404e-04 1.3202375070124894e-03 -8.5113905782769066e-04 6.3439745463835569e-04 3.4758478914284942e-03 -9.5573060768881584e-04 1.4749873431188693e-03 7.2179771274155733e-03 -1.5449861267832540e-03 7.9270290422994889e-04 -6.7202679533382256e-02 -1.1013864418971387e-03 -2.4620535599790133e-03 -5.9389258975006309e-01 3.2151175887122933e-04 7.8252026024669841e-05 2.4700337708507864e-05 7.3521367123476978e-04 -4.2573169404880318e-03 -1.1036046296146081e-03 1.6489019567368840e-02 -3.6227995780263887e-02 -1.1441007312751642e-02 2.9076926465459469e-02 -7.3327786246473762e-03 9.0745128661155056e-03 -1.7124014776138055e-01 -6.7169418307253953e-02 4.1530671542573906e-03 1.8789799004258018e-01 -1.4273928155554706e-02 4.2880950938075854e-03 -2.5223268394933918e-01 -1.3403004997932452e-02 4.7660575643156504e-03 -2.3203259258002722e-04 2.7313727182452776e-03 -7.5060726046574863e-03 -1.2115762450833371e-02 -3.0131517371917438e-03 3.7683651653959635e-03 4.7207823870412183e-03 -1.9719070962829106e-02 -1.9731653140029823e-03 1.8280739907186015e-03 -1.2833533839562733e-01 -9.4835309738364182e-03 -2.6980462315236023e-03 3.0128244278634989e-03 1.8480318403510894e-02 -3.9751155220858550e-03 3.1599705899935115e-01 1.3519440320858639e-02 -4.3671352963140161e-03 -1.0134068142036660e-03 -7.2589796101244983e-03 -2.4940781772193241e-03 6.4007267594594049e-03 -1.9360763796011352e-01 
      </Row>
      <Row Index="83">
        -1.4061000115042382e-02 -2.9298769463147543e-02 -6.8845135400610324e-03 -3.8376492565441647e-03 -1.7034981343774177e-02 4.6884480008413795e-03 5.9437764037806491e-03 -3.5354940446624733e-01 2.1641047585047538e-03 2.8215935094166866e-05 -2.5452675344868692e-03 -5.8645193496931203e-03 -7.3751416943475867e-02 3.4679221614316441e-02 -2.4002721591656617e-04 3.8814249009137499e-04 -2.4003085714188145e-03 8.4023077280853797e-03 6.6002183651698923e-03 -1.4718984554804804e-02 3.2457500496698967e-02 1.2513956522987590e-03 -5.9237025678457672e-04 2.9625586179936603e-03 7.8511302762826474e-04 1.5873482564394414e-03 -2.0817573854065927e-01 -1.8576450972029868e-05 1.2532263112896058e-01 -7.0143373790304830e-03 -1.5893913486636824e-02 4.2655700274920605e-02 2.0811350462868479e-02 -9.5009933881857675e-04 -1.6904976369692959e-03 -4.1308679480898201e-03 -3.5274329189927345e-02 1.2778287185794795e-02 -5.0507359771125859e-03 -4.1919527369257678e-02 -1.8491946558112787e-03 1.5630123592140222e-03 9.7427014546436208e-04 -7.6791054768549083e-03 6.4820783639325530e-03 -1.8822242709751463e-01 1.8137789696986151e-03 2.7460833466715684e-02 1.2710563279026803e-03 5.6968737951272885e-03 6.5117563291316571e-02 1.7500451971535533e-02 1.8367863335440049e-03 -3.6459604972549978e-03 -3.8369548687924721e-02 -2.8233138958966564e-03 -8.4253249530311242e-03 1.6922777782640175e-02 -2.4969771705634330e-02 -6.7193207147865641e-04 1.0292766741124559e-02 1.6547173451125996e-02 -6.6570632391669219e-03 1.9061484088135905e-03 6.0496220582327287e-03 -6.8040256437718050e-04 1.6839610059645693e-01 -6.5922971051339237e-04 2.9635923438801476e-03 -3.4768094093635682e-02 1.4614936442980335e-02 1.6855459356265512e-03 -6.6647647949903271e-03 -3.9878081598577197e-03 4.3715796011966068e-03 3.2308207391536364e-03 8.0740433819284085e-02 -2.0130209569397706e-02 -6.3631609091613917e-03 -1.4342959247507836e-02 -9.9002633868929824e-03 -8.1822906028014286e-03 -5.3263475122481418e-03 9.2484120878491893e-01 -3.9482126313088450e-03 -1.9901469153377604e-01 3.8916351805770022e-03 4.9429800761919898e-03 2.4427009076049444e-02 -2.4644264271369072e-02 2.3101498494011025e-03 2.4082827256153294e-03 -4.3326965708364272e-03 6.6996829749834119e-03 -1.6621216214488532e-03 -1.4001521708750186e-02 7.5014757015295763e-03 8.4628300633491776e-03 5.3329199373575937e-03 5.9720083536942484e-03 -2.3432498879591519e-03 3.1679050571929161e-03 -1.2202161144493691e-02 -6.0852180300254022e-05 -1.1346014380402973e-01 -1.0219744575113788e-04 -2.4748661458972527e-03 -4.4206763699493890e-02 1.7009386015211846e-03 -3.5536443127634986e-04 -4.2789705070611433e-04 -1.5243455631577646e-03 -4.8592858328816765e-03 1.0976332534754036e-03 1.0431059051244418e-02 6.3528230386177276e-03 2.6205805225168188e-03 -2.9301104214493655e-03 -6.2132603166164075e-03 9.6981898745177094e-03 -4.0186408301974424e-03 1.0723602919639438e-01 -9.7561098990737657e-04 6.3144089611290699e-02 2.6833092616024724e-03 -1.6248591977525983e-04 9.3065250724227999e-03 -1.0226105994058030e-02 3.5013118218965578e-04 -3.3119776039834681e-04 -7.1260801988863587e-04 5.3262230082489204e-03 -1.4787498509669650e-03 -3.1475943739747714e-04 -1.9747811591759073e-02 -1.6124614281607342e-03 9.2248619986829098e-03 4.4411153562780789e-03 -2.6547646757181676e-03 6.2943444673515883e-03 -1.3039186373710082e-01 8.5300067332651696e-04 5.1433304055712906e-02 3.2594487794197972e-03 -4.3631310712547271e-03 2.3667137540002159e-02 1.2194928852148150e-02 -6.5415647622226944e-04 -2.4644724573090286e-04 5.3610732113160316e-03 -3.8870180069260013e-03 3.0275452315927658e-03 -9.7359245996262445e-03 7.8853846997569924e-03 -2.3404089290637127e-03 -9.6382461983991474e-03 -6.0759471848044200e-03 -6.8366232923285780e-04 1.6660082337896509e-03 1.2157400802068730e-01 1.0088547743226225e-03 -5.8179417177547960e-02 1.0251156210321024e-02 9.9615040412369821e-03 9.4032260242755683e-03 -1.0535443301868452e-02 9.3547055531070637e-04 8.3818539461136266e-04 -6.2451231955280174e-03 1.0907965126416785e-02 -1.3274453365510475e-03 -1.1641582420655550e-02 -9.1057186841656951e-03 -3.1889970335463847e-03 2.2704888042587353e-03 5.2197671936138898e-03 -4.3678951852777213e-04 -8.0276325775713742e-04 -5.4039174533555166e-03 1.2018943696175343e-03 -3.0193321914664806e-01 1.1198599091805355e-03 3.9213980799946589e-03 -1.1045926786802340e-01 2.9960562445199399e-03 2.3759496011191509e-04 1.0994709554878176e-04 -3.2419090461345327e-03 2.9189657948497129e-03 6.1124566646081260e-04 -7.2384581365594891e-03 -5.6087000350228532e-02 1.9114293338415907e-03 7.2589839331647921e-04 -2.6010562923265316e-02 6.7728164487380459e-03 -1.9203002304372680e-03 -2.3346582662081214e-01 8.1396251609590058e-03 -7.6877974902051704e-01 -6.1655310346920705e-03 1.9606293660709345e-02 3.3089755860510550e-02 3.6433339675885454e-02 1.2795082259028498e-03 6.4666948804844044e-03 -4.3151436428681220e-03 2.5348356752441608e-02 1.8080878570211644e-03 8.6235986120396513e-03 -1.5477511112725822e-01 -7.3579598412774712e-03 -7.0687209100736989e-02 8.1845360218170595e-03 -4.3187151431350471e-03 -2.6877041760722392e-03 4.1272783301648169e-01 -2.4132633712362975e-03 2.7194036050606340e-02 3.7686765509409123e-02 5.8473977635883859e-03 3.3586196164326898e-02 -1.3705110775172247e-01 7.0206901576220018e-03 1.1072691695022920e-02 1.0729179524756796e-01 -2.3715289534125914e-03 -5.0910267802850073e-02 -1.6490150058845268e-01 
      </Row>
      <Row Index="84">
        -8.8930713196560054e-05 1.9795815386759600e-05 6.6501304247736761e-03 2.3884557568907351e-04 -1.4127029532146832e-04 -1.9712922649711901e-04 2.5638900124095019e-03 8.1521011229099532e-04 -7.9382854638986398e-03 7.6729241587097929e-03 1.5522706011980624e-04 4.6950407131259291e-04 3.3702221905680396e-03 2.4022729980972319e-04 2.6833601007974692e-04 3.1631651662844057e-05 -2.8105007466970892e-04 -2.1437505387762491e-03 -6.7869015212255850e-05 -5.8916623438023258e-04 1.1397729533112032e-03 -1.6791280454177887e-03 9.6160230643531266e-05 2.3397826538156322e-04 -8.3564733607137832e-04 -8.5391026518920939e-04 -8.7875212512538228e-05 -4.4786733108595142e-03 -2.6649408643558831e-03 -6.6488618505669388e-05 -5.9930686245104024e-04 -1.2660470759642273e-03 6.3015457770173818e-04 -9.7458451006934952e-05 -7.7724593331985909e-05 8.3123703983737919e-05 1.8851624800248819e-03 1.1765689224625046e-03 2.9162133723763216e-03 1.3934205725410007e-04 3.9564571116123496e-03 3.5631536604847284e-04 5.1352490565564034e-05 2.5198429593034557e-04 1.5262956358729832e-03 2.8093128791431780e-03 6.0068116595782262e-03 6.1552006655614389e-03 1.7387435064722008e-03 2.3654442797136493e-04 2.2069199346548274e-03 4.1726575530604253e-04 2.8508331633105358e-04 3.2430109176972261e-04 3.5582702101531576e-06 -2.3300456598965291e-04 -8.6531688079552536e-04 9.8718074947794221e-04 -4.1619667032120563e-04 1.8569533989993068e-03 8.7381484558118373e-04 -1.3401821426712625e-04 3.9603778430046541e-04 -3.1425982557733512e-03 1.8137981965213722e-03 1.3314242471233112e-02 8.7928863169941529e-03 1.2401652642242949e-03 7.0141255054414434e-04 8.7227510334209057e-04 3.1615437381484022e-04 6.4262199520080925e-04 3.2746826295575356e-04 -4.2269609762557231e-04 -1.2366581226935514e-03 -2.0310877173966048e-04 -8.1780999854066949e-04 -1.9603224558736032e-03 -6.9345380672429947e-03 -6.8697763562178445e-04 3.5110496110644235e-04 2.1584069197161460e-03 -8.6423748461288488e-04 -3.9482126312986449e-03 2.8744504620676389e-02 -5.9391788510329002e-03 1.3290298657098881e-03 -1.1171291999154810e-03 1.4149650508243905e-04 -6.4707310651544421e-04 -1.0944742833072108e-05 6.8692466233120746e-04 4.6985423085952531e-04 -2.0175568125309525e-04 -1.7880170703551031e-03 4.6395157159060951e-03 4.6252387314217928e-04 -7.3846160084820277e-03 3.1060180082291653e-06 1.7125123851632700e-04 1.0283226258159597e-04 1.9446549326525980e-04 3.2930399322310361e-03 9.5990864919238174e-03 -6.1015953293569458e-04 1.4716380190859699e-03 2.5346334107323931e-04 9.4170740168170730e-03 4.5909516435222852e-04 -4.7462300418917979e-04 -7.3558800069059631e-05 -3.2485797472582068e-04 -5.1249382178361093e-04 1.3881088452963371e-03 2.7201307115633233e-03 -5.3486246990467690e-04 5.9582518577037079e-05 1.5263159113571462e-04 1.8188914998470355e-04 2.6045756894932474e-04 -5.6575806202649286e-04 7.9288933442053745e-04 5.8980299934169797e-03 -1.3995216762644480e-03 4.7530881885171508e-04 9.4486255052038913e-05 4.5671346804040391e-03 1.0665501606238727e-04 -9.1102601907679646e-05 2.7778778608101608e-05 -2.6863246825305724e-04 1.2445258743635015e-03 7.2303667671476043e-04 -4.8735969579634039e-04 3.3654397673347884e-04 1.2777301638051089e-03 3.2967183187103188e-04 7.0486347968694944e-05 2.3595684039296643e-04 -1.1026291356768221e-03 2.0044980657218177e-03 3.6216664651390227e-03 5.8899406534660102e-03 8.1124492272779633e-05 -6.6444216762101462e-04 -2.0529270627682727e-03 2.1191469551010221e-04 -4.8323224658644245e-05 7.3484418710580547e-05 -3.0586924795384572e-04 7.7147041610531536e-04 3.1683938905517113e-04 2.2303145641217048e-03 9.1528619814107816e-05 4.2006840526667179e-04 6.0255483747045490e-04 -2.3110627916960585e-04 2.9609286558778111e-04 1.7527388615748169e-04 -2.7110984851069775e-04 5.5865654258027315e-03 3.0828956869080049e-03 -3.8767767984150840e-04 7.6356863534029172e-04 2.9172076657872914e-03 4.3832498208197187e-04 1.5326829092825682e-04 2.6434283075364674e-04 -3.1134679985626162e-04 1.0273308662511610e-03 2.1929389655186288e-04 2.5830066782609514e-03 -8.2278449891660900e-05 1.4116903244146494e-03 5.0168410734334847e-05 3.2010683963556541e-05 2.3504810481842013e-04 8.6178999999114454e-04 1.7226232788532275e-04 2.2760489069608590e-03 3.5499166300059486e-03 1.2948101805557779e-04 5.3941332302114855e-04 8.3503082762886871e-03 -2.0657837487856505e-05 1.2756087250919692e-04 6.8687892153058923e-05 -6.1169325165981865e-05 1.8142596982660469e-03 -5.0100486682447352e-05 5.6055122560610057e-03 1.6984538899017000e-04 -6.3630425666259312e-03 -3.7212592720876903e-04 1.7699626054557026e-05 1.3895540457756761e-03 7.0306728153168756e-03 4.0490312945827035e-03 5.3466010790763239e-03 5.8856150715664128e-03 -1.9830000740283030e-04 2.9074052122903728e-03 8.2395417588503814e-03 -6.3889264871781933e-04 -9.3774909204080801e-04 8.0603605407400183e-05 -2.8062885050161618e-04 2.4396682820828253e-03 1.8650964126283162e-03 -4.0767305165464660e-04 -3.5689693379294530e-03 9.4204071726058051e-03 6.7055497616628395e-04 -1.0708468507016500e-04 8.7290516812885631e-05 3.7709187754627407e-03 -3.0806780560498834e-03 1.1343224876950227e-02 -6.4741114037669093e-04 -2.7540703413633963e-03 8.7350092298769857e-04 -1.8796775857176078e-03 -8.2555819612551568e-03 2.9330365605813933e-03 -4.3960180928628422e-05 -5.8328866566465659e-04 7.9959393502624840e-04 -2.5235612908295767e-03 -4.5106143655877342e-03 
      </Row>
      <Row Index="85">
        -1.6673295180941472e-01 9.9439799761605434e-03 1.4796134909604408e-02 -1.3893657982829929e-02 3.5691204994588464e-02 -9.8257800292058019e-03 -5.9809145754440018e-04 1.1462837039770840e-01 8.0909505690324179e-03 -2.5954195566402660e-01 -3.3307628167757633e-02 -9.1466784889805419e-03 1.3589771876875645e+00 1.3211961589027618e-03 6.1507624492304624e-04 2.0160174658048957e-03 -4.1744469409953425e-05 -9.0711676319009393e-03 -5.7887008718330302e-03 7.0187440917269583e-02 4.7566106590246626e-03 -2.3793562666951651e-03 -9.1581262108309316e-03 2.0831533025195359e-02 5.4931439983672004e-03 -4.2093424906521570e-02 7.9584065843819926e-02 3.8573923045389646e-03 -8.9060569097016273e-01 -1.1723790728517224e-03 -1.3919342484539854e-02 -1.1007726136637075e+00 6.1260501716880621e-04 4.0146794135206831e-05 2.2442562975015790e-03 5.8317591020898372e-03 2.3436145818405585e-02 -2.1137703741573310e-03 -2.2719420204553487e-01 -1.3065568027533656e-02 5.1433914192399732e-03 -4.8653769789452073e-03 5.0646877751479025e-03 3.1556675746302498e-02 3.0915162702517929e-02 3.3914797297839888e-02 2.7851242334364645e-04 -9.6389046299754710e-01 1.0470671037671360e-02 4.2396375354591953e-03 -3.0050990021371149e-01 -1.1198642481194801e-02 -7.6612502351802725e-04 8.6469694712329459e-04 -1.6706912750443337e-02 9.1105124566837059e-04 4.8162342089910215e-03 -2.6537676314401715e-01 -6.9301066899280991e-03 -2.3551349951688449e-03 -9.9199747765855717e-03 7.2767739253132291e-03 2.9046132402245267e-02 -4.5677739382123939e-02 -6.0788668099613918e-03 -3.7299300630144749e-03 1.3979287148525970e+00 1.0057405020169063e-02 4.8111009008177108e-03 1.1732964333100426e-01 2.2048601331391389e-03 1.8911380094601780e-03 -7.8950218735623912e-04 -1.1081507127984447e-02 -4.7163572401887066e-04 1.2865769452787279e-03 -1.2055482287443908e-01 -7.9493899633988896e-03 -3.5886890533747273e-03 -8.0757195571932172e-03 6.0800950369968021e-03 2.5240682179655166e-02 4.3649382734446851e-02 -1.9901469153380447e-01 -5.9391788510456678e-03 6.3251487391729029e+00 -1.0685535829741521e-02 6.7055180135836903e-03 1.8837026383604893e-01 3.7104626314884474e-02 -1.8670785824486114e-03 -1.0685718675383926e-03 -1.0484255676579589e-02 5.6905356875081026e-05 -4.1641228217286219e-03 3.3083362483077716e-01 3.6655518119605773e-03 -2.4905390686833343e-02 -5.9557836938537688e-03 -2.5440165535336153e-03 1.1465174248172259e-02 -2.3840927598005691e-02 2.2082417184275109e-02 -2.0784262259017791e-02 -6.2259117847731271e-01 -6.5223364376949880e-03 -6.2259774209045826e-03 6.2684774422403322e-01 1.1774806299330594e-02 1.3580693192177156e-03 2.0692980676400951e-03 3.8340345181764948e-03 6.4025267852317672e-03 2.7304398065163210e-03 1.0595824090936645e-01 -1.6730388047494160e-02 -1.6062055251497703e-03 2.3065787302649042e-03 -1.8651497422989237e-03 -5.6756984496323964e-02 2.7081118891621694e-02 -5.2228747146522057e-02 -7.0926674888910479e-03 -3.5387693024999578e-01 2.0187810460829569e-02 9.5907749643962311e-03 4.1163174125018287e-01 -1.7488412242655085e-02 4.2613217602138244e-04 -7.6580055250630163e-04 -8.3079393402813520e-03 -4.2441582612520179e-03 -6.4791242738309052e-03 -2.7224958440073743e-01 1.6230349941533433e-02 -8.3917582580354880e-03 -2.3802394619791565e-03 3.6331219259873484e-03 2.4903906777307284e-02 -2.9258725697005369e-02 5.0701687369795391e-02 -2.3201529992965758e-03 5.4249586064224120e-01 8.5473962486255269e-03 -1.3349961218941848e-02 -6.7317094820316470e-01 8.4835012124243481e-03 1.9368726122650799e-03 6.7972786971705812e-04 2.3891145300350162e-03 1.0853022694012546e-02 3.8558342042792730e-03 5.2333603271669915e-02 -8.5307582994956360e-03 1.6164347062431333e-03 -2.0051588989392979e-03 5.1718300238268178e-03 8.0361439948355706e-03 -1.7892082271496842e-02 -2.9834856467370940e-02 -8.1320466531652202e-04 1.1777420689441245e+00 4.3623589639806448e-02 1.2963780647057499e-02 1.7940228319963580e-01 -6.1199315976791062e-04 -1.5925243710237253e-03 6.7195252996893329e-04 -3.8853247533933155e-03 -4.5217118700335845e-03 5.5471357021419365e-03 7.3053901044918712e-02 3.8949963952827092e-02 -4.0606816298521427e-03 -7.8335755607289656e-03 2.6872487781173394e-03 1.1359662020880143e-03 -7.1244848785098028e-02 5.2236528421832115e-02 -1.3512113958662681e-02 8.9290921385442923e-01 -4.2698942363829595e-02 -1.6900657663188184e-02 1.5490767657845890e+00 4.0620205321102477e-02 2.4372692037866323e-03 3.2494831957545489e-03 1.3988271466666421e-02 1.3648489842701728e-02 2.9544270041685361e-03 -3.4535854307987779e-01 1.1449430430620816e-01 -2.2325670699119192e-02 -1.5129425999815205e-02 -1.0632750711636219e-02 -4.7277652595274590e-02 -1.0755104103839386e-01 3.0116109428007415e-01 -5.3005508722779239e-02 -1.3407648773296150e+00 -1.6091268029512265e-01 -3.3003986428400807e-02 1.1602066285945298e+00 9.9646351087943369e-02 7.2245165096299080e-04 1.5872221247860703e-02 5.0645948550663296e-02 7.7705741129909800e-03 -1.4991188280216929e-02 -2.0690073001594245e-01 1.9161962157038387e-03 2.0293829504229269e-02 4.4396202678282856e-03 -8.9527852640967978e-03 2.5092510158497644e-02 8.4171527982154645e-02 -1.0368341005123549e-01 -1.1760042908548915e-02 -7.9144513906568056e-02 2.2119878807865023e-01 1.2814133832465324e-02 -7.6013582269796076e-01 -2.2561768376895813e-02 -1.4538388306137573e-03 4.9534166235154281e-03 1.1560678260960921e-02 3.9940784728909919e-03 1.3609499510268335e-02 7.5599194899065048e-01 
      </Row>
      <Row Index="86">
        -9.2525866547174280e-04 6.4891667896295696e-04 -1.0033494612336959e-03 7.2778522480995331e-04 4.1995066369689572e-04 5.7883710347398932e-05 7.8196280832347823e-05 -8.3701697257413960e-05 5.0776401244452367e-05 -1.1560182395027152e-02 -1.3224682161729444e-02 4.5771789056659948e-04 7.9837594278957535e-03 -7.6935522937795608e-04 -2.0985826103790749e-04 2.8366102088644334e-05 -7.4773216076866864e-04 1.9485821461396400e-03 6.6678568296926234e-04 4.6892901032497686e-03 3.1819968940148893e-03 2.0253086952506764e-04 8.9519995986643954e-04 4.6970268704342802e-04 -6.2746124429597511e-06 5.2792971124412027e-03 -1.2907252884282281e-03 5.0812061951802014e-04 9.0394035275478263e-03 1.9572860931506460e-03 -8.3838182564032609e-05 -4.4912946539925613e-03 4.3442291028236530e-03 1.7100549163527102e-04 6.5475570746043911e-05 -1.3776231516017485e-04 -7.9678993473566301e-04 9.3747943924370539e-04 -6.2503803343703021e-03 -1.3252260961803784e-03 -3.6495300919048550e-04 -3.7286353776351967e-04 -6.5339235820258482e-05 3.5973736362568225e-04 2.3222127304139278e-04 -1.8106644699899740e-05 -4.9700422553122705e-04 5.5201879541447729e-03 -3.5816290085636483e-03 7.7978051563824813e-04 -2.6562111043650916e-03 8.6600325185847565e-04 -2.8664996418685355e-04 -2.0206719010735521e-04 -2.4023772977783183e-03 -1.2638753140418943e-03 -9.4889461525811489e-04 -6.5207675635343409e-03 -1.1440017202924936e-03 -4.5722212633499950e-04 -1.1619415663690113e-03 5.5799237168395466e-04 -1.8429707121333854e-04 2.0549084239857417e-03 -1.1424345665065720e-03 -3.0233155254949691e-04 1.9972008909663330e-04 8.4298767545317541e-03 1.5777946823259618e-04 -2.4950204738942716e-03 2.5324097676345156e-03 -1.9795941317491013e-04 -2.1795276928258771e-04 -5.3358911287424305e-04 1.3663497885189509e-03 -6.6990934619687867e-04 -2.8774634691605128e-03 -7.5629935292436529e-03 -2.9389585388592612e-04 -2.1061289895387553e-04 -4.9605100756752729e-04 -1.1631078198974867e-05 -5.6934297811567867e-03 3.8916351805781124e-03 1.3290298657097910e-03 -1.0685535829689341e-02 2.7134089554731088e-02 -1.0331374475182438e-03 -2.0227325137305296e-03 4.6244622653912187e-03 -3.5360856334073001e-05 -1.1451554670229448e-04 2.8143957839221051e-04 -1.9944087094667731e-03 -9.6688383116524945e-04 1.0617265665483724e-02 1.1533885736872418e-03 3.3357923200002249e-03 6.7022088676922274e-04 2.4905549581220572e-05 2.2375670996449700e-04 3.1183887491856950e-03 1.1216684638227755e-04 4.1158881963926776e-04 8.3363955064283402e-03 8.8121873635034244e-03 -4.3026477420313246e-04 6.4032202364371349e-03 3.3308531042774629e-03 1.0528968183487822e-04 -4.0361184524056884e-05 5.9539399285724547e-04 9.9795701586512329e-04 -3.3321382481435664e-04 -1.1862677129199084e-03 -5.4189658056341336e-04 6.9210564805525805e-04 3.9237722010215955e-04 3.0201794085672989e-04 -6.1180352680238921e-04 -2.7641213077895903e-04 8.4166966529463391e-04 -4.1328770418725281e-04 1.7270126073345882e-02 1.1554769561167035e-03 -8.8018426998087316e-05 4.0517113393919169e-03 -2.4513294612021674e-04 -1.1532551874503586e-05 -3.9832504436575038e-05 3.0804854236667046e-04 -5.8827410473410308e-04 1.3220098214734854e-04 -6.3626525222678348e-03 8.5563233701863484e-04 -9.8171859470551912e-04 7.8692716533218553e-05 -9.0284849004053060e-05 1.3252906470487605e-04 1.9179401078464296e-03 -2.0070988645284975e-03 2.3954638802009068e-04 3.8792486133849887e-03 6.9130450866698931e-03 -6.9733280000981756e-04 -3.2351354826976042e-03 2.2444277263266501e-03 1.5092563027154876e-04 -1.9853742947487004e-05 6.6943675874838447e-04 1.2895875913561047e-05 -1.7368210126121988e-04 -3.8244164277112525e-03 2.0022755935462573e-03 -1.6282404249169089e-03 1.6882075757027302e-03 -3.0677633821458300e-04 1.3177978562983576e-04 4.2090164521568080e-03 -3.1451865084963573e-03 1.9279052357964476e-03 3.8327573954512459e-02 2.5996727654899521e-02 -9.8608919446664493e-04 -5.3270118805555100e-03 6.9481788447281426e-03 3.7846908676286792e-04 6.5663966067139572e-05 1.7546878816323188e-03 9.2132137177995677e-04 -7.4730507402695490e-04 8.2569344974447664e-03 -3.3182195581815818e-04 -6.9687424270630394e-04 -3.3791962927127777e-04 -4.5206614663968341e-04 1.6896159624414262e-04 1.4194420155677449e-04 1.3711562877902992e-04 6.0378212662823099e-05 -2.0568837387256324e-02 5.6908921578790773e-03 -1.0649274039060131e-04 8.8914774348802378e-03 1.8903320090068213e-03 -9.1383631184020417e-05 -3.2482224145489243e-05 -1.0624959845299868e-04 -7.3623817780223318e-04 -3.7363162831487487e-04 2.7062350002588359e-03 4.2234795517309869e-03 3.8537396541599572e-03 -4.0654551357928448e-04 -1.1553099732634791e-03 9.6277406336309646e-04 1.5270025188618488e-03 1.3639912249209483e-03 6.8392803046508086e-04 -1.3510461181124013e-02 -3.2469165741470761e-02 4.7528612111751435e-04 1.7032557514525593e-02 2.8568818106737438e-03 -4.5256246802902493e-04 4.0657150179425902e-05 3.7392811887118101e-04 -1.5070703122584024e-03 1.4043511751738813e-04 -5.1828517557378009e-03 -1.1040437062837957e-02 -3.1394335372230391e-03 7.3612141751879662e-03 -1.4467348084384684e-04 2.2429486436932361e-04 -1.5070113573973348e-03 2.9400297901853653e-03 -3.4181104228699251e-04 2.7939839478318962e-03 1.2569954087796797e-01 4.4800276036324055e-04 -9.0195415717756952e-03 -5.3969977513628094e-02 -1.5918602992242650e-03 3.6600222492923315e-04 5.6599615933506254e-03 -6.8639905363128580e-04 -3.3884591869525666e-03 7.7533082962003797e-03 
      </Row>
      <Row Index="87">
        9.0360796318072339e-04 -4.4341960337592476e-04 7.8030058790430623e-04 4.5737491150972087e-04 -3.3459768707894276e-03 -2.8897130064182617e-04 7.1937164127393923e-04 -1.0671284087134117e-03 1.0122398355678214e-03 -3.0663174801006665e-03 2.6653287002833246e-04 -2.0711274326324358e-02 -5.4928887787890623e-03 -1.6972517946573168e-04 -8.1646265698160844e-05 -3.5801813940442950e-05 -3.9065284846926014e-03 1.4492447032510099e-03 4.6999641598330019e-04 6.2541741733578293e-03 1.3999062556428171e-03 -3.8229648001952832e-04 -2.8277813298750927e-04 -1.8900677992049753e-03 -8.1261334956443665e-05 2.0127735674350250e-04 -7.1557830516073492e-04 1.2053440619370220e-04 4.3986953191793576e-03 9.9582731058298068e-05 -1.6083934166770064e-02 8.9110821501989790e-03 -1.1479199083717567e-04 -7.6943060651592579e-05 8.3380254441958040e-05 -3.4879320495857478e-03 -9.0604015093700974e-04 -9.7413965253301954e-04 -2.1884296863869390e-03 -4.1889081539426859e-04 7.3771914971692415e-05 -4.6498874316493362e-04 -3.5972508360849337e-04 4.0446382899839844e-04 2.5984004349871581e-04 -1.0880906428839959e-03 -1.8259402351759185e-04 9.4089108936108445e-03 1.1708655329440614e-04 1.5128355488419676e-02 -1.8684338552716895e-03 9.5885242997862698e-04 4.4382157899494623e-04 2.6081712117067418e-04 -7.8557510486179094e-03 -8.7849012950292488e-04 1.1612745301757058e-03 -9.8206773359882371e-03 -3.6284113779075713e-04 -2.1186561447658452e-04 -6.1268648023064115e-04 3.2579465008819586e-04 4.4789426643563842e-04 -6.7063778476688513e-04 -1.0542565675929483e-03 -6.3505771765231395e-04 7.9600743101377880e-03 -5.4479427150358202e-04 3.5930544641194474e-02 7.3918241907868776e-03 1.3213191530537568e-03 4.9447814397403725e-04 1.0209582409717588e-04 8.3872161856406169e-04 7.8610810665022401e-04 2.9514911975496785e-04 -3.3594645818237900e-03 -4.6313617766799153e-03 1.2637061660423360e-04 -2.5767222306892490e-04 1.0030219352069047e-03 6.2602002362032762e-04 9.4202822432387645e-05 4.9429800761691123e-03 -1.1171291999162447e-03 6.7055180135362491e-03 -1.0331374475175681e-03 5.9752246355342868e-02 2.5376047535893065e-02 1.2312500349613107e-03 8.2871013366147064e-04 3.0547344016868677e-04 1.9606022537721167e-03 2.1524528456952352e-04 2.6949503615619763e-05 1.3658193276004560e-02 -1.1279943142621347e-04 -1.4264007102155214e-03 -3.7094482553229943e-04 1.8245811159078182e-04 6.9677032748474070e-04 -3.5463646747659235e-05 1.0034038724284374e-03 -1.2231705450089960e-03 1.6106288446907091e-05 4.4457703767094257e-04 -4.5766525645435964e-03 -1.0329584150042259e-02 -8.5208668904029796e-05 -1.8223394781087800e-04 -1.4043715788189531e-05 -5.5849228844570878e-04 2.3386995117539826e-04 3.8236799364495998e-04 1.9529557916861950e-03 -1.3530417596883323e-03 -5.6701623169647108e-05 1.4722564727251709e-05 2.5142205824795714e-04 -1.2297975631630712e-03 1.3977918040387720e-04 2.9847335079158325e-03 9.0279677860706335e-05 -3.5078311096707893e-03 9.8839420472365586e-04 -2.1729026180078836e-02 -4.0202435345420007e-03 -1.1021245387572249e-03 1.1538492405498121e-04 1.9269309727000181e-04 -1.6161175981976592e-03 9.5524062207102967e-04 2.1022096545564306e-04 2.1060080951007336e-03 -3.2159761363352748e-03 5.0509346130958837e-04 3.1918496064369624e-05 3.2743117488372208e-04 6.4757285648185648e-04 9.9835907774574548e-04 2.9056645964204287e-03 7.9970058699608995e-04 -1.2647523559694670e-02 2.1992550915939943e-03 -5.6933266357644362e-02 -1.4064252182418358e-02 -2.2247426275937730e-03 5.5880684819397124e-04 5.5099227144507273e-04 -6.3435566173022928e-03 1.0618710741259266e-03 5.7384441481893246e-04 -1.7108182750820156e-03 6.3378268969711826e-04 3.1949525847039861e-04 3.9946058105725648e-05 -2.8566813712785355e-04 1.9214093278875459e-04 -2.9937920996414916e-04 -6.9872708818735640e-04 -3.0614511965422345e-04 3.2756836167256997e-03 1.2773015839068474e-04 2.2872031455200083e-02 6.4363738326118636e-03 3.9261939193517255e-04 3.4097084247368924e-05 -5.6579177384077223e-05 8.8952553231314360e-04 -6.5399217729578130e-05 -5.5254033590329543e-06 5.6554591366085108e-03 7.7727561793601227e-04 3.8363848463481096e-04 -3.1712404032309329e-04 2.7147139061212177e-04 1.9841030059292137e-04 -1.0257880371911891e-04 -1.1901078107362064e-03 -4.4435766500309842e-04 3.8492439668178832e-03 -6.5942274093697844e-04 2.3022345625387686e-02 -5.7202209785125468e-03 1.0308557086948034e-03 -6.9197385369149794e-06 -5.0412770102253185e-05 1.5477986110614239e-03 -1.9771755889200701e-03 -3.2663939990614258e-04 -1.0058347466985751e-03 9.1414765777908993e-03 -1.4265166157540581e-03 -1.1187545167673490e-03 -1.1693882383616971e-03 4.4763348379271836e-04 -2.2985340552277612e-03 -8.4026421061936286e-03 -3.7703215927662181e-03 1.6720849503802510e-02 -4.2487802963660469e-03 3.1547326446144469e-02 -1.5235905873119071e-02 7.1644998318177010e-03 -1.9813226879371298e-03 -1.1957456226830434e-03 1.1652701984977455e-02 -6.9127824650974268e-03 -8.9264692105949558e-04 -4.6630051926990490e-03 -7.4242327441277345e-03 1.3067941386707834e-03 2.0189812044637012e-03 1.2026027617087149e-03 6.6751529117703217e-04 1.9337581850004506e-05 3.3415818264897965e-03 -6.7502297363131354e-04 8.4798932487667586e-04 3.2489573912389963e-03 4.5379398985696109e-02 3.0912325927686390e-03 -2.7795925291656349e-03 8.9709999996334406e-04 -2.2428522501981426e-04 3.2900129497744304e-02 -1.5277345242714017e-04 2.5060427989216567e-03 -3.8110714720059939e-02 
      </Row>
      <Row Index="88">
        -1.5439355475845987e-01 -3.4732217730311992e-03 1.0902850673915054e-03 -1.5925601792375890e-03 -2.9567246329028694e-03 -5.2620651045253732e-04 1.6109737891622511e-01 -1.5613332578771063e-02 6.2852853584338675e-04 -3.4303855634334468e-03 2.3647947516856529e-03 -2.0674369506501478e-04 6.9218517350212778e+00 -6.4622309990689398e-03 -3.2809885496032365e-05 6.6707958625197373e-04 -4.5092485075485834e-03 8.2469155587959163e-03 7.2468742775284589e-03 2.5572256476019106e-01 1.2730113813018473e-02 -3.6743645309691431e-03 6.8837571460080658e-03 -1.2326345960929075e-03 5.2707844425228245e-03 8.9363957733864297e-02 1.0044817151505228e-02 6.2909824867105613e-03 -9.5962067180125388e-01 -1.7367763546921960e-03 -3.7466017466044832e-02 -1.0036874901450574e+01 -1.7963100299117104e-03 -1.1272515465616806e-03 -7.7742566291050252e-04 1.4375394225229765e-03 6.1964596252614967e-03 3.3545092868019211e-03 -8.9872092973614315e-02 2.7962554392287342e-03 -3.3492231653058369e-03 -2.2032107832141712e-03 -3.8524503629009388e-03 -1.9314130487668280e-02 1.8533972672624799e-01 -6.9868147177146577e-03 1.4278101098739171e-03 -3.5548145173748935e-01 -5.9313809913001322e-05 -1.0635578113337374e-02 -4.1549545833827324e+00 -3.7773873281703382e-03 2.2341683955318103e-03 -4.1416775292890673e-03 -1.0849112030206776e-02 5.0491065056963436e-03 -1.0675615702457897e-03 -2.2768390816943906e-01 -1.6825235167630126e-03 -3.6994358380568748e-03 -7.3684804845415286e-03 4.8424859733131598e-03 -1.4750218973550038e-02 -2.2633427644692183e-01 -4.4272267285023759e-03 6.1297675963345455e-04 3.7291327770310545e-01 -6.0134091165170997e-03 1.2694892174800465e-02 -9.7046399311966525e-01 -5.4399060638371912e-04 5.0820110532433030e-03 -3.2661578190005258e-03 -6.3060772499010653e-03 1.2103065356079412e-03 -5.2206592777790384e-03 -1.4281793675695553e-01 -1.1099282905192354e-02 -7.8003374945119219e-03 -2.1462837235297627e-03 -4.1943266264610202e-03 -3.6867846222858880e-03 -1.4455103431633987e-01 2.4427009075481010e-02 1.4149650493777699e-04 1.8837026383653210e-01 -2.0227325141206620e-03 2.5376047536452617e-02 8.1951811228436782e+00 -2.9263237152661078e-03 3.4485981989202941e-03 1.6193929366714599e-04 1.2993693850136268e-03 7.0659817712552808e-03 1.9892477943912468e-03 2.9540961883968020e-01 -7.8983049263910213e-03 1.0321852960643481e-02 -4.2650141679792218e-03 4.3243147812161049e-03 -8.1657401832515471e-03 7.3857332046874224e-02 -1.5146948433294541e-02 -3.8069728576230308e-03 -3.1327120997613483e-01 -3.2392319664076644e-03 -1.4459986706456587e-02 4.8387025691240471e+00 -3.0271522403205187e-03 -9.1451363866924297e-04 2.6069122086631662e-04 -1.7837733628558658e-04 1.7323430741081138e-02 -3.4991273278696475e-04 2.3964764530433058e-03 -5.0819976497065156e-03 8.7137898682285286e-03 -1.7720310850398344e-03 -3.1639132619109937e-04 2.9156672781748393e-02 -2.7654231193630217e-02 3.4170539658005279e-03 -4.7974148951891137e-03 8.3757750693803246e-01 2.3521976098351870e-03 1.7490068829373311e-02 2.0304790134745478e+00 2.0086106357902062e-03 -1.0893578962422564e-03 -9.6997100433071637e-04 -4.6392087268299111e-03 -2.3044590381225305e-02 -1.7369647801999122e-03 -7.4233336221638732e-02 8.2610660130733420e-03 -1.4179659013880844e-03 -3.3833242910227259e-04 -9.0134020410779245e-04 -1.0752907249769442e-02 -4.6618547330696487e-02 1.0093833872311837e-02 1.1333025250666430e-03 -4.1456045202552061e-01 1.3964769123962339e-03 -3.9113627880835488e-03 -4.5566738461284331e+00 2.7294645037353269e-03 1.5313834384113323e-05 -3.7409474418231728e-04 -2.3477960016444711e-03 -1.2508793655814790e-02 5.0663704473034757e-04 2.3084173355641724e-02 -2.3699532464840981e-03 3.3157557918123302e-03 -4.2918396617958356e-03 2.8188164988733888e-03 -5.8576769969741586e-03 -1.2959328459831840e-01 -2.7807107119315333e-03 -4.2660602610916079e-03 2.8636118586209625e-01 5.1687164404019409e-03 1.1427376611603909e-02 6.8177621289169110e-01 -2.2297568156942936e-03 -1.6030559995090328e-03 -6.0456580174417240e-04 -2.9343466504300336e-03 -2.6265408117410516e-02 -7.8880906691125574e-04 5.5295320498152722e-02 -1.6459620361759325e-02 7.4341808623700004e-03 -1.6438064257729458e-02 4.6158586182528634e-03 -1.9533909174972677e-02 -1.7290319085226519e-01 -2.3945543453474230e-02 -5.3875648312560580e-03 3.1984383328517288e-02 -1.5450668049453616e-04 2.2362954102425954e-02 1.1947923331822611e+01 -3.8117866540812555e-03 9.4289917870471300e-04 -9.6895239612933195e-04 -6.9287183127106858e-03 -9.1410377172919111e-03 -7.5168288034688918e-04 -4.4039154455082136e-01 -7.7552940290694400e-02 5.2863855506482385e-02 -6.6225567601542815e-02 1.3553017622600524e-02 -6.6099731235016279e-02 -4.3905624994846626e-03 -1.6023081081730212e-01 -3.0195202118506938e-02 1.0253333740955779e+00 1.1927953899630320e-02 5.1539740522972041e-02 1.3755515975042472e+01 -4.0863748596259561e-02 -1.0512731468144111e-02 1.2963110313718535e-03 -1.2624357103017070e-02 2.6429880182530133e-02 1.7419767210042555e-02 -1.6423031995527282e-01 -1.0768704187050709e-02 -8.2900654830185966e-03 3.1271806056460127e-02 3.2391621198184437e-03 -1.6321127911824426e-02 4.0992720863995724e-01 1.8902393442907076e-02 -3.7916639991328570e-03 1.1969988131393963e-01 1.3741942431953442e-02 6.6311860866856420e-03 -8.8065045308075991e+00 4.8876895820211430e-02 3.4299878503042391e-03 8.4496062101221403e-03 3.5966354584092641e-02 3.2279745423247487e-04 -1.5538882283093643e-02 8.2434868609692860e+00 
      </Row>
      <Row Index="89">
        5.3864397289359869e-04 -4.5373014764048241e-03 1.1883460282572783e-03 -2.4265506449541261e-03 -5.5921207981585210e-03 1.5426140191215003e-03 1.1334636253996200e-03 1.1587655555956774e-02 2.0927780785519948e-03 -5.8853568512815535e-03 2.8772217239730236e-03 8.2695115984423445e-04 6.3880862496223934e-03 6.1752854119277185e-03 5.0107259185198233e-05 -2.0527387003673483e-04 -5.3593676649326067e-04 -6.2070415842120511e-05 -6.4045767613835243e-04 1.0733547945811217e-03 -8.1547279693405736e-03 4.1787703835508005e-04 -2.2117604189654077e-04 -1.6249109956586183e-03 1.5153093319347950e-03 1.3043564382608785e-04 4.2523153052357980e-03 2.2789496527922479e-03 -3.5171238304810004e-03 6.2893833673075437e-03 1.4515039212801076e-03 1.0354095902815885e-03 5.9732576345939911e-03 -3.8748924980198983e-04 -1.6403453746691860e-04 -5.8629804841002346e-04 -1.0829634237862623e-03 1.4390899010009953e-03 -1.0394647651877642e-03 4.0782688046855919e-04 6.9057393860158696e-04 -1.7034640081636885e-04 -8.8269212258820437e-04 -2.6945678828969866e-03 3.5072445950315445e-05 9.7338719492168855e-03 -5.1988984623122306e-04 -5.3155556370951818e-03 1.5197792627226377e-03 -4.4239960919748023e-04 6.6419883054908979e-03 3.2252826406307987e-03 2.8809274231977877e-04 8.8438978440015612e-04 -7.8254106321715144e-05 -6.7318122017973742e-04 -2.1236300215790359e-03 -1.6711122467003015e-03 5.3876121963514559e-04 1.9403534343820882e-04 1.6761796981607860e-03 2.4104984935771484e-03 -1.5751791596191746e-03 -1.0930577915438736e-03 1.9286386919592502e-03 -1.6968349232865387e-04 5.2211017702126217e-03 2.8517738493939629e-03 1.3476204663696173e-04 -1.0803949509679001e-03 7.3443426807207283e-03 4.4668321772732913e-04 5.4929121126466585e-04 1.8310313323718214e-05 6.6130965169791667e-04 -2.2832360161566950e-04 2.5972158151921221e-05 8.6762857623080836e-03 -3.6142280912511079e-04 1.1830477412987234e-03 6.5241354921642680e-03 -7.5554677052173339e-04 3.6315503917730765e-03 -2.4644264271335869e-02 -6.4707310651490602e-04 3.7104626314898859e-02 4.6244622653929812e-03 1.2312500349623105e-03 -2.9263237151013755e-03 2.0960719999360725e-02 -5.0516335767215870e-04 -2.7957536647325865e-04 8.0600720673467373e-04 1.1652492853942709e-03 7.3740348915447840e-04 9.7669115605791834e-04 -1.1230939071362606e-03 -7.0871489321551896e-04 7.9690180286137388e-04 1.0946231728569302e-03 -9.0876368183968707e-04 1.3790863876006736e-04 -3.2072681194715330e-04 -1.3691984654880789e-03 -1.0103566217763416e-02 2.7473738518052557e-03 6.0092868261517047e-04 3.4747747793342776e-05 6.9930277210899182e-04 -6.9297620813448348e-05 1.5846865352649072e-04 -1.9095533790964349e-04 1.0949325822433020e-03 5.3600463137165599e-04 -7.7080245726091068e-04 1.5119816398278182e-03 -5.6016719710409984e-04 -2.9997848986836333e-04 3.5734893290461376e-04 4.7151880899795884e-03 1.6338212226069473e-04 -4.8776956199004890e-03 -8.4912143651526360e-04 6.4687270890064763e-03 -7.4445972712961286e-04 -2.1078545130782250e-04 4.0603391249749432e-04 -1.3400834341284256e-03 2.6933924952626408e-05 -7.2882004486275742e-06 1.9763207324599097e-04 -2.1670331807749355e-04 9.7120628822305877e-05 -1.2593109293183892e-03 -3.1420232328287096e-05 -8.7112968181220609e-05 2.8884274586237483e-04 -7.6739804346910578e-04 -2.0035118843591492e-03 -2.7593197127972265e-04 6.2328606443252830e-03 -3.8431373953079744e-04 -8.3624476113787934e-03 1.4984566989828506e-03 1.3495855860241957e-03 1.4726591866693894e-03 2.1950526992656682e-04 1.5146712615244043e-05 3.7872105546104293e-05 -2.6556059538348576e-04 5.5629790981525252e-04 1.3455782880387643e-04 2.5129534486061367e-03 6.4258465066291143e-04 -5.0398878731342661e-04 -2.2615905657502721e-03 -1.6970009285111193e-03 -5.8743510194912002e-04 5.8723183525004677e-04 -3.2026084949831335e-03 -4.5419667292545036e-04 -1.4042090554003725e-02 6.3408665498538358e-03 -5.2106049682492175e-04 6.5575407230458183e-03 2.9164943514526117e-03 1.6399751824031842e-04 4.1965020883752771e-05 -7.0351410872010293e-04 2.3189438885212743e-04 -9.1197928666320038e-04 1.1962052074824467e-03 4.0350779067440247e-04 2.8059801567151748e-04 9.0470459685043289e-04 3.1274966286617360e-04 -6.6108315148926549e-04 5.5770976586705726e-04 2.0519987012000917e-03 5.5547184537036668e-05 -1.2796810222332707e-02 1.6496260878355925e-03 -1.9213689028205585e-04 1.5240151530582224e-04 2.2382795182269060e-03 5.3755816452833458e-05 4.9467090648157633e-05 -1.2322779990876044e-04 -4.5704972823937652e-05 -1.6705756682978273e-04 1.3874984211809105e-03 -6.5206448186571619e-03 3.3508495161601107e-04 4.7349356493742254e-04 -2.7832176501661299e-03 9.4305712555029604e-04 2.7838151527850574e-03 2.1519369041019781e-02 -1.0410008910688639e-03 -2.2153992437131530e-02 -2.7095312447250118e-03 -1.7409340940613286e-03 6.8565728736718068e-03 1.3876900215483001e-02 -5.7333853949654819e-05 1.0052525027828635e-04 -6.9945842645781516e-04 1.4507873766585972e-04 1.3537667492162738e-03 -9.4177899189645808e-04 1.7474822163752752e-02 7.6572706644803925e-04 -1.7899181403968671e-02 1.2440117009372084e-03 -2.1756542253552262e-03 -1.1799429627663144e-04 -1.6639030254650744e-02 -1.1678770374318908e-03 6.5090399241271579e-04 3.1843932725967271e-02 -9.8331088436687730e-04 3.2733027056934816e-03 -1.2078998653151508e-01 2.0689294000956170e-03 -1.0329397240730139e-03 -2.2868499239653457e-04 -2.9146370949286463e-04 -3.4949620644277751e-03 2.3493858437903803e-02 
      </Row>
      <Row Index="90">
        -3.6237666433385418e-05 -7.0354352412613859e-05 -3.0884038180369576e-04 2.7760343768225412e-04 7.9692463459790923e-04 1.9948047145605771e-05 -4.5787374477696490e-04 -1.4004749652818209e-03 1.4999132202438668e-04 1.6120552004789124e-04 -4.6838647398459671e-05 1.6218937001970593e-04 3.4719704671754004e-04 3.0622115697115794e-04 -3.2952387896475316e-04 6.1372147356476516e-05 5.8085804666465441e-04 -3.7369674804694991e-03 1.4096983569468393e-05 5.5982684182102893e-05 4.2659866379784334e-05 5.0923988707788845e-05 -7.6500030499488829e-05 5.2807817409067717e-04 -1.6016266120471526e-04 3.7783727223431995e-04 -7.0058653035765829e-04 1.3728508953884163e-04 5.5996996416982081e-04 -1.4657895029126827e-05 -1.2228062383918409e-04 -4.1399665254004958e-04 2.8000241198067679e-04 -1.7463708137212500e-03 -4.6662242864364909e-04 1.5107722149432863e-03 3.1523057696200181e-03 9.6874117568354189e-05 6.1515888213044267e-04 -9.1909038422307955e-05 -7.4086785678896625e-05 6.6293160420602838e-05 3.4739596126863708e-04 -1.0324770400963260e-04 -5.7663222130448916e-05 -7.8283077605073928e-04 -5.1632004570202096e-04 -1.5625305114287391e-03 3.0995338941383448e-05 5.4538814988616680e-04 6.4282135639470717e-04 -8.0505013547283388e-05 2.1405556381996985e-03 -1.1713454517750816e-03 2.0034896933396056e-03 5.0928995915293634e-04 -1.2783828470790516e-04 -1.9249039018423564e-03 -9.7377735126032150e-05 -6.2069278441398922e-04 7.2596882995392895e-04 -5.0195691854746510e-05 1.4791218505772505e-05 -1.3673702307902148e-03 1.4744449869121094e-03 8.3447257520999699e-05 -1.0695255639106005e-03 8.7712151065734185e-05 -3.0645267789478157e-04 7.3798501459165777e-05 -5.8639837918428674e-04 5.3875457966372445e-03 -4.4235557422998058e-04 -1.7533403659445368e-03 -2.7005304255713070e-04 -1.7302842853966728e-04 1.4729867172180722e-04 5.1403533444360078e-04 -1.7373564557898995e-04 -6.3217539131011496e-05 7.2550195507822823e-06 3.1249794152781916e-04 7.8931648722494439e-04 2.3101498493911105e-03 -1.0944742833224330e-05 -1.8670785824030922e-03 -3.5360856333203905e-05 8.2871013366119396e-04 3.4485981994669679e-03 -5.0516335767122054e-04 3.2099809993400832e-03 2.5952705049747237e-04 -6.3367224991937605e-04 -5.8988444253798428e-04 -9.8468641656613773e-04 -9.8117676033206321e-04 4.4541178942249601e-05 4.2549115666164813e-04 2.6605047897352748e-05 5.5083670933255169e-05 -4.7234466906517927e-05 1.7768434625772985e-04 -1.3326587238863337e-04 -5.9342278094644632e-04 -5.4994479033450457e-04 -7.9116746139479337e-05 -1.2239173821908489e-04 -1.6451369756418435e-03 8.8351453236969109e-05 -7.0302506680175317e-04 -2.2025316998474043e-04 4.4479773003550506e-04 -2.2562949425073164e-03 1.0750663755303631e-04 -1.6066692637894953e-04 -1.4927267873670810e-05 3.4425219834328946e-05 -3.5690591196394173e-05 -3.2004656071486066e-05 1.9446269100136838e-04 -2.2532911925800259e-04 4.4682579875744818e-04 -2.4609197458582202e-04 -1.1308676402010387e-03 1.2576977988988571e-04 -1.2367936215469379e-04 -1.3837795288118571e-03 -1.3335506146015767e-04 2.7101509188578153e-04 4.1991388476548576e-05 -3.7945414335340791e-04 1.8371885917134456e-03 5.1660555492522020e-05 8.3244591123674038e-04 -1.1347160587714670e-04 7.3087541550547421e-06 5.6215021952009549e-05 1.6000900511351133e-04 -4.8180722221787640e-05 -1.3100344226498953e-04 -3.2231021580981340e-04 -1.5229809317251456e-04 -8.7732814821811652e-04 7.7486330845665734e-05 -3.8202414164131485e-04 -7.9318304968678532e-04 -9.5823426754200480e-05 9.5014517934019006e-05 -3.9509240262886359e-05 -1.4156290828730428e-04 1.0054408864279922e-03 3.8971921332441874e-05 -2.6685156008993127e-04 1.2348600743013411e-05 -1.7910788431150245e-05 -1.3487984570970812e-04 -1.5631204080070182e-04 3.3790690014774607e-05 -3.3758788581419834e-06 4.5163638725656541e-04 -7.8946300870433181e-05 3.7435240012764770e-04 9.4896733487354249e-05 2.9317928283371843e-04 2.0569123205538276e-04 -3.8636138550604028e-05 3.8838863298331716e-04 9.0446689427109254e-05 1.0583275049422704e-04 -2.2025973876768634e-04 -1.0854274658784330e-04 -1.3938268467101143e-03 7.2997689155369807e-06 -2.0990135597433450e-04 1.0247007598392217e-05 4.8726472598997785e-05 5.1905111480293704e-05 -1.2397541995180837e-04 -6.8865659433049086e-05 4.4416243647509018e-05 -2.3767381437622931e-03 -2.8083478354848715e-05 4.8959069728193465e-05 -1.1999079869699086e-03 -5.7137819698547691e-05 6.8304272082398386e-04 -2.0399316510324005e-05 6.3004969584261967e-05 2.4258276671348987e-03 -3.2492337947373387e-05 -1.3832033020389350e-03 1.2381151339011496e-04 4.8618454791658376e-04 -2.0383667036411599e-04 6.0912445379634767e-04 3.7199347244175535e-04 1.3245786093683807e-04 -2.5477919040596169e-03 -7.6491375408988297e-04 -3.0482021255026246e-03 -4.6861185349446419e-04 1.1358484498287878e-03 -8.8085734303766650e-04 4.3355840585412170e-04 -8.6848561235779390e-03 -2.7575541530021948e-04 3.0204104811524814e-03 -2.0062586655277704e-03 2.8161284517139065e-04 4.3896225643420481e-04 4.9242977688267707e-04 -4.6208180728602767e-04 -1.1584894472667353e-03 -3.6642159454588428e-04 -4.2319502678490710e-05 1.4720307779203564e-04 1.5359153991447621e-03 -7.5141781410893813e-04 2.2088205794933792e-04 2.3892568768663449e-04 2.3216168773740927e-04 2.2828280433739336e-04 -5.5688009422783945e-04 1.4539809975293720e-02 1.8420942778295873e-03 -9.7355421454107215e-03 1.5485901441369394e-03 1.7558609444568173e-04 -5.8342822029126065e-03 
      </Row>
      <Row Index="91">
        -3.5663490251832916e-04 -1.8933438071431932e-04 -4.0649691196409377e-05 -9.2105534959646947e-05 1.5402796931712596e-05 2.8967867618300979e-04 6.7425534622972188e-04 -4.1557982205844867e-04 1.7368615632688388e-04 3.7194983790779512e-04 1.8694692525705151e-04 3.5795873682390681e-05 2.2488872820483202e-03 -8.4699555970790764e-05 -6.0325341126273892e-07 -4.2069473697768005e-04 5.6720107243154300e-04 -7.7192023205288856e-04 -2.5356198032818519e-04 1.0271534155966572e-04 -9.7046290325663947e-05 1.1211992946908930e-04 9.5918578545817548e-05 6.0916937522905931e-06 8.6404262871157562e-05 -1.0507681479385300e-04 -6.9529614097144207e-05 -6.1690430338322147e-05 2.2780378459385693e-03 -1.4885482096679435e-05 5.8018232852081325e-05 -8.6916066309505879e-05 1.8643338582501802e-05 1.1198195457295083e-04 -4.0293753984381887e-04 8.5863520316198187e-04 8.1061874694556262e-04 -9.2722158580595094e-04 9.7342966559648206e-04 -4.2277442209656462e-04 1.2940867532858517e-04 4.4899042660477643e-04 2.2157997163263889e-04 -1.6828358867665297e-04 6.4729726602495360e-04 1.3636430129866260e-04 -1.8007101405388866e-04 5.2158857960943050e-03 5.6284972245321295e-04 -1.8733952964704315e-04 1.8398317761753047e-03 -8.3714422915767461e-05 6.1403091521610581e-04 7.3703933346079488e-04 2.9835819689085202e-03 6.0476421037574920e-04 3.4418449476897512e-04 4.3105795606322370e-04 -1.4546568495896488e-04 -5.7992965517885678e-05 9.9135443222446787e-05 -1.4440506171519828e-04 -2.9882725095164325e-04 2.5265249065449264e-05 7.2633853985889889e-04 -1.9796623765041274e-04 1.3902429281933970e-04 6.0712958795262407e-05 -3.3492572481491254e-04 8.5134742594816792e-04 -2.6153623837904484e-04 3.5923278129090482e-04 1.7833589451827433e-03 1.3337230654057507e-03 -3.1117488351311163e-04 -3.9001164411872993e-05 1.3914341171835654e-03 6.6797791363002422e-04 -3.5424752750000269e-04 -8.9814954306066154e-05 -2.7225640612092358e-04 7.4544762290631073e-05 -2.3926886340745399e-04 2.4082827256139382e-03 6.8692466233127164e-04 -1.0685718675328970e-03 -1.1451554670232136e-04 3.0547344016831641e-04 1.6193929373115035e-04 -2.7957536647289468e-04 2.5952705049735614e-04 2.0675166493461768e-03 -7.4543267255985164e-04 -1.5213205454156758e-04 4.6552575318523082e-04 -1.5761490047151890e-04 5.7889170713610282e-05 1.4229931822736094e-04 1.0279587957588631e-04 1.6743587885406607e-05 -1.8928503777250900e-04 3.0285612232670199e-04 1.4323638051312642e-04 -5.0606488714048257e-04 2.1894926707957847e-04 -3.9205356822483664e-05 -4.8177587092032375e-05 9.3149334952252749e-04 -2.9610096529734282e-05 6.5626162304096525e-06 -4.8572804488190056e-05 2.0611747265093447e-04 -3.4896502366396436e-04 -1.5011071658607995e-04 3.0132444199110209e-04 -4.0728135744330131e-06 1.4370104039752290e-05 -9.1434310479110634e-05 -3.4326266543711361e-05 1.1003786551724243e-03 4.8645546536187989e-05 2.4937620872386945e-04 -1.2977641816000560e-04 1.7951458886678040e-04 2.0883215040423588e-05 1.7423568380834883e-04 7.6908054367388901e-04 3.2472476573744644e-05 -3.1954028679463751e-05 2.8041337797552000e-05 -1.7422624344741228e-04 1.9781270596983154e-04 1.9412727840966218e-05 1.1068162654783234e-05 -7.0330504751166441e-05 4.7597755707333840e-05 8.6296845929778024e-05 -3.8977702841453457e-05 -3.6804630383359372e-04 -2.3319372494973986e-04 2.1955677775561779e-05 -2.8186674906613022e-05 -3.1857591556814016e-04 -2.5302052951425413e-05 5.0775601213767210e-04 -6.9456442696902432e-04 7.6126930369242702e-06 2.1401138281983951e-05 6.1444203003315848e-05 -1.2008163513083233e-04 2.7395005662879049e-04 3.7658020565881583e-05 4.8070694284210735e-05 -4.4904376754432193e-05 -3.5349373091485511e-05 -1.1914424856146379e-05 1.4256165265141667e-05 1.1383233927191212e-05 -1.7296915567088463e-04 6.6721678550320587e-05 8.3875898777806593e-05 1.6391282668678300e-03 -1.9183871157581406e-04 -4.5239105015432417e-05 -1.7138592956589260e-04 4.5122469560128172e-05 8.0509574103704312e-05 1.9904939593601864e-04 -2.9745664856376409e-05 -2.8435402741591037e-04 2.2306491175638505e-04 -1.3261356948414762e-04 -5.7090673328234081e-06 -6.0466247956857615e-05 1.0397236320587068e-04 1.6737683498299048e-05 -4.4912733982871639e-05 2.4946891047183945e-04 2.1884143245990407e-04 1.0843687045150743e-04 9.1454873391389607e-04 -2.3383274807029213e-05 -1.3904248889998202e-04 1.8158982090303831e-03 2.0230860461488351e-05 8.6004278379274343e-05 2.2926060581572179e-04 2.4551723226317245e-04 2.1968373353538974e-04 1.0172630629402303e-04 3.7414972476603262e-04 -1.0992936997444667e-03 1.4530677452515877e-05 3.6351005328050224e-04 5.3153772866490825e-04 7.7901549173069163e-04 1.5670934904271523e-03 -5.0981556234170364e-04 -1.4651904447578857e-04 5.6211880927771506e-03 4.2939215603178581e-04 -3.1841022062089456e-05 2.6789950324108414e-03 -3.6687019610902972e-04 -8.4097311867134528e-04 -7.7527048178173245e-04 -3.5330828171956812e-03 -4.6341654423332260e-04 -5.7313364998747560e-05 1.5540238117607661e-04 6.2099905542633649e-04 -6.0352902694199968e-05 -1.3751463252304041e-03 -1.2635053241374949e-05 -4.9271847948158828e-04 7.9743336483638165e-04 7.3185302426108378e-04 -3.3082806613086557e-04 -6.3640417877647315e-05 -1.0595498847700731e-03 -3.2326855523023596e-04 -5.2399880854054432e-04 2.6529798397845515e-03 -1.1307542906723706e-03 -1.4161976110632743e-03 -4.7883422672839798e-03 2.9229634733834688e-04 2.2407246330859196e-03 1.5528096940264271e-03 
      </Row>
      <Row Index="92">
        -4.3919738588593746e-04 -6.3407373323743363e-04 1.4804327711175069e-04 -3.1487749864665649e-04 2.0217859026850863e-03 -1.0819960162818897e-03 -1.9632479965686306e-03 1.7316819148044979e-03 -1.2746089336350928e-03 -8.8619088991970241e-04 -9.2476257518650713e-04 -4.1588370913427514e-03 -1.2957135373492079e-02 2.5957484405491536e-04 3.6301765711794966e-04 -3.4028088212680806e-05 -4.7350345776574071e-03 1.9293891723031944e-03 1.6302627301560402e-03 5.0197228911613712e-04 -5.6879683162595982e-04 -4.8147116393484207e-04 -7.9398682653921511e-05 4.0167090455367482e-04 -5.2237689101307383e-05 -7.8561096160146074e-04 1.1330349531411643e-03 -8.5295378857947607e-05 6.6737456716069454e-03 -1.1997872745833824e-03 -3.5078492091722910e-03 -1.2156937321421424e-03 8.5982765775351330e-04 1.2770671023027724e-03 -5.3705247105639842e-04 -7.1896572129618048e-03 3.8059448917690530e-04 5.2027574313248341e-03 -4.6006824324608120e-03 1.4489184570170160e-03 -5.7949699036372558e-04 -1.9700645876024039e-03 -3.3873055483832348e-04 1.4219053674611494e-03 -8.7638110405079128e-04 2.4205166215458319e-03 7.2869215540068491e-04 -5.9582013072077000e-03 -3.6579196016530320e-03 -2.0589229562602007e-03 -7.0260624222013845e-03 2.1947635383962900e-03 2.8640133040331445e-04 -1.8264362078511554e-03 -1.2453143274030118e-02 -1.1784348049835545e-03 -3.2333981281190052e-03 -1.2354463412119210e-03 4.4537485872380225e-04 2.4291704508830423e-04 -9.7773276933466047e-04 -3.3487219791178413e-04 2.2510386759034520e-03 1.5485003994401975e-03 4.5466432553038783e-04 1.6721231344236850e-03 -5.2434007729900145e-03 -6.6969554717292643e-04 4.1598711582384196e-03 1.6463601263225769e-03 1.3463267702495698e-03 -2.6215676349928378e-03 -1.8533310273122078e-03 1.5315533981654327e-03 1.2786596104515380e-03 -1.7396297164251964e-04 -3.4626591104914839e-03 2.4995694864732715e-03 2.9189428486578808e-04 -1.2907589997573632e-03 -1.5195486417454718e-04 9.1799057873910052e-04 3.0792528998553337e-03 -4.3326965708355702e-03 4.6985423085932343e-04 -1.0484255676663334e-02 2.8143957839221745e-04 1.9606022537737057e-03 1.2993693840286369e-03 8.0600720673202134e-04 -6.3367224991845925e-04 -7.4543267255976209e-04 1.2053940779199999e-02 -2.7342472194755441e-03 8.4513912594105789e-04 2.4408273958191964e-03 -1.5214911148039769e-06 -3.4124987023532029e-04 -9.4535621731484196e-05 -3.9855779171791227e-04 1.0293167177038765e-03 1.1645713998474465e-04 -2.9569235940590322e-05 2.9637140854928902e-03 1.7757841867416715e-03 -6.8734603231366439e-05 -6.1583935011225274e-04 -6.9306811386108391e-03 4.8421776754516751e-04 3.9217634027173027e-04 -2.7760160524899712e-04 -1.5104432200937047e-03 5.8525178468323068e-04 8.9715948200664469e-04 -1.1367247777116507e-04 3.2683169274049656e-04 1.7045387610194196e-04 2.5014338701469631e-04 -4.1825965589391457e-05 -4.7595478851662548e-03 4.1522353583025272e-04 -4.5318532441190581e-04 1.1140034940428749e-03 -4.3922712181521106e-04 1.1431117585268460e-04 -2.7624482832645974e-03 -4.0257236085650128e-04 -3.3724481750377474e-04 -2.0764685035567056e-04 7.9937203470058921e-05 6.6281924619416535e-04 -4.3225315043285417e-04 -1.4236198213682383e-04 3.0592982935430391e-04 -4.4400737739053436e-05 9.9029288851472733e-05 -1.8954240308539285e-04 5.0724005581450162e-05 1.7926364119888901e-03 6.0663171663361665e-04 8.8811508586317852e-04 3.4749314643888808e-04 1.8188956839065998e-03 1.1710151620037605e-04 -8.2029548988475018e-03 2.3498398843422308e-03 2.8395713260362344e-04 5.9508936129141817e-06 7.8878356362154574e-06 -4.5308007998704332e-04 -4.0278571129729836e-04 1.2248798826869535e-04 2.7430882180534688e-04 3.2926435221804283e-04 1.1574507750692687e-04 5.8529198513925440e-05 2.3079188640909298e-04 2.1782810060731565e-04 2.3454626288728353e-04 -3.0766956354794095e-04 6.9800766521049124e-05 -2.6198148689916198e-03 5.3408410366341335e-04 2.1954767615283335e-03 -3.5022191887534859e-04 -3.3496130033063129e-04 -9.5543833542969256e-05 -2.1485987303956032e-04 1.6183230503223265e-03 1.6831091646606344e-03 -7.8624267733537478e-04 1.6423731026586935e-03 -3.4697083800998947e-05 4.4173205095764460e-05 -4.6194048699329604e-04 -2.9073647159446182e-04 5.0966309398438987e-04 -1.4932090278585959e-04 -1.2409299794145334e-04 -8.5053384288673122e-05 -5.9080354803751154e-03 -1.1553078255654988e-04 2.9622599612822462e-03 -1.4060745680844033e-02 1.1007991912092505e-04 -2.6997729140012275e-04 -1.8867047342644759e-04 8.8940503948331117e-05 -4.7139394527881580e-04 -2.9462774527420742e-04 -3.8542818690121289e-03 -2.0068056557469285e-03 -6.8478269076422001e-04 -2.0460205139728981e-03 -1.3130404665361508e-03 -2.4193152541563258e-03 -1.8567058000569800e-03 5.5761198677125815e-03 1.8219276035773709e-03 -2.5527368679940987e-02 -2.5446349905984566e-03 5.0481356990694269e-03 -1.8590693023945115e-02 8.5716647996539894e-04 4.2613339911701676e-03 7.0739200493197051e-05 1.3221801855581362e-03 -9.0317718835366146e-04 4.1958560255246193e-03 -1.4329626650495392e-03 2.7044515115575577e-03 3.0489580069478024e-04 3.1907648038924184e-03 -4.2022720386794061e-04 2.2041724377439920e-03 -1.0798716594186816e-03 -2.0565958244819146e-03 2.2322170856216702e-03 3.9748948018211553e-04 3.2912821590242993e-03 8.5879861693501699e-03 5.3045414820974204e-03 -7.5532217743296218e-03 -1.0634226214027095e-02 2.6031875563721869e-03 4.0546340177923627e-02 -3.8181859610785521e-04 -1.2594213938996636e-02 -2.2087765363453273e-02 
      </Row>
      <Row Index="93">
        -3.6924548489194256e-03 -2.1907374021251100e-03 -7.0749958497409726e-04 -6.9820393609260989e-04 -9.2338549804901835e-04 7.5143603014808441e-04 4.3136617952958169e-03 -6.9660272096951437e-03 2.2367817377078256e-03 1.3838339974425740e-03 1.2102965233517329e-03 3.2246230830431932e-03 -1.4526732399205988e-02 -2.8468444298170538e-03 -1.2279124497581451e-03 -2.8025145776522278e-04 -4.5149621164384396e-04 -6.4715277448445130e-02 6.4337494052185001e-04 -1.8072189334506494e-03 2.5775264034632161e-03 -1.7907356407342867e-04 -2.4634463824246742e-03 -1.4419798228854364e-03 -1.4091378747742855e-03 3.8544745355682322e-03 2.4325779494469191e-03 -1.6753445220931765e-03 1.2192331936037193e-02 -2.3799887439735100e-03 -2.3512857456858410e-03 4.8597700672274868e-03 2.8729634183704772e-03 8.3907841445930373e-04 -2.4708274324569679e-04 3.8289821180498879e-03 1.6540169392629436e-02 1.2955569814319251e-04 7.5633008940506619e-05 4.1507887565605086e-03 -1.0830634938565377e-03 -1.4355262568044886e-03 -6.8543930981006251e-04 -3.1939010554804040e-03 3.7068831823654502e-03 4.0205929807642093e-04 -3.7302100671190025e-03 5.1155175354300475e-03 -4.2947468647789935e-03 -2.4411283546514340e-03 -1.7095789367235881e-02 2.0867318529940448e-03 1.9063844066741775e-03 -1.3238104512333371e-03 1.1789846797722638e-03 4.8043178751927748e-03 -7.4050289664596980e-06 1.4443597990709822e-03 -3.4197647037546887e-03 -5.2035034864743659e-05 2.2010771333285800e-03 -1.5477042474218577e-03 -3.2904710816873792e-04 -3.9020212555267442e-03 -7.2403056770078689e-03 6.7572858337675012e-04 1.0061233626772026e-02 3.2364459666577236e-03 8.5615662822811564e-04 3.9631116716510206e-02 -3.6312282561000307e-03 3.4837974607337470e-03 -5.5498024043451957e-04 -3.5133230030073154e-03 8.9616439028522565e-05 7.5478336543997188e-04 2.2385202014338912e-03 3.2259261075751056e-03 -2.4251336320610314e-03 4.9966301972910465e-03 1.5451409714528075e-03 5.2871745721835492e-04 -2.1001782990592813e-02 6.6996829749670361e-03 -2.0175568125252452e-04 5.6905356942138496e-05 -1.9944087094637408e-03 2.1524528456763614e-04 7.0659817719791462e-03 1.1652492853968938e-03 -5.8988444253640568e-04 -1.5213205454129436e-04 -2.7342472194787984e-03 1.7990136003915125e-01 -1.1345914602953477e-03 8.3453375413247710e-04 -1.7907906862093502e-03 2.3305003144856590e-03 1.6852556793656354e-05 6.7844416422862489e-04 -6.8886479783101433e-04 1.3617140067315910e-03 2.8676662237398136e-03 -2.5573677173356111e-03 -9.8672209500546559e-03 2.5234248651925337e-03 1.2036052598282281e-03 -1.4784690633519282e-02 -3.0841761335491619e-04 -8.1178938824029781e-04 -3.0410479590454835e-04 -2.0186225767967385e-04 -2.2436742581046824e-02 2.2050344582817108e-04 5.8957470198794937e-05 1.7242914538365683e-03 -2.2550133245264475e-04 -6.4099708926842330e-05 -9.1643214428142970e-05 3.4461956686869773e-03 -6.7491065734132799e-04 2.1532657530458476e-03 -2.0379369363456787e-03 -5.9136068007870080e-03 -3.8370870659507408e-04 -1.3953204353991944e-04 -7.5691694674012711e-03 9.7689270639003591e-04 3.2442886491290256e-04 1.1419181579739451e-04 4.4084498502775524e-04 1.2034366789379636e-02 3.8835558661887148e-04 2.6950937568248623e-04 4.8961564753730903e-04 -2.4175595398061994e-07 3.7128261417724477e-04 2.7737378873772013e-04 -1.5643545617946477e-03 -5.8176675086882290e-04 -2.8413158411648475e-03 -1.1752721529891190e-03 7.1442575473649045e-03 4.0261181450229556e-04 1.4929277660462540e-03 6.9190938936571911e-03 -3.5622755582634673e-05 2.2431469905085099e-04 -3.8462849076670693e-05 1.7714084540875025e-04 1.1035327968682992e-02 -4.8084784265484386e-04 2.5228796962633027e-03 -1.7062207177422854e-03 -9.8325883843529416e-05 3.7837035843863234e-04 -4.4417427277754218e-04 4.4197893807906841e-04 -2.0508500843274859e-03 -8.2443007717153405e-04 4.1964770588797978e-04 6.0144448692276975e-03 2.9579567397727000e-03 1.0777893628552346e-03 -5.8695693458421516e-03 7.0760623750038823e-05 3.7070147140618251e-04 -8.7995679145524974e-06 6.9964376782317116e-04 2.7519311933423551e-02 -6.3904898369183949e-04 -1.5459162788855618e-03 1.9369078553234337e-03 -5.8238441856200767e-04 9.3617752363942246e-05 3.6158393453964181e-05 -2.7519547886105676e-04 -1.8993047721787056e-03 2.9261907933039238e-03 -9.7950929860121013e-05 1.0743582193148658e-02 -8.1911896178063417e-04 -2.1453477090978778e-03 -3.0962090111674723e-02 1.3748208055976495e-03 1.0344575664373756e-03 -5.9710130067463672e-05 1.0569990484296486e-03 3.6979083120334225e-02 -3.6521579072876752e-04 -7.9927713553968882e-03 -5.5089794878920772e-03 1.6927264359010118e-03 9.9958617887028599e-04 3.5193831448122855e-03 2.4687934707267704e-03 -6.2700368524946926e-04 -1.2462303228990188e-03 5.7464493040691213e-04 -2.4152035995634411e-02 -4.4428695484408434e-04 2.0917429540168713e-03 -7.7463095474445076e-02 -1.7007519027289076e-03 -8.9268136323227658e-03 -9.5118660952568201e-04 6.0060645979502980e-04 2.4671005659796293e-02 -4.2674289178112933e-04 5.2770730557949452e-04 7.0669640887349085e-03 -1.2232253107639281e-03 -4.4163188164041481e-03 -3.7112755599797684e-04 -1.9715777240765890e-03 2.0958322371592724e-03 1.3570322014767300e-03 -3.0509844281807726e-03 -2.0505231270418842e-03 1.4189270527121874e-02 -1.5791108796395642e-03 2.3507973620777063e-02 -1.3436505225445814e-05 1.4749151061528911e-02 2.3405549758688340e-03 -3.0923981076454365e-03 1.1493727879466871e-02 -1.3477774088567465e-03 -3.8620934564341479e-02 
      </Row>
      <Row Index="94">
        2.5079530333438598e-04 3.5395840311663510e-04 -7.6739395970902742e-04 1.6762992777040990e-04 6.5099417272743328e-04 1.2660132848278991e-04 -5.0904433698001502e-06 1.8369077222311382e-03 7.7672553686281617e-04 -4.8606771819579772e-03 2.4117490587709266e-04 3.3012918650202083e-04 9.0534718981603521e-03 -6.9528209429854226e-04 3.6567518507793457e-04 -5.0428731039824906e-05 -2.1931106212520410e-04 -1.1148178317378441e-03 -2.8084224584028535e-03 2.0418765431793606e-03 8.6832572594648422e-04 -2.1957774170234460e-04 4.4146413008950696e-04 -3.9028000875164504e-05 2.3529529196864994e-04 -2.0985498172392631e-04 2.0933917852385673e-03 4.0182433336202284e-04 3.6968289071402805e-03 -2.3474151951800425e-04 -1.1486176037254917e-03 -1.3256530558750645e-02 -2.4382769470741964e-04 9.1770125153822649e-04 -1.6785189762730658e-04 2.2449122597436693e-04 1.2332931604292297e-03 -4.0720697322646519e-03 -2.8884854777515992e-03 -1.6228948368269649e-03 6.0861958873951799e-04 1.4719828788031759e-04 -1.1278222175848101e-04 -4.8705357754525195e-04 8.7977023095124878e-04 -3.0119952547419488e-03 -4.0530321275335278e-04 -7.8727018083551703e-03 1.8726553195259766e-03 6.3931693775602476e-04 6.7225084876245678e-03 -2.0521737278302735e-03 -2.7610896169206209e-04 -2.1525953277195262e-04 4.1530980186972773e-04 3.0196011213365717e-04 -4.6868084854601781e-04 -3.1031876454953207e-03 4.6233159956758304e-04 -4.0915300938076135e-04 3.4655869390925109e-04 -8.0909796970029179e-04 -4.8937454741913465e-04 3.6708648289781719e-04 -2.0762476786802889e-03 -5.8236913990266813e-04 7.2379784412067855e-03 -5.9267854408433327e-05 -1.3895328241800074e-03 -7.2950692072655254e-03 -5.7964077289031596e-04 1.6520680922849144e-04 -4.3192168233501178e-04 1.1547848164437751e-04 2.8595958743219893e-04 5.0486525764172237e-03 -1.0919018864829488e-03 2.1300651462887159e-04 4.5940571225544275e-04 -1.0259794695682291e-03 -4.8241598904598046e-04 -9.5172631581520099e-04 -3.5236490599955535e-03 -1.6621216214542690e-03 -1.7880170703550736e-03 -4.1641228217116077e-03 -9.6688383116485047e-04 2.6949503615475781e-05 1.9892477946009957e-03 7.3740348915504305e-04 -9.8468641656640965e-04 4.6552575318521520e-04 8.4513912594107686e-04 -1.1345914602961678e-03 1.5926104550105701e-02 2.0648586292782434e-03 1.4482700513435468e-04 1.3120368680644458e-03 1.7785231168050583e-04 2.0673577937000960e-05 7.1228353356821020e-05 2.6394568062780045e-04 1.8253919355935123e-04 -7.0018331047922138e-04 1.3907095343758148e-03 -3.8044248788028650e-04 -1.0166452992006682e-05 -2.7100973379019788e-04 2.3957673357847834e-06 1.2506445189267566e-04 -5.5367469569641973e-05 -2.2859212651395102e-05 -8.7198079722520952e-04 -1.1947062787152649e-03 -6.1574945442977036e-04 1.1331599133749116e-04 1.5967927298349630e-04 4.9270760194505565e-05 3.8156843399197505e-06 1.6436447628365332e-04 -1.1852432526753259e-04 -4.2253312006379430e-04 -3.2489034382388472e-04 1.8234079862317343e-03 -2.8452676914373504e-05 3.6352774658956143e-04 2.6285490086486174e-03 1.8458051786998967e-04 5.5586217343364924e-05 -1.6878986994261396e-05 5.2846857923633667e-06 2.6655877269465313e-04 2.2732776985924519e-05 -8.0196080581218521e-04 -2.0415682404377228e-04 6.5959284690578386e-05 -1.8446814472413401e-04 9.1095971374275823e-05 -1.0949898251819698e-04 -3.0645476049894317e-04 5.5244788416806967e-05 -1.1682463949789362e-04 -1.8306662347170148e-03 7.8930940417078742e-05 1.2754927658933980e-03 -1.1683786628439163e-03 -1.8274557984500608e-04 7.3333037190559643e-05 -1.7597594465314899e-05 6.6675234971487831e-05 -1.2564059285838938e-04 -2.6560125662910097e-04 -4.5939383442164528e-04 -4.4739152399550898e-04 -1.3084850325280903e-05 7.6731707770944305e-06 -1.6240881686333756e-04 -6.9751436602137097e-06 -1.0851268272124136e-04 -7.1906540203252496e-04 -1.2197365807743721e-04 4.3702020592117754e-03 -3.9562463824584226e-04 -2.5627459466508445e-04 1.5493675390612638e-03 -7.2735476149656054e-05 -1.3199560282092153e-04 1.5158177925702417e-04 -2.7079620666498278e-04 -7.8465361374228243e-04 2.1452223867965692e-03 6.6100889715322436e-04 -1.9824315521536827e-05 -7.3055833418826191e-05 -5.6173355870192329e-05 -2.6110488855541800e-05 -1.9297130740858446e-04 -3.4544042846239428e-04 -2.1431202912486428e-04 -2.4234977907509376e-05 -1.0814785435768089e-03 -9.7908925891195485e-05 -5.2654195252920422e-04 6.5306053053502677e-03 -1.4398937413217985e-04 6.4492727163118326e-05 1.8224933652990197e-05 1.0667663670558820e-04 3.1336489412444463e-05 1.0556101622607743e-03 -2.8384254395779508e-03 -7.3545808896259557e-04 2.4430366498974297e-03 3.9241712170522136e-04 1.2545588042047072e-03 -2.3145987192677811e-04 -6.8196941603037046e-05 -2.2494442254506891e-03 -2.2433019612500406e-04 -1.8106201554800798e-02 1.6706470744974017e-03 2.7977088583083733e-04 1.1035798336690661e-02 -1.5728988837728454e-03 2.0639003534568025e-04 6.8699538861055360e-05 1.1597195462511659e-03 -2.8526385648807787e-03 -2.3648614193705585e-03 -1.1124202120960311e-03 1.8618142267299276e-03 -1.0253050095964246e-03 -1.2498522691303376e-04 -3.6016207315079610e-04 -1.4210318967708164e-04 -1.4336616517207548e-04 -1.3560210282079067e-03 -6.4803567840295733e-04 2.8083177622177733e-04 -1.6911168561357657e-03 -1.3554214505044392e-03 -1.6699397224789149e-03 7.1208496386709272e-03 4.5783046108170177e-03 7.3665857359154607e-04 -4.0876362639580234e-03 4.2829529713079575e-04 -9.7103770537643999e-04 1.2266934552844285e-03 
      </Row>
      <Row Index="95">
        -2.4354352215691119e-01 2.7779147439748741e-03 1.5580606241087591e-02 -2.4479976248534792e-03 8.2359218802233874e-04 1.9976948452522071e-03 -6.4301777196356713e-02 2.4107514182513498e-03 -7.8076338833065195e-03 4.6885071304211579e-01 -5.4736937275731362e-03 -4.0136894434583681e-03 2.9729150707559882e-01 -3.8697181219655920e-03 4.9427706653656922e-05 3.8737802109478940e-05 -1.9595967211719898e-03 8.0478398046998426e-03 4.7388705368425765e-03 6.2398205170729781e-01 4.8948002512565481e-03 4.6646842660525989e-03 -3.1146781326838935e-03 -2.5591472331707443e-03 1.7553912595932308e-03 3.7213203315146215e-02 1.2317436827861556e-02 -4.9289102720405098e-03 -3.6904695583932945e-02 -4.3271820635413447e-03 -2.3265437528539712e-02 -3.9765445777373998e-01 -1.0120163760583258e-02 5.4384668847815010e-05 -8.2471908238385128e-04 -3.5043794908814346e-03 -6.0687064835134308e-03 1.1353161563546377e-02 -5.4358951835811098e-01 1.9499400358232669e-03 -2.0236210716204905e-03 -3.4871929859578432e-04 1.7416943397257079e-03 -4.8073368827926677e-03 -4.6625001379283049e-02 -6.2710497999009518e-03 5.2855430571460693e-03 1.2912584522653603e-01 5.2210863774846406e-03 1.3347214850010669e-02 1.3996612440536182e-02 5.8018032295317967e-03 -1.7835674457480355e-03 -2.9947087134340328e-03 -9.1555657204800966e-03 1.4327305173354454e-03 -1.2860673545344231e-02 -8.0603008902372419e-01 -1.2411739264207855e-03 -5.5379876041380671e-03 7.8773876869803194e-04 1.0145674347650235e-03 -1.0579000830692733e-03 4.3869373625543107e-02 -6.9503916344184624e-03 1.0129465634824308e-02 1.5558586851452105e-01 9.6748648861476050e-03 7.5043804236115119e-03 -1.0263760502937203e-02 2.7420740908313838e-03 -4.7209116873453104e-03 -3.7889746904083421e-03 -1.4498587767367843e-03 1.0439818569467629e-03 -4.5214287971682698e-03 -1.0330087063517652e+00 -2.1628056724087408e-02 -6.6662857490714655e-03 2.4061239680328583e-04 2.2422478229691123e-03 2.0366044901456992e-03 -8.0724393971620678e-04 -1.4001521708641995e-02 4.6395157158984901e-03 3.3083362483040446e-01 1.0617265665453512e-02 1.3658193276043673e-02 2.9540961883414241e-01 9.7669115607518231e-04 -9.8117676034381596e-04 -1.5761490047472293e-04 2.4408273958561044e-03 8.3453375413466979e-04 2.0648586292701943e-03 1.3879186795391760e+00 -6.7996217513806353e-03 -1.0241537473528600e-02 1.3133613685577467e-03 -1.5890197033929694e-03 -1.4351421431948496e-03 5.5275536310299619e-03 5.9489894121984065e-03 3.1462547157253052e-03 -1.7725693050004876e-02 -1.0642115072449452e-02 -1.3386775425009710e-02 2.1241458630032461e-02 -8.1863005489313679e-03 -2.3656795630994138e-03 -1.9369708672745593e-03 1.9739775273487441e-04 -2.4613877230971817e-03 -5.2971538305508700e-03 -6.1456067762382105e-03 -2.9321192072768731e-03 -4.7053636806599908e-03 6.1215899485029873e-04 -1.4016835040049670e-03 2.1607617861248707e-03 7.2375495687997116e-05 1.1530277302125632e-03 1.9506516009538183e-03 -4.1701193610700216e-01 -6.3820678281956492e-04 -8.9470315545913323e-03 9.3858760977624911e-02 1.5022914383871382e-03 -4.2281734306341608e-04 2.4961724627725612e-04 -3.7779522917001001e-04 -3.6150487550599131e-03 -1.4821146056021028e-03 -5.3534467601863978e-01 9.6703979731217835e-03 -1.6331300533369147e-02 9.9737174825379621e-06 3.5012692934551872e-03 -2.8158095378332958e-04 -5.2334888160115237e-03 -1.1441718704804342e-02 3.7373577954993853e-03 5.0005672642937915e-01 1.1798713152431629e-02 -2.2794208104980670e-03 -3.3230868864109198e-03 6.9494582352303720e-03 3.2566233098018657e-03 2.0495988531997562e-03 -3.4118805070752311e-03 5.4357484064985456e-03 4.7753387467267001e-03 1.1364697515394795e-01 -7.8865633717098730e-04 -3.5087796850923510e-03 3.9100341804467267e-04 -5.7955736975157102e-04 9.9348872120456726e-04 2.2331186862528468e-02 -1.3580593485835735e-03 2.4383825114758558e-03 -1.0488395011901774e-01 5.9162309608419327e-03 6.1441668192140295e-03 -6.1108195647420871e-02 7.6894074915531750e-04 1.7168770784246456e-04 -2.2508268309318069e-04 -4.0327345497952888e-05 -2.4756779279222485e-04 3.3495034866515283e-04 6.3731331557758142e-01 -8.2570953543584426e-03 1.4781963549418038e-02 4.0549094579166367e-03 -3.0876750554137498e-04 3.3741226227011361e-03 2.8935520781669471e-03 1.8569790309912451e-03 -5.2457246226318890e-03 5.8782825960294915e-01 -3.8576157565475113e-03 -6.1435039590870214e-03 3.1314568562687084e-01 -4.7846660234204790e-03 -2.9739367189283287e-03 -2.9911714747134369e-03 2.2876176652564056e-03 -5.7470681217292666e-03 -3.4500476122061169e-03 -1.8632316926301873e-01 -1.9262667702001454e-02 6.3927747475859956e-02 1.6566217113699239e-02 -6.6508861863354123e-03 8.8278855194521381e-03 -6.5361036348502974e-02 2.3208229342608220e-02 -2.2071368505615793e-02 5.3018749730938342e-02 -6.9950656402705980e-02 -1.9419337295263402e-02 2.7625682796783213e-01 -3.5751364020848116e-02 -7.4698292778963534e-03 -1.1325679951974596e-02 1.7001175276139369e-02 -1.8645044439819909e-02 -3.9941644573972934e-03 -5.2420914938838070e-01 -2.3246710510988179e-02 2.0029960346961646e-02 -1.4485140271020417e-02 -5.5489004431079868e-04 -7.1422467811204510e-04 -7.6688739232540423e-02 4.0248617522785262e-03 4.1175256683899791e-03 -9.1408274751248603e-02 2.3823293256691497e-02 2.1760400447299794e-02 -2.5530770531529573e-01 6.6018761308629964e-02 -1.5129942270857663e-02 4.6416357231048207e-03 2.9422543615436537e-02 -1.9307517160384881e-03 -3.4213434831763138e-02 4.2834105213984885e-01 
      </Row>
      <Row Index="96">
        1.9642025535914365e-03 -4.9388718831075971e-05 1.8348030080816303e-03 -2.6651585883086335e-04 7.0480567908234957e-04 -5.2032025139844151e-05 3.4955355839810412e-03 -2.7326230614314511e-03 9.7388408905568335e-04 -2.7460223751565316e-03 -3.8532195950207295e-04 3.7464553242746827e-05 -4.5908065420663391e-04 2.3088042193419094e-04 -2.3710335742211514e-05 -1.8073595335785350e-05 -8.8450235316688968e-05 2.2813893111579887e-03 3.3813496813149156e-05 -4.8256249457311051e-03 2.3182196884253994e-03 -3.0747548703510645e-04 3.7845236670936295e-04 1.9027551697665956e-04 -2.0099700418625861e-04 1.1051660055905622e-03 -1.0649256715074048e-03 -1.1607791908169358e-04 -1.3335018806604204e-03 -9.4122391629397194e-04 1.6545481102935022e-06 5.2426121023474437e-03 1.3986751666576953e-04 8.0420392459742431e-05 7.8333562408700215e-05 -9.3174944244908594e-05 -1.7880567891071127e-03 -1.7669393487903520e-04 3.9630273416905205e-03 -6.5115770860659297e-04 3.6088824952106241e-04 1.3126962394215255e-04 -1.4569106702040646e-04 -3.6753551482714402e-04 2.1318546088260060e-03 -2.4702608878053962e-03 -6.4816504057361654e-04 -9.9195509253613423e-04 3.4773329729684624e-05 -1.0957990299483716e-04 -1.5430616298759414e-03 -1.5375833765951682e-04 -2.3167782802045560e-04 -9.9662350589719943e-06 1.0759248250897949e-04 -3.0827791809135731e-04 -2.1535011343263612e-05 6.4158809132567884e-03 -1.1849452283044890e-03 1.6065208907972955e-05 2.0342939852658649e-04 1.0543256536579663e-04 -3.4934414293636388e-04 -2.1524666954402579e-03 -1.0941409061920263e-03 -1.0881221936070344e-03 3.0303636300697545e-03 4.8500851873644474e-05 1.9206170661613267e-04 5.7165076789211788e-03 -3.5002229328551503e-04 -3.0484565119470524e-04 -4.7735529819692164e-05 1.7683707518238116e-04 1.7477309440687115e-03 -2.0341476675103665e-04 4.3555773941937048e-03 -4.3154470879737152e-03 -5.9065175197573188e-04 -7.5329130011562995e-04 1.8544866476326999e-04 1.0277147292400094e-04 -6.5626128825795309e-03 7.5014757015269551e-03 4.6252387314223847e-04 3.6655518119667052e-03 1.1533885736870093e-03 -1.1279943142689011e-04 -7.8983049263141591e-03 -1.1230939071369943e-03 4.4541178942649265e-05 5.7889170713684712e-05 -1.5214911157348729e-06 -1.7907906862091073e-03 1.4482700513456653e-04 -6.7996217513802970e-03 7.0687150596696639e-03 -2.6297429399006244e-03 -3.4785946242073143e-04 -3.3182039182781762e-04 1.5268629229005671e-04 3.2507932011579784e-04 -3.3050931485024263e-03 -2.0505544103540550e-03 -4.9746607053775260e-03 1.5457234772833610e-03 5.8892502277890606e-04 4.0106704868142218e-03 -7.5565671717282954e-04 -3.0408599006252974e-04 -6.9298715196593110e-05 -3.0597667629257610e-04 3.2489556662951974e-06 -2.9189633030975040e-04 2.5325065944334368e-04 -1.4925397452202147e-04 -6.6644362946324115e-04 -2.2594361038256008e-04 7.3413946896329612e-05 7.6620826789841438e-04 -3.3205120989368564e-04 1.2349631010799274e-03 -9.0444723956896629e-04 2.8992395447147157e-04 2.6024632219729012e-04 -2.4812558943752751e-05 4.4371633379900466e-03 -1.2445846402431174e-04 -5.3592178482810005e-06 -1.3557887885398863e-06 8.0210740585586393e-06 -8.5285633272912803e-04 3.8613896457817543e-05 4.5687912323844268e-03 -1.6536027727244679e-04 1.7485685867774255e-04 1.5387236095494963e-04 1.1058298580248708e-04 -3.6407603261067465e-04 -7.4516401409141855e-04 -3.0885799578902300e-03 -1.0134065698632396e-04 1.2915003843559807e-03 -1.5188264542902175e-04 -1.7255700380551151e-04 8.3703717511163234e-04 -1.0837937281733375e-04 -5.1173688435837423e-05 1.1821995759784504e-05 3.0695271875500510e-05 -5.9227725008694811e-04 -1.8847997289348406e-04 -5.1420053212214434e-04 3.2545916486606367e-05 2.9727747059616130e-04 2.2612273986499700e-04 -3.8132776553283232e-05 -4.1662760890173386e-05 -1.9128096849538138e-05 7.6160614787238595e-04 3.7879189516346648e-05 1.8380293639784495e-03 -2.3843359404738623e-04 -7.4869774332422812e-05 5.8511445806042062e-04 -4.5560093684759648e-05 3.2007839660203041e-05 2.4053286016791423e-05 8.8132746483354178e-05 8.9645692080207728e-04 -1.4275889214966642e-05 -5.4964761640496551e-03 -7.8028572845835850e-05 2.8098238685495713e-04 2.5493145368259964e-04 -4.7354893704941643e-05 -1.0205066188834563e-04 4.4724601193899243e-04 2.9144304119998218e-05 8.1234547141713110e-05 -6.6852203469223298e-04 8.5838568884648008e-05 -2.3275554009031803e-05 -4.0314433184917391e-03 1.4564889007740876e-04 -2.8672843485467276e-05 1.7848488075755873e-05 1.1727447949414982e-04 -8.0400456557452264e-04 1.2965629383896701e-04 2.0033451342615846e-03 1.5785686360184327e-02 -1.9357579451330293e-03 -1.0020361823511849e-03 -9.0062036980115918e-04 8.5104767940639525e-04 3.4150217884471919e-03 -2.6471008859215621e-03 -1.6788991551212949e-03 -1.6133376700441147e-02 2.4210138478746425e-03 6.0428294082788948e-04 -5.4861598888364949e-03 -1.3355442176878961e-03 -4.9790290085527291e-05 -1.3701828690433160e-04 -4.3859873377789018e-04 -1.3668769701677920e-03 8.0812546235319764e-04 4.2674432759272525e-03 -5.3665002600722066e-03 2.2843818335751102e-03 -2.1037866204862673e-03 -2.0985488725241454e-04 -3.4517788322826153e-04 3.1269759254487282e-03 5.0565777493618517e-03 -1.5699510244130794e-03 4.6335162892707153e-04 -3.3055774752376314e-04 -1.9801032443237179e-04 2.5825838253515235e-03 2.6788550498103051e-03 -1.2284700162332048e-03 -7.9772506484937305e-05 -1.5145735195151841e-04 -7.9911846865346426e-04 3.6495471908170571e-04 -4.7910931632230511e-03 
      </Row>
      <Row Index="97">
        -1.4791532286022313e-02 1.6179327439710478e-03 -8.6035043152721258e-02 6.1436770270216672e-03 1.3551713126935391e-02 -2.4653855444991776e-03 6.4643442197241559e-03 -2.2115195143183452e-03 9.4443356662077191e-03 -3.8480411526879088e-02 5.6865378800904070e-03 6.8147084169814520e-05 -7.9807490804784109e-04 -2.0206712848715941e-03 2.6677258615688884e-05 -2.8925865459056147e-04 -1.2374002594545607e-04 3.8969999730904242e-03 2.4200630728416096e-03 -8.9481247661364893e-03 2.6015572614705024e-04 3.2270973284502777e-02 8.9994691114347984e-03 1.2142875927460106e-02 1.6836812596850298e-03 2.7764654931914240e-03 -2.6122175491286076e-03 4.3323364254603744e-03 5.4482189080831689e-02 -1.4657861996312509e-03 2.0991212532126546e-03 -1.8135183882463934e-02 4.0658481230867217e-03 3.7221640491226504e-06 2.2327031242011519e-04 -2.7980595910821157e-04 -2.2400762354317372e-03 -3.0407687956718679e-04 1.7691100949615013e-02 9.2720319912056827e-05 -2.5517710032591279e-02 -1.1692341578499847e-03 2.6064714509690251e-03 3.0689961682422023e-03 2.0228163516008146e-03 5.2449317074263618e-04 -2.4789812077200060e-02 -6.8438974869735603e-03 1.1628643942265190e-03 -1.2060778513025561e-03 -1.5721357615785081e-02 -2.4138186352574481e-03 -1.1325763553587387e-03 -3.5570392686753993e-04 -1.9236862068768706e-04 -6.0209422255826095e-04 -4.6201190418214064e-04 2.8226929328856065e-02 8.6147596433584772e-05 -1.1606267947985759e-02 -8.0268435645731787e-03 -1.3134741689100615e-03 2.0662854131115304e-03 -3.4866238356303786e-03 5.0421954745802355e-04 -2.9865681918876674e-02 -1.7204923609858369e-02 2.2335468720715707e-03 -6.2658317936948454e-04 9.6147743618075765e-03 -2.2880939012151378e-03 -1.6167540532620807e-03 -2.6448816846158518e-04 6.7948018560728268e-04 3.0313789619265397e-03 -1.2539408878306305e-03 4.0299820803538555e-02 -2.4447424089520664e-03 -2.7624187597762181e-02 -4.3774329140711110e-03 -4.3811222367006741e-03 1.1523339026950994e-03 -6.3064070668614469e-03 8.4628300632297870e-03 -7.3846160084789503e-03 -2.4905390686717155e-02 3.3357923200056927e-03 -1.4264007102219728e-03 1.0321852961954647e-02 -7.0871489320517567e-04 4.2549115666070531e-04 1.4229931822688086e-04 -3.4124987023870929e-04 2.3305003144764858e-03 1.3120368680649697e-03 -1.0241537473456325e-02 -2.6297429399020529e-03 1.6071585899713958e-01 7.9426989397768447e-03 6.0517171360713034e-03 3.5800396138218984e-03 6.6174280948469496e-03 -1.0969911792881165e-03 -2.9036468651011550e-02 7.6935014985106992e-02 -6.1229655747909208e-03 2.9582030605086376e-03 1.6192275539226975e-02 5.5561286352639695e-03 -7.3300433785400204e-04 -2.3183224071059183e-04 2.6776514545291316e-04 -1.0504212733997570e-03 -2.2629030633238281e-03 6.5674626281875259e-03 -1.0732353971947273e-03 2.6676071903425219e-02 2.6829503977654537e-03 1.5697822893344822e-03 -7.5989554881961477e-03 1.6492615646958100e-03 1.7838377703928605e-03 -1.8244531131172154e-02 4.2627096215800186e-02 -2.2768697129347897e-03 1.3321920579422927e-03 1.1578914045700550e-02 -1.5305155701300166e-04 -4.7545981656114001e-04 -2.6901854932848829e-04 8.4817987267152685e-05 -3.8120737318051989e-03 -1.2560256857159779e-03 2.8450041057077217e-02 4.1304794819863912e-04 -6.6508828962487509e-03 -3.5835667494505106e-03 1.7921027209831051e-03 1.8290462834925619e-03 -1.4096595561395378e-03 -1.0474823537079195e-03 -1.1734622648970156e-02 -2.9661214994819544e-02 -1.2629596957760873e-03 8.8429348491859353e-04 2.9633889504232513e-03 -2.2020469209120365e-04 2.2421371179053576e-04 -2.1196172699539047e-04 3.5559726208199291e-04 -1.2452749347935934e-03 -2.9825664173015133e-04 -7.1104399080370584e-03 9.6124467638573213e-05 -5.2262486227130610e-03 3.3469227400742844e-03 -1.0210668765281983e-03 3.4294592868357177e-04 -2.0941999165970324e-03 2.0904523390835039e-03 -9.6903692953372329e-03 -1.7221118155267168e-02 -3.7486782767762830e-03 -2.7018664215639476e-03 1.1847342311742892e-02 4.5957629991001713e-04 4.2527739332464277e-06 -3.1137562859158419e-04 1.0927782734338268e-04 -1.0062914115926969e-03 -4.6415486290402042e-04 -3.6576754240058830e-02 1.3026015406013757e-03 -2.6107830471403578e-02 -6.0229459110432799e-03 -4.2917463015893385e-03 -4.6804702931955771e-04 -2.8287611392278991e-03 -1.3158900614533477e-04 -4.1119210248591583e-03 -8.8593756576508323e-02 1.6272591004729202e-03 -2.3750693347098324e-03 5.0954932040365719e-03 -9.0471873602092833e-04 2.7527457692793798e-04 6.1794460545157998e-05 -1.5683796979753032e-05 -2.9792276194594621e-03 3.2971350321250349e-04 -6.2025240359491723e-02 1.7891184081627245e-03 1.5046901229034704e-01 -6.1722219907370084e-04 -4.1989884596386950e-03 -4.9927730539698692e-03 3.6261945403288070e-03 -6.2575587378209214e-03 -2.7788560435529183e-02 -1.7845030995163699e-02 8.5522611517064324e-03 -3.2920901383947624e-03 -4.9025911176644676e-02 -1.4615911730979239e-03 1.8825824523291401e-03 -7.2015595433574269e-04 -3.9547966009184166e-04 -1.1495194446900057e-02 3.6058204625857050e-03 2.7269446376532724e-02 -4.2658006491777672e-03 -1.0883605193372925e-01 5.6782314084497243e-02 -5.8782391929830839e-03 2.4023537531902414e-03 3.1311683934652640e-03 3.8678799913585693e-03 -4.1316967192985402e-02 4.9564696265556310e-03 -1.3841935267698313e-02 -1.1294605316499663e-03 8.5019875234585637e-03 -1.7150891828177819e-02 -8.6215125137731989e-03 -1.2339907595454750e-03 1.0354573031711931e-04 -2.0265065926933874e-03 -2.9808972765499612e-04 5.0280859090720054e-02 
      </Row>
      <Row Index="98">
        2.1561488279118078e-03 -5.3407879637529330e-04 -5.3752554165667835e-03 -5.6125848212193142e-03 1.2348482475437452e-02 -2.0346426242588833e-04 -6.3468386260330158e-03 -1.3767822149723411e-03 -2.5112338276708224e-03 -1.8409816368708420e-02 -3.7670235379711550e-03 -2.3079291111279682e-04 -9.5853260986706879e-03 1.4845561500399487e-03 -3.1106864626538264e-05 -1.0212254425788993e-04 -2.8602556051472543e-04 -1.7647777492358393e-05 -1.6710857078581793e-04 3.9675046850480011e-03 -5.8251912410179837e-04 1.9743023055762074e-03 -9.4022390294481290e-04 7.8570394599068449e-03 -1.9766008320624973e-04 6.8517964019536963e-03 -1.1749552232026162e-03 -1.1745219514620181e-03 -2.4553636146426583e-03 -1.0183327215896106e-03 -7.8856328453065505e-05 3.1841367669223075e-03 1.0266644484282512e-03 -1.2098298321003287e-04 5.4747512605677479e-05 -4.4310828095802919e-04 4.1193432206149544e-03 -3.4383112318089708e-04 -3.7783532690718047e-03 4.3477848283000908e-06 -1.6494256169742247e-03 1.3120851723733614e-03 2.5974887243251053e-03 -1.7048397779183579e-03 -7.4057131122071962e-03 -1.0335871975290824e-03 -1.4947888317360866e-03 4.1014009891928715e-03 -3.3067014976639192e-04 1.3699458821242461e-04 -2.5345510967440532e-03 3.8123340741245802e-04 1.1377274528032860e-04 4.4996402004918341e-04 7.5938831721506991e-04 2.4326938804773018e-04 -3.7663670337995982e-04 -4.1185925043094040e-03 1.6240788138679497e-04 -1.0389607993531707e-03 2.6293900826394601e-03 3.5630004866583076e-03 -8.0919608849347349e-04 9.4203094652942007e-03 -5.1652653036177165e-04 -2.6439957476213916e-04 6.0669362328058529e-03 1.4545879674718980e-03 -1.8125863840305623e-05 5.7114045022466087e-03 3.6094180141404904e-04 -8.5827563080956987e-05 5.2783292740911023e-04 6.3269154965371090e-04 -1.9409095470320353e-03 -7.2810270486358547e-05 -2.5849288021286831e-03 1.1004291158562135e-03 -1.3928344870370417e-03 -4.7195374485149710e-04 1.2616162352906413e-03 -1.7518125975926006e-04 3.4869515117944769e-03 5.3329199373553515e-03 3.1060180080699773e-06 -5.9557836938690656e-03 6.7022088676832459e-04 -3.7094482553019087e-04 -4.2650141681255249e-03 7.9690180286452403e-04 2.6605047897369088e-05 1.0279587957581424e-04 -9.4535621731322433e-05 1.6852556794302864e-05 1.7785231168031268e-04 1.3133613685469350e-03 -3.4785946242110038e-04 7.9426989397731185e-03 9.6050599016737626e-03 -4.3327787820858221e-03 -4.9454666854666335e-04 -3.9396443004049994e-03 1.3417018929045537e-03 -1.7343024763274472e-03 2.7411296754875011e-02 -3.5466458718759648e-05 1.2530832682263685e-04 -1.1323893097120452e-04 3.4460061318443701e-04 -2.2485131836349199e-04 6.6285048142614156e-06 -2.1796781250674925e-04 3.8979412452084475e-04 -1.2575222568303973e-03 7.3276610058692349e-04 -8.7468578612952957e-05 2.1794534832199480e-03 1.8107006736298739e-04 -7.7825416761870313e-04 2.5108596328828137e-03 2.3849659693372938e-04 1.0747992014284885e-03 -1.3151634703586317e-03 -5.6395781624161145e-03 -3.5879790544178611e-04 1.8598685079580573e-04 -1.1794762487741250e-03 6.3618727388210997e-05 -6.3101408841578259e-05 -1.8492389751996463e-05 -1.1936593135272383e-04 7.2943973963396358e-04 -7.9750380701626433e-05 -1.4963971115040703e-03 -1.0613003536866919e-04 -5.7409362759092727e-04 9.8519058558033828e-04 3.1225179618304651e-03 -9.8344438534011570e-04 3.4014767810195985e-03 -1.2403261161947352e-03 3.2268738889378186e-04 3.8357362098445924e-03 9.1756684051818920e-04 -2.9806203044636123e-05 5.7056254579919141e-03 1.1780061994146930e-05 5.2219661874158124e-05 4.6981695269902865e-06 8.4895901306605121e-05 6.2687893340090213e-04 1.0852054192075022e-04 1.7341060642956929e-03 2.8462151489556118e-04 6.3626117956121046e-04 -1.4173099627301407e-03 -1.3508386506937281e-03 -4.2419537295484630e-04 7.2296528086395195e-03 1.1491805483119788e-03 -1.2528799887457835e-03 -1.2614948249513078e-02 3.0324784758317685e-04 -3.7848849740140453e-04 1.9804694168570336e-03 -4.4316209579043649e-04 9.9824377878902850e-05 4.0646243377262872e-05 -4.6200731388676701e-04 6.5136510951441240e-04 -2.1739550979103794e-04 -1.0047915197607081e-03 2.3033390390715750e-04 -1.6928959905402972e-03 2.4804497830059010e-03 -9.5328223982304701e-05 1.0411739535658569e-04 -4.6636877314858221e-03 -4.0770129714430222e-04 9.2843240980937294e-04 1.5322509054466079e-02 1.1722595982849038e-03 -4.5268309673374650e-04 -9.5803912029089333e-03 -2.6440299557438363e-04 1.2881348810142102e-04 1.6800680982509658e-04 3.1091458306493262e-04 -4.3469149779814392e-04 1.5143663641592215e-05 -4.2634119971216022e-03 -1.2584909361966913e-03 2.6360965878827608e-03 2.4808770600343692e-02 -1.3986174477650269e-02 6.5628701023391980e-04 -2.3968991386342869e-02 2.5686982705526002e-03 -7.7524651550917459e-03 3.1537444620583874e-02 -6.7362667752273921e-03 -1.1742670911051118e-03 -2.0180260410618267e-02 1.7830748442916253e-03 1.9823915528801222e-04 -4.3368885650990271e-05 -8.9937988949213843e-04 -9.7816645009116392e-04 -1.4935507214452123e-03 -1.4747446454289187e-03 5.0186337425462031e-04 -7.4277402964949366e-03 -2.8925887352207129e-02 -4.8875683306707192e-03 -1.1943312609147042e-03 -1.4648152540347251e-02 2.6905578924545986e-03 -2.2257908321898288e-03 -1.5542115626871484e-03 3.5425965966605585e-03 1.8711355981693416e-04 5.7862556021473083e-03 -1.0723876163746652e-02 -7.4591024460302427e-04 -7.5470699782323935e-04 -6.7602748673216764e-04 8.5459887725409947e-04 9.0529555294979064e-04 2.3221538600821417e-02 
      </Row>
      <Row Index="99">
        3.2782014896093701e-03 -5.4499261520044528e-04 1.5946013468992274e-03 6.7292636260665793e-04 -2.2973044889883353e-02 1.5611366553661718e-04 -4.8882908773993494e-03 -1.6807158750258482e-03 1.1853238974121236e-04 2.9197920148757196e-02 2.3625263494964397e-04 1.6113962849361020e-03 6.1789894813415354e-03 7.7349226592928139e-04 2.6617666448977784e-05 -5.4356330412847344e-05 -3.8978160251412828e-04 -1.4577145737374175e-03 -5.7161430561930549e-04 1.4545811733566588e-03 -9.6978504883591635e-04 4.7554173695578787e-03 1.8793569253336751e-04 -8.2365420134379759e-03 1.3482550001764153e-04 -1.3203774956681276e-03 -1.6583039160692409e-03 9.4458696107022012e-04 1.6984688261646962e-02 8.3786916381226734e-05 6.9230565085322119e-04 3.0835452603789615e-03 5.9366256739861096e-04 -1.1215868132077835e-04 2.8166642893561345e-05 3.0375329589863066e-04 4.1451337608856605e-03 -7.9504548500558797e-04 2.3829232959611734e-03 -7.2996875636100023e-05 4.2232610955339955e-04 -4.3878935832329614e-04 -2.5776562944197822e-03 1.2963873118112287e-04 -4.2375394857478406e-04 -4.0104215756492969e-04 9.4617191672568678e-04 5.1886049023582709e-04 -4.8741956660300822e-04 -3.2138502183101918e-04 1.4084423258263479e-03 1.1890409346912150e-03 1.6734684420052683e-04 6.9559772342632492e-05 1.1610550433477837e-03 1.6685504342480997e-03 2.3548849174959474e-04 5.2154979763246890e-03 4.3179311659479976e-04 1.0542346247137250e-03 -6.5072763884487103e-04 1.2207199503121179e-04 -1.7364105563091544e-05 5.1645209327194110e-04 -8.1099261983786286e-05 1.7472190944967866e-03 -9.5324781525497407e-03 -2.2833861101717308e-04 -3.4631404466838945e-04 -4.5565497445747560e-03 8.5122244444081705e-04 2.7625334780577817e-04 1.8533790756390396e-04 2.9917716148660336e-04 -2.2753905883306125e-03 4.5245989413183910e-04 2.9962054542219570e-03 1.8664174677260038e-03 -9.7048884768370051e-04 -5.7669842100715367e-04 -2.1405927808085803e-03 2.5400823596022918e-04 -2.0953439692679302e-03 5.9720083536918094e-03 1.7125123851635497e-04 -2.5440165535300791e-03 2.4905549580645295e-05 1.8245811159026105e-04 4.3243147812280780e-03 1.0946231728560720e-03 5.5083670933042347e-05 1.6743587885394390e-05 -3.9855779171736329e-04 6.7844416422841586e-04 2.0673577936848250e-05 -1.5890197033941456e-03 -3.3182039182753009e-04 6.0517171360696172e-03 -4.3327787820871214e-03 2.9589943685635247e-02 -4.4093772545415744e-04 1.3036071170302657e-03 7.9518896242257052e-04 1.7367653110274377e-03 1.6347307229060970e-03 -8.3093497998817738e-04 1.6723826485208261e-03 1.2898876727649444e-03 1.1831147708903718e-03 2.1722444622258061e-04 5.0637786855385776e-06 -4.2873013753813973e-04 2.6267009913742007e-04 -3.0645614000187298e-04 -9.8416315482411504e-05 2.6681527228498313e-04 1.1989653752946857e-03 2.2359320080606558e-05 1.2571153997364441e-03 -1.8646707375432909e-04 1.0283013493997406e-05 6.1958285301479381e-04 8.9709854185921617e-04 -8.8374152371214140e-03 -4.3734102774589320e-06 2.0652227349037770e-04 4.5613416188148292e-03 -3.7593751278203657e-04 7.2264382101418266e-06 2.6171205405607688e-05 -1.2127137754737905e-04 1.1868898016114057e-03 -5.1737000527072793e-05 2.9228601805588172e-03 1.0452975436746115e-04 9.8093032625852635e-04 4.6639171284836804e-05 -3.1069322423533073e-03 1.8649949565945696e-04 1.5512261040580184e-03 -1.0168223855498532e-03 3.2105067891776925e-04 -3.5751586994924103e-03 -3.2564081384819346e-04 1.1671223984332309e-03 -1.6452194213779636e-03 -2.6387752972133974e-04 -9.9626439051058921e-05 1.3374295575435598e-05 -2.0819165692140330e-04 1.3402614386581013e-03 -1.4518124543150951e-04 -2.0594348234262497e-03 2.1442605809182669e-04 -1.2243619100235931e-03 7.1515503565646853e-04 -4.1612703104988279e-04 -6.7657020387107414e-06 -2.2339059109025595e-03 1.6281911601843859e-04 1.8127195469347127e-04 2.3144668319324269e-03 -3.0857631076809569e-04 -1.0295413963679056e-03 -3.5789771359517886e-04 -7.0136894203930394e-04 -1.8804933693029175e-05 -7.4545822141202582e-05 3.0578340041788983e-04 -1.5072577617591025e-03 -7.0299406503455692e-06 -3.0473575689913719e-03 -5.5921148465926844e-05 -1.2664621563689357e-03 -9.8607037919414301e-04 1.1623784725528271e-03 6.4158430380779874e-05 8.9784801692560992e-04 1.7875441448582190e-04 -2.2325594889456102e-04 1.6621493975058691e-02 -3.7931731027137402e-04 -2.7396432091113970e-04 3.6951155137090463e-03 6.6205367037383989e-04 3.4323136370932074e-05 -7.9686994116711201e-05 9.7060419840832641e-05 2.1536795486651779e-03 8.2882554832833374e-05 -9.5780547066955102e-04 -3.2709524091935191e-03 4.8772247157974399e-03 -8.3095075222187967e-03 4.9114442418982170e-02 -8.9556650270178426e-04 -4.9447286096845899e-04 1.4126299093788521e-05 1.8412678536471778e-03 2.0447335248994142e-02 -6.3382842758244462e-04 2.8903297512809572e-03 -2.2267940845913520e-03 8.0416414767407983e-03 3.6838032409813913e-04 -4.9629913887316358e-04 -1.4744325462395973e-03 5.5820722438339162e-03 -1.1883241989401544e-03 1.3716165545329178e-03 2.4880757531482072e-03 -5.0873019339093715e-03 1.0084842057381952e-02 4.0424615567052459e-03 -1.0553370604547870e-05 1.1252995101973377e-03 2.6411031715289704e-03 1.5417057730578538e-03 -4.8736929595566219e-04 -3.1477707230528895e-03 -1.0721773826194679e-03 8.2045615180222650e-04 -1.2678711460582547e-02 1.4095354272358827e-03 -1.9147748079071026e-04 -3.7232928911371897e-03 1.3293590222822642e-03 1.2037138248036088e-03 -6.5937431554247323e-04 
      </Row>
      <Row Index="100">
        -1.2471574869814938e-03 4.4200582329060809e-04 -2.7672499476856932e-03 1.2889155645634507e-03 8.0605400997167675e-04 -9.1366300216463459e-03 -2.4876998549344109e-03 1.1725092154725937e-03 -3.8725366027593522e-05 -1.5748237754916738e-02 -2.2794702341270449e-04 2.0900605646741871e-04 -1.8253587037653229e-03 -1.4304973275861695e-03 5.4971647437436141e-05 1.9124251653298161e-04 -4.0636551748137427e-04 3.6734216101881752e-04 -1.1376008731959261e-04 -1.0768455197530669e-03 5.5621116222498088e-04 5.2904239968854655e-04 2.7921226089110254e-04 1.3372583901793966e-04 1.8470243809548363e-03 1.1155921782760904e-03 1.0354960756672233e-03 4.1501969461503647e-04 -1.2133693495680886e-03 -7.9003517364660460e-05 -1.5422111438199992e-05 -5.5109336943459653e-04 -6.6120687588706178e-04 1.3687236937684607e-04 3.3296177038446770e-04 -5.7502952373129001e-04 -2.9056299504767041e-04 5.5145320156434544e-04 3.1893885567278041e-03 -2.2117785336028849e-04 -5.3234343354134628e-04 5.1086498394667390e-04 -1.2057360051223251e-04 2.6068858636403514e-02 -5.7501974500852315e-04 -6.3104705008736744e-05 6.8886574838019146e-04 1.5648712177258606e-02 6.6040869599351404e-04 -3.6246193867972565e-04 -2.7076866645945330e-03 5.5749127194245469e-04 -3.7553352251605554e-05 7.9446921604442878e-04 -1.3571667339827426e-03 -4.8098235481627491e-04 -4.8885135436226284e-04 5.3034368280369115e-03 -4.6350238496761093e-05 -1.4079697488171908e-04 -7.2305540345624086e-04 -2.0756422304889915e-04 2.0209467144178313e-02 3.1636507007212177e-03 -1.2778369292785335e-04 4.7169851208350017e-05 1.0074627726615937e-02 6.2717000855740460e-04 -6.8723660361039857e-05 -1.7538060661497212e-03 1.3682483397654734e-04 5.8308660177059041e-05 5.5132041544104018e-04 -9.0795158140082044e-06 -3.0204763617228125e-04 1.9057884865096401e-04 5.8151579013938637e-03 -7.4266155332587680e-04 -2.0336767672414491e-06 -5.2132516341128754e-04 -2.3301857879248766e-04 3.9617170889136846e-03 1.9203224383121040e-03 -2.3432498879643604e-03 1.0283226258167577e-04 1.1465174248172616e-02 2.2375670996621633e-04 6.9677032748397677e-04 -8.1657401832146981e-03 -9.0876368183994902e-04 -4.7234466905802380e-05 -1.8928503777216471e-04 1.0293167177016782e-03 -6.8886479783095839e-04 7.1228353356780905e-05 -1.4351421431972999e-03 1.5268629229025447e-04 3.5800396138222410e-03 -4.9454666854653411e-04 -4.4093772545390764e-04 2.8776073280926299e-02 -4.9350289839092051e-05 8.2597537412086998e-04 3.7376086226212455e-04 1.8447821011520205e-03 -8.6106687889557650e-04 -3.7720738815145890e-04 -5.0872355564241523e-03 -1.4231692791193107e-04 2.1968851253823137e-04 2.4302937324903042e-04 -2.9102138358518985e-04 5.4760176677809717e-04 -4.5851425818669303e-04 -1.2882725936793515e-02 1.9262335010939800e-03 9.6103859553635373e-04 -1.8837638575997535e-03 -2.3795986903420814e-04 -5.2202746566462059e-02 -3.7785763889248529e-03 4.9952668257739752e-04 7.9481603041132998e-04 -3.9537477607438865e-02 -8.2728995738161489e-04 7.0705170021607977e-04 1.2106056402855447e-02 -2.9786274311616582e-03 6.0373606627207128e-04 7.8441575486222492e-04 -1.0988111049779585e-03 1.4985696476870758e-03 -1.7079089669706782e-03 4.2657259909717644e-03 -5.7416587433621060e-04 1.4099292002627863e-05 -1.3378166224259054e-05 3.4681415157226969e-04 1.9907722479357428e-02 1.5517805512701016e-03 4.3404526756862447e-05 7.2829601569958651e-04 6.9554378286683337e-03 3.8544988004167750e-04 3.1787018859390074e-04 -1.7873814853768266e-03 7.6697730386533357e-04 -2.2184048031872612e-04 -2.4725950054294525e-04 1.7330934847618670e-04 -3.9829941239989393e-04 3.5368876369213710e-04 -3.5647965718283992e-03 -1.3888803578404000e-04 -4.9749367408212508e-04 8.7675644606950709e-04 -2.3944793733035596e-05 3.9140954086954241e-04 -4.8352271740402346e-04 -8.9407061497279172e-04 -8.0272417476889531e-05 -7.2119708026018581e-03 1.0759783458424589e-04 -8.3073378290870331e-04 4.2954021718397684e-03 2.8917233446844386e-04 -6.1541636514319509e-05 1.6214886020628899e-05 -2.6229584236251574e-04 4.1193423139107566e-04 4.2210141581099786e-04 -2.6613032290769452e-03 1.6645816830742217e-04 -6.8540670954764964e-04 -3.1921448437134854e-04 -2.4504006301457151e-04 5.6569729406316712e-03 -4.1397394350331344e-04 -1.6589813963057603e-04 1.3743354350963558e-04 -1.8552691300706269e-02 4.8987882462055046e-05 -3.6620411287871611e-04 -7.8981795790395437e-03 8.1408253563089352e-05 3.4481690757957721e-05 6.2039687488180378e-05 -1.6305334242510352e-04 7.9813954633576375e-05 4.2870021694762497e-06 -2.9434047587111357e-03 2.1092215529035529e-03 1.7278033751862373e-03 -1.6564732255899481e-04 -9.4267408394984177e-04 1.2136313777643154e-02 -4.9830300800430705e-03 2.4755248849288114e-03 -9.7102033386792328e-04 -6.4803469923032389e-02 -2.3505480911476268e-03 -1.6465602233624592e-03 -1.1915678865988655e-02 -3.0481591422352110e-03 8.3023985921703506e-04 9.0748540358801682e-04 -1.0291969357544221e-03 1.8388596407674705e-03 -1.8836741322953729e-03 1.1682015159930614e-03 -1.1092219209305140e-03 -2.5573909137377605e-03 8.2317210941200113e-03 -4.3709414381906306e-04 1.9562317891088071e-02 -2.3886822623542222e-03 -9.9957529507610846e-04 -9.6910830790213900e-04 2.6421528579932182e-03 -4.7388668182839818e-04 -1.5932347040311864e-04 6.0133424436238439e-03 9.5158975799739115e-03 7.0235815424564071e-04 -9.6592953230466511e-04 4.5598990660363553e-03 -8.4044006765385802e-05 -1.7861402682596208e-03 -1.8827370898390809e-02 
      </Row>
      <Row Index="101">
        -1.1837361648427993e-02 6.4494563050277755e-04 -4.7701669692873641e-03 -1.5718842240202307e-03 4.0720779509679046e-03 2.6393078408135529e-04 1.0071605641731717e-01 -1.2867387132343721e-03 7.9593531428200602e-04 2.6441977181894127e-02 3.7690166977678635e-04 -3.2088172892278475e-03 5.7092601185835395e-02 -3.5104581415059699e-03 -5.6676955388820077e-04 5.3109122111814444e-05 -6.6453562364439920e-04 -5.9504830136825060e-03 3.4824155017109297e-03 1.1209643603062884e-02 1.9438926873904241e-04 1.9427797568025709e-03 6.4193549703425662e-03 1.6317140155946578e-03 2.9193587487266043e-04 -1.8674246425197515e-02 5.3354996338482994e-05 -9.2734232482879683e-04 3.3933398525048633e-02 -2.8259266786025035e-03 8.8474454610676856e-04 -1.0306826697170687e-01 1.7934929151946905e-03 5.1568249147035915e-04 -4.2823543009032453e-05 1.6206747773099177e-03 2.7103901338865086e-04 2.5419542683172234e-03 -1.6800858116772427e-02 9.4016989277140404e-04 -5.2630799114152329e-04 -6.3194795220420687e-03 1.8309842826181554e-03 -5.8565632377185779e-04 7.1044955230508536e-02 -1.1996584449050667e-03 -1.6158623632118636e-03 -1.1362945682740931e-02 2.8974383198633134e-03 2.4307641655762688e-04 -9.1485334896116710e-02 -2.2233289544247282e-03 -1.2721694497720254e-04 4.0514850206904365e-04 1.7362020446066095e-03 3.1831088217263398e-03 -3.5941706124893976e-03 -7.6380529144006969e-03 -9.4662717209869523e-04 -1.7703970027225960e-03 4.4668133664787736e-03 1.2744550258821452e-03 -1.9544414462317316e-04 -9.4238992876298708e-02 9.3848253204869626e-04 -2.5042674864946646e-03 -3.5696784525948095e-03 -2.4134332112381745e-03 3.0280917874299131e-03 3.6088648615768701e-02 1.9791446042525000e-03 4.9180347142603695e-04 4.4408184835723985e-04 1.2542067548871312e-03 -4.3063184380213284e-03 -4.1080147162215726e-03 -1.3075709327402710e-02 -1.3063769179430028e-03 -1.3731781035553759e-03 2.5840533503239567e-03 -2.2379537362760375e-03 -6.4597227305274662e-04 -5.0235729050105433e-02 3.1679050571257203e-03 1.9446549326397567e-04 -2.3840927597654878e-02 3.1183887491879727e-03 -3.5463646749864082e-05 7.3857332050901114e-02 1.3790863874978284e-04 1.7768434624833030e-04 3.0285612232625297e-04 1.1645713999426988e-04 1.3617140067043196e-03 2.6394568062615279e-04 5.5275536312482387e-03 3.2507932011409250e-04 6.6174280948646715e-03 -3.9396443004000373e-03 1.3036071170240578e-03 -4.9350289842923513e-05 1.0132130648369507e-01 9.2821031398619182e-04 -1.4204026469641189e-03 5.5135192629226837e-02 3.3385179384130713e-03 -1.4168136983900691e-03 9.3486982026913329e-02 -7.7451731469753134e-04 1.8755303811257898e-04 2.4084131543843266e-04 4.8342941492222078e-04 -1.2129540263413646e-02 1.3911504608303364e-04 -6.7458283482102650e-04 1.0406596047217478e-05 1.2556055053641810e-03 1.0644256517564010e-04 -3.1593593101985566e-04 -3.9831609002269531e-05 4.3528685507981044e-03 1.8915680327522173e-04 -1.7056480207543676e-03 -1.2592614303313213e-02 5.4126922710568889e-04 -1.7504293040928633e-03 2.5750393301334662e-02 4.6304025736967512e-06 -4.1855711735136795e-05 4.5918602111531671e-05 -3.0445743491658506e-04 1.6396656689836838e-03 5.1186323172824953e-04 -5.3877447930074582e-03 1.3948044549468919e-04 2.5683495150690501e-04 3.7327356031980471e-03 -1.5665355098084654e-03 -2.7236075811433447e-04 -3.1661964953452401e-02 4.2715069327527925e-04 -5.4869292617275593e-04 1.8468590642051572e-02 -1.9905229849866576e-03 -1.3428285493110549e-03 -4.6463726053805818e-03 2.3021409714257422e-03 4.0722626396704116e-04 -3.0448366896586907e-05 1.1891425501005621e-03 -3.5964400666956822e-04 -7.1635928773542551e-04 8.5141065243554692e-03 -5.1866147857532077e-04 -3.4539346439102893e-04 7.5070207212150448e-03 -6.4916060996805238e-04 2.3266082876749125e-04 -4.6713815553070533e-02 -7.7355030849014686e-04 3.2534551692309552e-04 -5.3959270331616765e-03 3.7036603556826308e-04 2.4552197191549871e-03 1.2538692350199734e-02 2.9225736061148930e-03 1.5173693097271556e-04 -1.5107428925692585e-04 1.2148771014249366e-03 -2.5073017152129591e-03 -9.9069807162868164e-04 8.7970387806325517e-03 6.4461768668919021e-04 5.5986690647939936e-05 -3.7924953928281826e-03 1.2507407048914900e-04 -5.1267580136087553e-04 2.5344432583481277e-02 -1.3583926675247106e-03 8.1383024003327438e-04 2.9587442314054947e-02 4.5430726357306240e-03 4.1339599388491837e-04 1.7356724977845484e-01 -1.4969436853597919e-03 -2.0704043331359629e-04 2.7275370515610358e-04 -3.3075731974615858e-04 2.3144553848567229e-03 6.1771850762276214e-04 -4.2003821008584796e-02 4.6457358256526884e-03 5.4044805166277108e-03 -3.7632565866409416e-02 7.1117678637868734e-03 -3.7012719368579357e-04 3.1121477538289033e-01 -8.9589629012787036e-03 2.4665079503068477e-03 3.5771857750209635e-02 1.7791132959045088e-02 -8.7671809339527514e-03 6.4273789895993194e-02 -2.0850858997003525e-02 -3.8581633841924712e-03 1.0090312033891682e-03 -7.8148294899873950e-03 -1.2542050769306498e-02 1.5245337340223146e-02 -8.0571352861348138e-03 -1.5938028922951441e-03 -5.4523962038644973e-03 3.7908064562681407e-02 -1.3430988401227466e-03 -3.9036128078881373e-04 1.3652503466726718e-01 1.8181942376708088e-03 -3.0404785444867605e-03 -2.7878318018497196e-03 1.4741275137242757e-02 2.9007624640665919e-03 -1.1906619035543431e-01 2.0900068126458032e-03 -3.6900148475957351e-04 -1.3058195704725526e-03 -4.4051147984483022e-03 2.0141001319095133e-03 -1.0525015136611382e-02 9.3074510912382561e-05 
      </Row>
      <Row Index="102">
        1.7731547940657150e-03 1.7371060909349616e-03 5.1855506481705317e-04 6.7347877988558290e-04 9.3200656287350386e-04 2.7988587627249847e-04 3.9214681311153753e-04 3.5415460088175817e-03 1.2492130093058693e-03 -4.3951659973390789e-03 -8.2642999306453344e-04 -3.4864698574134986e-04 2.2673904278814772e-02 8.0098890378651512e-04 4.0115986948281420e-05 -3.4488371557644514e-05 -1.8195829667278169e-04 3.7074535320178598e-04 -7.0335037694276470e-04 4.3144980190118754e-03 1.0624166468498522e-03 -8.3507160402007848e-04 1.1104437115237902e-04 4.1132072905124273e-04 4.1698755283842842e-04 -4.9129949931770844e-04 3.4362381278378318e-03 -3.9740336624672409e-04 -6.3232516471756067e-03 3.4791858732420404e-04 -5.3073624838350861e-04 -1.0393152424370555e-02 -1.8543418756165019e-04 7.3333995503962112e-05 -3.3824324400027680e-05 -5.5619912896405586e-04 -7.1464159540188255e-04 -6.9415237992477346e-04 -6.0719495168894619e-03 2.7764597384428443e-04 -3.5266997895545349e-04 4.8668415655213891e-04 4.6507979876095513e-05 -3.0854109707106024e-04 1.2708813911895267e-03 2.7349269164473927e-03 -1.8947293536776544e-03 -7.7978778919917113e-03 -1.7751315142074033e-04 1.9022761496232526e-04 -2.3756335672193707e-03 1.2611321536079058e-05 -1.0162693247224228e-04 -1.8160988791321529e-04 -7.7173193358945087e-04 -5.7860949977801834e-04 6.7216325215206478e-04 -8.9493649674088210e-03 -5.8943516905113390e-04 -1.1033653711520967e-04 -2.0851111868912600e-04 -1.0938557435132348e-04 -2.9596521940481683e-04 -2.7954215430364172e-04 -1.6904971841390486e-03 -1.5585802622208739e-03 5.6235138311179211e-03 3.9391954220282296e-04 9.5298302406117159e-04 5.8901184800612683e-03 -6.5014972901946549e-04 -1.6929249905857016e-04 -2.7944867846412891e-04 -6.7200698820686113e-05 -8.3192454873270288e-05 3.5322629575920608e-04 -2.2983247556460695e-02 -2.8950807230477549e-03 2.4942827893010494e-03 -1.1937397712871306e-03 3.9533653820711390e-04 -6.7916365746026677e-04 -8.1839586069242069e-03 -1.2202161144504509e-02 3.2930399322307347e-03 2.2082417184323910e-02 1.1216684638226671e-04 1.0034038724275008e-03 -1.5146948432846807e-02 -3.2072681194572454e-04 -1.3326587238989343e-04 1.4323638051320225e-04 -2.9569235940873732e-05 2.8676662237369834e-03 1.8253919355915374e-04 5.9489894122234377e-03 -3.3050931485026037e-03 -1.0969911792875469e-03 1.3417018929044056e-03 7.9518896242311479e-04 8.2597537411912940e-04 9.2821031398884497e-04 3.8437608708908069e-02 -3.8390177903935216e-03 -1.3848687472020949e-02 2.5809474724800875e-04 7.3649808590492763e-04 1.1061152636616667e-02 3.5843044012682543e-03 -4.5151679974463456e-05 -5.0638355007270094e-05 -3.5763671521179532e-04 5.7834540050984845e-04 1.4902508005905880e-03 -1.8701334471926956e-03 -3.6552938454678316e-04 1.4249254961351196e-04 -2.2298891627806332e-04 2.1241632099992108e-05 6.8024683531542687e-04 -1.6055570709439110e-03 7.7914352871884598e-05 -9.4913386326596350e-04 3.9432996745313309e-03 5.1624575148624501e-04 -7.5554212596256123e-04 -3.8623196794773662e-04 -2.3318974612778561e-04 -3.9369572396254047e-05 3.9585173611817598e-06 -6.1802822469696206e-05 -1.2882680330906365e-04 2.5002511737239747e-04 -3.7788287477351079e-03 -9.3810414619897343e-04 1.6746534142292975e-04 5.9973865936971036e-04 -6.8267828843376335e-04 -3.4969231168389958e-04 2.6584981773179403e-03 1.1877105016269130e-03 -1.5823363544609226e-03 -7.4546725276780426e-03 -5.0853031599838640e-05 -1.2615268495299987e-03 4.2782296559895627e-04 -2.3287610383812790e-04 1.2301414805244689e-04 8.1614762310502518e-05 -5.5280218517475771e-04 1.2408517447434703e-03 1.8827518636032681e-04 6.9526249308715649e-04 -6.6786169905682854e-04 7.9953833210441583e-04 4.2240745843316607e-05 -7.4334641598312184e-04 -2.8585567328678896e-04 1.2781406906744270e-04 -1.8208361179610846e-03 -2.9832654371042197e-04 7.6325261678066303e-03 1.9087526283045322e-04 1.1081138064662766e-03 5.7915314382572802e-03 -4.0302534099988837e-04 2.3200328330065956e-06 6.7776778055406856e-05 -2.7419992315504127e-04 1.0065788440257600e-03 8.7459426502022736e-05 5.2549778086198248e-03 3.4943186148969944e-04 5.4588205628118905e-04 -1.7081013874059158e-04 1.3788012034613903e-05 -2.2882461474196767e-04 -5.2977482984600767e-04 6.3051188729027364e-04 1.1650524534884067e-04 -6.9919154229929718e-03 -5.3080603056260463e-04 2.3831871108538410e-04 1.9961302739442466e-02 2.7240743605498315e-04 -1.1302463769128149e-04 -7.9554409326582640e-06 6.4634426282159682e-05 3.7543928586782765e-04 -1.8539307433652896e-04 -4.9186824428560094e-03 2.8936990795891291e-03 -1.3434778996975511e-03 2.9042556957161944e-03 2.8419612541315960e-03 1.6683234967858865e-03 -1.1734218629099076e-04 7.1671086779993898e-02 -2.2308592994743064e-03 -1.1035110032927176e-02 -8.9096660370483957e-04 1.4653465727852042e-03 1.4351642744238280e-02 9.2930337998024751e-03 -3.4535098492277736e-04 -1.8626874575506606e-04 1.8367935840411065e-03 5.3544782470084026e-04 4.1347758234974372e-04 -4.2672699304046116e-03 -2.9126885357367389e-04 2.3654954959705793e-04 1.3640059277596137e-03 -4.9998480932448197e-04 -3.6466781706106415e-04 -8.1823012994457667e-04 -3.1454406698711275e-03 -2.6396369697919576e-03 8.0363241838816209e-04 2.0459149683019380e-03 1.9728056704217201e-03 -5.4773855280751170e-03 -6.1786844426880137e-04 -7.8903782020920115e-04 5.3850979977245134e-04 2.0890588138911996e-03 -6.2145556951234530e-06 2.2542307429731612e-03 6.1700256228652646e-03 
      </Row>
      <Row Index="103">
        1.4962277167566707e-03 -4.7466291568156946e-04 1.7534201962479262e-02 9.4368911556406594e-03 -1.3047937435043927e-02 1.6138856515501860e-03 2.4278746223334400e-03 7.7173240731252899e-04 -6.3844685584353161e-02 3.8347902672246637e-02 3.4284742360945293e-03 1.1585724602983238e-04 -7.7327648411573691e-04 -3.2219360814001426e-03 1.9623894269703637e-04 1.1656291843971343e-03 -5.7084977012520494e-04 -3.3268628717282381e-03 -2.4211963954329924e-04 3.1022760635317503e-03 -3.2608714629400737e-04 -7.9171819298911317e-03 1.3506065444240502e-03 -6.6481703496408251e-03 -2.2504146552926318e-04 -4.5921828032943479e-03 -3.0529667461485360e-04 4.5199057668292089e-03 -1.1562414345606564e-02 1.5973033790119824e-03 -1.4952943085601578e-03 -4.8722301659864797e-03 -1.0884608623732931e-03 -5.4756004241981321e-04 5.3050440397191256e-04 -6.6096812365547784e-04 3.2999947931038331e-03 3.9934853076915508e-03 -5.9058961416325051e-04 -1.0088659904117308e-03 6.8955526536259582e-03 3.4631978916908127e-03 -9.2096194211337135e-04 4.5035927349895699e-03 2.9303040728119178e-03 -1.6443556840191192e-03 6.0606051717714521e-02 1.6203915761838772e-02 -2.7608697272166194e-04 -5.3551902055359868e-05 9.5553661122238509e-03 5.6793755437857668e-03 1.0540492365000154e-03 3.7374447236270952e-03 -3.2781675661630594e-03 -7.5718683379147333e-05 -2.1380903415461963e-03 -1.0189526812163008e-02 -9.2797927553303627e-04 4.2206011950225199e-03 -1.5417953089422731e-03 -4.8190557793156841e-04 8.6197867957881532e-04 -3.6556993398756399e-04 -3.0986637699726705e-03 8.1774313737543652e-02 3.4628185140334722e-02 -2.6383194378516717e-03 3.1977481514509909e-04 -8.1977338912224695e-03 5.4718402475711324e-03 1.6327555001020002e-03 2.0654002754114248e-03 -3.3537576426589250e-04 -1.6001783233644540e-03 1.2977724077429462e-03 -1.1316334529154037e-02 6.0342739906904530e-05 3.5981057875313638e-03 -2.9170176942393544e-03 -1.2488766890828007e-04 3.9979979697215076e-04 -3.6563651589234247e-03 -6.0852180248094356e-05 9.5990864919233143e-03 -2.0784262259013531e-02 4.1158881963798688e-04 -1.2231705450071184e-03 -3.8069728582019735e-03 -1.3691984654943534e-03 -5.9342278094413198e-04 -5.0606488713969555e-04 2.9637140854908497e-03 -2.5573677173323373e-03 -7.0018331047899673e-04 3.1462547157398713e-03 -2.0505544103541218e-03 -2.9036468651004239e-02 -1.7343024763271024e-03 1.7367653110262754e-03 3.7376086226211316e-04 -1.4204026469636366e-03 -3.8390177903903939e-03 1.5035346379826436e-01 2.7061404958438895e-02 4.6068163913280961e-04 1.7536715021051075e-03 -1.1683286106336954e-02 6.2045382514581667e-03 -1.0481296441950505e-03 -8.9756246614415406e-04 2.3879264558425461e-04 -2.6031905566795506e-03 3.3937746777504799e-03 -4.0833061536136306e-03 -1.5345228442956230e-03 -1.1346569017547936e-03 3.7302661926958761e-03 1.2064340337381257e-03 -3.8558542604391205e-03 1.3711032763347687e-03 -1.7503962080754314e-03 5.9336241994084882e-02 3.1661323244138728e-03 -7.4304002324337981e-04 2.0583853384148225e-03 1.5887929482296670e-03 3.6042409571078755e-03 -9.2842869442810380e-05 -4.8822699871683972e-04 -2.8435356374627296e-04 2.3759141556259911e-03 2.0676461854858275e-03 -7.3452844302204223e-03 -3.5336294236874843e-04 1.7698359772088060e-03 -1.0254929259193510e-03 -2.4836870318271816e-03 2.4221935126326815e-03 -4.9863088251852344e-04 -1.5367836119906759e-03 2.7203196671599837e-02 1.7777367311716218e-02 -1.1178739066988294e-03 2.0061778802178860e-03 -1.8793610715874820e-03 1.7114499100088477e-03 -3.7885839529894281e-04 -2.9830898984661099e-04 2.6625483788340681e-04 3.1095074459393593e-04 2.1259063699749113e-04 3.7733420958199204e-03 4.1787758073182080e-05 5.1656055123865258e-03 4.8547266968806471e-03 1.6643157300414990e-03 1.4990643558299155e-04 2.0914559422687135e-03 -1.3110316943487632e-04 1.6758200590216418e-02 1.0844702684302265e-02 -7.5052167442244671e-03 2.8484880567449661e-03 -2.2798256427165597e-03 1.3938009037615415e-03 1.1850915613692602e-04 -1.9577174382216789e-05 -7.0661516718303202e-04 1.1399927433075607e-04 2.7937520299842200e-04 1.2001799260922135e-02 4.3952866154328696e-04 4.4067611426621758e-03 -2.2002197876719851e-03 -8.3449371986993857e-04 6.7951780523426114e-04 1.7615682554981095e-03 7.3643850226941059e-04 -2.1037095278334779e-03 3.1337784911709646e-02 -2.0621330978742407e-03 -3.0079853734256467e-04 -5.1409178254004928e-03 -2.4095794549028739e-04 4.4048561341295466e-04 2.4467011702811073e-04 -2.5675901061561642e-04 4.8563910693748685e-03 -1.3040441908521057e-03 1.8066069757135289e-02 -1.5607852023414646e-03 -1.6781350998367726e-02 -5.5674206817697830e-03 4.2749698414745376e-03 3.5324828126547291e-03 1.0163976832263432e-02 -4.4339911083528965e-04 1.0532856087052486e-01 7.6497563583492634e-02 7.7122643572026875e-03 3.4401337488169327e-03 1.7537810258421993e-02 2.2138563260513944e-03 -1.1923948862570144e-03 9.1173087563516846e-04 -1.2982893264078955e-03 7.8279645025880872e-03 6.9949194836639150e-05 -6.4618265097336480e-03 -1.5524785026299615e-04 2.7422324370500108e-02 4.7884693404318945e-02 4.9895937466733148e-03 4.4045964119424639e-03 1.3509231066641814e-03 1.7981341111774837e-03 9.5941630448930199e-02 -2.2610630772456342e-03 -2.6077145803866979e-02 -1.3284065423944530e-03 1.5087242964713643e-03 9.3556189780027131e-03 1.0534121129276597e-02 -3.6889006086460365e-03 1.1173938836208205e-02 1.5211581660872376e-03 -1.0075999339770676e-02 -8.5170991454633638e-02 
      </Row>
      <Row Index="104">
        1.5316746810702667e-01 2.6968873531874847e-03 -4.6470685699463762e-02 2.9991632623184890e-03 4.2596301394278543e-02 1.7074320091558938e-02 1.7290451205559994e-03 5.6131945485039220e-02 -2.8669081457744244e-02 3.2171840332976247e+00 -2.7163450636871998e-03 7.6365663964945291e-03 -6.9131542740391438e-01 -1.7461025563635029e-02 1.8438093238176863e-04 8.6455331338862636e-04 1.6002897535971304e-03 9.3881667987879489e-03 -3.8852357149118562e-03 -3.5623780464002608e-02 4.6727443128759538e-03 1.8246279935235268e-02 8.7935969518845997e-03 2.7485583409341180e-02 1.6547178385481379e-02 -5.2957662691609855e-03 2.8199621173723623e-02 -5.3202580491251775e-03 2.9724918054807583e+00 1.5363394241484814e-03 9.7938854704535672e-03 9.5279584567901310e-01 -6.8901231243795186e-03 1.4770093409286096e-03 1.4318927387184655e-03 3.1283386092616915e-03 2.3514030229429800e-02 -1.2892619254260308e-02 1.6031766054765273e-01 2.2369750544776121e-03 -1.2303971372824924e-02 -7.8489760744409366e-03 1.1051895091627462e-02 -3.0235367350257017e-02 -5.2418900200101870e-04 2.4272287494027878e-02 1.3670188257799497e-02 -3.6884471249791551e-01 -1.4667737473714124e-03 -9.1087979582735179e-03 2.8668197905041382e-02 -8.8536487984141252e-03 -2.9953675810444752e-03 -1.0181623280037886e-03 9.7703135442117062e-03 -9.1971045120521622e-04 1.0324009868160452e-02 1.7368808140166092e-01 -1.3053172837168905e-04 9.8544416799790230e-04 2.6815744284667264e-03 2.0745489571431242e-03 -2.0496477084244590e-02 3.8665387081432412e-04 3.0184859484545107e-03 2.2308756529372586e-02 -1.0563052830731228e+00 1.8833192830825726e-03 1.0449639536736013e-03 3.7286204383725874e-02 -9.8223772535019488e-03 -5.4817125482411718e-03 -2.0319853067873872e-04 2.2485961923090700e-04 -1.1414248655003567e-02 1.5702943158543529e-03 2.1232721361756379e-01 -1.3126835790585378e-02 -1.3049298491729006e-02 1.6231589473744423e-03 -6.7644362368587396e-03 -7.2115621292225263e-03 -1.3020451347711681e-05 -1.1346014380479308e-01 -6.1015953293774849e-04 -6.2259117847709255e-01 8.3363955063539552e-03 1.6106288394671098e-05 -3.1327120997156221e-01 -1.0103566217705584e-02 -5.4994479031686416e-04 2.1894926707659995e-04 1.7757841867089424e-03 -9.8672209500484664e-03 1.3907095343987930e-03 -1.7725693050039903e-02 -4.9746607053849506e-03 7.6935014985188011e-02 2.7411296754907864e-02 1.6347307228909008e-03 1.8447821011387880e-03 5.5135192629347553e-02 -1.3848687472020326e-02 2.7061404958273617e-02 6.9044175675125432e+00 -1.9314006614480628e-02 8.1871465588104573e-03 -5.6592968475188776e-01 1.8744735654319434e-02 3.0559634460814063e-04 -8.8590227154117425e-04 -1.6947390708936970e-03 -5.2807210851236186e-03 -5.1337673573237461e-03 -1.2376277100758148e-01 -2.7879427171247639e-03 1.2588475190828508e-02 -1.3700546625277955e-02 7.2001344097601932e-03 3.1412786421750806e-02 -1.7588117674410507e-03 -2.1178906744299574e-02 1.4157625558281928e-02 -3.4485626576375692e+00 -7.9769634433681956e-04 -9.4146615151528921e-03 -5.4966756882583923e-01 3.7801823465862007e-03 -1.7553199121399451e-03 -1.5252509851790483e-03 -1.7489636017972241e-03 -8.8375891574156706e-03 -1.0940094926857935e-02 1.9095600726123738e-01 2.4684671558625956e-03 7.9938497234823651e-03 9.1831565266604544e-03 1.0285701466861950e-02 -9.9377218519698315e-03 1.3913137366545987e-02 2.0265672421649124e-02 1.3449367339820760e-02 1.1032680363561260e+00 1.1417442578437464e-03 1.8624774122695510e-02 5.0800809317379603e-01 -1.6260126622460718e-03 -1.6978497491714601e-04 1.3693734711961599e-03 -3.7417440802546944e-04 2.7623950837327516e-03 4.1173765596075693e-03 -5.9070108068973060e-02 -2.9155688738745746e-04 -9.6497574062521206e-03 -5.6576287388436161e-04 -9.1678940226690708e-03 -8.4785970636930830e-03 3.0392796268333688e-03 -2.0639453866204249e-02 -7.7832123173095583e-04 -1.0533692618101318e+00 -6.2759851829424177e-05 -6.8570118739141317e-03 -3.0551113913304917e-01 5.8961541522032489e-03 -1.6680883934983709e-04 -1.7852932856331320e-03 3.3738733564685347e-03 -2.3768978103944405e-02 -2.8969048682883913e-03 -1.8489351925366881e-02 -3.7635951795585224e-03 9.6267498171308426e-03 5.0207807358121193e-02 6.3544537077241756e-03 2.4279527571959093e-02 4.8195638674476321e-02 6.5563411743969589e-03 -3.7777959771732928e-03 7.1066079989723523e+00 1.8472984244349219e-03 1.7531829307224432e-02 -5.5273760449263865e-01 9.9094766297936950e-03 5.3559993900222438e-04 1.7467062136762102e-03 6.4215733972002977e-03 8.5244265014857712e-03 1.4838793484083268e-02 3.6887099243163068e-01 -1.1666242410483460e-02 8.7323821684990394e-02 1.8036593353576533e-01 2.4665038661129679e-02 8.9649207939745207e-02 1.8894633324783772e-01 5.6057604692766688e-02 -4.4126915223713960e-02 1.4759178609732771e+01 -5.0809783105491786e-02 2.8752633840012972e-02 -1.2574243418870452e+00 3.2488231727357042e-02 1.1287298919812561e-02 4.0294045444326521e-04 1.2363844179276148e-02 2.0198994764886485e-02 2.8235150249506808e-03 1.5574249484573627e-01 -1.1832386599571462e-02 -5.7518630285803438e-02 -5.6997495888822955e-02 -3.1439086384465680e-02 -1.8843436926809676e-02 -5.5872308284562813e-03 -5.4293458436865491e-02 2.2002162110545231e-02 -5.4836850651944913e-01 1.3486420504998597e-02 -8.2597273645349245e-03 6.2656703872227582e-01 1.3292318257262287e-01 -2.1268211126366787e-02 -1.6996129615422587e-03 -3.5666820918734077e-02 1.1005729080339338e-03 2.9756596162784869e-02 -5.5215759636178120e-02 
      </Row>
      <Row Index="105">
        -2.7678551534584695e-03 1.0968000088666142e-04 3.0707544397998929e-03 -1.9566234445799096e-03 2.3849346194430715e-03 -5.7872639039203261e-04 7.1493514694554025e-03 1.1320945861634376e-04 -2.3595044187167159e-03 2.1166991647887379e-03 -1.8098915997898014e-02 -7.5570768657496484e-04 6.5409599665189333e-03 -5.7529995271039303e-04 2.0932826190083516e-04 7.5456863238409117e-05 -1.5953191040980579e-04 -9.0863399287955792e-04 5.7635619941858243e-04 -7.5384523031692963e-03 -1.8685688171076950e-04 -1.0372631876973265e-03 6.0137578131150889e-04 1.2717533648312490e-03 -1.2566339810501231e-04 -1.8191555267778013e-03 7.6277375156933727e-04 6.1801224713369657e-05 -2.9921519339717872e-04 2.1274912443689140e-03 2.7630143814470765e-04 -3.0419334163589440e-03 1.1722324171464676e-03 -8.3458767126183553e-05 7.6766869643141167e-05 1.1661357125324594e-04 1.5461329014949954e-04 7.4460516628343729e-04 5.0999199852772847e-03 9.2990150959564987e-05 1.3848672758053938e-04 -1.0321493529190061e-03 3.7768984329038940e-04 -4.4347513895027363e-04 4.6155546096767752e-03 3.4591652092489517e-04 -5.2903745058664395e-04 -6.0926132181295944e-03 -3.7607719525464198e-03 -2.5408774456298078e-04 5.1168141150199631e-03 -4.2132455165309370e-04 1.1991284614634723e-04 3.5466968874545059e-04 2.6232618192903803e-04 -3.6747476377575056e-04 -9.4445625849990701e-04 1.0639974257443896e-02 -1.4604286130608622e-04 4.1755575586506499e-04 6.4133110433860913e-04 4.7082310389900961e-04 -2.9793376765506886e-05 -9.5767981775803229e-03 9.0807047585853007e-04 7.2144673763652190e-04 -7.3111339257136976e-03 3.0513219007598791e-03 4.3439339503861113e-04 -7.2012397387233307e-03 7.5901540150456488e-04 3.4237443851950901e-04 2.0790687215336764e-04 -1.5257402027069739e-04 8.2113960597321456e-04 -6.2945304216403992e-04 1.6236332714297586e-02 4.3712315791682999e-04 2.9028045597986121e-03 2.7153234950353100e-03 -6.8968920713607940e-04 7.9180678750793293e-05 1.9259511011309183e-03 -1.0219744574802014e-04 1.4716380190864520e-03 -6.5223364376576498e-03 8.8121873635048642e-03 4.4457703767181167e-04 -3.2392319660816682e-03 2.7473738518026380e-03 -7.9116746139046984e-05 -3.9205356822509529e-05 -6.8734603231427466e-05 2.5234248651920393e-03 -3.8044248787941215e-04 -1.0642115072441151e-02 1.5457234772836108e-03 -6.1229655747882233e-03 -3.5466458719327581e-05 -8.3093497998836668e-04 -8.6106687889648680e-04 3.3385179384272899e-03 2.5809474724922154e-04 4.6068163913492131e-04 -1.9314006614426560e-02 2.0025271749674792e-02 -9.3188303595299698e-04 -9.7976839841429353e-04 -1.5609155580434894e-03 1.7086934229830014e-04 1.1179541003551572e-04 -6.8190711955886133e-04 -7.3095444582786488e-04 -1.0224530933725963e-04 2.2557177946533891e-03 1.5164563970958625e-04 -1.5509653443796789e-03 3.8709403288740075e-05 -1.6560629544967037e-04 2.3957807557465488e-04 1.2162151822844112e-03 8.8039022482856656e-05 5.4594322988332084e-07 -7.5448473004309236e-03 2.1540752747471388e-03 -1.7211860136632628e-04 -1.9815934102975774e-03 2.3923271868814914e-05 -5.2091825234325522e-05 -5.2394982082940023e-05 8.5126484133108533e-05 -7.0203317581785107e-05 1.8644998070119212e-04 9.2702219884094137e-03 -4.6165686358597033e-04 1.4061798709471191e-03 1.4971783352165794e-03 -1.5237802122354278e-04 8.5501959964939551e-06 -1.5720251709563544e-03 9.3929244956541006e-04 1.1977219143913481e-03 4.2887778455007047e-03 6.1778059742607699e-03 2.3341169965509340e-04 -6.7457813516469400e-05 9.6435233515389154e-04 -2.1809749781418180e-04 -1.2497123519813590e-04 1.4984119304211913e-04 5.2090402003606936e-04 -2.8455186344448222e-04 7.8605396018682772e-03 -1.3105576878093823e-03 3.9486344808880337e-03 4.6448474757588105e-03 -1.4660759274492952e-04 9.8087609265986621e-04 4.6043738026084260e-03 -8.0346543543702298e-04 3.6764643401116523e-03 1.6450246689340212e-02 2.0357727588111774e-02 2.5042675795607771e-03 1.4950172168628484e-03 4.0828710779467932e-03 -5.1012340107772520e-04 -1.5027225372574692e-04 5.8339855036154686e-04 2.3303523961594741e-03 -2.4828159464745925e-04 -8.3134264326153659e-03 -4.0308476587602282e-04 1.5903530623817071e-03 1.1617564994892138e-03 5.0556385123529850e-05 8.8218908972324426e-05 4.3991052126977348e-03 -2.1005027144298130e-04 6.6801442704441131e-04 2.5212663865049847e-02 5.5872460084020600e-03 3.9666080950068953e-04 3.9077511984986213e-03 5.8423029747755846e-04 -4.2906608162943290e-05 2.7984260831112454e-05 1.0168238114702531e-04 3.6752951401096759e-04 1.6035259962450185e-06 -5.2946092604200801e-03 1.8174366074248998e-03 -3.3242031512826474e-03 -1.5298481279416437e-03 -1.4828097087762726e-03 -2.0738470091492618e-03 2.5599684172083678e-02 -2.5720208415346991e-03 -4.0873353792837122e-05 -3.4146638771394774e-03 -1.4327553741210315e-02 -2.5392538998732692e-03 9.5748161457285264e-03 -4.4115172888748314e-03 1.0886683997730472e-04 4.8612311095766426e-04 -1.2819055025171102e-03 -1.3947406099164231e-03 2.4650945801151145e-03 6.5192425489295214e-03 1.1802459716508122e-03 6.5777855954509187e-03 1.2099782298217350e-03 -3.4519586085664765e-04 -2.4159834223535744e-04 1.2437253444211163e-02 -8.2023459788362930e-04 -9.7108122915426365e-05 -1.6108381966889029e-03 1.0571713505614683e-01 3.9154468540709281e-05 4.3259660621980320e-03 -1.4801059252759208e-02 1.2511325792998653e-03 -3.6752374194261436e-04 -1.0057314406606947e-03 -3.2250538022084337e-04 -2.0118316461151370e-03 -2.8727567477330733e-02 
      </Row>
      <Row Index="106">
        -9.2679834656678867e-04 -3.7126788262430003e-05 -2.2605971343776371e-03 -4.6026542752592445e-05 -3.7552432327632567e-03 -2.5940571499948371e-04 -7.0432532665439199e-03 8.1296422220094396e-04 -6.1298946297879374e-04 1.1370289630466046e-02 -9.2544487444173743e-05 -4.3321573767699222e-04 -2.9618104129182171e-02 -9.3769528500941581e-05 9.6922331409369936e-05 1.2355986452557144e-04 4.9901995918678410e-04 -5.5425711716005216e-03 -6.0480343023074220e-04 -1.3394877224998485e-02 -1.7134911918705378e-04 5.2901670195343656e-04 -5.1031308100885879e-06 -2.3230714878479351e-03 4.2251659477109561e-04 -7.4342115336623309e-04 4.9839903495729515e-04 1.0985193343500178e-03 2.9141487615194361e-03 4.0851389684909976e-04 3.8746683063081173e-03 3.3854680786495450e-02 -6.0428228267148874e-05 -8.3717612702175100e-05 -2.8033053900530965e-05 5.9664473096216223e-04 4.0375960314938258e-03 -3.0814400806259377e-04 6.4760190003323587e-03 -2.1340394295970324e-04 -8.6885816712416577e-04 3.8286029845963966e-04 -6.3781151372462475e-04 1.3928133394482990e-03 -2.5189767190774634e-03 5.5297917757670062e-04 -1.8653971149576974e-04 -5.0123132210244115e-03 -1.5572500977092986e-03 -3.8824260654443110e-03 3.1330478574459253e-02 3.0774300323677909e-04 2.3289631368913002e-05 2.8799699331999592e-04 1.9337866295985988e-03 3.8645636359396600e-04 4.6377633675761696e-04 1.6463028636796495e-02 -1.0123582475238648e-04 6.3598636914184692e-04 1.4431311455931350e-04 -1.0591159456134515e-03 1.0508069799316721e-03 3.3651206636584833e-03 5.1604923544256581e-04 2.4234136510591434e-04 -8.1033461175529786e-03 -9.6351192343116510e-04 -5.8146698556140524e-03 2.7248552595003694e-02 1.3977704940617750e-04 1.3896641133777772e-04 2.3804920660795573e-04 9.8920437931198420e-05 -3.0807105881887620e-03 6.7473670466704347e-04 1.6589654015872313e-02 1.0919097310605960e-04 8.9653592408374394e-05 4.5688640711969916e-04 -4.0329490844898119e-04 3.7118977140756224e-04 3.2077535119199342e-03 -2.4748661458994931e-03 2.5346334107376189e-04 -6.2259774208921481e-03 -4.3026477420367304e-04 -4.5766525645438956e-03 -1.4459986706385708e-02 6.0092868261548988e-04 -1.2239173821934016e-04 -4.8177587091890670e-05 -6.1583935011247240e-04 1.2036052598276697e-03 -1.0166452992170505e-05 -1.3386775425007507e-02 5.8892502277872434e-04 2.9582030605056751e-03 1.2530832682245449e-04 1.6723826485210841e-03 -3.7720738815188873e-04 -1.4168136983856482e-03 7.3649808590529355e-04 1.7536715021074551e-03 8.1871465588092655e-03 -9.3188303595286145e-04 2.8752036522975893e-02 3.4786101896225885e-03 9.7619206625203919e-04 1.2688228888564647e-03 3.7720129393736899e-04 -2.0766700998317645e-03 -6.1960450138394364e-04 1.0843777003343364e-03 -2.4110286817279059e-03 1.5877206595441007e-04 1.7467696174785011e-04 -6.6118442240584467e-04 5.7026105260506404e-04 -1.1452461892731761e-03 -2.4600812253445449e-03 -7.6201195556563415e-04 6.3474375679748764e-04 -3.2356420694044652e-03 1.3610153419746618e-03 2.6508084697174279e-03 -1.3900559020736836e-02 -2.2579016593898024e-04 1.8895206241961301e-04 6.5169270558267968e-05 1.7100971066041199e-04 -1.8479559154056108e-04 2.1268589556200368e-05 1.2299102936360537e-03 6.7708148494236421e-05 -2.1523800850767739e-03 -2.3630115944015522e-03 8.0882334830992123e-04 1.1362548658796275e-04 -4.7358999465115306e-03 3.7438384265991824e-04 4.9934043596320166e-04 1.7889416951357651e-02 4.0665855852565378e-03 1.2462356580000845e-02 -1.2196338098876769e-02 -8.1330912237299923e-04 1.8722051956797722e-04 -5.4774424498242765e-05 7.7990786881922862e-04 -1.5047218511233854e-03 2.3681664283032797e-04 -8.5079087690193012e-04 -2.6068055809257921e-04 1.8850277479920668e-04 7.5079800143749769e-04 -8.8037913421611796e-05 1.6371446327731389e-04 2.5629675063233506e-03 -1.8052376000857878e-04 -3.5162298092519285e-04 -2.0189226470789627e-03 5.5512685297623334e-04 9.0997538625654274e-05 1.7345145415314178e-02 2.5328419040473809e-04 -3.0893253229228972e-05 -1.3390767995726102e-04 2.0031127386764460e-04 -3.0439183744432330e-04 3.1925974440091820e-04 -1.0617537893397208e-02 -1.2152852109780540e-04 -4.8186298457209963e-04 3.3809651388583294e-04 -3.0759993790360611e-04 3.7701318130418460e-04 4.8206375163309390e-04 -4.1303477129334793e-04 -6.4671838989420125e-04 1.4895278251595631e-03 -1.0302244419596487e-03 2.4884396307857457e-04 -1.2384194505185464e-02 3.1754364849843485e-04 9.3306996105169137e-05 -7.0991916991336391e-05 -3.0204737846199411e-04 3.5600139934316571e-03 4.0438039645459634e-04 1.0746768333795939e-02 4.8441859261851537e-04 5.0440497868460858e-03 5.0722936827482922e-03 6.1286328188321377e-05 -2.2641327408961078e-04 1.1268950349011438e-03 1.9091350013746167e-03 -2.3920439783083345e-03 -1.3922223359426805e-02 -1.2541349586347002e-02 3.6245995643700929e-02 2.7836591673845446e-02 4.7099780899648681e-03 2.0929635481017417e-03 6.7316289568716565e-04 -6.1024004562689593e-03 9.0888274461588796e-03 4.7085609839618743e-04 8.2630746269707518e-03 7.2141377059419291e-04 -2.7117572761189241e-03 4.5268116419689359e-03 1.7693756328638686e-03 6.2032706102887417e-04 -5.0459624343534484e-03 -1.7774545225449096e-03 1.1440582825447995e-03 -1.3037673056193349e-03 7.4824081110916422e-03 -1.0024994476900983e-02 2.7879063329383233e-03 -2.6925128745637944e-03 1.5728644832416166e-03 -3.9662947726189527e-04 -6.5222718703231248e-03 1.4572181989878736e-03 2.6778534606725210e-04 6.0264362329501293e-03 
      </Row>
      <Row Index="107">
        -3.4558840598942847e-02 5.6871821157336022e-03 -4.8007051045608762e-03 -5.5086328508442391e-04 4.5757240264876486e-03 -3.1108970602195343e-03 1.4235051210596894e-01 4.3121608558864613e-02 1.4286683582428239e-02 -1.2681465890011623e-01 6.4471870739835459e-04 4.9781339961967319e-03 7.6380234193122192e+00 -9.6197476487775053e-04 -1.4433353809151228e-03 5.2933449630987277e-04 -1.8259207162216740e-03 1.5391116510226413e-03 1.4347873223647944e-03 8.7776958783933878e-03 5.3404101740435195e-03 -2.8832242853766843e-03 4.2170899769379535e-03 5.3814806647167757e-03 8.2506609898658212e-04 1.3494841672262048e-01 8.6779706198844564e-03 -2.4425317053822226e-03 -1.1378060033619306e+00 -7.1270321033929003e-03 -3.6020647220354363e-02 -7.8270415345305082e+00 2.4604545473954414e-03 2.6332240706401500e-03 -1.9718003333890621e-03 1.0252229814434771e-02 5.2391156411815132e-03 4.9780732399211658e-03 8.3604380158170954e-02 6.3037489581090345e-03 -2.7072121392643922e-03 -3.5471970878400150e-03 -4.8174425829561329e-03 -1.3777516239423804e-02 1.8260800571814428e-01 1.7580098701433400e-02 -5.6030948713203799e-03 -5.8623892703462843e-01 -8.2966082706388278e-03 -3.3923509768087001e-02 -3.2709388550229050e+00 -4.8916835078119695e-04 -1.7857957640252664e-03 -7.8258120665561925e-03 -1.3443611210345097e-02 -7.0211001118654082e-03 1.2685641198975084e-03 3.6247324228810385e-02 -3.3767249492049345e-03 -4.1752244839137198e-03 -2.9737803431792997e-03 9.8458768561258125e-03 -1.2447995610432378e-02 -1.7203408192226810e-01 -2.3784430307046023e-02 -9.4801510842668080e-03 1.2058873201863207e-01 -6.2611451673575402e-03 -1.4092867310045776e-02 -8.8225718506237172e-01 -3.0031800225945905e-04 -9.3433709240997587e-04 -6.8125164916290615e-03 -1.0954323075273109e-02 -1.2334387622765064e-02 -2.1281896656368815e-03 1.8152972050313565e-01 -6.6176736618217546e-04 -7.6880741258147367e-03 3.5894452495099927e-04 4.2703827147363427e-03 -2.2541063878334100e-04 -2.5247653251934565e-01 -4.4206763700373131e-02 9.4170740166390488e-03 6.2684774422541523e-01 6.4032202359527446e-03 -1.0329584149431525e-02 4.8387025691210965e+00 3.4747747653440797e-05 -1.6451369762719992e-03 9.3149334944975237e-04 -6.9306811374927335e-03 -1.4784690634350284e-02 -2.7100973402838235e-04 2.1241458636321764e-02 4.0106704867151066e-03 1.6192275537797618e-02 -1.1323893076280634e-04 1.2898876727511777e-03 -5.0872355564604010e-03 9.3486982022039200e-02 1.1061152636100222e-02 -1.1683286105773060e-02 -5.6592968475663152e-01 -9.7976839883919540e-04 3.4786101895596389e-03 9.9133052625271603e+00 1.5861261405623400e-03 4.8380615184597095e-04 -3.7741964003312495e-04 3.6593365590594238e-03 1.9023737729632229e-02 4.1737643813428583e-03 5.3604391747740010e-02 -5.3419548309197040e-03 9.2741404058642729e-03 -1.5864860323019994e-03 -3.1298273965810995e-03 2.1743044788630428e-02 -3.1679980012207488e-02 -5.8879040968102996e-03 -1.0914874522194291e-02 9.2650677856522634e-01 2.6990401074785449e-04 5.0242531579334462e-02 2.0803146833436585e+00 2.7258537585073488e-03 -1.1166907834596188e-03 -5.0585205371156405e-04 -5.1694089301539646e-03 -1.3159747039537706e-02 -2.3744257503892641e-03 7.3021051887567329e-02 6.1737251440452702e-03 -1.4582182699292253e-02 2.3748767340389457e-03 -2.1540659975162794e-03 -1.0277911544966947e-02 2.7893093518804250e-02 -1.3730699156748762e-03 -8.6544490591807764e-03 -5.2013346462495658e-01 -2.0926110827520108e-03 4.1027908832182408e-02 -2.7221832396235186e+00 4.9291467628357725e-03 2.0660734720484436e-03 2.1268656392520006e-04 7.9572207754281254e-03 -1.0788406294284281e-02 -6.6672755458972825e-03 -1.0569817205123400e-02 -6.5185894784743313e-03 2.5514670145759554e-03 5.0159749314389324e-05 -5.7627377358926424e-04 -2.7723118816598627e-03 -1.1608620782392619e-01 -1.9125055084842302e-02 -5.3195942453913595e-03 1.9192053233114809e-01 8.1135116879061386e-03 -1.4479829842402314e-03 1.4560897645196746e-01 -2.1624510330896254e-03 -2.1610695852204518e-03 -6.7330355851780155e-04 -4.2599193444681355e-03 -6.9368747440279321e-03 -1.3535363613925711e-04 2.3360548108206119e-02 -8.5619880204520320e-03 2.2692312754369094e-03 -6.8986631684488341e-03 2.4721530298123153e-04 -2.2387027781116026e-02 -1.6160179887674514e-01 5.8372609442335832e-03 6.1230506594298307e-03 1.5687280796337361e-01 7.4440414908833732e-03 3.0160023450340499e-02 1.3257335202064985e+01 -4.0214847194335089e-03 -4.0779748632664425e-03 -2.2526476660231485e-03 -1.7386222347717518e-02 -1.1838843135035443e-02 8.7456187535019493e-04 -1.0126710775706405e-01 -8.5618240430588455e-03 6.5373591125190228e-02 -3.0187982827710531e-02 -7.4406236075463539e-03 -7.1790287599662911e-02 -2.4479816579331623e-01 1.2483673345925599e-01 3.2928869604425849e-02 1.9970927963155873e+00 3.1041030838486555e-02 9.1231438519011665e-02 2.0102669584070448e+01 -2.5872508249373802e-02 -2.1658259502136165e-02 -1.2069292822654472e-03 -5.3277574598016589e-02 2.8255041842739363e-02 2.4352095674566289e-02 6.8135627139540134e-02 1.1549089991497731e-02 -1.3406101871858887e-02 2.5195943997150180e-02 -2.0031170778970521e-03 -1.2009517191515613e-02 2.8208184149083443e-01 -1.1801663715454411e-02 -1.3216160053114503e-02 7.7843248040200957e-02 3.4824627273078140e-02 -4.8974476090409197e-02 -1.0019154739152441e+01 3.4296868786573009e-03 -1.4645885893905974e-02 1.2297099400518558e-02 3.7285267228193059e-02 -1.6663724315644120e-03 -1.2867997703845280e-02 9.6568639993255303e+00 
      </Row>
      <Row Index="108">
        -2.1158022967258461e-04 1.1091693510650782e-05 -3.4592991220553024e-03 1.3983508684853362e-04 -1.0738143496310214e-03 -4.4562635283496032e-04 -4.3373575447608597e-03 1.1882763052480181e-04 -3.2443054494208610e-03 1.8925034810936547e-03 7.4790164660636668e-04 3.6828998496143441e-04 -1.1145107540596055e-03 -1.0531694319954076e-03 -1.8921734147524759e-05 5.1704341107991210e-05 -3.5050739167468998e-05 -7.0436603198475046e-04 -1.1684647730441657e-04 -5.9032608027979813e-03 -9.3928867488748003e-05 6.5586272387816932e-04 -4.3044033159508156e-04 -4.1610940303982505e-04 7.1039154427833540e-05 5.4466974996830297e-04 -7.5211748551403486e-04 8.8143878199442322e-04 7.9821845723411708e-03 1.5669367290894959e-03 3.1637048943502707e-04 5.6247308697994214e-03 5.5547779032432765e-04 -6.2398269959115576e-05 -4.5115042052398108e-05 -1.5041511102479351e-04 9.3671533409682081e-04 3.6693500366293376e-04 4.7645803334593201e-03 -1.1674232535950448e-04 -5.4395446916819575e-04 -2.8935945111037203e-04 1.6880094392471984e-04 1.5607763279808133e-03 -2.7364821115800041e-03 -1.9051478409733147e-04 2.2206136121848173e-03 5.5750935023943238e-03 7.0154794758938571e-06 3.9598212208252770e-06 1.2966607499058647e-03 6.9436161370539195e-04 2.0457151528249611e-04 -1.5879255313354986e-04 -4.9950155165038104e-04 -3.3798822319507701e-04 -8.0408368819875811e-05 7.0677003933868471e-03 -2.0103675698000638e-05 5.1202470885767636e-05 -1.0551550285252450e-03 -1.3721837681547611e-04 1.0256382528317947e-03 2.3071032730139530e-03 -6.7175715048171762e-04 3.7604736099843428e-03 4.1826276246135219e-03 1.0278136517779804e-03 -2.9327342110799758e-05 3.9881645927852816e-03 9.4091654325805061e-04 2.0954197693569927e-04 -8.2300272830795711e-05 -3.9202166468413173e-05 -1.2819078258438678e-03 2.0702125921746427e-04 6.3225282465845800e-03 2.0677650082905064e-04 -1.5625532324577193e-03 -2.1512766444802198e-03 -5.9542759400701972e-04 4.5004999668322760e-04 -2.6759551972744232e-03 1.7009386015162803e-03 4.5909516435206632e-04 1.1774806299341467e-02 3.3308531042778554e-03 -8.5208668905404836e-05 -3.0271522401836837e-03 6.9930277210873779e-04 8.8351453237008222e-05 -2.9610096529564083e-05 4.8421776754397185e-04 -3.0841761335578116e-04 2.3957673357874465e-06 -8.1863005489253328e-03 -7.5565671717278335e-04 5.5561286352655082e-03 3.4460061318467288e-04 1.1831147708906281e-03 -1.4231692791239078e-04 -7.7451731469439181e-04 3.5843044012689286e-03 6.2045382514569099e-03 1.8744735654347040e-02 -1.5609155580438780e-03 9.7619206625214783e-04 1.5861261407204008e-03 3.9178276904913321e-03 -1.5322533567436718e-04 1.1796521207841688e-04 6.2166632217788213e-05 -1.5479429339481212e-04 1.2569610128448476e-03 4.7193870474268595e-04 -1.0720858765650605e-04 1.6287897794744211e-03 4.7876932053829077e-04 6.6133469734583789e-05 -3.0732747016098128e-03 -3.5312738499408344e-05 1.7665000986346203e-04 2.6039933093666649e-03 9.2441048918885382e-03 -1.4105867744112024e-04 1.7469846589479381e-04 -1.7065960436291050e-03 -5.3110807190195853e-05 -8.9963652552360433e-06 -2.0289116620299946e-06 -2.2040045945065324e-05 5.7561153020567468e-04 3.5366865082063492e-05 6.0959542019086294e-03 -1.8412418340203003e-04 5.1241766092910287e-05 -2.8799867885883365e-04 -3.8155997038408798e-04 1.1552988047029166e-03 1.9242619473059765e-03 -6.1956789504088799e-04 1.1640200995709745e-03 -5.9968879852063620e-03 7.2468301872242633e-04 3.6401321340879763e-04 2.9513401960667984e-03 3.3183088990691929e-04 -2.3373372454999007e-05 -2.9469032651428197e-05 5.4048912014598589e-05 6.5210888149284376e-05 2.6976809483883306e-05 -3.2467666895076297e-03 -2.4242029219453520e-05 -8.8297987759980694e-04 -3.2758704851532897e-04 -5.0160268485055157e-04 2.1231643725817644e-04 3.8563669996449432e-04 -5.1100596683753552e-04 4.7994226576175431e-04 1.1078274331279600e-02 2.8712428912978883e-03 1.4066382716596340e-05 2.2507329111505214e-03 7.5919197650928716e-04 4.2538098390794161e-05 -6.3751571644818199e-05 -2.8980312182904809e-05 -5.9175400956149038e-04 -1.2082173296424498e-04 -6.8799730130762425e-03 3.3550410579879738e-04 -1.3149271711894799e-03 -8.6161414169091000e-04 -1.0972096959765672e-05 2.5613400290462303e-04 -1.2737970685237649e-03 3.7443980394303656e-04 -5.0019484183471265e-04 -1.2048774860147812e-02 6.2533232106141848e-05 -4.6113743146745066e-05 -4.9133231234166769e-03 9.4319619647900352e-04 1.3133708015401757e-04 3.4967655898973378e-05 -1.0604891731004400e-04 8.9486049059048570e-04 5.4825005571280949e-06 -1.9141418430593388e-03 -4.4998357597443106e-04 3.3561138486720727e-03 8.4624804025939561e-04 2.2702695396353101e-03 -2.4513584863054094e-03 -8.6989617180596238e-03 9.0031514891927671e-03 5.5038275812838980e-04 2.9069261438929753e-02 -6.2702356823466279e-03 1.1569526860943596e-03 -8.3097548141288780e-03 6.1147552060602491e-03 -2.4055035768161086e-04 4.3547566171062970e-04 -5.2904262484736414e-05 2.7182576827004985e-03 1.5408498533607162e-03 5.1227278002207235e-03 1.3047533964881663e-04 -4.5372421725127249e-03 5.1337205683878711e-03 2.3555911931017956e-04 1.4078112462279641e-03 -3.8033136008488915e-03 1.1976798365432081e-03 4.7751307991452645e-03 1.7001256186823651e-03 1.2464363819405432e-02 -3.9414180443654405e-04 4.1808375984651296e-03 -1.0979486102712491e-02 4.8513784977417341e-04 2.1821749142542535e-04 1.9836752429530100e-03 5.4551884440894862e-04 -1.1389174279505638e-03 -6.5053375703794970e-03 
      </Row>
      <Row Index="109">
        -1.5860385727843249e-05 -3.2628791769558215e-05 5.9348163160434508e-04 -2.6068832655245616e-04 -9.5341819268648063e-04 3.0657632239676453e-05 -1.6237629324355155e-03 1.3304049111130019e-04 4.7639220755297954e-04 9.8405871282093715e-04 -1.3953380491373805e-04 -3.0079438490249015e-05 -3.7284111245603352e-03 -6.3424751942881707e-05 -3.1694141625583845e-05 -7.2625308929681089e-05 -1.5471027266781223e-04 3.2151550060444218e-03 -6.7052487627006761e-05 -1.4368755529886867e-03 -7.1562245479364758e-06 -1.9929573259067903e-04 -1.0410308394237234e-04 -7.0649184307980568e-04 1.4372515563767238e-04 -9.6885889542215609e-05 3.5545694250601410e-05 1.4543568604741763e-04 7.6700068179169287e-04 -1.1715001136165064e-04 -1.1610501582084726e-04 3.8937483760688174e-03 -1.1132042610429860e-04 6.1815158422413256e-04 1.8427312872968836e-04 -3.8224868493992250e-04 -3.0219851163770959e-03 -1.6485254190655809e-04 9.7741760512690470e-04 -1.5329285011061520e-05 2.3449038789822717e-04 -2.1010671512964463e-04 -2.0347284773176467e-04 -6.6117396771701517e-05 -1.1991371849938842e-03 8.7840382581339709e-05 -6.5551230422161277e-04 3.1230736400984505e-03 1.2985735860794687e-05 -5.6638774601420333e-04 2.7018872000138527e-03 -6.4731913160943373e-05 -9.5377229570743106e-04 5.5180057085114410e-04 -4.9667515009402447e-04 -6.9898478590615454e-04 3.0334823225452697e-04 2.8917177264651817e-03 -6.3302845097577744e-05 1.4195799015570012e-04 -6.7432426631552586e-04 -1.2194450173871885e-04 2.0663036474818323e-04 3.6871230469946552e-04 -1.3330756512298404e-04 -1.5283104271149022e-03 2.1281991194953553e-03 5.7439374978516134e-04 2.2918294728631089e-04 5.8065888208562733e-03 -5.9880383313771189e-05 -2.1840850266634216e-03 3.8145544246254506e-04 5.6706753620203274e-04 1.2928036497049152e-03 1.0204883771593252e-04 3.1096609570503697e-03 1.6257292604378998e-04 2.7189466069661153e-04 -3.9949937104242356e-05 -4.7763117996452165e-05 -8.0748604348343349e-05 6.2001484682563859e-04 -3.5536443127068273e-04 -4.7462300418896208e-04 1.3580693191948545e-03 1.0528968183458678e-04 -1.8223394781067583e-04 -9.1451363894012871e-04 -6.9297620813936131e-05 -7.0302506680160626e-04 6.5626162303630657e-06 3.9217634027201211e-04 -8.1178938823915289e-04 1.2506445189262687e-04 -2.3656795631086715e-03 -3.0408599006228167e-04 -7.3300433785458566e-04 -2.2485131836382484e-04 2.1722444622254786e-04 2.1968851253869156e-04 1.8755303811050501e-04 -4.5151679974942511e-05 -1.0481296441937149e-03 3.0559634461370172e-04 1.7086934229890795e-04 1.2688228888563427e-03 4.8380615152823769e-04 -1.5322533567429164e-04 1.6850932504395479e-03 2.9753964009801825e-04 3.4100770218547692e-04 -2.2829700808924935e-04 -1.0994145244727273e-03 -3.2798618870857887e-04 -2.7597403984148516e-06 -2.5824807562997883e-04 -9.8002139450189150e-05 6.9174820364004686e-05 3.2596341386998415e-04 -3.5987401629036938e-04 -1.0975496578236054e-04 -4.6769134256388904e-04 -1.0723082755459967e-03 1.0832651843017873e-04 3.2601865728478413e-04 -2.0405033931470973e-03 -3.4340731981446335e-05 -9.2386805920370498e-05 -2.4003224730191576e-05 1.2979969842460878e-04 -1.4309930911606088e-03 8.5516020055173558e-06 5.7229660310579786e-04 -1.4165614939219131e-05 -3.4759490789947403e-05 -7.1762916105360308e-05 -2.9326625144975179e-04 -1.4315825224882507e-04 6.7336283701660625e-04 8.3060037771737473e-05 -1.7654335470476497e-04 8.7881952082638146e-04 1.2709868131801933e-04 9.9102873804770859e-04 1.5310911920443093e-03 -5.2679004427594970e-05 -7.3726545514740942e-05 1.7756994151478134e-05 7.1644802492130114e-05 -1.2854686420692867e-03 7.1537676636929256e-06 1.1142874341349418e-04 2.3059832406641416e-05 -2.0385646054389147e-05 1.8087164201461206e-04 4.2724356955958775e-05 1.0321574081786650e-05 8.3112560163580351e-04 -6.6324224298256601e-05 -1.7551642374293039e-05 -1.4507084106493706e-04 5.8883669662900705e-05 -2.2747855842296816e-04 6.1953908593748164e-04 2.0237705263766390e-05 -1.0166840897465002e-04 -2.2314366701930706e-05 -2.2294659703100158e-05 6.8105956149076136e-04 8.5695828335801208e-05 -1.1653659854991487e-03 -2.0307046038318069e-05 1.3135243112564004e-04 8.2984394575107766e-05 -1.5124134818988804e-05 2.7469268752680423e-05 -5.1166784754682585e-04 -5.8745870086390843e-05 -2.1655937495063041e-05 2.1294970484248541e-03 4.3196071781421557e-05 -1.5833041496140981e-04 -4.5631760678814248e-03 8.5624997314605133e-05 -2.1908833005619281e-04 4.3440022694012072e-05 -5.0420078457546282e-05 -1.3267007094806967e-03 1.2995835958032548e-04 8.6370979771784734e-04 -7.2374765080188705e-04 3.7376470991255383e-04 -1.6837231766096510e-05 4.2372690309826265e-04 5.9681293255493947e-04 -2.1420977149757773e-03 -3.7035146339986936e-05 -1.4753764201605162e-03 1.9783775341602038e-03 -7.5110214372332926e-04 2.1134735927450313e-04 -3.4266286856623612e-03 4.7881441026836956e-05 5.9169458134538735e-03 3.9744666570216541e-04 -3.8526792571196890e-04 2.1072159141838614e-04 -2.1632554563032992e-03 8.5228717858438184e-04 2.5539266814965421e-04 6.7528938263704090e-04 6.1907903717985742e-05 5.1786043550656948e-04 -1.7838993910469818e-04 -1.8630664503160471e-03 -1.2953546534956949e-04 -8.8029295864704767e-04 -1.1045479848716946e-04 5.1221042702482851e-04 -9.2287889988577443e-04 2.2673691278837322e-03 8.5741965958341837e-04 -6.6305478558200898e-03 -6.7340627483513868e-04 2.8903578917850994e-03 -1.2069163766357939e-03 3.5041058187295325e-04 2.1651666785293057e-03 
      </Row>
      <Row Index="110">
        2.9537909145236751e-04 -5.1413036533450409e-05 1.4455697331680617e-04 -1.9921556177691262e-04 -1.1701956703340580e-04 3.6444685792399260e-05 6.2728920989305157e-04 1.9670284885715919e-04 7.9324128852934980e-04 2.3174645642914937e-04 9.2222162851229882e-05 8.4686297738424243e-05 -4.9639607130483321e-04 9.0240976818682639e-06 -1.3044787811026409e-05 6.3581948982031303e-05 2.3492232079366424e-04 1.4197089208561040e-03 1.1279127573600662e-04 -2.3181277245795905e-03 -1.5778722321871516e-05 -2.5452272508611189e-04 2.8404428486927693e-05 5.0502608858438505e-05 1.1084177724553831e-04 -1.8293296723586802e-04 -5.9636588180604106e-05 4.1155923765040774e-04 5.9652578035881282e-04 -1.8464162068100197e-06 1.3362587207729152e-04 -1.6906315207765310e-04 -2.0224164954105911e-05 2.4421603081057773e-04 7.4424188164227360e-04 8.2527115967531630e-05 -7.9483863766558610e-04 -8.7525780531932246e-05 -1.6473920916871033e-03 1.4603545166222979e-04 -2.9496014260768188e-04 -2.1489582483729091e-04 6.6189233852335851e-05 -1.7268974113373572e-04 -1.1415556183457833e-04 1.0456456463655769e-05 5.0585202803643233e-04 1.1181812989069506e-03 1.3173868940557750e-04 5.8244792326468675e-04 5.0673070427154077e-04 -3.6964898806115642e-04 -6.8641754138086455e-04 2.6859208436301927e-03 4.0040399292691226e-04 4.9756820890352847e-05 -4.6132569634037691e-04 -3.9710927492590115e-04 3.8248585552307654e-05 -6.5562454314004406e-05 -1.5855548434394896e-04 9.7966976405777090e-05 -8.5909016241478330e-05 -5.4934042951343496e-04 -1.6194443043004818e-05 -1.6113900756292363e-06 -2.9761746182929705e-04 1.6209143314978129e-04 5.8547268606804143e-04 1.1187537824186577e-04 -2.3459875178968837e-04 -1.0530263838319143e-03 1.9495567175489962e-03 6.1757981323925073e-05 3.6889826240992483e-04 -4.8843597939421033e-04 2.0529027851968612e-03 2.0432147565793528e-04 1.0886112332690991e-04 8.3013673970034133e-05 -3.5893004111456350e-05 -4.8289692751544468e-05 1.5899885098392096e-04 -4.2789705070293144e-04 -7.3558800068936059e-05 2.0692980676353390e-03 -4.0361184524150343e-05 -1.4043715788098540e-05 2.6069122082084117e-04 1.5846865352616693e-04 -2.2025316998472953e-04 -4.8572804488260062e-05 -2.7760160524867576e-04 -3.0410479590428467e-04 -5.5367469569661543e-05 -1.9369708672764552e-03 -6.9298715196544321e-05 -2.3183224071104074e-04 6.6285048141202152e-06 5.0637786855193059e-06 2.4302937324917557e-04 2.4084131543783025e-04 -5.0638355007614531e-05 -8.9756246614306661e-04 -8.8590227154441590e-04 1.1179541003575257e-04 3.7720129393726539e-04 -3.7741964009105344e-04 1.1796521207838942e-04 2.9753964009801196e-04 1.4148178204154427e-03 1.4873034154726041e-04 1.4798899736637172e-04 4.6849657953765804e-04 -1.0420082187306834e-04 3.9449086574313251e-05 1.0936189376264775e-04 -3.0116133365699731e-05 2.3947423503432267e-05 3.0818669450960283e-04 8.2025366289401047e-05 -8.9636637259273054e-05 -6.2880427909540169e-04 -9.2506303804254508e-04 -5.0135971627927184e-05 -7.7574028473038122e-05 6.1232113338305361e-05 -4.3066380487897893e-05 -3.0338325037704603e-05 5.2569374685224393e-06 -3.8916131278550156e-05 -4.2587292241052371e-04 -2.0236064297705914e-05 1.2478804837090622e-03 5.3811235856389503e-06 7.1191307001209221e-05 1.4113091483456314e-05 -2.1494932495938316e-05 -9.2708528283255947e-05 -1.9076023922306974e-04 2.8518762185667347e-04 -2.4848982826529989e-04 -1.1861302458670894e-03 -1.0512940453338208e-04 -5.7811710756240577e-04 2.5247990447407886e-04 -2.0766987812550342e-05 -2.4080758838103783e-05 2.9141615496822913e-05 6.2338542865705796e-05 -3.9204962173255303e-04 -2.6461179510121506e-05 -1.3217429329195896e-04 -1.5391403310067433e-05 7.3728766751142948e-05 -1.4247886224493856e-05 -2.5629499756291141e-05 -2.3690100903443409e-05 -2.0289773939130470e-04 -6.5894914734014598e-05 -1.3867620772279438e-04 -5.8225403853204294e-04 -1.6415654306691867e-05 -1.4709768928965541e-05 -4.3895470914101509e-05 2.1109519058455889e-05 -6.3816542117189640e-05 -2.6169523004134290e-05 2.1521004832802384e-05 2.1374396887315766e-04 -4.0349759769813323e-05 -1.7732334831331272e-03 -8.1041860318637035e-06 -1.1066218645792031e-05 9.7136568675766226e-05 -6.8585603324690793e-05 -1.4350359801674374e-05 2.6292891987073855e-04 1.0388476978597078e-05 1.8035290456434760e-04 9.5609612834538773e-04 6.0235176458411951e-05 9.5500256765097225e-05 -1.9157448411755984e-03 4.1644699034381198e-05 -1.2261159173414273e-04 1.9242925810614882e-04 -2.9080030682543297e-05 -5.3853587475245323e-04 -1.2024366113381574e-05 -5.4556993006549433e-04 -3.9403703902922318e-04 -1.1852239905131665e-04 -9.8016271604052432e-06 -4.5454294715579309e-04 4.7830082402280759e-04 1.4743035854892423e-03 -1.3589103276755263e-04 -4.8234716734536618e-04 7.4966793452767473e-04 5.5224653649339111e-04 7.0181227845871020e-04 -2.7295635435960891e-05 2.6579104886125757e-04 2.3093283788510515e-03 2.3425646680311158e-03 -3.0522926310546815e-04 3.3484224825882183e-04 2.0546328991767429e-03 1.0758201442960871e-03 3.6763410492191234e-04 3.6025513382176706e-04 -6.2644155118372501e-04 3.6450357887893039e-05 -1.3814955397911874e-04 7.5037740375017271e-04 -3.1384665900954540e-04 -8.7872109901967262e-04 1.1387021618222286e-04 -8.4338834137603598e-05 1.6028369047101435e-04 5.7916287427123032e-04 -9.9011084937186125e-04 -2.4292389900999588e-03 -2.3324133090406492e-03 -1.4417072076387642e-03 -4.4997525040305953e-04 1.8073114955224665e-04 2.8031752295272247e-03 
      </Row>
      <Row Index="111">
        -5.5848041086485286e-04 -8.7567007782345281e-05 -3.3520928351344140e-04 -7.2775251255253331e-05 6.8470297419190133e-04 4.9003224315187788e-05 -1.9658025144979646e-03 9.3047735765120756e-04 2.6499994767972216e-04 1.2741864405630410e-03 -3.7641883692821716e-04 5.1558432159419521e-04 -5.6659132902164844e-04 1.0615065491897241e-04 -1.7002104556527444e-04 -3.1325196075321143e-05 1.1332696401463245e-03 3.1793615976044955e-04 -5.2405441251348814e-04 3.4422820476380997e-03 -6.9745432665474375e-05 7.2257755990193587e-04 1.2149936983548718e-05 4.4364875030584658e-04 -1.1087671318229728e-04 3.0766242807013545e-03 2.0675131394619662e-04 1.2581635111182663e-04 -3.3478058838310662e-03 -3.1619397053465155e-04 8.6994910735688213e-04 8.9143627390297908e-04 1.1349636063786367e-04 -3.9307285522865293e-04 -9.6880767944266047e-05 2.6291502855669766e-03 2.0809466975794944e-06 -2.6339313407417134e-03 4.8664777624067394e-03 -1.3475051767684786e-05 9.8092193513317841e-04 1.6333084566979704e-03 4.0745427001793316e-05 1.4503072599749041e-05 5.5159485034824221e-04 4.7000780276665452e-04 -4.4631159209182134e-05 -4.7842042376896043e-03 -9.3165256458045860e-04 -3.2418114183476593e-04 -2.7550315614703891e-03 3.1164007967706005e-04 1.4030923647343277e-04 -9.9053836439206948e-05 4.1036779507256874e-03 9.9128760111103723e-04 1.8611220462935681e-03 -1.6822774066180268e-04 2.1847220617334222e-04 7.6151264780060504e-05 4.1358497537477557e-04 5.0756069415405260e-04 -1.3176333929947363e-04 2.5307381086088904e-03 1.4173023942412773e-04 1.1236225072956685e-04 -6.1316664901613360e-03 -5.0367134083938343e-05 -6.9452629564115435e-04 3.0589413861710213e-03 -1.4642713270018875e-04 1.0375491391727515e-03 3.8096907766479267e-04 5.7210414926909051e-05 9.1386520300279148e-04 4.1603390255148115e-04 -2.3332766961676465e-03 -6.4606223476516844e-05 -4.7088544303026079e-04 -4.5154108960585027e-04 3.0279872054089774e-04 -8.6620553660889847e-05 -3.4167839186360210e-04 -1.5243455631538394e-03 -3.2485797472571465e-04 3.8340345181883118e-03 5.9539399285728212e-04 -5.5849228844569079e-04 -1.7837733615655438e-04 -1.9095533790831724e-04 4.4479773003554745e-04 2.0611747265093620e-04 -1.5104432200940387e-03 -2.0186225767964729e-04 -2.2859212651389627e-05 1.9739775273471677e-04 -3.0597667629271162e-04 2.6776514545068090e-04 -2.1796781250724140e-04 -4.2873013753765704e-04 -2.9102138358566446e-04 4.8342941492590056e-04 -3.5763671521164895e-04 2.3879264558393390e-04 -1.6947390709081810e-03 -6.8190711955832509e-04 -2.0766700998317953e-03 3.6593365591954252e-03 6.2166632217674182e-05 3.4100770218548071e-04 1.4873034154735574e-04 4.3663605575382028e-03 -1.0219093548840099e-03 7.2470609685629998e-04 -2.4445918231097430e-04 -2.0393619781545590e-05 -1.0276125088568011e-04 -2.1269465124720957e-04 8.6181631592213053e-05 -9.1330410012622522e-05 -3.5554826066446204e-04 -3.5231896993166446e-04 -4.9320337471727912e-05 -3.7619603111214706e-03 1.5680641256089539e-04 2.0023934288645811e-04 1.2851401114636340e-03 2.2054500748329747e-05 1.1519498927550155e-04 3.1628986117645565e-05 -3.5993497709967619e-04 -6.7442861741429105e-05 -4.6060253755517144e-05 -9.9207047736358080e-04 4.2359748500329187e-05 1.8081733219887762e-04 1.5793116656605608e-04 -8.4308976445705169e-06 2.1546046737850569e-05 1.7967529459139812e-03 -2.0000637093555673e-04 -4.3881878293324661e-05 1.7740221119881576e-03 -2.4690879927081891e-05 6.4536533798058770e-04 3.4778543786879723e-03 -5.7214374066351107e-05 8.2935344375715083e-05 2.0119655475480630e-05 2.2747581048022675e-05 -1.5450179441618163e-04 2.2965760400879627e-04 3.5083855949619158e-04 1.9009571039916261e-05 -3.4392231573204140e-04 -4.5927669554154016e-04 2.8763643553973706e-04 -6.9073643563061574e-05 1.0021656193924325e-03 -4.9103975283826956e-04 -2.8056856843674345e-04 1.2255899524697966e-03 4.4898363241986183e-04 -1.2322097884784333e-04 -1.5548218232153133e-03 4.7168710282300755e-05 6.4181151001800650e-05 -1.6548847939085176e-06 4.7031879308941527e-05 -2.7604404776716135e-04 -2.6732539497894073e-05 9.6386239414780923e-04 1.5763298683055152e-04 -1.0565161221340840e-04 2.4701109482092135e-04 2.6326151765051760e-04 1.2739446382483712e-05 -1.2813116017432488e-03 1.6939708505020495e-04 5.6636124253870313e-05 9.5979246550770263e-03 6.7366048544555466e-05 -4.5240752362511348e-04 -2.0314416883929209e-03 -4.3695070408170309e-05 7.6231455623332610e-05 -8.0500479995421697e-05 5.7601762743099145e-04 9.3474055307745003e-05 -5.2697303779057424e-05 9.1025108640510957e-04 -4.6155205229796853e-04 -6.3743801025105038e-04 8.0185123722462093e-04 2.3535181481608024e-04 -2.1252112039474259e-04 -7.0108456567225599e-03 1.6773074290798041e-03 1.4732134493616693e-03 7.3675178110670664e-03 -1.7845857421086150e-03 -3.7285555655557716e-03 -1.0966757731442511e-02 6.6504748568423566e-04 -1.1432364824808376e-03 -4.9663441748718385e-04 6.3238462856576253e-03 -1.2188593170822278e-03 -1.9375174460269425e-03 -9.0210516868706805e-04 -8.7405011541294539e-05 -1.0913563434978451e-04 -4.3171336015420348e-03 -3.7321571427744463e-04 -5.6753955887277145e-05 -4.0001425097321158e-03 -7.1431605041643751e-04 -4.1583428007085596e-05 -8.2369505011791551e-04 1.4154423492295887e-03 -5.1807594824633367e-04 1.8943795318564077e-03 9.5475636158105347e-04 4.2737053684073732e-03 -6.1735540226047058e-04 -1.2019881629625764e-02 -1.3147774646830532e-04 5.9583841521377032e-03 4.9851138051312284e-03 
      </Row>
      <Row Index="112">
        5.6798999390366700e-03 1.5547032834205381e-03 1.3805010456494071e-04 -2.9448408140098168e-04 2.2977453692618888e-03 -4.5598870112509814e-04 2.9834336070732118e-04 2.5573391856481683e-04 1.2043115896472265e-03 -5.0392533632281911e-04 5.0128246298325220e-03 -2.2526853200289104e-03 2.6210114525051065e-02 -1.4760685468967539e-03 1.5340272008678955e-03 7.6247692470328930e-04 3.2864011290816009e-05 1.5263956630548811e-01 1.6243264719130561e-03 5.3362956560395469e-03 -9.9156573096870898e-04 1.6421161550850966e-03 7.9150162965556641e-03 1.3855496138479029e-04 1.0710814288038828e-03 -2.0221603804571053e-03 3.1842468189727268e-03 -3.2761616908651842e-04 -2.6385867337358260e-02 -4.5218407797706431e-03 2.8951823689476186e-03 -5.0243896797113052e-03 2.0691853104305670e-03 -1.1442492627120222e-04 4.6160905314315825e-04 -3.1041968203288656e-03 -1.1534927332271255e-01 1.7897214577630716e-04 3.9142570927541143e-03 -5.1626813190521371e-04 2.5515154346549690e-04 3.3526998878837047e-03 3.4339771798280738e-04 -6.5059523949775877e-04 8.3903782858490983e-04 2.8868274292480345e-04 -3.2141986081938440e-03 -2.2635183253835844e-02 -1.5624943694782303e-03 2.3006117020131223e-03 -6.9654549140096833e-05 5.8214243501699997e-04 -4.9056197730723144e-03 2.1691718838167950e-03 -1.8238957400038766e-03 -3.3173483559208676e-02 -1.9891906817730912e-03 -6.9809946746621776e-03 8.3055903348588922e-04 -1.0295978142973866e-03 -7.8317163273684404e-03 4.9245346762039066e-05 -1.5041416871351338e-03 2.7194844774173776e-03 -2.9558882074980919e-03 -1.7782786259263050e-03 2.8943729317091993e-02 6.9120491192531455e-03 -1.9476170440845680e-03 -5.3766811153899141e-02 -2.0811258342268357e-03 -7.0983893796596007e-03 9.4704329560185707e-04 2.3258446161134941e-03 1.0765351140984128e-01 -2.2206206868092861e-03 2.0789711484461293e-03 -1.0400848134456409e-03 -6.4502348866961323e-04 4.2667646712318819e-05 -6.2191081694928929e-04 -4.9782655083462427e-04 2.6673699376282001e-03 -4.8592858328722066e-03 -5.1249382178342184e-04 6.4025267852283463e-03 9.9795701586313790e-04 2.3386995117816167e-04 1.7323430740875168e-02 1.0949325822392948e-03 -2.2562949425098122e-03 -3.4896502366468102e-04 5.8525178468790684e-04 -2.2436742581050384e-02 -8.7198079722661248e-04 -2.4613877230514336e-03 3.2489556666091823e-06 -1.0504212734084055e-03 3.8979412452024237e-04 2.6267009913671924e-04 5.4760176677798138e-04 -1.2129540263438779e-02 5.7834540050513716e-04 -2.6031905566789590e-03 -5.2807210851333886e-03 -7.3095444582866285e-04 -6.1960450138496929e-04 1.9023737729394696e-02 -1.5479429339706552e-04 -2.2829700808780183e-04 1.4798899736661656e-04 -1.0219093548842107e-03 1.3304213610174964e-01 -1.0047853775940144e-04 1.0126251306532552e-03 -8.9718334158693513e-04 2.8029581653399305e-04 1.4710358818878174e-03 1.6396002394554118e-04 3.6029613028547292e-04 1.1543830203033789e-03 2.3036268043739698e-05 -2.4451160607620454e-03 1.0175713938163966e-02 -1.7606498684177895e-03 1.5252143626242280e-03 2.5527717122562521e-02 5.1645058321309598e-04 -9.2443767557967745e-04 -2.9834808922823280e-04 -1.1997636309436137e-04 -3.9637281658458590e-02 -3.4709405246369229e-04 -6.9071802157245898e-04 4.5075563140487473e-05 -8.9395880778693623e-04 3.1646415464450328e-04 -2.1045559620618557e-04 6.6188324906425993e-05 -1.8685982754970167e-03 1.1593795150705195e-03 -3.7710161500178086e-04 -1.1333114220404696e-02 -9.0494028307972168e-04 -4.3220219281605958e-05 -1.7967264556506990e-02 5.0797312475210101e-04 -6.1874914272504232e-04 -1.8907560373892574e-04 3.0392696091805155e-04 -2.1047086157573426e-02 -2.0068091774160446e-04 -5.8413728647424001e-03 -1.9100559086471756e-05 -1.0266080771208414e-03 4.8572482642530827e-04 -1.2891420453914337e-04 1.5986664832254999e-04 -1.3347920538640291e-03 -6.2637378079433148e-04 1.2465937192021950e-04 -2.2276033886750590e-04 1.9561194342976491e-04 -1.8228212201125624e-03 -6.6291633260284755e-03 4.4034891228209689e-04 1.6836836988137467e-04 1.0917776001541368e-04 3.8183867624328382e-04 8.1321208964050262e-03 3.3334397093914836e-04 2.5458276732458485e-03 -8.5590718549335585e-04 -1.2662911176234890e-03 1.8249219204433610e-03 -3.1217445150238683e-04 -2.1376022281278213e-04 1.6854421552735567e-03 3.9238632905860631e-04 8.3159970158580012e-05 -2.4617376786393308e-02 -2.1230713923662669e-03 1.6844151488421739e-03 6.7407776782935747e-02 1.0500867712285402e-03 -1.5542719285387319e-03 -7.7035311626836325e-05 -5.9431835576928343e-04 -5.6441099261219582e-02 -9.4921224692405158e-04 1.7287292980153107e-02 3.0965054457773849e-03 -3.2634405390181073e-03 5.4504421773382376e-04 1.4725765024622369e-03 -1.5333390702745363e-03 -8.2920466889907854e-03 -3.5416076496691193e-03 -1.0944204157218725e-03 -4.7632204697414804e-03 4.6860485246665419e-03 -1.5629077541404286e-03 7.7246775996885231e-02 -1.8174547709997708e-03 1.3338615187463244e-02 1.9767315256867539e-03 -3.3403507360882825e-03 1.0278877363529905e-01 5.3644938397327795e-03 -7.7276717288965457e-04 5.3636105909750658e-04 -2.9340655737629916e-03 1.9243675340950492e-02 -4.3916988614989966e-05 -1.5009241569990424e-04 -2.0486408842662011e-04 -1.0488236503238364e-03 -3.8314664988304760e-03 2.8042146554033602e-03 -4.0077567437948446e-04 -5.6945109554933267e-04 -3.5864524082357560e-02 -5.8549358827279805e-03 -2.6210550082426530e-02 -4.3610843436154845e-03 5.7135453211338639e-03 -3.8443077830135806e-02 -1.5182704773853174e-03 6.0335635792022085e-02 
      </Row>
      <Row Index="113">
        8.2503650591257173e-04 -2.7030740671766152e-04 1.1653206950482439e-03 -7.5485765986048987e-04 -3.0144440656065460e-04 -2.2012776438320102e-04 6.4621499759957785e-03 -4.7663437179797661e-04 -1.7794616689495620e-03 7.6880349705393813e-03 3.0166585721738714e-04 -5.0092430340364924e-04 3.7323102492909932e-03 -1.1657288194138657e-04 -1.0016909041172368e-04 2.5454122767842391e-05 -2.1407770674029694e-04 -5.7555747884144304e-05 2.1270833461782233e-03 -6.5171712227386283e-03 -2.8754500784213726e-04 -7.9710190473996669e-04 -2.0407261470095701e-04 -2.3975642368290542e-04 3.0684185786059547e-04 -3.6913724922402538e-04 -1.7838377890670891e-04 1.9269075618230623e-03 2.3331163152059617e-03 -4.9723195693402323e-04 -9.2185801273545614e-05 -7.0890509439740512e-03 4.8610621820897220e-05 -1.5662782183487674e-04 -1.6664329121897879e-04 -1.5173294168207077e-03 1.4832455594610168e-03 7.9136327269643848e-03 9.5363268247374774e-03 -6.4938140811433972e-05 -1.1629754680632072e-04 -1.7692859858836575e-03 1.1086194884857639e-04 -3.0134075210425625e-04 -3.1411117408133848e-04 -4.4439383654494135e-04 -1.3513838863448242e-03 -9.2044206843853171e-03 1.5204357131227992e-03 -8.8822891556410155e-04 4.6488392203372086e-03 9.5092144513197715e-04 2.5295344638564740e-04 -3.0702382079535987e-04 -2.1299288173815649e-03 -2.4550754140103557e-03 -7.0615630481780144e-03 4.1234595259931756e-03 -8.1874489412754690e-05 -6.1873028580957095e-05 1.1381798770897667e-04 7.1291204037159800e-05 4.7831096263583895e-04 -5.5604876799798184e-03 -3.4939407094822586e-05 2.4900247808789851e-03 -3.2867749227262211e-03 -1.2567345448492862e-04 -2.5155994828993111e-04 1.6221550373822780e-03 8.7030933546751628e-04 4.8171182394671610e-04 -4.1801046704190332e-04 -6.8259342278414754e-04 -7.4085367569089178e-04 -3.1651069295464966e-03 2.1496541125763935e-03 6.4087494578242074e-04 4.0401732486264504e-04 4.2371980377407109e-05 2.4091747149081189e-04 5.5207591458626411e-04 -1.7643223361183159e-03 1.0976332534757272e-03 1.3881088452962070e-03 2.7304398065055580e-03 -3.3321382481443090e-04 3.8236799364700300e-04 -3.4991273284878943e-04 5.3600463136910205e-04 1.0750663755291438e-04 -1.5011071658623670e-04 8.9715948200845812e-04 2.2050344582798947e-04 -1.1947062787151727e-03 -5.2971538305500096e-03 -2.9189633030970389e-04 -2.2629030633250463e-03 -1.2575222568297938e-03 -3.0645614000286356e-04 -4.5851425818580090e-04 1.3911504607984435e-04 1.4902508005902951e-03 3.3937746777538426e-03 -5.1337673573433468e-03 -1.0224530933724738e-04 1.0843777003339519e-03 4.1737643812820302e-03 1.2569610128448398e-03 -1.0994145244728520e-03 4.6849657953746809e-04 7.2470609685590761e-04 -1.0047853776061055e-04 1.0651189435786117e-02 -1.0113258426586169e-04 6.7656250080381890e-05 -3.3628197775283433e-04 1.5793441004888654e-04 -5.6948421269535909e-05 -2.0796526890369798e-03 9.4901449150583102e-04 3.1139302746169707e-04 1.7435069260618948e-03 -5.4274869771574474e-03 -4.4016287835718822e-05 1.7415566439042419e-04 -2.5983957280806269e-03 -1.2260702450618229e-04 1.3105677140803082e-05 4.4653839446901281e-05 3.4214872882210598e-05 3.9783777849203283e-04 5.2547344316543343e-04 2.2553030798491414e-03 -3.4103948228018325e-04 1.8224389033651411e-04 9.9264799267884601e-05 -1.6571642521484033e-04 5.5414546694188579e-04 -2.9506375485267829e-03 8.8432771117277504e-05 6.2560810175067531e-04 3.7066723977536905e-03 2.0415594486611994e-04 6.5469345580998375e-04 -5.6243627007184216e-03 1.4811011894071759e-04 -2.0187156617891794e-05 -3.0739554610590937e-05 1.4729941665753431e-04 -3.8488092297699761e-04 -6.4375785763114276e-05 -2.5403818609878726e-03 9.1594435267831073e-05 -2.1994192935308516e-04 -5.1564914794799193e-05 4.8842012490308076e-04 2.4062861462430252e-04 -3.0280208252382798e-03 8.4259859759808209e-05 9.1430174636823822e-04 -3.1451175138426796e-03 -2.4504169176594394e-04 3.6949652310881535e-04 9.4536574511439042e-04 -1.1419296602354479e-04 1.1524482077275653e-04 -4.1148738003102606e-06 -2.2959905682493108e-04 -1.3856081014997079e-04 -7.8476367048821438e-04 -3.6881969616600931e-03 1.3636170723044439e-04 3.4749679065992255e-04 -3.1532901973770761e-06 -6.3352036695214385e-05 -2.8715666301679858e-05 6.4119038312728058e-04 -1.2618401993952247e-04 -4.2080748098145777e-04 1.4480197539803239e-02 3.1825844283653218e-05 3.4451537149997926e-04 1.1904464738732412e-02 2.3636610044653589e-04 8.2581807584863702e-05 -4.9903548364092239e-05 -2.3657419788040718e-04 2.8706233057950196e-04 -1.8856818128998407e-04 1.4190157664194895e-02 -2.7465956011666606e-04 -1.0235013008864616e-03 -4.8198470378870047e-03 -4.1917660295978166e-04 -3.7001581300691055e-03 7.2948933611053229e-03 2.0537587346108272e-03 -3.3752158870391023e-03 -7.1101880054558891e-03 2.3142506317656093e-03 8.7924192285032004e-04 2.1290569487027178e-02 2.4963838954071399e-03 -2.7384701174518198e-03 1.1165500949988348e-03 2.0223879831659367e-03 -1.4796386418580460e-03 2.8315595052719272e-02 2.7243669333723228e-03 5.1129078222673908e-04 2.3220100512618257e-03 -1.1913514754564882e-03 3.0512384918323732e-04 8.3586106721532177e-04 7.8710458965353409e-03 3.0476805242585442e-04 3.0023190189624937e-03 -1.0922373057366042e-03 -9.0539959331692585e-04 -4.7022178488221038e-04 -7.2939965632752932e-03 -5.3653288895809011e-03 1.3160237149928418e-03 4.3726279991786025e-04 9.1871611007933417e-03 1.6207308660775503e-04 -1.7334325036176535e-02 6.3659341837541102e-03 
      </Row>
      <Row Index="114">
        -2.0000375802318213e-02 3.8849093592866445e-04 -2.7559810204420138e-03 -1.2508766519056806e-04 1.7375425147288098e-03 3.7890086835531572e-03 1.1962333483601643e-02 -2.8858625085223613e-03 -4.2114763805484526e-04 1.4920232227011243e-01 2.0503832341648930e-03 7.0196603842308941e-04 4.7784139327717856e-03 1.3371428298162872e-04 2.5419992408431871e-04 -1.3004195156616691e-04 -2.3932878778815808e-04 -1.4095159152677983e-03 4.6754180051180282e-04 -1.3621300269882619e-02 1.3557013882229893e-03 9.3362665861029814e-04 9.6135954258640957e-04 1.4704843679132495e-03 -6.0227862029293769e-03 -7.7836623385345929e-03 -2.7870505248816105e-03 -2.1571061531166676e-03 -8.9127551345621336e-03 8.2033473366050348e-04 -2.3806306719806603e-03 5.2929427255946848e-02 7.5560013455142636e-04 -1.3655781667288626e-05 -3.2569205059997802e-04 1.6942146185406883e-04 2.6748357649116483e-03 -7.8797739701719563e-04 3.7002431393702850e-03 -5.8658618428468836e-04 -5.6774443281448241e-04 -1.7313607036528039e-04 5.5965533515584670e-04 3.5844102877399808e-04 7.8564556621663895e-03 -1.2541402069371661e-03 1.2570967436759221e-03 4.2347325473546249e-02 -6.0026041553563891e-05 2.0115237892107118e-03 -7.9815141881898199e-03 -4.7872000172953532e-04 -1.7430749417554625e-04 -7.7427633140594518e-04 1.2712909049358151e-05 1.2271549512182442e-03 1.6676566587634813e-03 -2.0657429024780072e-02 -8.6831250991690687e-04 4.7209194235882726e-04 -3.6259932612121501e-04 -1.0737480708204739e-04 -1.5025187976463461e-03 -8.1584075770433223e-03 -7.5892822579314012e-04 7.1005946393993408e-04 4.3022987581517125e-02 -9.3052854702018253e-04 3.2586897714335303e-03 2.1962993451765556e-02 -2.0433975153861755e-04 -7.2240537193610666e-04 -5.2395123819515277e-04 7.8980220979712676e-04 4.2650290465885698e-04 -7.4634013311463548e-06 -1.1242898991651984e-02 -3.0691583064247907e-03 -1.3412118878969870e-03 -9.3054807442123633e-04 -6.9223747509561395e-04 2.2376152608854505e-03 -1.5607042722445980e-03 1.0431059051209668e-02 2.7201307115620743e-03 1.0595824090940908e-01 -1.1862677129221844e-03 1.9529557916884224e-03 2.3964764533994654e-03 -7.7080245725835196e-04 -1.6066692638001812e-04 3.0132444199091474e-04 -1.1367247777000281e-04 5.8957470195714068e-05 -6.1574945442943729e-04 -6.1456067762079430e-03 2.5325065944247285e-04 6.5674626281981563e-03 7.3276610059094154e-04 -9.8416315484219086e-05 -1.2882725936794445e-02 -6.7458283483732076e-04 -1.8701334471958710e-03 -4.0833061536221264e-03 -1.2376277100754531e-01 2.2557177946485891e-03 -2.4110286817274787e-03 5.3604391748310665e-02 4.7193870474059485e-04 -3.2798618870788672e-04 -1.0420082187301443e-04 -2.4445918231038493e-04 1.0126251306556509e-03 -1.0113258426537207e-04 2.2709127416887442e-01 2.3601572597462227e-03 -5.9562288639324612e-03 -6.5648906294661549e-04 1.6382268550959014e-03 6.6463578737481557e-03 -1.0051487215669994e-02 -8.6883119554108856e-04 -2.3039150594542541e-03 1.5996108334920489e-01 2.4369579683444953e-03 7.6092158849831275e-03 4.7763272927337397e-02 2.6914170054538364e-03 2.5973010482858170e-04 6.4151416897897592e-04 -1.2923227026874463e-03 2.8581307280655666e-03 3.0347086462773343e-03 -1.2293610213895509e-02 6.9133805756467492e-04 -5.4676641163395952e-04 -5.1605701712775266e-04 -7.6058882088598720e-05 1.3611177981710089e-03 -5.0939636296546201e-04 -2.1200818712151118e-04 2.4057780148669583e-03 1.5361290136643577e-01 -2.9355339241645658e-03 -5.0630591874293741e-03 -1.8113369849146466e-03 -2.0444741915737012e-04 3.3710759009973531e-04 2.8356603810675014e-04 -2.2237888642446401e-04 -2.0964986916041975e-03 -8.3788710558922719e-04 1.1830203750184509e-02 -7.2541573725418487e-05 1.4138211505424244e-03 4.0762887486047762e-04 -7.2465905745680570e-04 -8.3759052009039527e-04 -3.4087385224331225e-03 1.6440720021033695e-03 2.8554465059644433e-04 -4.4140248607504429e-02 -2.5954950421514847e-03 3.4788453814653397e-05 4.4005127151098833e-03 -4.4623597388460291e-04 -8.0765888110837967e-05 -6.8758777322829728e-05 1.9938565590176677e-04 -5.0801941509526216e-04 -3.5979500405439180e-04 -2.6423759635259354e-02 7.7749902863936396e-04 -1.1484892683964331e-03 -1.3934844428546366e-03 3.7269434681889383e-04 -5.4430030740268273e-03 -1.9015056497015820e-03 -2.0880371189527648e-03 -2.1694986328325240e-03 1.1476392456913299e-01 1.7867225286490812e-03 3.8381032886442394e-03 3.5845540565771605e-02 4.5137612766879255e-04 5.0793927591323931e-04 -3.4371798532717428e-05 6.3733143096216557e-04 -2.2873892099553698e-03 1.0202391089134105e-03 -6.6590685221466356e-02 3.7887209428510192e-03 8.4042647913780411e-03 -2.3369001659126008e-03 1.0404202612257080e-03 -3.1504477162649404e-02 9.6748356263479211e-03 -1.0124743910585612e-02 -1.6514049270803532e-02 4.0410988370803202e-02 1.7089300309181113e-02 1.3350612118849498e-02 5.5971759856954240e-02 -9.2251343108672515e-04 1.9171156040925985e-03 -5.7321349693901483e-04 -2.7332288421970906e-04 -5.3695663750115375e-03 3.6447298730244763e-03 -5.9807743304877981e-03 -5.3258943373711122e-03 -3.1072197530778193e-03 3.8522030961082674e-03 -7.5100444056932537e-04 -4.3314807142171372e-03 1.4879074608908555e-02 4.8294617834310901e-03 -1.4326221743880471e-04 -2.9666787935849932e-02 -1.2976928337222096e-02 5.8649837128516534e-03 -1.5177233976669261e-02 -5.1789228012639847e-04 -3.4913091105923336e-03 6.0160771321793273e-04 9.6987420073945708e-04 6.9566092114040426e-05 4.3651830471697958e-03 3.1512874171299068e-02 
      </Row>
      <Row Index="115">
        1.2199595624556581e-03 -2.0306255136065417e-03 5.3296602285293412e-04 -2.9547350259032600e-04 -2.0937987752548473e-03 -8.2934789967031614e-04 -7.2798935816206431e-05 -6.9997316836324370e-04 8.1587554980417851e-04 -1.6765909001470458e-03 3.2891313852795995e-04 2.1105125159491707e-04 -9.0348452117418043e-03 5.1491818425319523e-04 2.6096804025782776e-05 5.6740562223454508e-06 -3.0568000256969968e-04 -1.4782608585571788e-03 1.1110244425613629e-04 2.7581699064854748e-04 -2.4592003786439351e-03 1.7218922063455544e-04 -3.3536568383436051e-04 -6.5114632872367850e-04 1.0751581714140909e-03 1.1023316935434430e-04 -2.4499222012578687e-03 2.0981701293768147e-04 9.9361737922006449e-03 4.3710155851988124e-04 1.1078764339339450e-03 9.9066149587976327e-03 9.8195450926632220e-05 -1.1443188368449181e-05 -5.7968023647811395e-06 -1.2499892356751172e-04 -1.8254471821819301e-04 4.5447276025222839e-04 1.0313890098355011e-03 -6.6609002290639807e-04 2.1769372914419785e-04 -1.3458640028093070e-05 -4.0456552973122152e-04 3.3937048418240419e-03 -1.0858321094750489e-05 1.5250329091864370e-03 -5.4379009429063839e-04 2.4593848715827038e-03 2.0410180726131849e-04 7.0132876106862585e-04 4.7713772571311708e-03 5.3983998334532126e-04 1.1413055082815440e-04 2.8674152293445320e-04 -5.7677029747467586e-04 1.4810518901298489e-04 -5.8673143494493603e-04 1.8202106816761210e-03 3.5820410337182237e-04 1.9145228181043430e-05 2.8812729334657880e-04 2.7566694226244248e-04 2.8518325413167517e-03 7.0255205528294007e-05 1.7882344738813366e-03 -5.8533758354992541e-04 7.7432544445388274e-04 -2.4717726159341480e-05 7.0370884937760378e-04 -4.3284122682329951e-04 6.6993480118053713e-04 2.7349028098669044e-04 1.6705403776672532e-04 -1.9790180183804594e-04 -9.5094298064663657e-04 5.1331380787698194e-06 1.6937622879364955e-04 6.3321557030040360e-03 -3.6592368782642146e-04 1.8747908150600762e-04 8.9177345352144111e-04 -5.7635630109609997e-04 -8.1470673643051217e-05 6.3528230386221129e-03 -5.3486246990447350e-04 -1.6730388047499822e-02 -5.4189658056248702e-04 -1.3530417596885752e-03 -5.0819976497562536e-03 1.5119816398278607e-03 -1.4927267873032432e-05 -4.0728135743059446e-06 3.2683169273949736e-04 1.7242914538375884e-03 1.1331599133768133e-04 -2.9321192072912367e-03 -1.4925397452178902e-04 -1.0732353971925884e-03 -8.7468578613600497e-05 2.6681527228522919e-04 1.9262335010941710e-03 1.0406596054914757e-05 -3.6552938454594464e-04 -1.5345228442952218e-03 -2.7879427171223405e-03 1.5164563971064335e-04 1.5877206595444455e-04 -5.3419548309854292e-03 -1.0720858765593609e-04 -2.7597403987524721e-06 3.9449086574259339e-05 -2.0393619781594596e-05 -8.9718334158675039e-04 6.7656250080292985e-05 2.3601572597469200e-03 6.8190922230761354e-03 2.8394187539348970e-04 -4.7733728724651855e-04 -3.8436159667818662e-05 -6.5064396615496060e-03 -1.0807276061936474e-03 -3.8824522274601972e-03 -3.9315278181056151e-04 -4.1366141735736939e-03 8.1887536654117734e-04 -2.1633220484927780e-04 3.5495235069302744e-03 -1.3148068732488404e-03 -3.2676240174907723e-04 -9.8980264792094749e-05 -5.3052287794858066e-04 -7.0672703255494906e-04 -8.1971058117077944e-04 1.0959878042793281e-03 -4.4448532676804556e-04 -3.0291573542074075e-05 1.7178742185786403e-04 -3.2548342825531402e-04 2.8362709378366236e-03 1.4571878358969571e-04 1.3260367077653731e-04 -2.1780145562560663e-04 -2.8899919450325398e-03 3.0955227177668703e-05 -1.4880224096035144e-03 5.1546832427638023e-03 1.1077778770928663e-04 4.5693391273969914e-05 1.8901714310547765e-05 2.2646794243461472e-06 4.4400722797644909e-04 3.0186187829299058e-04 1.6446665762936963e-04 3.7435429658843992e-04 7.5125780554587975e-05 -2.8781426353195608e-04 -8.3676736770621485e-05 2.2124973688813880e-04 2.2029233305696653e-04 4.6360700748906969e-04 -1.2767189633139674e-04 1.2178237799718734e-04 -2.7936984882260407e-05 7.2058088639983912e-04 -1.8093060369661629e-04 -4.4065343388586235e-05 5.3152482057900374e-05 6.7889199288195118e-07 -1.0031461054144488e-04 -4.9342484152098409e-04 -2.6386335309722814e-04 -1.0338058683733511e-03 -2.2792765812611312e-04 2.3084447637153959e-04 8.1492663857393372e-05 1.5267276328952400e-04 7.3465311142169136e-04 -1.1249471606447755e-05 5.4246468639996680e-04 1.2336526204170963e-04 -1.0564324724354340e-02 1.4316558851847232e-04 5.5322957772963521e-04 -1.4630226812481786e-02 1.2652799028838491e-04 2.7362100219232578e-05 5.4503685604632599e-06 -1.4547165778067706e-04 7.9190897767500174e-04 -3.3255635184313397e-06 -1.0801373183359428e-04 -9.4976746803496544e-03 -8.9203864034797728e-04 -8.0048841647020405e-05 -9.3285868534375685e-05 -2.7060886551789507e-03 -1.1854571108704803e-04 8.0476859569620484e-03 -9.9474115756668945e-04 -2.4781241976656980e-02 4.1547580117462686e-04 1.3817987293618991e-03 -1.3894134441964689e-02 2.6839071042542000e-03 -3.6899763875033700e-04 5.6603311425522780e-05 -4.3728539220916346e-04 6.1693461487112838e-04 -1.2510566817819539e-04 1.3829771936498744e-03 4.0628823385776931e-03 7.7458231624474546e-04 -2.3869719140593073e-03 6.5780391795670456e-04 3.1055109382684392e-03 -2.1560844710129604e-04 8.2713298726176925e-04 -1.1314648428968990e-03 9.4262825309663787e-04 -1.4612278540889444e-04 1.1326514004486633e-03 9.6437247318811523e-03 -6.7735862814337676e-03 1.1945282367017414e-03 -1.6737714908397771e-04 1.1909541225948617e-03 4.6167113792953046e-04 -2.0204479770594081e-03 -1.2610732603238455e-02 
      </Row>
      <Row Index="116">
        -1.9838390171920840e-03 3.0940408277847341e-04 -1.4903967737877367e-02 1.9232400592032106e-03 1.6345495541109610e-03 -5.4586539971549788e-04 1.0458762857142386e-03 -1.0063587510696175e-03 8.1810426047205023e-04 -4.1905241047535680e-03 1.0560945518791266e-03 1.9948855405760649e-05 9.1700993816111187e-03 -4.7960992904601848e-04 -8.1470743350108184e-06 -8.4866236066359342e-05 -8.7639669463963898e-05 1.0465768479222303e-03 5.5109530232206206e-04 -4.2767878678007659e-03 4.1055127358607078e-04 4.8978119817823240e-03 2.1381300156736345e-03 1.7585283893872122e-03 -2.6647383446220044e-04 7.1378358415947682e-04 -7.6718828675476775e-04 7.4113156822870792e-04 2.1918196191593048e-03 -1.7806278689429467e-04 -3.2485988090276072e-04 -1.1753258909871001e-02 7.5941078408473591e-04 -2.4816776258072349e-05 -2.4348559411730905e-05 -1.9838910976585216e-04 -3.6384410001943229e-04 2.1362750770581151e-04 5.2189210084641890e-03 -5.0324848930184912e-05 -3.4054586094544870e-03 8.5050332208256273e-05 3.7291693797356258e-04 8.3609907486113799e-04 4.1666262374033536e-04 -4.9332400285687084e-04 -3.5551860546399749e-05 -6.5300847340565848e-04 1.8475747404031288e-04 -8.5770037795933340e-04 -5.1592825643438367e-03 -2.4584313679514854e-04 -2.6589398259799224e-04 -4.5529923838449893e-04 -2.7997255526874577e-04 2.8659963799709635e-04 -2.5664619077663117e-04 8.2751177460762548e-03 -1.1954795968477025e-04 -9.4120052523599500e-04 -1.7404254235393306e-03 -3.2433265126993391e-04 8.3480915515944231e-05 -1.4013924533839983e-04 -3.5091624380733169e-04 -3.8164255997542168e-04 -2.4246126136862056e-04 2.7954504005699328e-04 -2.0591959128271869e-04 1.1472380584169883e-03 -3.4910586172876311e-04 -4.7302120314377406e-04 -3.5851582628883705e-04 1.8476427689926439e-04 1.9092852670343774e-04 -2.9964822792997309e-04 1.1421523286163193e-02 -1.1895805041085145e-03 -4.5522293900475148e-03 -1.1307106242644076e-03 -9.3276715056728188e-04 -2.7186701637852296e-04 -1.4769821805535668e-03 2.6205805224981948e-03 5.9582518577294685e-05 -1.6062055251317986e-03 6.9210564805576025e-04 -5.6701623170080789e-05 8.7137898683693482e-03 -5.6016719710324982e-04 3.4425219833838019e-05 1.4370104039682779e-05 1.7045387610186043e-04 -2.2550133245442805e-04 1.5967927298322221e-04 -4.7053636806436358e-03 -6.6644362946351307e-04 2.6676071903424629e-02 2.1794534832206844e-03 1.1989653752948921e-03 9.6103859553634940e-04 1.2556055053586550e-03 1.4249254961335757e-04 -1.1346569017549055e-03 1.2588475190826221e-02 -1.5509653443804324e-03 1.7467696174811465e-04 9.2741404060345811e-03 1.6287897794741060e-03 -2.5824807562975461e-04 1.0936189376270508e-04 -1.0276125088534851e-04 2.8029581653526113e-04 -3.3628197775283065e-04 -5.9562288639340433e-03 2.8394187539306382e-04 1.4904128973269461e-02 -6.5384410893720973e-04 -6.7823947635210638e-04 -2.9308006154738116e-03 -9.5116576838195216e-04 -3.6297513230637915e-04 -5.2010046514270603e-03 -1.8256291019782545e-03 5.9063926886060002e-04 7.2518844697846106e-05 -1.3198439695760733e-04 -4.4816954235856756e-04 8.2595295097902038e-05 9.0304451978313535e-05 2.2419747619460261e-04 -1.5983553518007509e-03 4.9275583075920892e-04 7.6620533003634271e-03 -8.5401255125025412e-06 -3.3498479619206993e-04 -8.8327305659465188e-04 3.2091849313135900e-04 6.8089023021682485e-04 9.7155301468729565e-05 -5.1321612757651070e-04 -7.1196157909900670e-04 -8.6752207970870205e-03 -2.2555087824337555e-04 1.1203256658096667e-03 -4.5822042698020482e-03 -1.5364738996832678e-05 1.8096429514094834e-05 -2.3849199089341551e-05 2.0799295942226456e-05 -3.1500452625900135e-04 -1.6890261833634390e-04 -1.0034997094325870e-03 7.9034787414482971e-05 -2.6200381792074819e-04 9.1749558152375444e-04 -7.0269700699648885e-05 -2.9395049773173199e-05 -1.5815113818007289e-04 5.2529747892464396e-04 -8.6482533106258430e-04 3.6419041073433300e-03 -1.0037376618513070e-03 -1.8008843308217962e-04 9.5487172903263584e-04 1.6326386282026887e-04 6.5288118897238181e-05 1.0961824321440404e-05 -3.6539362714649911e-05 -6.4678018248320868e-04 -1.1823471634601554e-04 -9.6327028784047725e-03 3.7325865519399737e-04 -4.7630090874818051e-03 -1.5663923588274437e-03 -5.7864869740920370e-04 1.5225318561172812e-04 -1.1677064392963468e-03 -1.9051425499345081e-04 -2.0535136237814344e-06 -1.4764473382647445e-02 2.8788176985205833e-04 -5.3158132897256028e-04 1.3330297819713954e-02 -2.2995624416734711e-04 1.1166152664993329e-04 3.4768950620388589e-05 1.4456664995326856e-05 -8.8648660775306632e-04 3.5400371868107372e-05 -8.7358954219017709e-03 1.0549606869903823e-03 2.1733463576423053e-02 3.2370337670200493e-04 6.5361611996848814e-05 -6.8912990232880902e-07 -1.1658964089108458e-03 -7.0339613431882691e-04 -3.6776747059641089e-03 1.0197395880703970e-02 7.5154980634842695e-04 -1.2203669684553097e-03 -2.2266365208666178e-03 3.3523359246509835e-04 7.1117622659666612e-04 3.0698289735864976e-04 -1.2389075421506603e-04 -1.0389392033495065e-03 1.2083177336825914e-03 6.6359078116341313e-03 -1.9766562410884940e-03 -1.7254191878197590e-02 1.4613750322533356e-02 -7.9113967265997780e-04 7.3156475332183057e-04 6.5210186196883223e-04 1.7294219636567662e-03 -1.9278129732568448e-03 1.8331503294521088e-03 -3.5093332656644166e-03 -9.2163325246802049e-04 -5.8638873873235846e-03 -1.4321619844468987e-03 -2.3260693012247197e-03 3.6567317070249875e-04 7.2437367376886139e-04 -3.1055977971845546e-04 -5.0072468937205393e-04 9.8825040818817291e-03 
      </Row>
      <Row Index="117">
        2.3901543972815013e-04 3.1092445557110771e-04 -1.2816703636698602e-03 3.8645061106223108e-04 -1.6869921007532616e-03 2.0138173982436275e-03 8.8130225909299298e-04 1.5472125402875253e-03 -2.4630928893033402e-03 1.4886108637920836e-02 -5.2097622988778961e-04 1.3847602019270971e-03 -4.7497597277657011e-03 -7.9409010557353419e-04 -4.9856803329265988e-06 4.8769106732326380e-05 -8.1467930009383304e-05 1.5812655312807278e-03 2.4364261217639472e-04 6.5724715891399277e-04 1.1296117823754361e-04 2.6866223225404696e-04 2.5495996685285719e-04 -9.7797825528519663e-04 9.1743820345187473e-04 2.1649240090091271e-04 1.0340170786241882e-03 -4.2118840780085588e-04 6.5399242548186132e-03 -2.8220692107071955e-04 6.5025490402196434e-04 5.2727422960172632e-03 -2.7482204509681938e-04 -1.7650852534574317e-05 1.5409381548721519e-05 -2.7499699486997347e-04 -2.3438910755751163e-03 5.8945591342724011e-04 6.1824216668782128e-05 6.5627267473596942e-05 -2.2848192601904356e-04 -4.3001169167322531e-04 -7.9635044331812475e-04 -2.9522049523046431e-03 -1.1875358372529649e-04 7.5327315649217907e-04 1.4178156321795884e-03 1.2619471211967603e-03 -2.4177952196440151e-04 2.3018835858477915e-04 -3.1848425279701331e-05 -1.3884380648417402e-04 -1.0269173791797002e-04 -1.9834993347682536e-04 -8.7727456915628714e-04 -6.7015727106274625e-04 -6.5281221770492918e-04 -7.0856627605217493e-04 -1.2793259149407668e-04 -1.0912945823423085e-04 -1.1074244481953689e-03 -6.6803511172231628e-04 -2.0746847971069584e-03 -2.5977702077357827e-04 -7.5704291425150727e-06 1.9481491764541288e-03 -5.0846192159953452e-03 5.2934688091058231e-05 -2.5744142862672847e-04 4.4944799809973901e-03 -2.1375292697050785e-05 -2.8362439797694882e-05 -2.6077414109407573e-04 -3.8647443233362283e-04 2.0833643104140147e-03 -2.6416617089155756e-04 -4.3811062306564619e-04 -4.6240934130023503e-04 -3.9462031395322110e-04 -3.1701439418464761e-04 -3.1464311989140570e-04 -4.4744387761086338e-04 -3.0723892211591275e-04 -2.9301104214499996e-03 1.5263159113582114e-04 2.3065787302651852e-03 3.9237722010232456e-04 1.4722564726987394e-05 -1.7720310850208865e-03 -2.9997848986866886e-04 -3.5690591196162018e-05 -9.1434310479076089e-05 2.5014338701424832e-04 -6.4099708926585591e-05 4.9270760194584928e-05 6.1215899485195235e-04 -2.2594361038254544e-04 2.6829503977659364e-03 1.8107006736303363e-04 2.2359320080451300e-05 -1.8837638575996316e-03 1.0644256517654705e-04 -2.2298891627779466e-04 3.7302661926961046e-03 -1.3700546625274698e-02 3.8709403288308616e-05 -6.6118442240589649e-04 -1.5864860322759577e-03 4.7876932053840537e-04 -9.8002139450355805e-05 -3.0116133365783702e-05 -2.1269465124714414e-04 1.4710358818878074e-03 1.5793441004870125e-04 -6.5648906294629716e-04 -4.7733728724664529e-04 -6.5384410893714467e-04 3.9124741960373131e-03 -3.0213276625757216e-03 4.3063185775693864e-03 2.9688300957860848e-03 6.5071426342701213e-04 1.3993641246199777e-03 4.2820051160314954e-03 -4.1056619062575716e-04 2.1589608011164663e-04 3.0792128681376152e-03 7.0423872757212434e-04 -2.1339365089314140e-04 -8.5256885421582974e-05 -7.2633595852926295e-04 2.4679070752952684e-03 -7.5385914110120272e-04 -6.2891002801660628e-05 5.9307631217316676e-05 -1.4773112678777395e-04 -2.6707599526271694e-04 -1.7498499326189609e-04 -1.9258275222116086e-03 -1.2115282882827557e-04 4.3490596781486121e-04 4.4952846399644937e-04 -3.4347415317161831e-03 -4.7095214421863846e-05 -5.5544190032051936e-04 3.9125662514725157e-03 -7.6585422201087648e-06 3.9645577206681673e-05 -1.6065613494043086e-05 5.9853844755203246e-05 -1.5474369240710788e-04 1.5494043377410480e-05 5.5704982174187290e-04 -1.2483260521974852e-05 3.8356754248098496e-04 5.9917145517056564e-04 4.5576500386462770e-04 3.6671324643649215e-04 5.9035859228116685e-04 -3.3960659240533236e-04 2.7720622239344210e-04 1.3253690658075468e-02 1.9703203681261077e-04 4.8847682797955976e-04 -1.1763165552531873e-03 1.4023591260785010e-04 1.2718973698686752e-05 -3.1266073667757938e-05 1.6142047574342107e-04 -4.0985052894833285e-04 -5.6807041336582459e-05 -5.2226715188079340e-04 -4.7499003013440301e-05 -6.3110457728536270e-04 -1.0550992758260158e-03 1.5422505975865887e-04 -8.7960121229823014e-04 -4.6531277381541046e-04 -6.8950255203451818e-05 -7.4784331147508009e-05 -1.5306816764461859e-02 1.4856119141813066e-04 -3.8457787322861896e-04 -7.3412089065574837e-03 1.2167039914242540e-04 -5.4829557950774449e-05 -1.2992419396947862e-05 -9.8702109292210689e-05 -4.7043276784148767e-04 -2.9524168554242568e-05 -1.1778261124814212e-03 4.5185276379829125e-04 2.1603352095472643e-03 -1.8020117523568128e-03 -6.1114188867419505e-05 3.0005240463872266e-03 2.3581031350680681e-04 4.2718217932324496e-04 3.0851772805443891e-04 -1.2933299999494673e-02 -5.1339872944305585e-04 8.0902555580765565e-04 -1.0033130176871352e-02 -5.1837465503559255e-04 -3.1265555584019880e-04 1.6555290036225298e-04 4.3744188332375139e-04 3.8044970302548151e-04 1.1868394412810589e-03 -2.4707606577144270e-04 -2.5547225989619362e-04 -1.6858575206973423e-03 7.7811891101512431e-03 7.3526379552059612e-04 -2.0009868084273530e-03 2.0368601189507782e-04 -1.3656630058818072e-03 2.5995429211882284e-03 6.0460523066110309e-04 1.8296754807663159e-03 4.2682346797989724e-04 3.7099056346840084e-03 3.7650014848299627e-03 -1.0817856962396562e-04 3.2112413979212172e-04 1.6595591249283727e-03 -7.4168675957848168e-04 -1.4867831943284645e-03 -6.8803675396165347e-03 
      </Row>
      <Row Index="118">
        -1.0152779234591843e-03 1.3877923566500260e-04 3.3418437910449905e-04 7.9974904147329424e-05 -1.5287026744098580e-02 -8.8451974645831796e-04 -1.5948648278440170e-03 2.5319254737951541e-03 1.5092323447542392e-03 -3.8834564483001488e-02 6.5935076672393267e-04 9.0111801013483765e-04 1.8639625481083333e-03 -1.0627236999534617e-03 3.5858780454757835e-05 3.3849111043289249e-05 -2.2881999458194838e-04 -5.4349445248062897e-05 -8.4843221993093857e-05 -1.2355020829608251e-03 3.2071779633703655e-04 1.0837280735156319e-03 -4.4704223803605092e-04 -7.9018979732636344e-03 -9.9328354576456914e-04 2.5273501554361200e-04 1.5590222983107938e-03 1.2512322336825357e-03 -1.5983961832031199e-02 4.6051942184496483e-04 4.9700011264823540e-04 3.7304677777889594e-03 -5.8520081958111426e-04 3.8577501529340336e-06 8.5676893803970748e-05 -1.5298713550521115e-04 5.8199964703459575e-04 3.6769895265342627e-06 7.3191359009244089e-04 -4.4837278406782672e-05 1.5899436578166058e-04 -4.8219771390526430e-04 -3.4864416122831485e-03 -1.3185989309996617e-03 -4.0625309828981951e-04 1.0463856408970086e-03 6.0094543398482581e-04 -6.7848640624940115e-03 4.6483599561684963e-05 4.0259713478395243e-04 5.3451210268291582e-03 -2.4418329696444449e-04 -6.0466112388616114e-05 2.7564910028901515e-04 2.8491865074297285e-04 -9.3791191575835244e-05 -1.8804503091973809e-04 1.4223486572420563e-03 -1.1399882171955625e-04 1.4769020068523429e-04 -1.2590758423885462e-03 -2.8638015585244377e-03 -1.4113927895919348e-03 6.5134443397827854e-04 -1.6211052562216909e-04 4.0816274771169649e-04 1.1809870046247117e-03 1.2529318565118307e-04 4.0606926496484542e-04 -6.1829310113132863e-03 -2.3258941303472833e-04 -1.2086508154408496e-04 2.0606569800417319e-04 -9.5095302342728446e-05 1.2211895836927722e-04 -1.6202674837389412e-04 1.7896972736072270e-03 -5.7264435051894436e-04 -4.4269270478349779e-04 -5.1437232790940701e-05 -9.4820326679692646e-04 -5.5214398557482396e-04 6.1162591425458976e-04 -6.2132603166129563e-03 1.8188914998476524e-04 -1.8651497422950136e-03 3.0201794085766773e-04 2.5142205824728661e-04 -3.1639132615524090e-04 3.5734893290459424e-04 -3.2004656071273237e-05 -3.4326266543659861e-05 -4.1825965590061142e-05 -9.1643214427929165e-05 3.8156843399084206e-06 -1.4016835040021776e-03 7.3413946896417649e-05 1.5697822893341352e-03 -7.7825416761886522e-04 1.2571153997364935e-03 -2.3795986903430788e-04 -3.1593593101781475e-04 2.1241632100311833e-05 1.2064340337377614e-03 7.2001344097679925e-03 -1.6560629544927659e-04 5.7026105260522657e-04 -3.1298273965437717e-03 6.6133469734724762e-05 6.9174820363883784e-05 2.3947423503391162e-05 8.6181631592299626e-05 1.6396002394543916e-04 -5.6948421269706589e-05 1.6382268550958479e-03 -3.8436159667965680e-05 -6.7823947635209728e-04 -3.0213276625757342e-03 2.1347762812488555e-02 1.2279763930258389e-03 -1.0863662012414619e-03 -3.1580528949030071e-04 2.6557959355480790e-04 3.3610136027502069e-03 3.5089263665047344e-04 1.5639180589031112e-03 -1.4964468538127829e-03 4.4184178403904235e-04 2.5286278717795348e-04 4.4947734758815465e-05 -4.1106457155974853e-04 4.2025218718880208e-04 1.2753236284683556e-04 8.1719283848732949e-04 9.7635049030013444e-05 2.4874162272544393e-04 -6.6384969991075543e-04 -2.7270982799083329e-03 -7.6443395865886422e-04 5.2251235570764014e-04 9.2750832662351823e-04 2.4616879758770449e-04 4.9051287566246530e-04 3.5770849582551138e-05 -1.1978218142711522e-05 -3.9925719178972585e-03 -3.4057870466007987e-04 7.6098995577738768e-05 3.6356060400154796e-05 -1.4285267570645521e-05 -4.0738257468650604e-04 -1.6229388671339920e-04 -7.1150867000735474e-04 -2.0010575196609761e-04 -3.1209192056791163e-04 3.7182757705775350e-04 2.3391396573181206e-03 -2.5544496522160020e-04 3.2296241583390853e-04 -9.7175199706518028e-04 5.2064741515480230e-04 9.3543208049484683e-04 5.3995601296374343e-04 -4.4550826937984466e-04 3.1869857759447839e-04 4.2322963312811245e-04 -8.5533095630967523e-05 -3.8948825447364561e-05 1.3476042836315684e-04 1.6857542169271267e-04 7.2268714812771806e-05 3.1358538945910550e-04 -1.9862705016268558e-05 -2.1789048294993454e-04 9.3154752010704165e-05 -1.1297626745767819e-03 -1.7421711638525289e-04 2.7999428252897893e-04 2.8104672584550595e-05 -5.5648589862522079e-04 -1.0930381465374037e-02 -3.4877205246244976e-04 3.6036165367497603e-04 9.4896268965023386e-04 -1.1967023629794663e-04 3.3594709762756018e-05 -1.7523250280188885e-05 -4.4647328559099667e-06 -3.6822425881349874e-07 -1.6025866273777453e-04 8.7788509677380958e-04 7.4005875464162462e-04 1.5863821003913843e-03 -3.1054892382734317e-03 -9.4413393158089337e-04 -9.6457973503782804e-04 -1.3173024792505032e-03 3.8954503083337027e-03 2.9184810161628173e-03 -2.2332130054327652e-02 -5.5115272525921993e-04 1.8739400580387532e-03 7.3022274133194287e-03 -1.8928599005221501e-03 2.4139099195712123e-04 -1.5364107160850649e-04 6.6059523427786180e-05 7.5213799492698796e-05 4.0243125725921954e-04 1.1330910503805428e-03 -3.2090964353673201e-04 -1.2393710442069781e-03 7.0401328014925053e-03 5.0221179305073192e-03 -6.1149720489746609e-04 -1.1003416450678892e-03 -2.7726194925717989e-03 9.0833443071664140e-04 1.3101712825763045e-03 1.8673266533624222e-03 1.0806829740367917e-06 1.1083315353277012e-03 1.1080305624149500e-03 -5.7015162174561471e-04 -1.7355644347274101e-04 -9.6855645437427342e-04 1.0111434627451386e-04 2.1257807800266918e-04 -6.1672342598224931e-03 
      </Row>
      <Row Index="119">
        2.2096247920827539e-03 -1.4220082081983568e-03 4.5458914560862762e-03 -7.1848341044835461e-03 5.3391292777709709e-03 4.3732494817795474e-02 4.2835150855679051e-03 -5.1413787246469781e-03 1.9057875701439658e-03 2.9060357068944054e-02 4.4655983853185996e-04 -2.2690236429656757e-03 8.1890830651789592e-03 6.1092666574503610e-03 -1.7836989637007999e-04 -1.4127333505252841e-03 1.5188623013067601e-03 -3.6299177188510211e-03 2.0282707499558530e-04 3.0143669306642584e-03 -1.7515222214496348e-03 -2.5979188576852885e-03 -1.5268047984387096e-03 3.7723357078918163e-03 -2.0973200973166822e-03 -1.1649802873662934e-03 -3.9329477594304925e-03 -1.0375873898692892e-03 2.0489568034141481e-02 9.2424682440946462e-04 -8.8897266226214966e-04 -1.0432506147417087e-02 3.0800944583212878e-03 6.6046158888499740e-05 -2.1271063031683968e-03 1.9547496922319727e-03 4.4575977358302099e-03 -4.6835575196431459e-03 1.4609173294382050e-03 9.1735298454848589e-04 1.0238513486707720e-03 -1.8027424263998455e-03 2.3103256669889383e-03 -1.1937866158565164e-01 1.9552321769496506e-03 5.5844120345767412e-05 7.9700422702964902e-04 -1.8345079720650581e-02 -2.8930803061048144e-03 -3.0991819440107093e-05 -1.6599007571301172e-02 -3.7661306047271528e-03 6.2525429594117998e-05 -7.3138705850570272e-03 5.5156186109608513e-03 2.8443125370334471e-03 3.6836612109768657e-03 -6.1686888101575299e-03 -4.0622352524243011e-05 1.7648054479257047e-03 4.6884849700815912e-03 2.9469306045870891e-03 -9.2987671638704916e-02 -6.1229815607233562e-03 4.8247840473311654e-04 7.3777427858276456e-04 -3.4257668703914668e-02 -1.4494052008073577e-03 -9.3727106193994963e-04 -6.0227312003746647e-04 -1.3636313262406869e-03 -6.0910100572028700e-04 -4.9811034406329682e-03 3.8755167399837781e-04 -2.2546781209132893e-03 3.7066327607332417e-04 -9.0894671701131635e-03 1.9094453888700569e-03 1.2886632988157454e-03 3.3368482362919338e-03 1.5107991610775473e-03 -2.6402505735112408e-02 -3.0275797189343312e-03 9.6981898745285289e-03 2.6045756894799155e-04 -5.6756984496285412e-02 -6.1180352680900718e-04 -1.2297975631624242e-03 2.9156672782347570e-02 4.7151880899846052e-03 1.9446269099789720e-04 1.1003786551712635e-03 -4.7595478851594833e-03 3.4461956686829831e-03 1.6436447628376261e-04 2.1607617861577129e-03 7.6620826789705263e-04 -7.5989554881981105e-03 2.5108596328836767e-03 -1.8646707375466476e-04 -5.2202746566463787e-02 -3.9831609024501557e-05 6.8024683530898584e-04 -3.8558542604470464e-03 3.1412786421610522e-02 2.3957807556808017e-04 -1.1452461892736236e-03 2.1743044789283239e-02 -3.0732747016120540e-03 3.2596341387237243e-04 3.0818669451055389e-04 -9.1330410013805170e-05 3.6029613029031626e-04 -2.0796526890341860e-03 6.6463578737416817e-03 -6.5064396615493597e-03 -2.9308006154736832e-03 4.3063185775692459e-03 1.2279763930252222e-03 2.7006966229328555e-01 5.5168043052212373e-04 -2.3764655565175052e-03 1.4213035727783041e-02 5.5976106107868517e-02 4.8694696616668753e-03 -1.7067152173545130e-03 -8.7034681034907635e-03 9.0031464865505777e-03 -2.3106260401562877e-03 -3.4615804735708897e-03 3.5153992930423987e-03 -4.2249784393582068e-03 5.1792457224268951e-03 -6.3681374169379662e-03 2.2212044894861825e-03 1.6358717742620218e-04 9.4057389614902456e-04 2.5504205893181909e-04 -9.5907753795792805e-02 -2.0508943127205970e-03 -9.8228510928935779e-04 -2.6090219686804288e-03 -2.5348232896547702e-02 -1.6751838556631018e-03 -1.2951322936519895e-03 -3.4799098193971645e-03 -3.6990979213639315e-03 1.0958623864160265e-03 2.0508329825255820e-03 -1.6765478012901504e-03 3.2321048561904930e-03 -2.8253579457563102e-03 8.7144401561776164e-03 6.0629652579727365e-04 1.0075230274798415e-03 -5.8128812458620935e-03 -1.0229925710439902e-03 -4.5598124765454731e-03 8.8328118547644809e-04 3.4829976082206837e-03 -8.5291903519456758e-04 2.5892032863352787e-02 2.1050006321631908e-03 1.5376314036809266e-03 -1.3303793873831182e-02 -1.1106054946185369e-03 2.8300653016279770e-04 -3.4774475439168506e-05 1.3370493049452798e-03 -2.8266713984054226e-03 -1.3746358085554855e-03 8.9689010462898067e-03 -7.9566880915004788e-04 1.6786434367130939e-03 2.6685375550127509e-03 1.4548908637192234e-03 -2.5055311043975799e-02 4.0216416632671802e-04 -6.7965808093726907e-05 1.5428888467977171e-03 1.1300552890660157e-01 -1.3666362907017453e-04 5.3141170436301168e-04 3.3555072443206907e-02 -6.8157358528096561e-04 -1.5783427134768356e-04 -3.3108999431194540e-04 5.9465845544869392e-04 -7.6483145680599982e-04 1.7316425311435262e-04 1.7380548159286566e-02 -4.9813076508046054e-03 -6.4306186614715918e-03 5.1837793785512393e-03 8.2836125489837899e-04 9.7126565784059177e-02 8.8022633547948839e-03 -2.1994898862653773e-03 2.5548470884399254e-03 2.5977583379504132e-01 2.9376711791492889e-03 -7.0407160849027717e-04 1.2900336172314786e-02 5.8771046438956679e-03 -1.4738034925986078e-03 -3.4534815479324195e-03 3.4951081433750386e-03 -7.2530864106850595e-03 1.4037644104477436e-03 -1.2202366270123721e-03 2.7368918070635006e-03 6.6738647468506237e-03 -4.9535868543057353e-02 -1.9740919978894975e-03 -9.2028319512833759e-02 5.6682347659738896e-03 4.5690063368433592e-03 -1.6899436735197740e-04 -8.9764783770264339e-03 1.0529830748622362e-02 1.4505052310016132e-03 -1.9549027228569577e-02 -4.4783084045865895e-02 -5.6349948621385280e-03 9.4265917452547431e-03 -1.9493237423237008e-02 9.5976382792787164e-04 1.4239323982147846e-02 8.4026301178952503e-02 
      </Row>
      <Row Index="120">
        -1.7046549258692839e-03 -2.5394786283468827e-04 -1.1719396459111409e-03 5.0972923879947910e-04 -3.9015355438462573e-04 -3.1564324660382477e-03 1.4359951082399526e-02 -3.8493797083854477e-04 -1.4532116840454412e-04 -1.8846203884082868e-02 1.0732352884646143e-04 -1.9461176165925173e-03 -5.2456078357681069e-02 -1.1115088079816354e-05 -8.7513027676440133e-05 -1.4554758915721394e-05 2.5112350241784237e-05 -7.7205125527818087e-03 7.9341486316899905e-04 -1.4486926537654599e-04 1.5110852221035531e-05 1.9860102920579714e-04 7.3857924772630155e-04 -3.6004959628466171e-04 1.8532506847731278e-03 -8.9889030079831969e-03 1.6752947854268571e-03 1.7529910552058908e-04 9.4835086863439166e-02 -7.7499771053571960e-04 1.2603293188255815e-03 5.1937509113813007e-02 8.3211848183896450e-05 4.6038975468002882e-04 1.7914414660045314e-04 5.0362017044484713e-04 6.9001399665230001e-03 6.9396243003162078e-04 -4.4797807909393028e-03 1.3420075110999160e-04 6.1507666147549156e-05 -5.2435933057017048e-05 5.2883609311284857e-04 -4.0806251453124678e-03 1.1090545701800958e-02 -7.7914363836516232e-04 5.7041950682057418e-04 -8.8361652481086406e-02 8.8224743549916024e-04 4.6463757806219919e-04 2.5433799463918660e-02 -1.0953333821996428e-04 -3.0932874272462940e-04 2.2786800043872457e-04 1.2111510600625250e-03 4.6437058267934025e-03 -8.9563382517646520e-04 1.0026233692326247e-03 -1.7071073491539690e-05 -2.3291725189609341e-04 1.4759870075636838e-04 2.1308005479450665e-04 2.4273606668654395e-03 -1.9598825951143276e-02 1.1074883278445885e-03 6.9579681028666962e-04 7.0362355892665818e-02 -9.2549129225016902e-04 2.3635864203906884e-03 8.0877923737574520e-03 6.1456776113818330e-05 -6.2971890303520437e-04 2.6141459513877308e-04 1.0494486996689145e-03 -9.1924900155126721e-03 -1.7019054916227669e-03 -1.0707111612560105e-03 -8.1444156590504413e-06 -1.4048566659774497e-04 4.7984271133366674e-04 4.1263761254123343e-04 2.2618494925594080e-03 -5.9497527629515656e-03 -4.0186408302118615e-03 -5.6575806202574519e-04 2.7081118891635114e-02 -2.7641213077886362e-04 1.3977918040178339e-04 -2.7654231193348977e-02 1.6338212225944226e-04 -2.2532911925554622e-04 4.8645546536198181e-05 4.1522353582704868e-04 -6.7491065733971123e-04 -1.1852432526598955e-04 7.2375495669060874e-05 -3.3205120989345666e-04 1.6492615647064361e-03 2.3849659693406819e-04 1.0283013492255744e-05 -3.7785763889249722e-03 4.3528685508227513e-03 -1.6055570709421227e-03 1.3711032763303018e-03 -1.7588117674028278e-03 1.2162151822833664e-03 -2.4600812253452557e-03 -3.1679980011872111e-02 -3.5312738499344160e-05 -3.5987401629196045e-04 8.2025366289125280e-05 -3.5554826066453230e-04 1.1543830203031152e-03 9.4901449150688096e-04 -1.0051487215666288e-02 -1.0807276061945356e-03 -9.5116576838064071e-04 2.9688300957864053e-03 -1.0863662012415981e-03 5.5168043052929161e-04 4.9085946050498999e-02 2.6108321441820196e-03 1.2909300630612464e-03 5.7817064946803498e-03 -4.4381632589813175e-03 1.2703217271734304e-03 4.2845034571246998e-02 1.4989955883908581e-03 1.1051270505978475e-03 -1.7072145198360200e-06 1.7882006592844298e-03 -8.6777453980381170e-03 -2.6870152220472843e-03 -1.3900392784465115e-03 4.3865501277833290e-05 3.2036399407452728e-04 3.5657462168158047e-05 -4.7990901913370736e-05 2.3043269564962270e-03 -1.0086662574501234e-02 1.4866897705371434e-03 -2.6520083847188041e-04 7.5419798000869523e-02 -7.1907436505978491e-04 -1.9231906261332581e-03 3.6457752367009988e-02 4.1242418693682219e-05 7.0337816574517735e-05 4.3701372108504648e-05 9.6906578519850796e-05 2.5819428557216006e-03 2.0417274656291134e-04 3.2570441205339584e-03 1.4633962916687723e-04 3.4489335971011042e-04 8.1311765834343741e-04 5.4282177824385713e-04 2.4259535951554447e-03 -5.6623130586749629e-03 2.4874864657642437e-04 -5.7047265837180210e-04 2.9268802717593106e-02 -2.8017458993947130e-04 1.1083215851466835e-03 -7.7171546045349260e-03 3.2687622137618879e-04 2.9907614643324420e-05 7.8808077733326376e-06 2.8513871914223870e-04 -2.5908224574727745e-03 -7.8345312060662531e-05 -1.6852686655602920e-03 -2.0148679985243848e-04 -6.5702040800544748e-04 -2.8461093433945430e-04 8.3622883447585685e-04 -3.7691799381495790e-04 -3.8895325293919914e-03 -7.4355994154009066e-04 5.5291440679466387e-04 1.1994964795955523e-01 1.6857519100264221e-04 4.1316002497034262e-04 -7.9402720282013228e-02 -5.6843816783961508e-05 3.3093369181227733e-06 1.1870321234589116e-04 5.1032927598895230e-04 3.9215081669112580e-03 1.8823886122627001e-04 -7.7302996819265529e-03 -8.6583317029186382e-04 -3.5800072729804192e-04 -9.8516018455674023e-04 2.2304962505471523e-03 -2.4751727161542465e-02 2.0037021805411968e-02 -9.1237623940311451e-03 1.2229141411618006e-03 -2.8084470321076849e-01 6.7292392507923449e-03 -6.6967074793902910e-03 -8.6566339524650315e-02 -6.0831604898669428e-04 -3.8419607520016701e-04 -6.9900324762086925e-07 -1.7139394350588794e-03 1.1227781045285719e-02 4.8340522838061081e-03 -1.3834339924533867e-03 -3.3356141150325163e-05 -6.7109475441688954e-04 5.3812792310186808e-03 3.0140701922885121e-04 -7.2452061833597290e-04 2.5720025019065451e-02 -1.8442135078129652e-03 7.7122752460118127e-04 -1.5509023409064935e-02 2.2434385373855184e-03 2.3722254670108349e-03 4.6401691550323178e-02 8.0821529381411641e-04 -3.0244492518854676e-03 -7.5966379917386689e-04 -2.7927786181388635e-03 2.8772834365484853e-03 -2.5950985841653976e-03 -5.0224089933809592e-02 
      </Row>
      <Row Index="121">
        -2.2181714088499102e-03 -2.0185287897607216e-03 -1.1725620276435422e-03 -8.0282409774057447e-04 -3.3738880218993350e-03 -1.7491013582098328e-03 2.1327032995361703e-03 -4.8645270167122195e-02 4.3802076961400871e-04 7.0930735843146575e-03 -2.5258473171382964e-04 -2.8273421503142090e-03 -1.6349790287943922e-02 5.1963655616126996e-03 -2.2720829690784337e-05 2.6023868335196490e-05 -3.0778447870426391e-04 1.0660487481253165e-03 4.9806312505225239e-04 -2.5331724073003603e-03 6.4796002542310150e-03 -2.5683407267137331e-04 3.2526276165598805e-04 -1.9091282448140123e-04 -1.5907544196305107e-03 2.6939781960602649e-04 -2.3917109760318668e-02 -1.0025023536943192e-04 1.4316108567377167e-02 -1.1902254755442147e-03 -3.3960805737326127e-03 8.7732444722483649e-03 3.4187373755764630e-03 -2.4654557006584255e-04 -1.5588131475330683e-04 -7.3191193967684504e-04 -4.7485558736943545e-03 1.6065481476177385e-03 -2.1044395082566170e-03 -5.0128226708348808e-03 -6.0130167191930518e-04 3.9181130118693796e-04 -2.4588137854973657e-04 1.0424717513961325e-03 1.7372434683489840e-03 -2.8692064164284537e-02 -7.3223153379311720e-04 1.0375687198982853e-02 6.8915979014570056e-05 3.0446830208805120e-03 6.6819952283125872e-03 2.6513702219628592e-03 3.4542057585242036e-04 -4.5030485859803068e-04 -5.1773585031186196e-03 -8.3189294238862968e-04 -5.8517932282797086e-04 -1.5704120342296957e-04 -3.8469951763434006e-03 -2.3304850491355500e-04 1.4734955477224906e-03 2.1115139998163363e-03 1.7909712658093560e-03 -1.4967135607995979e-03 -5.2464943408045764e-03 -1.1518097271339886e-03 2.1851973642647682e-02 -1.2285511916308028e-04 2.6875319366469162e-03 -3.8330342731320854e-03 1.5579769101311126e-03 3.6496360301723906e-04 -7.9493641159501457e-04 -3.2846020183771064e-04 1.4668086917880990e-03 3.4393905997883584e-04 1.0871676792076679e-02 -8.2935985466679879e-03 -2.5797222539686998e-04 -2.4507472635475341e-03 -9.6577844913486866e-04 1.0317675565078045e-03 -5.1470267409192139e-03 1.0723602919638731e-01 7.9288933441912235e-04 -5.2228747146486398e-02 8.4166966529540532e-04 2.9847335079187312e-03 3.4170539659790222e-03 -4.8776956199036159e-03 4.4682579875878967e-04 2.4937620872393998e-04 -4.5318532441222109e-04 2.1532657530471816e-03 -4.2253312006337862e-04 1.1530277302028713e-03 1.2349631010802557e-03 1.7838377704096639e-03 1.0747992014291190e-03 6.1958285301503060e-04 4.9952668257773579e-04 1.8915680328546181e-04 7.7914352873547548e-05 -1.7503962080844526e-03 -2.1178906744180607e-02 8.8039022482352394e-05 -7.6201195556504196e-04 -5.8879040965371665e-03 1.7665000986418150e-04 -1.0975496578316535e-04 -8.9636637259704296e-05 -3.5231896993221084e-04 2.3036268043253542e-05 3.1139302746204791e-04 -8.6883119553593513e-04 -3.8824522274611417e-03 -3.6297513230378053e-04 6.5071426342699912e-04 -3.1580528949095871e-04 -2.3764655565170073e-03 2.6108321441836724e-03 5.1079263206807946e-02 4.5925591990236825e-05 -4.0651735663250754e-03 3.8988966042476753e-04 7.3670357022128426e-04 2.0612705438276535e-03 2.3110747020103220e-03 1.0979682221311932e-04 1.3697985730126011e-05 -5.5760707591414639e-04 2.6657123260075133e-03 1.4494795287145479e-03 -4.3064065138229829e-04 -2.3861059195315545e-03 -9.0715959431315958e-05 1.1059954983661650e-03 4.6707930655372112e-04 1.3414719288262760e-03 1.0725338128284977e-03 -1.9159769466931837e-02 -4.2150054449744279e-04 2.0175317885592074e-02 1.4127498970252690e-04 -4.0622575028431028e-03 3.3249739543528278e-03 1.5708896703666765e-03 1.5744394187170878e-05 9.6328181924797631e-06 5.7730911625219930e-04 -8.4845186695853660e-04 1.4476952951670999e-04 -5.4918556815564123e-04 7.8283834447208638e-04 -1.2244403429375868e-04 -1.3645443764657463e-03 -7.3724115541308477e-04 7.3011591258181213e-04 -1.4192994606894221e-04 1.5687182273021433e-02 1.0573739631220959e-04 -1.1493537426767730e-02 8.9664756617138320e-04 2.7771867800597955e-03 8.4073946774765318e-04 -1.7301328624439462e-03 1.8083754132640508e-04 8.7681937078941397e-05 -8.9718814146852303e-04 1.9629132481263634e-03 -1.2201920921156573e-04 -4.0263285047356222e-04 -1.3406974561425442e-03 -4.5501546543457556e-04 3.4192631300121256e-04 6.8500946336067501e-04 6.7120464634923412e-04 -4.5134834966627018e-04 -3.0779641305990601e-03 2.4239959579154370e-04 -3.0342365496233342e-02 2.1845133042962657e-04 2.5240164995886530e-03 -1.8612100927939523e-02 1.4512725289827453e-04 1.0424741037565438e-04 1.0211213041016754e-05 -3.6581161377128831e-04 -9.3542028762553077e-04 1.5656725020414823e-04 8.0893158637697707e-04 4.9029311605644143e-03 1.1475096683173308e-03 3.4574789087170321e-04 -4.7844258564748981e-03 -2.8696850269107283e-03 -5.7216092984906791e-05 -4.1221753919341894e-02 -8.3501476908261511e-04 -1.1217194908115477e-01 6.0044712023190998e-04 4.8366348214453486e-03 -9.4508115048179131e-03 4.0532150192521760e-03 3.6632395150375675e-05 5.1714846171559007e-04 -6.9059729605801267e-04 -3.9580442449477010e-04 4.4351505741621546e-04 -4.7179247312051364e-04 -2.4014185647720263e-02 -1.3986120382362480e-03 -1.0023495961067171e-02 1.5423167421184673e-03 1.2282848030188971e-03 9.1689147722169486e-04 5.7053118988415578e-02 -1.5849943037092090e-03 2.7346445755554436e-03 2.7529183148783127e-03 3.7625630765949864e-03 6.3023855304180018e-03 -2.0433054253248324e-02 1.1447957871508997e-03 1.3422228754667483e-03 1.5571349473117842e-02 -7.4262800001303141e-04 -5.5203513710236178e-03 -2.6126739671751217e-02 
      </Row>
      <Row Index="122">
        1.7509535138512111e-03 -2.3071223519698786e-05 1.2808533362222374e-02 4.4262519671538275e-03 -7.4455986994924617e-03 1.0866879924236635e-03 1.2041040684261910e-03 -1.0840563835075523e-04 -2.7061396644715928e-02 1.0989214102649747e-02 1.5172767429946494e-03 -8.0090538414637202e-05 -6.7900869248940232e-03 -7.2415316803446064e-04 1.1171276710197908e-04 5.6940413472149950e-04 -3.4788292188593986e-04 -2.5334865011368002e-03 1.8161033405506184e-04 5.7151957050971536e-04 1.1615116238689049e-04 -5.4408936927865248e-03 -2.0654855322345937e-04 -3.8241167680310995e-03 -6.8273019127290668e-05 -1.7724494241333558e-03 4.1636054616559382e-05 5.7376500545315567e-04 -4.3854152187092210e-03 9.7711392640601868e-04 -6.7247951401819273e-04 2.5587999587912691e-03 -8.4111227428001491e-04 -1.3728365809878400e-04 -1.0570736327693286e-04 -8.0912161342139343e-06 2.7452903387448213e-03 1.9966445075361092e-03 3.9051742135102208e-03 -3.4867289135618023e-04 7.2758327633398838e-03 1.3743668265319420e-03 -1.1915793416493181e-03 -3.5162117551339328e-03 7.5299593143784982e-05 -7.2072473676952631e-04 2.9612184747047715e-02 9.7775146666245760e-03 -4.9355848178954387e-04 2.6844929531288919e-04 7.2191339219678241e-03 2.4029691669672391e-03 4.8676096010159819e-04 5.9750501664475320e-04 -1.4008712959608094e-03 2.4479997784140201e-04 -1.1963007070922363e-03 -5.9354755216667332e-04 -4.7211639963570806e-04 5.1330081077118027e-03 -3.7279856363618691e-04 -1.0064230500380356e-03 -2.5436938278961046e-03 -4.2809136432844785e-04 -1.3099352640889850e-03 3.9081286685988134e-02 1.5579939083364636e-02 -1.9629388306012935e-03 -4.2092901288016960e-05 -2.9011685889344108e-03 2.2997709294525870e-03 6.3837728036710700e-04 7.3933532139455749e-05 -3.4904586747052171e-04 -3.0072149350017507e-03 4.5060788140203339e-04 -3.9372926044105583e-03 -6.8522222350539397e-04 4.0586064796759441e-03 -1.1302117632931430e-03 1.6787077961505359e-04 -1.0237130244491865e-03 -1.5634235118723028e-03 -9.7561098987319905e-04 5.8980299934169311e-03 -7.0926674889122410e-03 -4.1328770418791461e-04 9.0279677861321295e-05 -4.7974148954477158e-03 -8.4912143651803135e-04 -2.4609197458426435e-04 -1.2977641815957452e-04 1.1140034940413587e-03 -2.0379369363422439e-03 -3.2489034382371385e-04 1.9506516009499542e-03 -9.0444723956872863e-04 -1.8244531131168057e-02 -1.3151634703587719e-03 8.9709854185857085e-04 7.9481603041083558e-04 -1.7056480207471927e-03 -9.4913386326400976e-04 5.9336241994084285e-02 1.4157625558366617e-02 5.4594322929969481e-07 6.3474375679648844e-04 -1.0914874522502949e-02 2.6039933093673301e-03 -4.6769134256478655e-04 -6.2880427909592221e-04 -4.9320337471792097e-05 -2.4451160607624695e-03 1.7435069260605012e-03 -2.3039150594514890e-03 -3.9315278181051294e-04 -5.2010046514269215e-03 1.3993641246198285e-03 2.6557959355502474e-04 1.4213035727789244e-02 1.2909300630639525e-03 4.5925591995989168e-05 4.4124497248175930e-02 4.0936597000102992e-03 -8.5807582644173170e-05 2.0966113846979627e-04 2.8168807760309278e-04 7.5766550845136524e-04 -6.1545975443929386e-05 -1.2754639548754471e-04 1.7112068899171489e-04 1.2611596448299789e-03 2.1746043877840515e-04 -2.8200578886685146e-03 -3.5186039528250883e-05 1.8872678861210925e-03 -7.9977930573754620e-04 -1.6991558417161199e-03 -3.1841785748375562e-03 -7.0372369243433368e-04 -6.2727513839300490e-04 1.3071590358266308e-02 5.2773972670013686e-03 -5.2139686805753366e-04 1.0241373907860707e-03 1.0905320934284646e-03 2.6369187671335863e-04 -1.4771431362004293e-04 7.8296859091500490e-05 -5.5920455139413781e-05 7.7809924813975286e-04 -2.2636841827323767e-04 3.0554792247778906e-03 -2.6070985993165152e-05 3.0332604465061704e-03 1.2927406784176386e-03 1.4699115132464080e-03 5.5887674211619297e-04 7.8772914723349019e-04 1.7618015808840148e-04 8.3064251374185202e-03 9.5615274575316794e-03 -2.9461155593832524e-03 1.3254311652022913e-03 8.5702687948341350e-04 4.1973142340971561e-04 6.3282494238107588e-06 3.0842843378280083e-06 -1.6513744624043012e-04 -3.8325022677498932e-04 9.2311113056686711e-05 6.8310379262157854e-03 1.1874043156794096e-04 3.8348498500023406e-03 -8.6847030423488477e-04 -7.2606188493181702e-04 -1.1005843989995970e-03 8.0441386967744803e-04 1.4343710863002048e-04 -6.6188897245215614e-04 5.6546384389086109e-03 -1.4209110960186589e-03 -7.4708127416232340e-05 -1.1813152350950151e-02 -1.0611600139774250e-04 1.3798142206021625e-04 2.2222093657999323e-05 -8.7992972733420932e-05 2.5920074453048697e-03 -4.8119485512074369e-04 1.4221792086012541e-02 -1.5135419072966787e-04 -1.1907041869064581e-02 -3.5751802454802944e-03 2.4580327613361215e-03 7.4139399655471071e-03 3.7340229664181001e-03 -2.8724208191848420e-04 3.3734101593051929e-02 3.0304476386117652e-02 3.3114135356357962e-03 9.7601892446519617e-04 -6.7017964518536755e-03 3.5946365335047404e-03 -5.8907785537390010e-04 5.1623632178755894e-05 -5.4379408578724992e-04 4.4961886685834038e-03 1.7489002667969321e-03 -1.9223762811036715e-03 -7.3311016055770584e-04 2.0172332776057168e-02 1.7654346403837728e-02 3.1681361177618283e-03 -3.9591164769351645e-03 1.5690669816261632e-04 6.9173747363249476e-04 4.7578763056886506e-02 -7.9052074477047388e-06 -1.0582276142068071e-02 -7.6313348228796915e-04 1.0203474192181657e-02 6.2823245370799141e-03 4.4901873417158081e-03 -4.8924925186576325e-05 3.8803155348446153e-03 1.5190456013669837e-03 -5.6185887224571270e-03 -4.9736031954908937e-02 
      </Row>
      <Row Index="123">
        1.8598301480117740e-01 -3.0520255208643376e-03 -2.8495829568974784e-02 7.0554356405798848e-03 1.9686160469514657e-02 -3.7147986056066187e-04 -5.6871886517477738e-02 -1.2531247749029717e-02 -1.1810830487041790e-02 -4.3099889734436019e+00 -4.1234031438947438e-02 3.0304975076392848e-03 1.5605037230523422e+00 1.8645855976419795e-02 2.5659089584484374e-04 -5.6841310942400960e-04 -2.2428568162852214e-04 2.7689991798922703e-02 9.5701583867000006e-03 -1.1793225660844797e-01 -2.4555768552768087e-03 -5.6781367369995728e-04 -1.0066244784071381e-03 1.8077249067119272e-02 -7.0451201742317560e-03 1.1876014870953433e-01 -2.0263355991733074e-02 -2.5659350828789451e-03 -3.2484746021637365e+00 -7.2892897043171923e-03 -3.4149328044692506e-03 -2.3575948586826030e+00 1.4860713577116351e-02 7.7346463617060379e-04 1.2078858132735792e-04 -4.8025041220453885e-03 -3.9400684390283658e-02 9.6626531229156987e-03 2.1551166162210400e-01 -8.2141403620639153e-04 4.5260645232603203e-04 1.0853532411863348e-02 1.7901308993755194e-03 -1.9601961534436385e-02 -9.4119392640021449e-02 -8.6047360781930093e-03 6.0242443473444984e-03 7.4559675557934924e-01 -8.8783050280737408e-03 -8.3937002311875730e-03 -2.6630038863217464e-01 4.0561751072944680e-03 -1.5466764683382817e-03 -1.7031637583357351e-03 -9.6581013080211386e-03 4.2080878379480158e-04 -1.0006359239453755e-02 3.2230244595880109e-01 2.4879282961749460e-03 3.9992583460045916e-03 -5.2854268590029063e-03 2.7479627811475282e-03 -1.5294082832173034e-02 1.0489693308254888e-01 -8.7492346701820711e-03 2.8759354214997757e-03 3.4625609456752926e-01 7.2387770121123962e-03 6.0862023217664873e-03 -7.9236761147319612e-01 2.6459535976434663e-03 -1.9821175185862766e-04 -2.1512349774615025e-03 -2.4683925808374196e-03 1.8641572537315021e-02 -5.3177239407274923e-03 4.8164460374500706e-01 1.6708377971003330e-02 -5.3353699879797878e-03 -4.7478197031978198e-03 1.0419773647243780e-02 -1.8346931496820984e-03 3.0775131135729605e-03 6.3144089612105603e-02 -1.3995216762712204e-03 -3.5387693024989630e-01 1.7270126073422709e-02 -3.5078311096057302e-03 8.3757750693550292e-01 6.4687270889517978e-03 -1.1308676402733697e-03 1.7951458886733551e-04 -4.3922712171695633e-04 -5.9136068008664999e-03 1.8234079861843000e-03 -4.1701193610632770e-01 2.8992395447063890e-04 4.2627096215572452e-02 -5.6395781624554268e-03 -8.8374152370885861e-03 -3.9537477607429511e-02 -1.2592614303781224e-02 3.9432996745099869e-03 3.1661323246538892e-03 -3.4485626576381621e+00 -7.5448473003834650e-03 -3.2356420694049509e-03 9.2650677856274655e-01 9.2441048919060520e-03 -1.0723082755131202e-03 -9.2506303803982937e-04 -3.7619603111447193e-03 1.0175713938226430e-02 -5.4274869771821707e-03 1.5996108334921644e-01 -4.1366141735738049e-03 -1.8256291019942417e-03 4.2820051160291639e-03 3.3610136027562298e-03 5.5976106107656021e-02 5.7817064946862340e-03 -4.0651735662081689e-03 4.0936597001304253e-03 7.7138775933878705e+00 -3.0680278391058960e-03 4.0544288874679521e-03 5.1065964743438030e-01 1.1025114618958297e-02 -3.7708517815244515e-04 -3.0027468378952538e-03 4.3285832073145809e-03 -2.6243544371999938e-02 4.3919420244664664e-03 3.3267189805970732e-01 -5.1115355067826197e-04 4.7507968944384147e-03 -5.9649694893677101e-03 -1.1173887740425555e-02 -2.6247088304381851e-02 1.0821446410420786e-01 -9.1136308124090040e-04 -1.8846052584450632e-03 -2.1511750724077592e+00 -7.4204302119924527e-03 -2.0807351693328743e-03 -1.2893904791280875e+00 -1.8272415084132246e-03 9.0539348835283148e-04 -7.3261492067213817e-04 3.4064141612940251e-04 -2.0140767522740605e-02 -1.1134367389138517e-02 -1.0285939710793457e-01 8.7378474028289646e-05 1.5497293770396527e-03 -4.6468111816405644e-03 2.0806594341326701e-02 -1.0444039191063251e-03 2.2714956245763696e-02 -4.9447706651051249e-05 4.1024414536150432e-03 1.3741797546007639e+00 3.8784912357751326e-02 -9.2468956619099485e-03 3.7719733835007219e-01 -1.6440530299857599e-03 3.9519206864959550e-04 1.7448234693628328e-03 8.5642779182769531e-04 7.4997518556223497e-03 3.9973316971364525e-04 -5.5989592767756696e-02 3.7937954632959558e-03 -1.6809996232431700e-02 -3.0126726369312580e-02 -3.0058103863777330e-02 -3.4919801376269835e-02 8.0694341972252698e-02 2.2420344672310001e-02 -7.7974271837363560e-03 -8.6266127247485773e+00 -3.4629885620181058e-02 4.0618264293347549e-02 2.0466152341425650e+00 -1.7912190129426228e-04 1.2732197290009741e-03 -5.2753101823232421e-04 -1.1922024853733412e-02 -4.1853299321171884e-02 -2.1962879258339674e-02 5.0866735145540898e-01 -1.2690580620588303e-02 -1.6239810772446898e-03 -8.2652665414074011e-02 -7.7271117306884060e-02 -1.3985526799025313e-01 -3.4212575193537445e-02 4.0308737683960927e-02 -3.3109341602468707e-02 -8.4671895140841631e+00 -1.6120745566757733e-01 9.6073326042947313e-02 2.7797936467550670e+00 5.0127548938994848e-02 -1.1246277566790324e-03 -4.4898254053863870e-04 -2.6051070952077860e-02 -6.2708495030372180e-02 -1.3475352692414053e-02 2.4265488213627640e-01 2.1488064381383277e-02 -3.7475776607777442e-02 5.6800775524377844e-02 -2.2208814720238931e-03 -3.0919825021556123e-02 -1.3545498064648492e-01 2.8778844034898096e-02 7.5690744352865380e-03 8.9606956624952050e-01 1.4325765053288086e-01 5.4327377789937098e-03 -1.4390490145901846e+00 -1.4667330482396607e-01 -1.1282033050574181e-03 3.6163590724317130e-03 3.6603874109894491e-02 -8.4251576072189791e-03 -3.2243679646193769e-02 7.2142208425124910e-01 
      </Row>
      <Row Index="124">
        7.9754315650833619e-04 2.0577329642897330e-04 1.0408753694876342e-03 -2.3585375450710638e-04 4.7767302756432893e-04 1.0608121223491369e-03 -6.5621095378616036e-04 -7.2842698910405995e-04 -2.1458679506122444e-04 -2.6271676483544310e-02 -4.6421702418522563e-03 -8.8451896807129060e-04 4.5110433197575184e-03 1.3298648568571677e-04 -7.4494270246012019e-05 -1.0314336918381903e-06 -2.1102547522692736e-04 -1.5226377279065079e-03 1.9287790407767529e-04 -4.6594642269486702e-04 4.3978293012228464e-04 -1.3234696236712196e-04 -3.6033021378693993e-04 3.1880200054191718e-04 -5.8287434389632520e-05 2.1420581794140154e-04 -6.9336969983431473e-04 -9.7218958379237559e-05 -6.7291228102971633e-03 -3.3904779495164388e-04 4.9428373320904370e-05 -8.1985105919057943e-04 -1.4883830249715134e-04 7.3373761039939242e-06 -2.0011381496628892e-05 4.1203352685872218e-05 1.4277233223366180e-03 1.5587866838721225e-04 3.4368751484407586e-04 9.4649317726075682e-05 1.3516002718125513e-05 -2.4232046845531433e-04 1.1758901363329455e-04 -3.0887752706026646e-03 -4.9848897151223009e-05 -4.3652639449952291e-04 -2.6594898693539475e-04 -6.6521949494374732e-04 -1.9578958218396452e-03 -2.0375793755569999e-03 -2.3762653927628108e-03 -6.9436717601383295e-05 8.5777630377061737e-05 -5.7276491517129283e-06 -4.6898347785348689e-04 3.1902328128714189e-04 -1.6456319020269642e-04 1.1291082944750175e-03 4.6682673352174079e-05 3.1001985845169073e-06 -2.5638049837010957e-05 1.2066098128061566e-04 -2.6365564509079962e-03 -5.1530599389447082e-04 1.2975225786083545e-04 -2.6841291682791046e-04 9.3131928221378280e-03 -4.7303086940824954e-04 -1.0782028854456381e-03 -1.6943061938317072e-03 -1.2240714706958995e-04 1.4287311904820485e-04 -5.7758384480700083e-05 -1.2139786191959654e-04 -1.2461548220187284e-03 5.4754980939394991e-05 1.1435898149466106e-03 -4.1662395287147755e-04 5.5594256121557946e-04 -2.4084605115352528e-05 6.2900026678192056e-05 -1.1384159583496605e-03 1.8871786620870343e-04 2.6833092616043441e-03 4.7530881885182730e-04 2.0187810460825517e-02 1.1554769561170769e-03 9.8839420472383172e-04 2.3521976098120900e-03 -7.4445972712985269e-04 1.2576977988983801e-04 2.0883215040543718e-05 1.1431117585248207e-04 -3.8370870659485898e-04 -2.8452676914356156e-05 -6.3820678282100474e-04 2.6024632219724523e-04 -2.2768697129342368e-03 -3.5879790544182975e-04 -4.3734102772420916e-06 -8.2728995738174239e-04 5.4126922710645261e-04 5.1624575148655682e-04 -7.4304002324197143e-04 -7.9769634432682451e-04 2.1540752747471661e-03 1.3610153419747150e-03 2.6990401071735892e-04 -1.4105867744081037e-04 1.0832651843016333e-04 -5.0135971627946645e-05 1.5680641256091658e-04 -1.7606498684177717e-03 -4.4016287836253767e-05 2.4369579683453102e-03 8.1887536654117604e-04 5.9063926886079865e-04 -4.1056619062571141e-04 3.5089263665033759e-04 4.8694696616674894e-03 -4.4381632589807008e-03 3.8988966042505235e-04 -8.5807582643536960e-05 -3.0680278391183036e-03 6.0726389141251957e-03 -1.6443371126432810e-04 -2.6468147626835803e-03 -1.1308750472498619e-03 3.1537410264669452e-05 -8.3334491758602601e-06 -1.8706694677206423e-04 -1.9729278046699827e-03 -4.9413654820989333e-04 4.0886658702342718e-04 5.1148044932404469e-05 3.6797752642953865e-04 -5.2949962623804694e-05 6.5329511097068568e-05 -2.0921996960985498e-03 4.5579246105118898e-04 -3.6139362897515636e-04 3.4303099512804683e-04 2.8514757511262610e-03 2.0273447498942061e-03 3.3992194797203986e-03 -6.4022896321520584e-03 -1.7614099283922926e-04 2.2293262847351955e-05 -1.6477264507145589e-05 1.6459136742329175e-04 -3.4288943701217702e-04 -1.6576390313460194e-04 6.1930002065668788e-04 -8.6818490196268567e-05 8.1393608660853699e-04 8.2142216450884669e-05 7.1854419125108940e-04 4.0587720989304654e-04 1.9828693312931782e-03 7.9491943330893544e-05 8.9944013803585157e-04 4.6677330500959985e-02 4.2380755348095604e-03 2.9165261680408963e-03 -3.4167992061193697e-03 4.6374350280239344e-05 1.7170460376924137e-04 -3.5516761435804359e-05 5.1021314039800456e-04 -1.9383266460568996e-03 -1.3159509560767627e-04 8.2338157929018156e-04 -6.5878775994098631e-05 4.9825148933131669e-04 8.8618455346635666e-05 -1.6189698054892349e-04 -3.9687895243751121e-04 -1.5383162680680882e-04 7.0461345999303036e-05 -1.5843220239937278e-04 -2.3384044482246881e-02 -6.7814190391540276e-04 -5.0910582917598757e-04 8.0859537211590699e-03 3.7867696155932266e-04 -2.4323046722711343e-05 9.6082499452939204e-06 -4.1152624170540369e-05 1.0747876438468584e-03 -2.1553811751135279e-05 3.5908653613928448e-03 -2.7565827107035217e-05 -2.2395842053891299e-03 -2.9728137294544378e-04 -3.3591074137347869e-04 2.3076817971529008e-03 1.4001844816958703e-03 -9.0196962006068408e-04 -3.1017654147369011e-04 -3.4240482172230080e-02 -1.1503765520161555e-02 -2.4207774212844650e-03 4.3485424038292031e-04 1.6236342930340199e-03 -2.3019197218059496e-04 1.6251319294913755e-05 2.7540653613070565e-05 -2.7576635900924441e-04 2.3486339620882625e-04 4.3659565053141142e-04 -6.1422131963501721e-04 1.7032937087618099e-03 -9.0340518977549732e-04 -1.0371861599382340e-04 -2.2333973348624518e-03 6.3514215241998700e-04 1.2635536378216156e-03 -3.5047148462087185e-04 3.4604447248488433e-03 2.2580571182738422e-02 -2.2337676598508209e-03 -2.7060534466495766e-03 3.6950148921343620e-03 5.3160860242511222e-04 2.0060723870283321e-04 8.7550445218696760e-04 6.0272103875705688e-04 -6.3453324507316820e-04 -4.6151624545312650e-03 
      </Row>
      <Row Index="125">
        9.9683233771324931e-05 2.1636870375766823e-04 -3.5756715469861811e-04 2.1814936467877541e-04 -1.0084282914125942e-03 -1.7650194845786294e-04 -3.3085239159594236e-03 -7.2108678025448267e-04 -6.3338561747244837e-04 -1.4780456248815632e-02 -7.3935445675813111e-06 1.5911798041292335e-02 6.6780895844315236e-02 -1.9573932651598130e-04 -7.8039174912539200e-04 -1.4939092796342963e-04 2.0794022040235213e-03 -1.4702496803060145e-03 -5.4139344518958424e-04 -5.3122910331812045e-03 4.1480856079853523e-04 2.3193987829209228e-04 2.1235564856137738e-04 -6.0265339390125350e-04 -1.4342014754850363e-03 1.5775435426753637e-03 3.5722893908024175e-06 6.2536493173678820e-04 -1.4268444989304796e-02 -2.0116098036460713e-05 3.4038267213015727e-03 -5.1162492719392105e-02 3.2207786654224815e-04 9.9743538704752041e-05 -4.9460722490593523e-04 2.3081422733628558e-03 1.8541269571055174e-03 7.3683304302444436e-04 1.8755643087706719e-03 6.0080196898055680e-04 -3.4431238829654015e-04 2.4715332814841118e-04 -3.4810255775490073e-04 2.3158932901161389e-04 5.6336145300095453e-04 -6.2591922376113718e-04 1.0120601493704834e-03 -8.3579424293320770e-03 -2.3601582458519371e-03 -3.0339847151069521e-02 3.9607398571881447e-03 -9.3739781081930381e-05 -1.2916868668680082e-03 -1.0942026229448475e-03 3.8409304703758140e-03 1.2304637138908642e-03 -2.5472775376114698e-04 1.1492832164039735e-02 1.8577147516599807e-04 5.6894683697335593e-04 -3.8282869568659339e-04 1.8649381894328410e-04 -3.6106283550607155e-04 2.9889266799569270e-03 1.7069410070584268e-03 9.2862613983657472e-04 1.8025579599678210e-02 -1.5474475507009366e-03 -3.0721279933601145e-02 -1.4141653764042417e-02 1.9953163950693316e-04 -2.8060689485198717e-03 -9.5316742795868020e-04 -7.3557988705755251e-04 -2.3876326353678423e-03 7.8678882251083382e-05 6.2893809536266332e-03 -1.3047771089457760e-03 5.4346913014230447e-05 -5.2551989203702965e-04 1.7702157529453366e-04 -2.2647876511125431e-04 1.4880310933588214e-03 -1.6248591975065452e-04 9.4486255051928758e-05 9.5907749644155160e-03 -8.8018427001124167e-05 -2.1729026180075509e-02 1.7490068829308925e-02 -2.1078545130951559e-04 -1.2367936215833958e-04 1.7423568380778298e-04 -2.7624482832571615e-03 -1.3953204354455462e-04 3.6352774658793274e-04 -8.9470315545374657e-03 -2.4812558944209417e-05 1.3321920579268858e-03 1.8598685079844533e-04 2.0652227348985641e-04 7.0705170021594099e-04 -1.7504293041231134e-03 -7.5554212596605475e-04 2.0583853384222124e-03 -9.4146615151736376e-03 -1.7211860136625819e-04 2.6508084697163710e-03 5.0242531579256955e-02 1.7469846589289982e-04 3.2601865728677966e-04 -7.7574028472638269e-05 2.0023934288585085e-04 1.5252143626257597e-03 1.7415566439224440e-04 7.6092158849809799e-03 -2.1633220484885973e-04 7.2518844696112250e-05 2.1589608011139683e-04 1.5639180589022868e-03 -1.7067152173609462e-03 1.2703217271735207e-03 7.3670357022362354e-04 2.0966113847378787e-04 4.0544288874313494e-03 -1.6443371126401889e-04 5.2768157118016489e-02 1.3853367804211203e-02 8.6958868553263936e-04 3.6149493644778321e-04 -2.7962568976552804e-05 -1.2216605246430957e-03 -5.4228617502460885e-04 8.1697510497991122e-04 -5.3796687879358613e-03 -1.4826084976962998e-03 5.2369501666781103e-04 2.3471370983714653e-04 -1.1131438055529787e-03 -4.4507181543577154e-04 -3.8286103117057164e-03 -2.5263122299390463e-03 2.3010588442977470e-04 -4.6679786312102921e-02 3.9423499994962457e-03 7.1157231381334826e-02 -1.6468894850497406e-02 6.3604628446716047e-04 -2.7138545334009240e-03 -1.0458970727476372e-03 3.6280138703938276e-03 2.0740213139349133e-04 -6.3608834931922137e-04 -9.9583305639416864e-04 2.5343001153844838e-04 -3.4577591267414415e-05 -4.4723972864586445e-04 9.6187243347811702e-05 1.0108920378328664e-04 9.6309991847518678e-04 1.6974422686422130e-04 -1.2867346139215120e-04 4.3328298915967789e-03 7.1221595998866927e-04 -1.6266191471330675e-02 -3.9470204529834518e-04 -2.5508137696417352e-04 5.0577402804365427e-04 1.3559203474107495e-04 -6.2840753272669445e-04 8.3172347559168358e-06 4.5330391067960329e-04 -3.9523617869489935e-04 3.3303268982607195e-04 -5.6680256016418992e-04 -1.2006884968831930e-04 3.6107575763796862e-04 -6.9354166870973840e-04 -3.4115001599753156e-04 1.0063463596373821e-03 -2.6055866180262841e-04 1.2550332850915977e-02 -1.0008631618856512e-03 -2.6933483293490178e-02 9.2972018839541981e-02 -3.9185162264994185e-05 4.0590425377976316e-04 1.6566337630459830e-04 -9.0437053833966347e-04 7.2715288925118832e-04 3.5090528520195330e-04 8.8293439210688981e-03 4.8766444252651654e-03 -4.7919168455876071e-04 -6.1242904722168603e-04 3.2676020816730634e-03 2.1067621799324143e-03 -2.5342509469077987e-03 -5.0260496469326757e-04 1.4439334695295599e-04 8.6019848547220862e-02 -1.0577085405717994e-02 -5.6592606293782828e-02 1.1274248984061661e-01 -1.9328849247401312e-03 9.5943849723284409e-03 2.7533158770591771e-03 -7.2623302775888165e-03 6.0976631574327766e-03 1.0048721141141359e-03 3.1847198645747476e-03 -6.7726079945614219e-04 -5.7856751807770790e-04 9.3874867037448649e-05 2.7168555226017512e-04 8.8362904476967531e-05 -2.5131741503882652e-03 -5.9152303840751246e-04 1.8341433609615394e-03 8.0810351093892833e-04 7.6124187317088690e-03 -5.7147227085216516e-02 -4.8816178664759458e-02 -4.0400705465688065e-04 -1.3414175139501796e-02 1.4457542335953363e-03 -1.6716325708084713e-02 3.7558276588596008e-04 -1.7800005984695358e-03 8.4850707543700513e-02 
      </Row>
      <Row Index="126">
        2.1325661734279855e-02 1.6466083742524562e-03 -4.8110175908924191e-03 -1.4470723990908936e-03 -6.5174659515552236e-03 -1.3208279242691240e-03 8.0106852811129559e-02 1.5962577080401389e-03 8.0346049807342723e-03 -7.9388120986411082e-01 3.8218490458318153e-03 -7.7003037144791620e-03 3.7232795356817974e+00 1.6200191935432304e-03 -1.2495003734399601e-03 3.2313999921151438e-04 -7.5086590150319488e-04 1.9582370370412806e-02 2.2812402311814806e-03 9.2663787819788013e-02 5.2708191816819294e-04 1.1178722017142206e-03 7.1831638398936401e-03 -9.1170162190579163e-04 -1.1855854427655466e-02 4.9039300445611111e-02 -2.6757236216948949e-03 -4.4785930794311035e-03 -1.1444303395429749e+00 -1.8396503366607893e-03 -1.9609658198925572e-02 -4.9450050491768707e+00 6.0590375780841255e-03 6.3904875893949775e-04 -3.4242017720664819e-04 4.6326373887350947e-05 2.2373451236461506e-03 2.2028889064298340e-03 2.1647837646199264e-03 3.4733842078689126e-03 3.1237522773830406e-04 1.4835162956678971e-03 -2.9788417897496089e-03 8.5786559906004811e-03 8.5598416473418482e-02 -2.4075517282229342e-04 1.5327113607912501e-03 -2.2551441631446778e-01 -2.9949593739511116e-03 -2.1882265016838431e-02 -1.7789479841874254e+00 2.5929491247053908e-03 -1.2833889491998818e-03 -3.3712426005183538e-04 -5.9964370157841174e-03 6.4739438744032540e-04 2.1205594035156317e-04 -4.8814953820681239e-02 -1.8033702540711793e-03 -2.1739693313125308e-03 -1.0827568479889749e-03 4.1091882802177793e-03 1.0026232507741144e-02 -7.8378361470925917e-02 -1.5980885283723545e-02 -7.5892380446340724e-04 3.1077451868554817e-01 -3.1557708107583515e-03 -6.7069772842658359e-03 -5.3187379985820371e-01 1.8054501166929957e-03 -2.5844039977524214e-03 -7.0651829452872406e-04 -4.9742644593564478e-05 6.6554965289817858e-03 -1.4491018972209169e-03 -1.2697503942717958e-03 3.7718991012649639e-03 -5.4506565905736437e-03 -5.9818788734009587e-03 3.8943174320387186e-03 1.2274001794550515e-02 -1.3022836241615110e-01 9.3065250723896042e-03 4.5671346803359825e-03 4.1163174125063051e-01 4.0517113392439796e-03 -4.0202435343275056e-03 2.0304790134731547e+00 4.0603391243476672e-04 -1.3837795290356780e-03 7.6908054364999145e-04 -4.0257236046326028e-04 -7.5691694676827126e-03 2.6285490085555807e-03 9.3858760979848910e-02 4.4371633379569619e-03 1.1578914045232825e-02 -1.1794762487364523e-03 4.5613416188166056e-03 1.2106056402844900e-02 2.5750393299719843e-02 -3.8623196812735162e-04 1.5887929484527373e-03 -5.4966756882768886e-01 -1.9815934104230109e-03 -1.3900559020756709e-02 2.0803146833433743e+00 -1.7065960436742356e-03 -2.0405033930385175e-03 6.1232113356870371e-05 1.2851401114116756e-03 2.5527717122683202e-02 -2.5983957280675818e-03 4.7763272927227263e-02 3.5495235069489262e-03 -1.3198439700268239e-04 3.0792128681302877e-03 -1.4964468538204434e-03 -8.7034681038034023e-03 4.2845034571148410e-02 2.0612705437759171e-03 2.8168807772388504e-04 5.1065964743514769e-01 -2.6468147626665219e-03 1.3853367804242733e-02 5.9870352751886458e+00 1.8176750944135234e-03 2.2744243107348486e-03 3.5977621067173615e-04 9.4522333209431583e-04 -4.0071404929520327e-03 -2.7247355238202431e-04 -1.3834261980945312e-02 -3.2366798034942478e-03 -1.7819066581017447e-03 2.6734003518482491e-03 -1.0020562814679834e-02 -3.4841965964180124e-03 1.8250624643998403e-03 -1.6801196164119439e-03 -7.7038101613969333e-03 -5.8225521642447364e-01 -2.9586211715441507e-03 3.0560644588286525e-02 -2.5163043351622036e+00 5.5307627096411634e-03 1.6013766152735912e-04 -4.1756505459291055e-04 2.5468706399832969e-03 -1.0084869617157179e-02 -1.1144763590778407e-03 6.0882002165385529e-04 -2.1586031753379718e-03 -1.0357213134944837e-03 -4.0014500556124766e-03 2.0355605253215003e-03 5.9380489943573478e-03 -5.5676968640218358e-02 -4.1126227712346974e-03 -3.8281184784874304e-03 2.8301373985418432e-01 4.0459656164718583e-03 1.4090953509097448e-03 5.4995415199414310e-01 -2.2143242284149251e-03 -5.8671960525714245e-05 -2.0968936593401821e-04 -3.0148693567341664e-03 -5.5413615342914113e-03 -7.5234239933941183e-04 6.6681579774209895e-02 -1.7948351996308998e-03 -6.3080607024731516e-04 -8.5819105280501348e-03 7.1651715231161759e-03 1.9305852552465884e-02 -7.6233674512728583e-02 -1.1656293121607958e-02 5.8436244105646278e-03 -1.1139258485219576e+00 7.2325573687903816e-04 -4.2428359538340607e-03 5.0757717892822027e+00 -6.7567420169682563e-03 -2.3755758222896751e-03 -1.1265522438108925e-04 -3.9145915370306537e-03 9.1801703417119795e-03 -1.7609059513980230e-03 1.3582659603015623e-01 1.3729625965683206e-02 1.8343919249081009e-02 -4.4436132123344907e-02 3.7081422470280970e-02 1.0140723477986166e-01 -9.6921620837467914e-02 -1.6441035577950479e-02 5.0114737464051491e-02 -1.9985669448058259e+00 2.5192918866771514e-02 -6.2008398510634617e-02 5.1403402239724221e+00 -2.9191252840007731e-02 -9.2608934587149923e-03 2.0556682046030689e-03 -1.3869328658253369e-02 9.8996147406306689e-02 5.7923300255813270e-04 -3.7309433213259524e-02 7.4984136321920259e-03 -8.2738152030393027e-03 1.1668746459154167e-03 3.5598558110055099e-03 6.9394755772204742e-03 1.4458733758140829e-01 1.2030135640064422e-02 -1.9925033178465890e-03 2.3600010444578634e-01 2.2070414774709224e-02 -2.3800556801317443e-02 -3.5954661158669268e+00 -2.9816442092764045e-02 -1.6175309617640465e-02 7.1132404414248063e-04 2.5767219633602151e-02 -5.6549389449205359e-03 -4.9916890148802573e-03 3.2168569337522226e+00 
      </Row>
      <Row Index="127">
        -2.3576435185737512e-04 3.0801228281075916e-04 2.2881851450777275e-04 4.1267090693990064e-04 7.6721329485721253e-04 1.3418409101654187e-03 2.1318434036579181e-05 4.4672139465446016e-03 -1.6429538031553753e-03 -6.2409387998234728e-03 1.6669102000453929e-04 -4.6045277469635012e-04 4.2269600067046387e-04 -1.8630830966910705e-03 -3.4147731617744574e-05 2.9057960251050417e-05 4.6676714336316497e-06 3.7364427090678595e-04 -1.4276666961057479e-05 6.2599264840800667e-04 5.3315120595374900e-05 -1.9775678431471723e-04 2.2601313290793098e-04 -1.0775567655542558e-04 -9.2049507497921935e-04 -4.1850579599937709e-04 2.7928236339702507e-03 -1.1328148585751873e-04 -9.0995654953026014e-03 -4.5481432717580294e-05 -3.5695332899892199e-04 1.1303154398749626e-03 -1.2878376316173255e-03 3.5030810334773154e-06 -7.2061155577626303e-06 5.5601337996542713e-05 1.0102860227062267e-03 -5.9705812370850191e-04 -6.1700487990762332e-04 2.7653744268537294e-04 1.6159932511641958e-04 2.6293768856801400e-05 1.3625834058627988e-04 -4.9353277235987293e-03 2.6885785701546462e-04 2.3959851536472228e-03 1.5336087372391561e-03 -5.0263752059322292e-03 -3.6480330195530833e-05 -3.5685620403505883e-04 6.4573507101539640e-05 -1.0725126627595765e-03 -2.0521992024756519e-04 -2.6315903158325522e-04 6.0232435470974443e-04 5.1826862460472309e-04 8.3085452360915268e-04 -1.4824799077668635e-03 1.3984640602430131e-05 1.7664029240466595e-04 -2.6708415119279234e-04 -6.2846005636846194e-04 -4.0876051070925616e-03 -3.5699588969476549e-04 -4.5266721910542165e-05 2.1003338651726729e-03 -9.7479045518046314e-03 -4.4686559563492708e-05 -3.0531951889690252e-04 -4.7217423936318781e-04 -1.2019898469327560e-03 -2.7078130757480102e-04 -2.4719476022232742e-04 -1.5557115941625772e-04 4.1226616407693227e-04 1.7246530730346762e-04 -1.7833035248621398e-03 -8.3007059911459520e-04 -2.6520838150349401e-05 3.4205063536475473e-04 -6.7728134980626908e-04 -7.4206346567761360e-04 -5.2955760791140172e-04 -1.0226105994061194e-02 1.0665501606245756e-04 -1.7488412242651186e-02 -2.4513294612052601e-04 -1.1021245387577185e-03 2.0086106358429001e-03 -1.3400834341272998e-03 -1.3335506146040831e-04 3.2472476573701912e-05 -3.3724481750377388e-04 9.7689270638970371e-04 1.8458051787002654e-04 1.5022914383981921e-03 -1.2445846402455742e-04 -1.5305155701366997e-04 6.3618727388785868e-05 -3.7593751278221536e-04 -2.9786274311620303e-03 4.6304025699878040e-06 -2.3318974612799350e-04 3.6042409571071083e-03 3.7801823465824069e-03 2.3923271867919366e-05 -2.2579016593899542e-04 2.7258537585697906e-03 -5.3110807190398003e-05 -3.4340731981313398e-05 -4.3066380487865868e-05 2.2054500748512170e-05 5.1645058321319638e-04 -1.2260702450635154e-04 2.6914170054536807e-03 -1.3148068732488510e-03 -4.4816954235876207e-04 7.0423872757201223e-04 4.4184178403902294e-04 9.0031464865522708e-03 1.4989955883899044e-03 2.3110747020099439e-03 7.5766550845102892e-04 1.1025114618968296e-02 -1.1308750472499649e-03 8.6958868553351388e-04 1.8176750944384201e-03 2.8361634846373308e-03 -2.5436360937228101e-04 1.6920410366096051e-05 1.8312115573683365e-04 5.5498574193721395e-04 1.4494858748440795e-03 -7.7060056621176994e-04 3.2915571925187320e-04 7.2085998983824616e-05 -2.6888401240196639e-04 -2.6487488744526529e-04 -4.0964609056096668e-03 -1.3685548332756641e-04 1.6180970031298178e-03 5.9003765890776642e-04 1.6460094958500233e-03 -2.7761672228882815e-04 2.2868374315212180e-05 1.0647953747100480e-03 -1.9049714001325685e-04 5.3930697536584158e-05 2.5938327928325223e-05 -1.4967583509342103e-04 2.9150681972407407e-04 -1.2539207305762480e-04 6.6490556719123184e-04 -2.0208901650602931e-04 1.5539519219363057e-04 4.8983044854822614e-04 1.6208427459264360e-04 -1.0734451140535914e-04 -5.3190648774173541e-05 -1.4765621382277234e-03 4.0779168501423795e-04 -3.8702498012246275e-03 -4.6254771082324456e-04 -5.7073401293450399e-04 -2.0805436828714718e-03 2.2988188135291071e-04 -9.4861380084665522e-05 -1.3148096660263930e-05 1.2349732350511102e-04 3.0877441174848724e-05 9.2434159320756853e-05 1.3749867432566263e-03 -6.6522407074795324e-05 8.0100131673949463e-05 6.3675767872891468e-05 -3.2554066760462992e-04 -1.0590251125700992e-03 2.9533991909198041e-04 -1.9896264189488686e-05 -3.9126408849245642e-05 1.2392627403948963e-02 2.0021563979116116e-04 -2.0229730971733012e-05 2.2103431843049082e-03 -5.8536143122765304e-04 -3.0338799405378163e-05 -4.5960498292599186e-05 8.3047933685315579e-05 -3.0914775016554520e-04 -3.0134379975249636e-05 8.6319609837493070e-04 6.1266536478593776e-04 2.8526441382670839e-04 6.3163260809605878e-04 9.3936112288178384e-04 3.9088480427980571e-03 1.2811866882763109e-03 2.7934552489496112e-03 2.0016462549699702e-03 2.6905057402886227e-02 1.6882954484499666e-03 2.3064317138234044e-05 4.3847201324904717e-03 -3.5299222887032466e-03 1.3827483334116221e-04 -1.0170604819102931e-04 7.7294032924129510e-04 -9.9511654732847973e-04 -4.2683625355532104e-04 -7.0600458882110438e-04 2.5581421156623571e-04 5.2647977033092768e-04 3.1215336919944575e-03 -2.9658908100651952e-04 -4.5026391805021515e-03 4.3304054640848670e-04 -5.1296102468993843e-03 2.9002533811409693e-03 -1.6872761061646818e-03 -1.9748136680179853e-03 1.8183180289907570e-04 -2.2947863632185781e-03 1.6724748695575740e-02 -6.5730273451663720e-04 3.2035729807695229e-04 -2.3542790945353200e-03 2.4153568494775246e-05 2.2691349845163299e-03 2.0592379363686413e-03 
      </Row>
      <Row Index="128">
        7.9215175977854352e-05 -5.2264757954108277e-05 2.7304323675326949e-04 6.8072818024187201e-05 -1.8912976537239015e-04 -3.8978025632857008e-04 -3.8720483356520155e-04 -1.0291272646929276e-04 1.0985440655796822e-04 -3.8175011852608909e-03 -5.6120231011350055e-05 -4.4426994749562987e-04 -1.3928198142400539e-03 1.0966097625903076e-04 -3.9296237461871534e-05 3.1082132964023590e-06 1.1241732292762894e-04 -1.6957039528485319e-03 7.8936626003437175e-05 1.3042588462317678e-04 5.3406340667990111e-06 -8.7369246507425051e-05 -1.1087753417651035e-04 -9.6321440292290381e-05 1.6859598052114573e-04 1.8577799560185945e-04 -1.2666034377991557e-04 9.8752780087756672e-05 -1.1085910157222559e-03 4.4900430945924474e-05 2.0612803604179442e-04 2.8273765383612925e-05 -3.2281514665546940e-05 -2.5423605920685586e-04 -5.5395669910357839e-05 3.0942116007594538e-04 9.8269444595108953e-04 1.7385599098954010e-04 2.7857000829454789e-04 -5.1899423360768703e-05 1.6338404361000464e-04 3.7335673403309779e-06 5.5728046783748431e-05 1.4879308451870986e-03 -1.8775163427955238e-04 -1.0391553172099232e-04 9.4721035141125988e-06 -2.9554317374351768e-03 4.3766696611320915e-05 7.5790894280530763e-04 2.7914516849847359e-04 9.3291171179341384e-05 4.7284588620906398e-04 -2.5730890211271860e-04 2.3574155155451195e-04 1.9947803072077478e-04 -2.4438982625613948e-04 -3.7374653412817344e-04 -2.8684712595494505e-05 -6.8086154001675316e-05 1.6879947249994051e-04 2.8056262211334504e-05 1.0223616442309518e-03 -5.8500904779594607e-04 2.1134721889242737e-04 -3.0380857022329916e-04 -4.3309667758121284e-03 4.7489453251505723e-05 -8.3293972549863338e-04 7.0081182457215618e-05 1.1968710486583113e-04 1.0954755027573061e-03 -1.7887114791133698e-04 -3.2001488477651093e-04 -2.3055732763942356e-04 1.4818220161287349e-04 3.7480279667073679e-04 -1.3496609554760827e-05 8.9517442162023037e-05 2.0428541252464141e-05 1.1265355966749019e-05 6.7324211220253644e-04 -4.2049900691402270e-06 3.5013118218721329e-04 -9.1102601907810943e-05 4.2613217602771591e-04 -1.1532551874311736e-05 1.1538492405509726e-04 -1.0893578961457262e-03 2.6933924952833978e-05 2.7101509188584951e-04 -3.1954028679418486e-05 -2.0764685035589846e-04 3.2442886491268821e-04 5.5586217343400052e-05 -4.2281734306333363e-04 -5.3592178483614483e-06 -4.7545981656078282e-04 -6.3101408841696803e-05 7.2264382102683530e-06 6.0373606627194963e-04 -4.1855711732744719e-05 -3.9369572395836948e-05 -9.2842869443245525e-05 -1.7553199121440642e-03 -5.2091825234469104e-05 1.8895206241971901e-04 -1.1166907833504158e-03 -8.9963652551403083e-06 -9.2386805920441459e-05 -3.0338325037730644e-05 1.1519498927547035e-04 -9.2443767557933787e-04 1.3105677140729709e-05 2.5973010482899239e-04 -3.2676240174914824e-04 8.2595295098025420e-05 -2.1339365089317820e-04 2.5286278717793776e-04 -2.3106260401555972e-03 1.1051270505974134e-03 1.0979682221281010e-04 -6.1545975444179078e-05 -3.7708517813722642e-04 3.1537410264695744e-05 3.6149493644831095e-04 2.2744243107745143e-03 -2.5436360937223395e-04 1.3976416639724784e-03 1.8856548845749485e-04 4.1846936486024291e-04 -1.6184726557019365e-03 -1.0495932367608068e-03 1.8443941393521084e-04 2.1552065435101632e-05 2.8299985039615232e-06 3.7670363372055105e-05 -1.5667692348118382e-05 9.6974983314062203e-04 -2.1291477117154917e-07 5.7423062207470914e-05 -8.1785358349030561e-05 -1.1753732648353415e-03 -1.5727841246272391e-05 -2.0007715113672616e-03 -7.3644691201302237e-05 3.0912227054866219e-05 1.7907098658455031e-04 2.1529446448747163e-05 -3.4640062669907967e-05 6.7864325536929834e-04 3.9890516721593816e-06 3.7306522363722561e-05 2.8594879415626804e-05 1.9232363501328343e-05 -2.3988894013425750e-05 3.1734694787685994e-05 1.5049839334608205e-04 1.8230379226928683e-04 1.5297284120717458e-05 -7.7357147895550527e-06 2.2639091288266522e-03 -6.6903820335453354e-05 5.8978253780893417e-04 1.2389660098555133e-04 -2.8813001079700995e-05 1.9373024473625924e-05 8.3001751236158432e-06 -9.2648813323574204e-06 -2.4791371752379970e-04 -3.8610131188228369e-07 -5.4559754895326293e-05 2.1699408408690964e-05 5.4865187692614391e-05 2.2551641758034160e-06 4.3901584214597311e-05 3.0200743285543734e-04 -1.3041735238701575e-04 -3.4163362165835324e-05 -2.7284177009884044e-05 -4.5172775315143049e-03 -2.3390079286641818e-05 5.4455967770952979e-04 -2.2570686669574486e-03 -1.6366260505931729e-06 5.8832757983767984e-05 -3.8826370195291255e-05 2.6860341949084168e-05 6.5881206443412432e-04 -1.8781278366976559e-05 5.8055984967582061e-04 -6.7145358158804855e-05 -1.1898245460677515e-04 -1.2540351660823059e-04 1.7988292469490373e-04 -2.8304510422147769e-04 -1.9964375808095570e-04 -4.9093863689289086e-04 -1.9716821054954780e-04 -7.5829606507596481e-03 -2.5138200262954618e-04 3.4460228185770230e-03 -6.8569301909821023e-05 2.7973791837822618e-04 -2.1307944868697742e-03 -1.8235778294030172e-04 7.5326463410705573e-04 -2.3529107755051286e-03 8.1772532416638909e-05 1.5676741862623821e-04 -4.4462429096085441e-05 3.9624644589296442e-04 -1.4574884599693805e-04 7.1766169461988296e-05 1.1076732894519659e-03 -2.7851108377318414e-04 1.0996006594404589e-04 -9.7962283921622644e-05 3.8761014647992951e-04 -3.0216489820123030e-04 1.7738162125469305e-03 7.2003320303107993e-05 -3.4492855018904714e-04 4.2160069089302388e-03 3.4197629369767959e-04 -1.2066050749794731e-03 6.2612509900509324e-04 -6.1980903040241022e-04 -2.9918023349926872e-03 
      </Row>
      <Row Index="129">
        -6.0472181413091363e-05 -1.0646901354592695e-05 2.0740582011373292e-04 7.3099771356720778e-05 -2.4632106676398136e-04 -9.3222317720762816e-04 -1.2523091732011558e-04 1.2048752261369623e-04 4.0429781977785440e-04 -2.6865779398290018e-03 3.8299153000158381e-05 -3.0531409255306601e-05 -1.4239389969943200e-03 3.0865722411961682e-05 1.6907107231233908e-05 -5.3166534460739445e-05 7.0242018693592121e-05 -7.5181443804995987e-04 6.4438220997719035e-06 -1.2437000890160033e-05 -2.2285097211862184e-05 -1.2694049247728972e-04 3.2426003299387975e-05 -1.2398509055080997e-04 -5.1251744929825581e-04 -2.0627892597727127e-05 1.2992663793493230e-04 1.4637982827538109e-04 -1.4546888144203324e-03 4.1228033951189454e-05 9.2080286452417802e-05 2.3008865301734627e-03 2.6828589213682356e-05 -3.7893543299725681e-05 -8.7774006825629787e-05 1.1666271189345207e-04 4.9083744830020429e-04 2.0134627625135277e-04 -5.0201167295026508e-05 -6.0973122267054202e-06 1.3769736577513717e-04 1.6693606898628838e-04 5.0787029995106713e-05 -6.1845137917472624e-05 -1.3424223655282910e-04 -1.5790355942027902e-04 5.1336786095603415e-04 -2.5327151373379375e-03 1.5078102003216604e-04 5.9063376781870111e-04 4.3864499131562873e-04 2.4912241942327709e-04 2.3242343784896698e-04 -1.3188872936665381e-04 5.0491748316400394e-04 2.0835396364625360e-04 -1.7107856905692492e-04 -1.8429440238781902e-04 5.4124072219347702e-06 4.5349090271853553e-05 9.2598098848003293e-05 -1.1404229156803357e-05 -1.2054749723502500e-04 -1.2082579359202952e-04 -1.0464425732235362e-04 3.2485803974759272e-04 -2.3521809281527306e-03 7.3616997065440067e-06 2.8960972634729733e-04 2.3376701655264398e-04 1.3300437893766056e-04 3.0115835587019068e-04 8.7917647217196360e-05 2.6800396365708420e-04 -2.9969913623178936e-04 -3.1871909882885338e-06 1.2549762503329120e-04 4.4621382455398845e-05 1.2882525406674979e-04 -4.5416262692275430e-05 -1.0674501316854795e-05 4.6565135623385619e-04 6.2899669618828209e-05 -3.3119776039863130e-04 2.7778778608156252e-05 -7.6580055250524692e-04 -3.9832504436438862e-05 1.9269309726998836e-04 -9.6997100431595040e-04 -7.2882004486082754e-06 4.1991388476710122e-05 2.8041337797584959e-05 7.9937203469801748e-05 1.1419181579752722e-04 -1.6878986994206535e-05 2.4961724627558385e-04 -1.3557887885248159e-06 -2.6901854932851610e-04 -1.8492389752089135e-05 2.6171205405595924e-05 7.8441575486213710e-04 4.5918602113310210e-05 3.9585173613724676e-06 -4.8822699871680600e-04 -1.5252509851775824e-03 -5.2394982082722125e-05 6.5169270558252111e-05 -5.0585205369832464e-04 -2.0289116619906381e-06 -2.4003224730284817e-05 5.2569374685037944e-06 3.1628986117655851e-05 -2.9834808922828718e-04 4.4653839446894809e-05 6.4151416897924307e-04 -9.8980264792125107e-05 9.0304451978332617e-05 -8.5256885421571157e-05 4.4947734758821049e-05 -3.4615804735703575e-03 -1.7072145196846654e-06 1.3697985730096738e-05 -1.2754639548741807e-04 -3.0027468378957256e-03 -8.3334491758343477e-06 -2.7962568976636748e-05 3.5977621067734278e-04 1.6920410366165928e-05 1.8856548845752109e-04 1.2633897374199636e-03 1.9040313651727382e-04 -4.1003616782472885e-04 2.3753381265498308e-04 6.5406364670585887e-05 8.3750413879644264e-07 7.3381308070605966e-05 -1.2799730517956362e-05 -4.2096331701902556e-05 1.5424383460422974e-03 2.0292093180431241e-05 1.1364832101418559e-04 -4.2012641322373866e-05 6.7282563529987667e-04 -6.2372398076479717e-05 -8.7503923045194353e-04 4.5870751717957958e-04 4.4180403199489032e-06 9.8075124432839933e-06 -1.3059828446206081e-05 4.6761954692080404e-06 1.6729371841705767e-04 6.1027187123371211e-05 -2.0768030235734924e-05 -8.9142393088006299e-06 9.3091839453840730e-05 3.3006322649958429e-05 -5.0992758152575146e-06 1.3268304236829353e-04 1.7158426897936029e-06 -8.1693891359310017e-05 -4.1988464220421278e-05 4.3132209908157415e-04 -5.7899697783053265e-05 1.4004830575007308e-04 -5.4839380202009735e-05 2.6230129379261405e-05 2.4540604694102508e-05 6.6203974460817298e-06 -3.1283573519836445e-05 -1.1566696950848776e-04 7.4299130233832292e-06 4.3020982815868353e-06 9.3313356227477901e-06 7.3621887649223959e-05 -4.0414586509577833e-06 -1.8610396926499494e-05 2.3066291884673123e-04 2.1007462288711838e-05 -3.7283224527438886e-05 6.6958792365910262e-05 -3.0665584146262882e-03 1.3708373421946883e-05 2.8534024420782728e-04 -2.0427215159581624e-03 -2.7077038342051375e-06 1.0423309255283435e-05 -4.0273051538265062e-05 8.4464477894954468e-05 2.8575357559788123e-04 -1.9475535148328347e-05 -8.9704384262736560e-07 -2.4100242898721200e-05 -1.4562324959398223e-04 -1.0685139384448289e-05 5.5932905601953561e-05 -1.5976539976446987e-03 6.3726695707649970e-05 -2.5749250152879485e-04 -6.6800134857148829e-04 -7.7846353335522134e-03 1.5249278562293227e-04 6.6575264013562054e-04 -1.9511706607942374e-03 1.9697961959209197e-04 -5.8309339744773458e-04 -2.6486153620564371e-04 -5.8231775796286831e-04 -2.3733086081505602e-04 2.1039821632263866e-05 -3.8209803102162015e-05 9.4801920919269190e-05 4.5828345830868552e-04 1.2849541204069210e-04 1.1810489173342409e-04 1.6774386661197245e-03 -3.8006434264538109e-06 -1.8651598415617740e-04 -9.0002370034271829e-05 1.8142979724794430e-04 -3.8151512951584664e-04 5.8226537296131580e-04 1.1509566042547119e-03 -8.0807516393355066e-06 8.2094237904778412e-04 -1.5045791425686111e-04 -3.7791509255511672e-04 2.3980651828040965e-04 -5.3408450651387239e-04 -2.3154325748249646e-03 
      </Row>
      <Row Index="130">
        1.4868143337067215e-04 -1.5558078922047565e-04 -1.6946683768407321e-04 -7.0375884046664097e-05 7.2979616129343131e-04 7.1123805325198864e-04 -9.8699578608127587e-04 3.5605902535580907e-04 1.6108233117695468e-04 3.1317699369770580e-04 -5.1638444620530040e-04 9.4331947110822423e-04 -7.8802656172775598e-03 -2.2155929904207544e-05 1.1431036193557706e-04 9.4267687791336428e-05 -7.0637609501218680e-04 -8.4508736554435803e-04 5.1139585167668034e-04 4.7926504830500538e-05 -1.8392804527791453e-04 1.1174211176685073e-04 -2.1356412081877945e-04 3.9143955030750827e-05 -3.5125884878009495e-04 1.1109783747641332e-03 3.6412886824054095e-04 3.0474023729207180e-04 8.0270938847007978e-03 -2.6980508728974154e-04 1.2279958892284747e-03 6.6197774086873551e-03 -1.1720428238878964e-04 4.3193821738759749e-04 -2.5710360578100333e-05 -1.3165934917530567e-03 -5.2239221349919054e-04 1.0034551665782342e-03 -1.1620243613120335e-04 -3.0485083850337390e-07 -5.6882849251627208e-05 -7.5038741727698546e-04 -5.4888360533295391e-05 -1.6387098845278419e-03 6.2233117259218040e-05 1.2321413597751315e-03 7.1104409814936112e-05 1.6020508854814042e-02 -7.8188716803198437e-04 5.1589480809612759e-04 1.2397726924922026e-03 -3.0049084436382944e-04 -1.1546264843762324e-04 -4.6777016671268419e-04 -3.1239109832099151e-03 -1.1447788121539222e-03 -3.9786452487246141e-04 4.5987798895710807e-04 -1.2463542305457542e-04 9.0282077173483005e-05 -2.6197981111807881e-04 -1.4655765028093529e-04 -1.9065793932522249e-03 1.3062404549589995e-03 2.8573999411489817e-04 -2.7438198950526654e-04 2.1518980244816799e-03 4.8425406643767648e-05 -1.0576093961449078e-03 2.3607492412169861e-03 -5.9837771757484325e-06 -7.8118406639189229e-04 -7.0997425331415648e-04 -6.3277831720492646e-04 -6.7664989528568031e-04 4.4038529854967777e-05 -9.5759665427685992e-05 3.9495409310658786e-04 -7.6241692891040880e-05 2.2762016686240713e-04 9.1605277987905076e-05 -2.7718627965596203e-04 6.3479389494133093e-05 -7.1260801988520805e-04 -2.6863246825294118e-04 -8.3079393403018287e-03 3.0804854236679904e-04 -1.6161175981977893e-03 -4.6392087270457072e-03 1.9763207324574594e-04 -3.7945414335280488e-04 -1.7422624344739027e-04 6.6281924619366987e-04 4.4084498502918595e-04 5.2846857925906154e-06 -3.7779522918050812e-04 8.0210740587552051e-06 8.4817987268212547e-05 -1.1936593135272704e-04 -1.2127137754750980e-04 -1.0988111049774817e-03 -3.0445743491663586e-04 -6.1802822469511783e-05 -2.8435356374587289e-04 -1.7489636017902080e-03 8.5126484133411770e-05 1.7100971066056692e-04 -5.1694089304041846e-03 -2.2040045944775192e-05 1.2979969842437248e-04 -3.8916131278649956e-05 -3.5993497709954587e-04 -1.1997636309589183e-04 3.4214872881964213e-05 -1.2923227026879203e-03 -5.3052287794833498e-04 2.2419747619463123e-04 -7.2633595852915518e-04 -4.1106457155965664e-04 3.5153992930409749e-03 1.7882006592853644e-03 -5.5760707591361817e-04 1.7112068899195927e-04 4.3285832072929020e-03 -1.8706694677202238e-04 -1.2216605246446266e-03 9.4522333200841580e-04 1.8312115573677494e-04 4.1846936486038418e-04 1.9040313651734302e-04 3.9110894508654461e-03 -2.4408744385797237e-03 1.4591910807223440e-03 -1.3188927243524065e-05 5.6450634474018236e-05 5.9720202109476376e-06 -3.9960293667796078e-05 2.0070627352490968e-04 -1.4703653659576754e-03 5.8747921276872052e-04 -4.3738177554332572e-05 -1.5701942981151754e-04 -1.5231540361231866e-03 1.2377846601234859e-04 2.6102075341873782e-03 6.2685141183900228e-03 -5.0599444625569504e-05 1.7478766431556842e-05 -1.4333196666800309e-05 4.0947291363926952e-04 1.4093107222302903e-04 -1.0778848791906892e-04 6.9834974339155753e-05 1.1260958782016923e-04 -1.1704189687510150e-04 3.1448022852318021e-06 1.0644894966469268e-04 1.1042621338132157e-05 4.5591844124841545e-04 -1.0241429191090723e-04 -5.2329431696442638e-05 9.1537493607600062e-04 3.6286730132510810e-04 -7.3262972330209383e-04 -9.5689436229484670e-04 -6.1634047409832177e-05 -4.7352244989374738e-05 -6.9128412462458183e-06 2.1360476193950861e-05 3.4240131094927240e-04 -2.1095121505762537e-04 2.2249815295411000e-04 -7.9373325518980776e-05 1.0953447617839943e-05 -7.0276905603833869e-05 -9.9925816131741943e-05 -3.2349791532080598e-04 1.4177024147579302e-04 4.4850505537729536e-05 1.5485612879605320e-05 -8.7541363742256809e-03 -4.1044318304915380e-05 -8.8045632480003046e-04 -1.2570545802265326e-02 1.0543174524542898e-05 -8.0471026885131893e-05 5.2699326630967300e-06 -5.7500772303173300e-04 -9.4101880965490308e-06 -1.4736312244192229e-05 1.3474863265011553e-04 -6.0388465399066778e-04 -3.1139701823520180e-04 -4.4531584236925156e-04 -1.8664489842785991e-04 -1.0886710759958279e-04 -1.7095651094776192e-03 1.4446905814211914e-03 5.5064318098902397e-04 -5.1661014052705196e-03 -1.4650879832062956e-03 -2.2078645080672145e-03 -1.4076190402521505e-02 -2.1447358727113099e-04 1.0764956471765238e-03 5.0659610781425449e-04 3.6081017563009969e-04 -1.0693815563909527e-03 1.1948308544554012e-03 9.3424143802783854e-05 3.7311019253473079e-04 -1.3690933887739731e-04 5.0463334724490990e-04 -3.0207083012804105e-04 -1.7345937124034500e-03 -1.6347142316106089e-03 -3.6173370903517426e-04 -2.8725525667971875e-04 7.5543432832774610e-04 1.7525596875491325e-03 -2.2155760749928912e-03 7.1519048760625929e-03 -3.1032349330788384e-04 -2.8851497167429662e-03 1.2479724863597380e-03 6.6368514089691138e-03 1.0102958214469613e-04 -1.8694899630472563e-03 -6.7448109157692959e-03 
      </Row>
      <Row Index="131">
        -2.5478864083464531e-03 -1.1418129571117309e-03 2.9000607310984139e-03 5.9330230003127324e-04 1.2101968537668595e-03 -1.7560596965881957e-03 -4.6849816851298257e-04 -2.5925575762361648e-03 -4.1648390403439817e-04 -1.7268916453939465e-02 -7.7535512946051580e-04 -2.6254822589864557e-03 -3.8395930479715012e-02 1.0797378984423191e-03 -1.5959419700449611e-03 -4.5049841879779714e-04 -6.3711841993912416e-04 -1.2308809767660994e-01 -4.5203360694724692e-04 -7.6982005491998962e-04 8.1893746994485955e-04 -5.3014825818048505e-04 -3.4880978849102830e-03 -4.7699330811662444e-04 1.1443552177682753e-03 4.7320851440513650e-03 -7.4065688072821921e-04 3.7505410187754079e-04 4.0708090593788659e-02 8.6632251655510565e-04 2.0424644552186899e-03 3.7708157059682890e-02 -9.9219987724674316e-04 -7.3562731316839658e-07 -2.9638574477082458e-04 1.8053032040283900e-03 1.0213299401941728e-01 -6.5630350679746208e-04 2.8138172994974786e-03 1.2519827228521887e-04 1.7529401197510508e-03 -1.1493769251245123e-03 -1.8957431241622968e-04 3.3005728397990652e-03 9.1707718426330964e-03 2.6359928585136666e-04 2.6374405885349061e-03 3.8695474072306446e-02 -7.9198133596984632e-04 2.9633625685989706e-03 -5.2514107310557279e-03 9.9334087403038360e-05 3.7757511899012275e-03 -1.4350490714297604e-03 5.6526146199578631e-04 2.3332749872499420e-02 1.1195383082928077e-03 2.2057467286880073e-03 -7.8371870740651800e-04 -9.9741483856118779e-05 3.8935769450447189e-03 1.9531640315662846e-03 1.1593967524957775e-03 -1.7357894161674298e-02 1.0444240904576019e-03 3.7040902186876307e-03 -5.4861635255433860e-02 -2.0292822558178186e-03 -2.8891008764880197e-03 2.7940180931040004e-02 1.3889484466666836e-03 5.8465622803203143e-03 -6.5937836132913541e-04 -1.6193337991961473e-03 -8.6542394055676930e-02 1.8204474888747525e-03 2.7779929918114732e-03 1.2925762858434497e-04 8.6644040436391345e-04 9.7123784113500866e-05 -2.1135106956449157e-05 -1.0634181336398318e-04 -2.5633400359020009e-03 5.3262230082327111e-03 1.2445258743638554e-03 -4.2441582611996154e-03 -5.8827410473077935e-04 9.5524062206833737e-04 -2.3044590380598251e-02 -2.1670331807635557e-04 1.8371885917154093e-03 1.9781270597039879e-04 -4.3225315043800283e-04 1.2034366789380718e-02 2.6655877269560202e-04 -3.6150487550804522e-03 -8.5285633272920783e-04 -3.8120737317948526e-03 7.2943973963356850e-04 1.1868898016110796e-03 1.4985696476870810e-03 1.6396656690164241e-03 -1.2882680330488947e-04 2.3759141556206884e-03 -8.8375891573901008e-03 -7.0203317581024106e-05 -1.8479559154030607e-04 -1.3159747038799630e-02 5.7561153020665133e-04 -1.4309930911621874e-03 -4.2587292241076706e-04 -6.7442861741275582e-05 -3.9637281658455620e-02 3.9783777849090917e-04 2.8581307280717283e-03 -7.0672703255589969e-04 -1.5983553517990856e-03 2.4679070752949769e-03 4.2025218718857484e-04 -4.2249784393506296e-03 -8.6777453980396435e-03 2.6657123260061116e-03 1.2611596448266760e-03 -2.6243544371950200e-02 -1.9729278046699801e-03 -5.4228617502111902e-04 -4.0071404927140009e-03 5.5498574193802894e-04 -1.6184726557017040e-03 -4.1003616782495089e-04 -2.4408744385814966e-03 1.0410892528795379e-01 -1.3139183272231625e-04 2.0431653113247364e-03 -3.8945606648329960e-04 6.4456580517464803e-04 2.3993520205859142e-04 -7.0224413004870779e-05 2.4618586187750572e-03 -2.2370239618118744e-03 4.0557731554184250e-04 1.4346421540271141e-03 2.4219919125474769e-03 2.8720176587528458e-04 -2.0923040659114236e-03 2.5812603411644375e-02 -1.9561824281881599e-04 5.2740026575180264e-04 8.1702932340554192e-05 5.9989556003808571e-05 2.7600435528022188e-02 2.5179145826734000e-05 8.3556139825446962e-04 -3.3181631510177884e-05 1.6477990596306877e-04 -3.6272420084603949e-04 -1.6864958813334052e-04 -4.8363061216107062e-04 -3.8142625477562541e-03 4.2654812740650083e-04 1.5120234967707334e-04 -2.0674569683938882e-02 1.0936122709089718e-04 1.1193931762185083e-04 1.2000061622181590e-03 -8.6751376985104087e-05 -9.2219749008514329e-05 -6.1524819302983397e-05 2.0498883478590127e-05 -6.0766423140499182e-03 -4.4360386566466570e-05 -2.8740184040218220e-03 6.4054258438488458e-04 7.0501567491171801e-04 -4.9964250043318796e-04 2.8308784278509086e-04 1.2860087335019885e-03 5.7646359316587377e-03 -6.2972548018861091e-05 -3.8084724215975727e-04 3.3660850811786033e-02 2.7749950182405253e-04 1.0629484093225277e-03 -5.9746882224610109e-02 -4.8572536926817594e-04 1.1667270498947624e-03 5.8842198684017836e-05 3.5125589808016332e-04 4.0982625683850860e-02 4.4586574829413883e-04 -5.0138682855660616e-03 -2.1612569810291883e-03 -2.0064695154735001e-03 1.7933803045657257e-03 3.8604239048969828e-03 3.4434706550867992e-04 1.9021926170316752e-02 -3.7340725476513259e-03 -3.0698468774033550e-03 -8.1512209293168672e-03 -1.5732893826462945e-03 1.6252654882576512e-03 -8.6602511810282223e-02 2.2967437147120976e-03 -1.3866806621360724e-02 -1.6288436765194473e-03 1.7983546193362735e-04 -3.7562738944585377e-03 -1.1164604772285305e-03 5.6716010433049968e-04 -1.1806215700207270e-03 4.5766304381695544e-03 -9.4868925806607766e-03 -4.2505825010250671e-04 2.7971978212361246e-03 8.9544150017520467e-03 1.4791609697207917e-03 3.9894077422807685e-03 -2.4515124218654921e-03 -9.3099605959092498e-05 1.8699360424129534e-03 3.9281333401765331e-02 -2.4639130917053151e-05 2.2405995958925857e-02 2.9361260457257958e-03 -4.0588268475405453e-03 2.9212893244465406e-02 1.2429576956275129e-03 -7.0232129416984299e-02 
      </Row>
      <Row Index="132">
        4.6404205274497659e-04 1.7291204565961341e-04 7.7757522331634368e-04 -2.5570511147721223e-05 3.7038662131638322e-04 7.9347949077208458e-04 8.1652512951206028e-04 6.6755621624513001e-04 -9.6015646675655917e-04 -8.9856489440207840e-03 8.6722699158624347e-07 -1.4937074368974543e-04 -1.9178542937504373e-03 6.5132948053846487e-05 9.1096869417167881e-05 8.3772770484639208e-06 1.8076841818605153e-04 -8.9047322043780052e-04 8.3200404062302817e-04 -1.8909458393214992e-05 2.0668550537397467e-04 -4.4589398148002306e-04 2.5960028218231261e-05 3.0187722382187714e-04 -2.4697275401268188e-03 1.1407692058320847e-03 7.0763349705056059e-04 7.5258811303571414e-04 -6.6797062063197700e-03 1.6274307754449261e-04 1.5881539284631437e-03 2.3199696821532001e-03 8.4862834139664081e-05 2.4266203549074748e-04 -2.1595676766148668e-06 -2.8134112312501041e-05 2.0363639360755680e-04 2.1555775124283594e-03 1.1243522693629429e-03 -1.4507846620625896e-04 1.5217341634002010e-04 -5.2703089102296803e-05 1.5153921942111074e-04 4.6674239846370628e-04 -1.2764755733275118e-03 4.3981084803065569e-04 -2.1153251665710605e-04 -1.0482258071227366e-03 -9.2931819941005807e-05 -8.4324471138771430e-04 2.9166985793339928e-03 2.2215975392095473e-04 -2.5239460194703732e-04 -3.7312747619492752e-04 6.4615046361123768e-04 2.1010745844763411e-03 -2.8296491084932249e-03 8.9206238702587912e-04 1.2410552381853830e-04 -1.5558174187747494e-05 1.4883718720106853e-04 6.0301861638445073e-06 -2.0639379950801880e-03 -4.6708664432761884e-04 -3.5156086289609562e-04 1.7733342084727409e-03 2.2677557113147187e-03 -7.6760909926332785e-05 8.0261646016350661e-04 -8.7323934213534571e-04 -4.3792264188744737e-07 2.2384377968536937e-04 -3.6371393127798907e-04 2.4563320264410818e-05 -6.0713786304126063e-04 -1.1426432435313570e-03 8.7348642868405324e-05 -2.7061973039609923e-05 1.4783627578771703e-04 1.6129830678377139e-04 -2.0465324507889203e-04 -1.7974846997163780e-03 -2.5048500724480973e-04 -1.4787498509635788e-03 7.2303667671501891e-04 -6.4791242738266308e-03 1.3220098214782343e-04 2.1022096545578357e-04 -1.7369647801707411e-03 9.7120628822096571e-05 5.1660555493112260e-05 1.9412727840967736e-05 -1.4236198213745348e-04 3.8835558661925139e-04 2.2732776986134420e-05 -1.4821146056026441e-03 3.8613896457790763e-05 -1.2560256857164580e-03 -7.9750380701774698e-05 -5.1737000527176009e-05 -1.7079089669705494e-03 5.1186323172968545e-04 2.5002511737260672e-04 2.0676461854867109e-03 -1.0940094926867731e-02 1.8644998070145143e-04 2.1268589556234100e-05 -2.3744257503584970e-03 3.5366865082061364e-05 8.5516020052709167e-06 -2.0236064297806460e-05 -4.6060253755382202e-05 -3.4709405246420675e-04 5.2547344316531330e-04 3.0347086462771747e-03 -8.1971058117081478e-04 4.9275583075927398e-04 -7.5385914110116348e-04 1.2753236284693297e-04 5.1792457224264250e-03 -2.6870152220474057e-03 1.4494795287149603e-03 2.1746043877882409e-04 4.3919420244793797e-03 -4.9413654820975217e-04 8.1697510497965697e-04 -2.7247355236306725e-04 1.4494858748441042e-03 -1.0495932367606622e-03 2.3753381265499978e-04 1.4591910807221684e-03 -1.3139183272169955e-04 9.3884478551079648e-03 -2.6288236167877968e-04 1.5340194503155285e-04 4.0423261496308482e-05 1.8520055847821401e-04 -2.5399279045039630e-06 -2.6951852880129621e-03 4.9833487055325157e-05 1.7908362096795205e-04 3.7361881767171900e-04 -1.1677922982516692e-02 1.7489485568837859e-05 -1.7662021078096008e-03 1.4101428127096249e-03 -9.0040864354288188e-05 -7.2868266750192892e-06 2.6777295909580006e-05 -2.3728532916343905e-04 6.0953297924027413e-04 -1.4908773023522079e-04 1.8732886222638107e-04 -1.3287582835527344e-04 3.5283722902209618e-05 -1.4289172810954198e-05 -4.9485948714652998e-06 -3.7795285575204396e-04 -5.5103233302966669e-04 -3.1730715724736722e-04 3.8593366671841407e-04 -3.1582058153201420e-03 1.4340044681767175e-04 3.3133238300205774e-04 2.3166543902833348e-03 8.7389952266038890e-05 -1.9481937876514744e-05 -4.1534676624083882e-05 3.8460058836742804e-05 1.0819765156931671e-04 -5.5053354724706642e-04 5.5447625079017480e-04 4.4522924764391032e-05 3.3439544768067619e-04 -7.3247002152368262e-05 -1.6267466886913182e-04 -5.9148540901797725e-04 8.1084135827643562e-04 9.7552940006020305e-05 -1.4501164892166292e-04 -2.5262819744294146e-02 7.6719238893384101e-05 3.5499699319449621e-04 -4.2781905759903260e-03 -7.3329175592074222e-05 9.2959570133207750e-06 -4.3640599746251742e-05 6.5748157854528732e-05 5.0494925712350411e-04 -4.2810296096723220e-04 2.7114986434231096e-03 -1.9107465874552672e-05 -2.0069112915958984e-04 -9.3780544491853073e-04 -4.1484126983254812e-04 7.6201560156266999e-03 9.9315653226624088e-04 2.2195576874221786e-04 -1.4013762450883279e-03 -1.9979573650405289e-02 9.5801385643155823e-05 3.7349951868750008e-04 1.1707288032311303e-03 -5.5320903043042460e-04 -4.2298572420869390e-04 -1.0964986767612070e-04 7.5285811666084615e-04 2.0438035405867827e-03 5.2260969012778661e-03 4.7904391552190456e-04 4.7572445987045109e-04 1.3532434824641199e-03 -5.8508448023677573e-04 -2.2969459323259327e-04 -2.8870145025429667e-03 2.4525850970767715e-04 -5.7339163992699369e-04 1.8944976737061349e-03 2.3218662734245735e-03 4.8781189003622516e-04 1.5644331147313178e-03 2.1813280078819258e-03 -1.8969126356534810e-03 1.3704419462112398e-03 2.1489726726314114e-04 -1.0448006203304596e-03 2.0647535508008645e-04 -4.6982329793048656e-03 -7.5025439241822357e-04 
      </Row>
      <Row Index="133">
        1.2374666342112473e-01 5.3875316433096496e-04 -2.4942961371336392e-02 3.5065380373046932e-03 -5.3805850153942902e-04 -2.9689869797240500e-03 2.6160552415085858e-02 -4.9410775926847983e-04 2.5478565915594553e-03 -3.4743444388376510e-01 3.7477730184456966e-03 -4.2869841946927001e-04 -8.0753132791160809e-02 1.5456480446780988e-03 3.8138007674960728e-04 -6.7293491401346868e-06 -8.2516286410361239e-04 -4.3390318070989989e-03 3.7212904495590587e-04 -2.8560152295498997e-01 -2.3646270076276565e-03 1.9076026672941726e-03 1.5473072781733489e-03 2.8513170236833529e-03 6.3500403471766775e-04 -1.3527411228128672e-02 -3.0543182322042665e-03 1.1955817505784616e-03 1.9780068654878802e-02 4.4762558562238220e-03 -7.4330648223663864e-04 4.9062106607181022e-02 5.5076739767948371e-03 -1.9522987204587117e-04 3.2525221172718943e-04 1.1911657852657609e-03 3.9906383607952733e-03 -2.3604316180323298e-03 3.0101590263515798e-01 4.1643526968493990e-04 -2.8575569339814172e-03 4.1483154205416289e-04 -2.2887932262569133e-03 3.4672451550648020e-03 1.5570744798594105e-02 2.1981250702901023e-03 -4.7801569738068483e-03 -7.3718556058617324e-02 -3.6147255937512834e-03 4.4436682551143303e-03 -6.0963685523418576e-03 -2.9735314516017622e-03 1.7650309824402410e-03 1.0376820962601230e-03 1.1802229007998877e-03 -1.1717896755797375e-04 3.6911230583008547e-03 3.9810057896645645e-01 4.9646427700793250e-04 2.3515705241342888e-03 -7.7835346243626535e-04 -1.7705775900781484e-03 1.8668464061866175e-03 -2.4852237589788606e-02 3.3302847680797831e-03 -7.3385111325585672e-03 -1.3296652936892528e-01 -6.4584309556746378e-03 6.1015090511793713e-03 -6.2671521616493919e-02 -1.8327527268557160e-03 3.3116401930027677e-03 1.4351617132504213e-03 4.5230174643977328e-04 -4.1449442247273316e-03 7.9178778752879431e-04 5.2986469010489934e-01 8.8357904519325015e-03 1.4678922556235485e-04 -5.7647251632153562e-05 -3.0610301259601513e-03 -7.0556616580572801e-04 -3.9961064217531872e-03 -3.1475943744840862e-04 -4.8735969579372096e-04 -2.7224958440059055e-01 -6.3626525222507668e-03 2.1060080950823512e-03 -7.4233336219243995e-02 -1.2593109293259352e-03 8.3244591124090328e-04 1.1068162656224789e-05 3.0592982933722035e-04 2.6950937568048783e-04 -8.0196080580985374e-04 -5.3534467601863245e-01 4.5687912323846558e-03 2.8450041057110048e-02 -1.4963971115094900e-03 2.9228601805597332e-03 4.2657259909718928e-03 -5.3877447929284172e-03 -3.7788287477237207e-03 -7.3452844302107868e-03 1.9095600726117212e-01 9.2702219884131885e-03 1.2299102936389195e-03 7.3021051890288291e-02 6.0959542019126851e-03 5.7229660310216188e-04 1.2478804837082948e-03 -9.9207047736346934e-04 -6.9071802154961962e-04 2.2553030798475914e-03 -1.2293610213881756e-02 1.0959878042726967e-03 7.6620533003711744e-03 -6.2891002800977147e-05 8.1719283848905727e-04 -6.3681374169299587e-03 -1.3900392784575444e-03 -4.3064065138639918e-04 -2.8200578886669603e-03 3.3267189806008979e-01 4.0886658702329361e-04 -5.3796687879079652e-03 -1.3834261980001372e-02 -7.7060056620695608e-04 1.8443941393494340e-04 6.5406364669867711e-05 -1.3188927248081184e-05 2.0431653113146542e-03 -2.6288236167970602e-04 4.4990954452698817e-01 -1.4041967941827568e-03 2.2345256647901181e-03 3.3776918678222849e-04 -4.0495395809919963e-03 -1.5742153106837508e-03 -2.4569035997607652e-03 5.0663842321887215e-03 -1.2962615549509057e-03 -2.2071195547919684e-01 -8.3625032963629831e-03 -2.7638755960193648e-03 4.0394984468449024e-02 -1.6289305142387542e-03 -1.0257271061547928e-03 5.0257943440608355e-05 -1.2506150913614961e-03 3.1553887271330585e-03 -2.2602122537418588e-03 -4.8616105344320815e-02 -2.7060378412529953e-04 2.4902060643438840e-03 9.3001665448970428e-04 -1.6118148045274339e-04 -4.6852219362633618e-04 -7.0120275558099611e-03 1.3402543578391324e-03 -1.7380716510319288e-03 8.0350817323200041e-02 -5.3196541958883620e-03 3.2745485690871545e-04 3.4026127601904932e-02 -1.0742452079253434e-04 -3.8383922312156752e-04 -1.4239892160414214e-04 3.4083644040803357e-04 -2.0058210985940406e-05 -1.5015481287894428e-03 -3.0484710771435292e-01 3.3101253324583318e-03 -1.2141525527172577e-02 -2.7575089077259613e-03 -7.5563451039598799e-05 -7.5088226515313981e-04 4.8828396987982414e-03 8.9430238513253665e-05 -1.3109595099854605e-03 -4.4579619572910228e-01 1.4621955041931424e-03 4.5142352477929304e-03 -6.6348042738373469e-02 2.1069566313285681e-03 9.8998554682950277e-04 7.4304689638522877e-04 -4.1948865403392330e-04 3.3176920329650549e-03 1.1615781295268941e-03 6.7849863129687299e-02 1.0151994154647235e-02 -4.8979383097407340e-03 -1.2092349672730991e-02 9.3371853449724269e-03 3.5884980188079941e-03 3.5932988521878741e-02 -1.8270772327198287e-02 -1.3099075301370998e-02 -1.4652532866673823e-01 3.7750702025878255e-02 4.0416873292485750e-03 -7.4015288617057529e-02 1.6621498707037122e-02 -5.3652895447677917e-04 2.5991293558065296e-03 -4.1886378110959580e-03 3.8028452262480802e-03 6.4988861527717438e-03 2.6927357356279913e-01 1.2345739632613524e-02 -2.9354233710603028e-02 1.8299308243418320e-02 1.5888462873934941e-04 1.8317084667429243e-03 2.9710860901633732e-02 -3.8394312075071008e-03 -8.5230965907012596e-03 7.6673725848128288e-02 -2.8332312223354916e-02 6.9148284163987606e-03 8.1568384067651184e-02 -3.4160541780436766e-02 1.0750204534359264e-02 -1.4183474295823891e-03 -3.8783547624123248e-03 1.8817999770573217e-03 7.0926881481838790e-03 -1.8571139782001517e-01 
      </Row>
      <Row Index="134">
        -1.4091681004168681e-03 1.4661785398382716e-03 9.0976164888765393e-05 1.4226797108505136e-04 -9.2361175809305487e-04 4.9493173591762924e-04 -8.6294744686331239e-04 7.1675233840321215e-03 9.4649280277480513e-05 2.8219452744170925e-03 5.7572996022261722e-05 -7.2128511256867867e-06 9.6200265060217838e-03 -7.9665805688622934e-04 -2.7740896661608734e-05 -5.3717796479122836e-05 1.0782946144641085e-04 1.1805319885150852e-05 -3.1504327911799704e-04 3.1489622640152731e-03 -1.0795443352095342e-03 1.1869637010088196e-05 2.8984298471165982e-04 -1.1296706284044944e-03 -2.1879126293600573e-04 -6.7653866471924402e-04 4.9749841334453069e-03 -5.2203418952470604e-05 -1.1709274043649284e-02 -3.4437739963121710e-04 2.2478842679265927e-03 -1.1824024708035452e-02 -2.6127982455688187e-04 1.2434250132736108e-05 5.5481548178985297e-05 8.9902223155361168e-05 5.8618730637989905e-04 -6.0374773268472536e-04 -3.8975771364844897e-03 1.7291692639920637e-03 5.2427640541560620e-05 -9.4163969880096780e-05 -1.7305000069166125e-04 -7.5262482705647227e-04 -5.3019171398944326e-04 3.7041631480642587e-03 -2.3998633451158616e-05 -7.8860193244001398e-04 -4.4038451533541176e-05 1.6230713343903524e-03 -6.2210273861613707e-03 -5.4208322584054110e-04 -1.1205475809177023e-05 6.0799450491505697e-05 6.6417710491711857e-04 -1.2123295057527537e-04 7.4607179414780140e-04 -6.6116184913684872e-03 1.7228468819039749e-03 -8.5241680938318541e-05 -2.7922174388227139e-04 -4.6593101397320383e-04 -7.4574054299257619e-04 4.5748052202389429e-04 -6.3035348316995560e-04 -3.6722894127778211e-05 -1.9014003480923858e-03 1.4058392304416856e-04 1.0660447283477809e-03 -5.4914552265001859e-03 -4.7555243002921728e-04 1.1950846270732032e-04 1.2866173923465393e-04 -7.0689074642346639e-06 9.0414232353411284e-05 3.3302680176543371e-05 -4.8133384190239270e-03 7.6743445717222802e-04 -3.1988773414296304e-05 -2.0166289940338339e-04 3.0166787813493134e-04 5.8168241417812325e-05 2.9454387502693483e-03 -1.9747811591760367e-02 3.3654397673356373e-04 1.6230349941526168e-02 8.5563233701823477e-04 -3.2159761363353793e-03 8.2610660129911473e-03 -3.1420232327496536e-05 -1.1347160587790468e-04 -7.0330504751211706e-05 -4.4400737738228141e-05 4.8961564753650239e-04 -2.0415682404407304e-04 9.6703979731245504e-03 -1.6536027727254024e-04 4.1304794819567187e-04 -1.0613003536880039e-04 1.0452975436754317e-04 -5.7416587433620951e-04 1.3948044548866331e-04 -9.3810414619961138e-04 -3.5336294236770565e-04 2.4684671558406605e-03 -4.6165686358637110e-04 6.7708148494166056e-05 6.1737251439418772e-03 -1.8412418340209746e-04 -1.4165614938792389e-05 5.3811235857573994e-06 4.2359748500372908e-05 4.5075563140901855e-05 -3.4103948228039180e-04 6.9133805756316224e-04 -4.4448532676785550e-04 -8.5401255129693987e-06 5.9307631217329904e-05 9.7635049030123273e-05 2.2212044894853317e-03 4.3865501277471491e-05 -2.3861059195318148e-03 -3.5186039527453777e-05 -5.1115355065789458e-04 5.1148044932377255e-05 -1.4826084976958299e-03 -3.2366798035246003e-03 3.2915571925174549e-04 2.1552065434931114e-05 8.3750413877852620e-07 5.6450634474332166e-05 -3.8945606648420339e-04 1.5340194503157822e-04 -1.4041967941836805e-03 7.3305722155951186e-03 3.8018913655887268e-04 -3.6584445490273607e-04 -1.4661398071096933e-05 -4.3705827181835530e-04 -6.1539493305641426e-04 -5.6343208555821415e-04 2.3826392325692673e-04 2.8274087583710049e-03 7.4980879492555315e-04 -2.4431855065762537e-03 -1.2198643159848643e-03 -6.6656958265786704e-04 -3.1559957565146059e-04 -1.4045482527258701e-04 -1.0522040205909549e-04 -1.5478657499571340e-03 -3.1502192892641275e-04 2.2087637466916554e-05 -3.5689661387243356e-04 -1.3019467344473391e-04 1.9783289314810040e-04 5.4808492450951485e-05 -1.7914794741000044e-04 -1.2225752456409330e-04 -2.9372729347026394e-03 -7.8681132130699869e-05 -3.3889569370951500e-03 -4.2897963230139572e-04 1.5775141756230703e-03 6.6765622262465740e-04 1.8302695849994226e-04 4.8614807256282646e-05 9.1656332292903986e-06 1.0309714250259817e-04 5.9751797865797984e-06 2.3565936918890779e-04 4.9169501819618777e-03 3.4604237211273089e-04 4.3931047493910900e-05 -1.0560591700308839e-04 1.5943099148112632e-05 -2.6769674390613542e-04 4.4640767779254432e-05 -1.0730673981715106e-04 -1.3826909959286095e-04 1.0194921699955138e-02 -1.0587950961761199e-04 6.9593261118440107e-04 1.6098471658488545e-02 -1.1957525930161831e-04 -2.8524363971050686e-05 -5.5643539063750448e-05 7.7268838902036345e-05 -4.7181312672179383e-04 -1.2113717317677967e-04 -4.8721754194328351e-04 -9.6035017232023179e-03 4.1179583315253715e-04 -3.9237441395467254e-04 1.2829677176642853e-03 2.8091413047036731e-04 1.2885979920507617e-03 -4.4761252414851471e-03 -1.2464948298086843e-03 2.9086247357843657e-02 -2.0726664481719964e-03 4.1356335915603850e-04 1.1732109680707925e-02 -9.5705597988914167e-04 1.3925659924470131e-04 -1.3584506100289913e-04 4.8024312897541139e-04 5.0007007026607261e-04 -1.3627181238238517e-03 -4.6069836972605360e-03 6.4607880640537244e-03 -2.2995864252575455e-04 1.7605335530359312e-03 3.0580409278026103e-04 -9.6252858679525110e-04 -1.0363047731515264e-04 -9.9495879850269725e-03 -1.1630707597645490e-04 -1.1319121609159452e-03 -1.9532498861798415e-03 2.1955418601256188e-03 -8.6414895029792247e-03 3.5288205107876567e-03 6.3590244084404750e-04 -1.6312055383728582e-04 -2.2714089481727599e-03 -1.3089927734198314e-04 2.4827251873911862e-03 9.2630188189854138e-03 
      </Row>
      <Row Index="135">
        2.8040558351387530e-03 2.0946780500188120e-04 3.7432133843686120e-03 -4.2764930813627994e-04 1.2059443872917339e-03 -1.8977945725264157e-04 -5.8334852114615555e-04 3.0042293403300204e-04 -3.4932030029036394e-04 -7.9955643559870282e-03 -6.8960555232604561e-04 -2.2741013330188770e-04 -7.4359836386400646e-03 4.4562414105331729e-05 5.9485544620831252e-05 -5.5139130074784841e-05 -1.1385153296997533e-05 -8.7365445252336749e-04 -6.3352780212268082e-05 -6.5882422132075014e-03 -4.2294857975973266e-05 -1.6076664405995575e-03 -8.5111846142978337e-04 1.3023938626991610e-03 -1.6102935462002435e-04 -3.7351866175120395e-04 7.2964878455161362e-04 4.8742179548485857e-04 1.6481547045872763e-03 6.6610014104421275e-04 -1.7867549599144550e-03 9.4398706816658517e-03 -2.0174348396350805e-04 8.3252872873831180e-06 -9.8545959500118477e-05 -3.9572290720628486e-05 1.2082954922259873e-03 1.9761727875432407e-04 7.3293289252600868e-03 1.7188320676471224e-04 2.0014160631109971e-03 -3.4342822938720347e-05 4.2872383614734125e-04 2.5502328593801638e-05 1.9781056614229242e-04 2.4087281162580611e-04 3.7298297697360028e-03 -3.0026645152709808e-03 -4.6941851525587192e-04 -2.1277158377646793e-03 3.2001737750926296e-03 1.3928440503108012e-04 1.6066070895134898e-04 -5.8052439116271530e-04 -1.8516196133168579e-04 1.7860079331042701e-04 -4.4873206145268005e-04 9.9334619747078468e-03 1.6490520073751506e-05 1.7813036881853747e-03 8.1164356771880504e-04 -3.8519955604546241e-04 1.8354317173357830e-04 3.6713444852612756e-04 3.1676273404276228e-05 4.3793692978222193e-03 -2.5924896771134520e-03 -8.0593053544128317e-04 -1.0295045111400111e-03 2.4224336504197197e-04 7.4138811267033655e-05 1.7386132042169036e-04 -3.5602358260962245e-04 -5.6426648638550035e-05 -8.1853290531901102e-04 3.8480109364626321e-05 1.2232173152270542e-02 2.5762356687301924e-04 1.5537454760751364e-03 3.6221153583147064e-04 -3.5166465868133323e-04 8.4821919774254271e-05 2.6203335726379673e-04 -1.6124614281505800e-03 1.2777301638053074e-03 -8.3917582580546046e-03 -9.8171859470500694e-04 5.0509346130998486e-04 -1.4179659015640667e-03 -8.7112968182648937e-05 7.3087541552583485e-06 4.7597755707411496e-05 9.9029288851528244e-05 -2.4175595279840589e-07 6.5959284690692010e-05 -1.6331300533384052e-02 1.7485685867805415e-04 -6.6508828962482738e-03 -5.7409362759164350e-04 9.8093032625832730e-04 1.4099292003103610e-05 2.5683495151302901e-04 1.6746534142354818e-04 1.7698359772104707e-03 7.9938497234955594e-03 1.4061798709484011e-03 -2.1523800850771491e-03 -1.4582182699498292e-02 5.1241766093261792e-05 -3.4759490790108732e-05 7.1191307001125358e-05 1.8081733219854162e-04 -8.9395880778746868e-04 1.8224389033638433e-04 -5.4676641163303730e-04 -3.0291573541970859e-05 -3.3498479619201854e-04 -1.4773112678758641e-04 2.4874162272561741e-04 1.6358717742499460e-04 3.2036399407621777e-04 -9.0715959429664081e-05 1.8872678861220384e-03 4.7507968944113799e-03 3.6797752642965878e-04 5.2369501666623070e-04 -1.7819066581710175e-03 7.2085998983913114e-05 2.8299985039849894e-06 7.3381308070602849e-05 5.9720202109731163e-06 6.4456580517625872e-04 4.0423261496252971e-05 2.2345256647961081e-03 3.8018913655836137e-04 1.1982860572554096e-02 -1.5058919039081221e-03 -1.0045542595935428e-03 -1.9027884313280305e-04 -8.7848421814266421e-04 -8.8241597117832797e-05 -2.3453303607993753e-03 -1.5794853738647134e-02 1.1975641474705476e-03 2.5991674422027981e-03 -1.6066824162521698e-03 -6.3466744968883456e-04 9.7347639480174341e-05 -4.4810108263199498e-05 -6.7488437585079162e-05 -4.7740518088333839e-04 3.0568555376006101e-04 -8.1084628626293398e-04 -1.2456390109817942e-04 9.2124081256010713e-04 -4.6847986125428745e-06 -3.9912416155924585e-04 1.1493895644176973e-04 5.0211394865635334e-04 -1.1491866756575819e-04 9.0105660372313302e-04 4.0686825669914162e-03 -1.3549195749638652e-04 3.6801744694624910e-04 -8.7975041469068316e-04 -2.1317526363596301e-04 2.3299575324406234e-06 7.0072781266212331e-05 -9.4945772201912582e-05 -6.8420133178398457e-05 -3.5273923245274230e-05 -8.0012387461388945e-03 2.8930243368904113e-05 8.6283320038061458e-04 4.2430856118523313e-04 -2.8877789364289584e-04 -1.7189770069908454e-04 -7.3612559386270621e-05 -2.2413501517067535e-04 7.2949186207988434e-04 -9.3311642705362890e-03 -4.5148535589916035e-04 5.1001964868107588e-04 -6.9545831526106605e-03 8.1957303709465686e-05 5.7000802957580393e-05 2.1959375852145547e-05 -9.1074659585579774e-05 3.9696301926455194e-04 5.3254312820300888e-05 1.1232926930474563e-02 4.9027099923124560e-05 -2.5991273225931515e-02 3.3245356693638855e-03 2.5334643132811593e-03 -8.2339612764816602e-05 2.0907390499914323e-03 -1.1587183732552015e-03 4.9902370970989736e-03 2.4648831787766848e-02 -2.4420786735929682e-03 -1.0816490283832754e-03 -1.7965799907078583e-02 1.4227800878808369e-03 -2.7987451987785105e-04 3.2699457580302163e-04 3.8766628111293593e-04 5.8485276522686654e-04 2.4528204973978368e-04 6.0686106261942929e-03 9.8011789586646128e-04 6.7365289139893932e-03 -3.5656407899650102e-03 -6.2938139126251754e-04 2.1130371227182955e-05 2.8651526963252311e-04 -9.0257198148091479e-04 4.8708035134891088e-03 8.7962018470840635e-04 4.6565309976194947e-04 -2.0803243574364786e-03 7.7767547152264209e-03 5.0649611449992511e-04 5.3632585973776214e-04 8.1962397054156704e-04 8.2218262329553874e-04 4.5932579926495328e-04 -7.7285345228320307e-04 -1.3828002928740653e-02 
      </Row>
      <Row Index="136">
        -2.0881717205541378e-03 -3.2341404167748097e-04 1.7809067954822912e-03 -4.1104520778159192e-03 1.2859476691451804e-02 -4.4495808088903003e-05 2.7994775849389366e-03 -4.4472345157032913e-03 -7.4511415840962836e-04 -1.4888983130860567e-02 -2.3003906915140793e-03 3.3211246395652033e-03 1.0033206767163294e-02 6.3391040350810573e-04 6.1608328556719751e-05 -4.8352754078944301e-05 -2.2193928555250893e-04 8.1049781847375522e-04 -2.6482137929786286e-04 -1.9768143486573464e-03 5.1715362223840199e-05 -9.5027155613024378e-04 -7.0292267138310170e-04 6.8172461372332568e-03 -1.0012911872641652e-04 -2.4378763831007263e-03 -2.6548648471559767e-03 -6.2207132971155870e-04 -7.5278792073105970e-03 -9.7243875777179285e-04 2.0457177183630685e-03 -1.5411406661399729e-03 4.9079402099921898e-04 2.4318852062792399e-06 -2.1775681690046995e-05 2.2428038240960917e-05 5.5069274433375455e-04 -5.7833264509601868e-04 2.2328482988686572e-03 -3.1602527880114439e-04 3.8322226826742163e-04 -2.5914023189807452e-04 3.1771848315960936e-03 -6.3760164266423434e-04 3.4027104075624887e-03 -1.6414820104570854e-03 -7.0008263472743845e-04 3.7794497022529544e-03 2.2320895918649122e-04 -5.1588974916839947e-04 -1.9256616588750886e-03 3.6859545499743349e-04 9.2788559842417549e-05 1.3079781341119906e-04 -1.2115001511583219e-05 1.6169923786077053e-04 4.1019268984063989e-04 1.6752377113757634e-03 -8.2374728918695335e-05 5.7320818441447660e-04 2.7969362495634288e-03 2.6800618011425447e-03 -3.7631950285385368e-04 -3.5195391782530364e-03 3.0137764824101536e-04 -1.8029620349154646e-04 8.1274366630100237e-03 8.5988815035858350e-04 -9.8075428157526432e-04 -8.6524562351992795e-03 5.3676119799952809e-04 1.9326711218134899e-04 1.3554099051684755e-04 2.4240634164439086e-04 1.1915890451134632e-04 1.1011600708141656e-04 9.9194430440793790e-04 5.6334551145488347e-04 7.9081801973729859e-04 4.6017002640394346e-04 2.1304483784945899e-04 -3.2947820688778297e-04 -1.9042609888602750e-03 9.2248619986751990e-03 3.2967183187059684e-04 -2.3802394619527045e-03 7.8692716533133172e-05 3.1918496064004031e-05 -3.3833242875055958e-04 2.8884274586223296e-04 5.6215021951880285e-05 8.6296845929771790e-05 -1.8954240308564961e-04 3.7128261417601095e-04 -1.8446814472388925e-04 9.9737174922148730e-06 1.5387236095485541e-04 -3.5835667494475477e-03 9.8519058558025957e-04 4.6639171284648369e-05 -1.3378166224701463e-05 3.7327356032019606e-03 5.9973865936955206e-04 -1.0254929259214546e-03 9.1831565266491996e-03 1.4971783352160214e-03 -2.3630115944019612e-03 2.3748767344538985e-03 -2.8799867885926478e-04 -7.1762916105398987e-05 1.4113091483514696e-05 1.5793116656600506e-04 3.1646415464681296e-04 9.9264799268053438e-05 -5.1605701712634927e-04 1.7178742185732963e-04 -8.8327305659411173e-04 -2.6707599526285084e-04 -6.6384969991085626e-04 9.4057389615105971e-04 3.5657462166431998e-05 1.1059954983649754e-03 -7.9977930573926683e-04 -5.9649694893283006e-03 -5.2949962624086397e-05 2.3471370983881612e-04 2.6734003519955363e-03 -2.6888401240170032e-04 3.7670363372022369e-05 -1.2799730518075906e-05 -3.9960293668052797e-05 2.3993520205614800e-04 1.8520055847808144e-04 3.3776918677989702e-04 -3.6584445490219831e-04 -1.5058919039087925e-03 5.5347602811819299e-03 -1.1010454457029270e-03 -4.5353912904197045e-04 2.1795968498076420e-03 -5.0674675891319160e-05 -3.8742433318883290e-04 5.4236537048817091e-04 -2.0600778878602941e-04 -1.3532833942923605e-03 8.6996730416855073e-04 2.2807585804798374e-04 -6.6972538673542805e-05 -2.8073583540861425e-05 -3.6286342549128532e-04 2.4189144507411773e-03 -6.2123446337033149e-04 -1.6084883242523940e-03 2.6680028256094446e-04 -4.4594676158801164e-05 -4.4498961275111289e-04 -2.0813811810342633e-03 -4.7367560789444941e-04 -2.3868641979522039e-03 9.7360736586010223e-04 -7.7051802210264001e-05 -1.2386971330840921e-02 1.2024768084973532e-04 1.3597551759153563e-03 -4.7051512423623709e-05 -4.1866399709525873e-04 1.4575082610332560e-04 7.2225957388646748e-05 -2.8348408775722886e-04 8.7432161853173013e-04 5.1694517522097357e-05 1.3138735634856699e-03 -9.7587120906548526e-05 9.8554320039783458e-04 1.3365781110120736e-03 3.2636345114562290e-04 2.0309405474504153e-04 2.0446714261938177e-03 2.6464311450837214e-04 6.7683632362048826e-04 1.0892492912974391e-02 7.4826040755488822e-04 -1.3686349019047660e-03 3.2256387285109489e-03 8.4384111175818508e-05 -4.8258658933798067e-05 2.6830389567283121e-05 1.1672746580103469e-04 -7.1208875887135079e-05 -7.9615333596782037e-05 1.6132214425538041e-03 -5.4415278708326434e-04 9.5537431380006031e-04 -3.4155379645696045e-03 7.4590604240743989e-03 6.8561998221214424e-04 9.3953443948379192e-03 -3.7045612407095871e-03 -9.0318081628189078e-04 1.1278832254229793e-02 1.4743509324051645e-04 6.7557228068568795e-05 1.0413271021348295e-02 -3.5528326525879460e-04 -2.8468131388865005e-04 4.8715877207645386e-05 5.2772237705304916e-04 -2.0907146500789672e-03 3.5257811423703312e-04 8.9910871698826826e-04 -6.1679364599868339e-04 3.1548062079327544e-03 -1.8552333322713756e-02 -5.0693188379002958e-03 -4.1858774408283679e-04 6.5792403916114083e-03 4.5464028287786930e-03 -1.2267053372106533e-03 -2.1836975656619017e-04 2.1266887776993236e-03 1.1820671711998288e-03 -2.0089633130083756e-03 -6.0600088477768422e-03 7.6523060140118102e-04 -6.6864852226366817e-05 -9.2125344714662010e-05 -1.3403917537627543e-04 1.4252251479623785e-03 1.2180261584856646e-03 
      </Row>
      <Row Index="137">
        -6.3092256047383652e-03 8.4765910256896565e-04 -6.6763740774354596e-04 4.9723916501408238e-04 6.4041866268012379e-02 -7.7548346851101253e-04 1.2401512048523678e-03 -2.7013445347188721e-03 -3.2003659123720773e-04 2.5915715090832903e-03 -2.4078270115468654e-03 1.1256376352141717e-03 -1.6423693977611453e-02 1.4242346167570290e-04 1.9853015078856017e-04 2.2575187905274395e-04 3.8827309853807501e-05 -3.5128410991767944e-04 -1.2012139972558417e-04 -1.1852290292167778e-03 1.1754979521463229e-03 8.0318531291985462e-04 1.0457082194920537e-03 3.3591710577398619e-02 -5.7256384006516142e-04 2.5533902130075205e-03 -6.3706358498566906e-04 -7.9631282935797160e-04 5.6112982265182909e-03 -1.1683954656492191e-03 6.5288137972523835e-04 6.4857205358066494e-03 1.9323172095999253e-04 1.8422893550295791e-04 1.5280399946349804e-04 -2.4962815376817051e-04 -7.6320035159636868e-04 -4.3044461403962155e-04 -4.1356708915417928e-03 1.1069321056238072e-05 -1.5343521443425545e-04 1.2864914363888650e-03 1.5526171415353080e-02 5.1130598670536681e-05 -2.6343265345853129e-04 -1.6806908408092680e-03 -1.3754223247576004e-03 -7.8050833032294875e-04 -4.0802551423391176e-04 7.0968410219107714e-04 -1.4206387943902499e-03 -2.4051815346499549e-04 -4.9214331679432732e-05 -1.8125345126235055e-04 -1.3015108560663659e-03 -2.9880228012729021e-04 -1.6301742842626463e-04 -6.9018560411013286e-03 -2.7804017667750446e-04 -1.7567314404082386e-04 2.9793256550704854e-03 9.5285852182559402e-03 4.3511094244903618e-04 4.3949247175077699e-03 1.7929381519565801e-05 9.1786218525811980e-05 2.3670422914849887e-03 8.8198586585853944e-05 7.9107056829445452e-04 1.3898536769108460e-02 9.7467166048435588e-05 1.4888798041760615e-04 -3.3336560709080511e-04 -5.3948822265115735e-04 1.2148096491667176e-03 7.3927644124055850e-05 -4.1281306878057089e-03 -1.7535398780259281e-03 -3.6984974638199289e-04 1.0762370993658288e-04 1.6367274259548870e-05 6.5801873189957720e-05 2.1607428500488787e-03 4.4411153562700090e-03 7.0486347968301555e-05 3.6331219259646552e-03 -9.0284849004806933e-05 3.2743117488393675e-04 -9.0134020407894866e-04 -7.6739804346520786e-04 1.6000900511395008e-04 -3.8977702841409140e-05 5.0724005580250059e-05 2.7737378873790575e-04 9.1095971374591245e-05 3.5012692934605072e-03 1.1058298580156941e-04 1.7921027209813582e-03 3.1225179618335035e-03 -3.1069322423530749e-03 3.4681415157233886e-04 -1.5665355098239304e-03 -6.8267828843387784e-04 -2.4836870318302663e-03 1.0285701466830778e-02 -1.5237802122441187e-04 8.0882334831054638e-04 -2.1540659974870202e-03 -3.8155997038448681e-04 -2.9326625144957116e-04 -2.1494932495785932e-05 -8.4308976432641075e-06 -2.1045559620708719e-04 -1.6571642521582500e-04 -7.6058882090501712e-05 -3.2548342825463455e-04 3.2091849313070631e-04 -1.7498499326242499e-04 -2.7270982799083611e-03 2.5504205893276191e-04 -4.7990901916816764e-05 4.6707930655188849e-04 -1.6991558417176617e-03 -1.1173887740375754e-02 6.5329511096633153e-05 -1.1131438055539012e-03 -1.0020562814656131e-02 -2.6487488744576337e-04 -1.5667692347867863e-05 -4.2096331701917816e-05 2.0070627352450701e-04 -7.0224413005665065e-05 -2.5399279042770395e-06 -4.0495395809943546e-03 -1.4661398070610343e-05 -1.0045542595931286e-03 -1.1010454457031781e-03 3.0806801129752287e-02 -1.8418808900872753e-04 -8.0994307219005909e-04 -7.9151024226693149e-04 1.6041686097058945e-04 1.2060811906296071e-03 -9.8120783980445276e-05 5.0295455288460172e-04 6.9199686057945797e-03 4.0016332379274195e-04 2.9178760592278466e-04 4.4029197662483130e-05 -4.0466750779211483e-04 5.6407759431402319e-04 2.7462064122519560e-04 2.6036637555590936e-03 2.1700934610081857e-05 -3.3231292927057257e-04 -1.7160081105348996e-03 -8.0531582496907589e-03 -3.3548994927334527e-04 1.7776910385444190e-03 8.7809487540235764e-04 -1.6268577249279837e-03 8.8869956067955114e-04 3.3768703776828745e-04 -1.4043040462443507e-03 -1.7016976505797032e-03 -5.3955173323553098e-04 3.8694274019267596e-05 8.3886348470132988e-06 -4.7741413493305150e-05 1.2394656717501507e-04 -1.9688521529988290e-04 2.4679842536773459e-03 4.0426595648547883e-05 2.2244115120958257e-05 1.4331337084281320e-03 -2.4219312591137934e-04 2.1188159601808702e-04 -1.0305488001600433e-03 -1.7633167743290106e-04 8.2348959341656974e-04 1.7672252326393977e-02 3.3194043624363916e-04 7.9235430694291151e-04 -1.3639038320654495e-02 -1.6605663524629007e-05 -6.5751560572946204e-05 2.8542921663685962e-05 -1.2268276315780295e-04 -7.8558893741163122e-04 2.2709230429371948e-04 -7.0275951230002916e-03 2.8390024401709342e-03 3.3931815168832011e-03 2.4211044318569071e-02 -3.7264183950611207e-02 5.0262778820429031e-04 -5.1968899408999097e-03 -7.1231628225185235e-03 -4.3329777827642389e-03 3.1276561116944990e-02 -2.6754843242856687e-03 1.5841378634129000e-03 -2.5971699120454217e-02 -5.6593419930348419e-03 -1.2547787813438770e-03 4.2596799044546530e-04 2.5946917863015292e-03 -5.1078374527631400e-03 -4.9986121189277014e-04 -2.0089134588238827e-03 -2.5413889584748536e-03 -1.4703263435619839e-03 -2.4719069001123181e-02 -2.3933287837671624e-02 -2.0533749962443372e-04 -4.0430215353416329e-03 2.7370219097488067e-03 -2.7569550932676941e-03 -2.7087379185289214e-03 6.3391351835034165e-04 1.4310021848194859e-03 7.6570180841578316e-03 1.2367378367955581e-03 8.6714497916682426e-04 5.1068360524472419e-04 2.0615098500719811e-03 -7.6740657580401644e-05 -3.0018459107103120e-05 2.2005866835060103e-02 
      </Row>
      <Row Index="138">
        -1.4002021622809141e-03 8.6493110296486687e-04 -1.0247778450412359e-03 2.8476353735053281e-03 -8.1449808316841343e-05 -1.7507592997464273e-02 -1.2215615477990070e-03 1.5304128993057914e-03 -1.3253985487706316e-03 -1.2687220437677116e-02 -2.0118583746986032e-04 1.5161655376882063e-03 -8.6129769796006173e-03 -2.3631455507711458e-03 6.9222014434046700e-05 4.5096401584253203e-04 -5.3742339245525794e-04 3.0884362080210960e-03 2.6573027575296435e-05 -4.7963094063990797e-04 8.3524667825645577e-04 6.1316890269280666e-04 7.1194321438393577e-04 -5.2606111504396869e-04 8.2266862046381783e-04 -2.1019228556173886e-04 1.1792026616798683e-03 -1.2931672316160783e-04 -5.3578622705045542e-03 -3.2963298194189309e-04 9.2827429440442422e-04 7.1265874497328241e-03 -1.1629062799668266e-03 8.8166535802717931e-05 7.1204628917321405e-04 -7.9569201062481805e-04 -2.3238723651195642e-03 1.5709114835878515e-03 -1.2428712142394660e-03 -2.6155725887436708e-04 -7.5197977014593298e-05 8.4972963426914634e-04 -2.8086342339686543e-04 4.5449915821390165e-02 -1.0718964335918457e-03 -5.4061653140709265e-06 5.3436460316869105e-04 7.8037533918751123e-04 1.2253439992942761e-03 -1.6558877181799270e-03 1.3546224674003682e-02 1.4806706749273871e-03 -1.1438290539490803e-04 2.1964397443885973e-03 -2.3351185431218294e-03 -1.2045247565220865e-03 -1.4667825516305431e-03 1.4069536703518182e-03 5.5459227243627451e-05 -3.8700405856558623e-04 -1.5833211753636875e-03 -5.6149513876263546e-04 3.6450535542468084e-02 1.6989701540762736e-03 2.0829010611607413e-04 7.9171236054186717e-04 1.9687254037370483e-02 7.1281363261507108e-04 -1.2673258257960285e-03 3.0280797783888147e-03 4.5768300866784158e-04 7.8762881910797878e-05 1.4177956461584908e-03 -1.6025937810206295e-04 1.4274472025253698e-03 -4.1002593661724346e-04 1.7131271147823313e-03 -9.2272915977004155e-04 -3.3142740698310219e-04 -1.2727847080801075e-03 -7.0497409001279987e-04 1.0218005314239866e-02 1.2473036629256778e-03 -2.6547646757164589e-03 2.3595684039356968e-04 2.4903906777296037e-02 1.3252906470767600e-04 6.4757285648118362e-04 -1.0752907249978350e-02 -2.0035118843605981e-03 -4.8180722220070304e-05 -3.6804630383312220e-04 1.7926364119855119e-03 -1.5643545617921722e-03 -1.0949898251816359e-04 -2.8158095379826609e-04 -3.6407603261008961e-04 1.8290462834945863e-03 -9.8344438534016579e-04 1.8649949565941598e-04 1.9907722479357633e-02 -2.7236075810216365e-04 -3.4969231168118230e-04 2.4221935126343343e-03 -9.9377218519041480e-03 8.5501959992953167e-06 1.1362548658810662e-04 -1.0277911545198304e-02 1.1552988047037211e-03 -1.4315825224992581e-04 -9.2708528283616580e-05 2.1546046738423787e-05 6.6188324904594559e-05 5.5414546694080224e-04 1.3611177981744937e-03 2.8362709378364041e-03 6.8089023021680739e-04 -1.9258275222116226e-03 -7.6443395865870463e-04 -9.5907753795789918e-02 2.3043269564993266e-03 1.3414719288271405e-03 -3.1841785748359108e-03 -2.6247088304478972e-02 -2.0921996960983728e-03 -4.4507181543838241e-04 -3.4841965965171084e-03 -4.0964609056090232e-03 9.6974983314091975e-04 1.5424383460424552e-03 -1.4703653659583727e-03 2.4618586187786784e-03 -2.6951852880130467e-03 -1.5742153106807488e-03 -4.3705827181881457e-04 -1.9027884313350431e-04 -4.5353912904062062e-04 -1.8418808900775262e-04 5.2469274310271194e-02 2.1047392455955487e-04 6.5485076204535738e-04 1.5698894561855254e-03 1.4977218401375850e-03 4.3664761207726525e-05 2.6705711326137933e-03 9.8572272945744999e-03 5.8955830705923710e-04 -1.6199725405689611e-04 -5.2676249468314607e-04 2.8765079094542810e-04 -1.1596828928793499e-03 2.7577979071117707e-04 -2.2650273157651668e-03 -3.5594356792727645e-04 -2.9274860593446863e-04 1.9961421049850357e-03 1.5083236351079443e-04 1.7558189121346796e-03 -7.0730135034380824e-04 -1.1077135854637432e-03 4.7429347455553352e-04 -9.1696368895099467e-03 -5.1164422373938174e-04 -2.6434184738781952e-03 4.6876228294809863e-03 3.8966613550668540e-04 -1.6608707615738193e-04 7.0251686084812567e-05 -5.0204936294799725e-04 1.2926257162668153e-03 4.4685974717262322e-04 -2.8835253928782842e-03 2.8384483664135141e-04 -4.4447531477493577e-04 -8.6890183986117566e-04 -5.7881347244822449e-04 9.2738149700777733e-03 -6.3154672768794785e-04 2.4148142682954218e-04 -4.7256272250536261e-04 -3.8607415746939891e-02 1.1331892334580178e-04 -1.7187368348319013e-03 -2.1779227564957537e-02 2.6978893972585656e-04 -1.2129350330735957e-05 1.3455286847160916e-04 -2.5327575272010897e-04 3.8672837722698167e-04 -1.2475967109102574e-04 -7.2786857707763568e-03 1.2220208992770258e-03 1.9288736213234803e-03 -9.2533853344876384e-04 8.0952506136629764e-04 -6.7666110895281170e-02 -4.7835598721358424e-03 -9.9839534668208409e-04 -6.3624363149018034e-04 -8.4520704094280266e-02 4.2615681129022469e-04 -2.1545428848032339e-03 -1.3627398248609035e-02 -1.0803107544043178e-03 8.7105701865501780e-05 9.4852427104977026e-04 -2.4180895124604649e-04 4.7233846640428396e-03 7.2906597666144496e-04 5.6287791016124133e-04 -1.2583000748009304e-03 -1.7504406544852479e-03 1.7713049737924254e-02 -2.0373385279848395e-04 3.5828931192936252e-02 -2.0487252970902512e-03 -1.4565610222564331e-03 8.5142031234926785e-04 1.9505530106587038e-03 -3.5113436218270262e-03 -1.9717954277617771e-03 1.4651045103046847e-02 1.7792907333006133e-02 1.6408358282654582e-03 -2.6506332509544216e-03 7.4786418029244121e-03 -6.6585507263696277e-04 -5.3412823820161714e-03 -3.7575930069490233e-02 
      </Row>
      <Row Index="139">
        -2.5519858313062804e-03 -1.0126597306772912e-03 3.8571016781917267e-04 5.7243730007919703e-04 8.8532167734231559e-04 6.6369635708062491e-04 -9.1515061244833329e-02 1.9760633481956981e-03 9.9891793789599198e-04 1.1844794352461330e-02 -5.9166439375661819e-03 -2.6109270563470233e-03 3.3584461777680596e-02 3.7636815935090813e-03 3.0819618467877938e-04 -1.5117532374880546e-06 5.9966170164165236e-04 9.2383979593317119e-03 -2.3093457441826695e-03 -6.3644266327739230e-04 5.6545031824688577e-05 6.5268642183219372e-04 -2.7634161241887208e-03 -5.9343939522338296e-05 -9.2302015104320234e-04 2.8385936982771282e-02 -4.1789279478267934e-03 -3.8841175078272588e-05 -1.0720269311353459e-01 8.8283805171502153e-04 1.4686763089354904e-03 2.7382674413065189e-02 -5.5474852670823246e-04 -9.0915136445116930e-05 -1.0504373106142231e-04 -2.0194977532749106e-03 -7.9503501532530441e-03 -2.6550050920168579e-03 6.4334562158924191e-04 -8.3769615161211758e-04 -2.0124116826293614e-04 2.2393875700978776e-03 1.9821866308479263e-03 2.7058992065762955e-03 -6.0726439555753159e-02 2.1495626397628649e-03 7.6001165784286839e-04 1.1047365571911394e-01 -3.2310611145462617e-03 -1.1009787312968311e-03 4.6117001058261664e-02 2.1086367968032086e-03 2.4586878257271128e-04 -9.6805030664967248e-04 -3.2402374546805189e-03 -3.4196084884955680e-03 3.4459393051417576e-03 3.1698453782963432e-03 1.0488805851745497e-03 1.2659884304520950e-03 -1.3607821715837104e-03 -1.3749036971357348e-03 -2.1781973777118199e-04 8.7534230187205353e-02 -2.8329102715915350e-03 -6.9727175383411943e-04 -7.6777502532263231e-02 1.9834292392625075e-03 4.7195210503183128e-03 -4.1545084144086530e-02 -1.5810816682522821e-03 -2.5635411298920597e-04 -7.0273143215141692e-04 -1.8770380171061266e-03 8.0305420286919393e-03 3.3995589926248855e-03 1.0384941458312591e-02 1.7267555444553107e-03 2.8536067864685238e-04 -1.2659114386172760e-03 2.1080580499705515e-03 -4.8329943610754718e-04 3.2942224802558553e-02 6.2943444674014026e-03 -1.1026291356771023e-03 -2.9258725697256516e-02 1.9179401078441294e-03 9.9835907774727117e-04 -4.6618547333562077e-02 -2.7593197127231267e-04 -1.3100344226058686e-04 -2.3319372494938484e-04 6.0663171662889842e-04 -5.8176675085219731e-04 -3.0645476049911968e-04 -5.2334888161247872e-03 -7.4516401409029792e-04 -1.4096595561586892e-03 3.4014767810162387e-03 1.5512261040635036e-03 1.5517805512724730e-03 -3.1661964953478630e-02 2.6584981773180140e-03 -4.9863088251737462e-04 1.3913137366631446e-02 -1.5720251709479922e-03 -4.7358999465076379e-03 2.7893093515344969e-02 1.9242619473078043e-03 6.7336283701648590e-04 -1.9076023922321261e-04 1.7967529459165842e-03 -1.8685982755132528e-03 -2.9506375485296036e-03 -5.0939636297808732e-04 1.4571878359519869e-04 9.7155301463924815e-05 -1.2115282882793274e-04 5.2251235570897111e-04 -2.0508943127398940e-03 -1.0086662574484720e-02 1.0725338128355667e-03 -7.0372369242879124e-04 1.0821446410383384e-01 4.5579246105149560e-04 -3.8286103117249424e-03 1.8250624632329959e-03 -1.3685548333064457e-04 -2.1291476991550096e-07 2.0292093181786819e-05 5.8747921276937213e-04 -2.2370239617922061e-03 4.9833487056227810e-05 -2.4569035997253907e-03 -6.1539493306067908e-04 -8.7848421813792842e-04 2.1795968498082782e-03 -8.0994307220244414e-04 2.1047392456969259e-04 7.3694256163756841e-02 2.2801694266583704e-06 9.5625803491917105e-05 -2.9006371336164460e-02 -2.1845905419655893e-03 -7.3265323228350818e-04 4.5599199428462356e-02 8.1103762372850084e-05 6.2073124547270511e-04 3.0735107761181383e-05 4.4590315687040674e-04 -9.2398862641751445e-03 -5.4400090261987099e-04 6.2610904399917899e-04 3.2158210246260649e-04 2.6311075827139077e-04 -2.0877576502381836e-03 -4.1212251948316569e-04 -1.0294840881306805e-03 3.8535930930814324e-02 -1.2262993661218968e-03 -8.5931407247942396e-04 -1.7952005028036622e-02 3.9103500846128349e-03 2.5439463787367139e-03 -3.0106369637275421e-02 -1.1477647516849681e-03 -7.7278360254878949e-05 5.0017040025865725e-05 -5.8764975783190529e-04 2.3424547402783324e-03 5.1376775354579352e-04 2.1756517602971523e-03 -7.5962304869396169e-05 1.2089190349209281e-05 1.5132019859853028e-03 4.6279681596863919e-04 4.6917480298305206e-04 -9.3271313950951170e-03 1.3683467398003580e-03 4.6120514240953773e-04 -1.4994948582301709e-01 -4.9537122691773968e-04 6.8080208063787842e-04 -6.2750518981571565e-02 8.3293765978000121e-04 4.7139733944152168e-05 -8.7501491659119587e-05 -1.6924822675100978e-04 -3.9766048477677977e-03 -1.2028206512493941e-03 5.4108244570931774e-03 -5.8325380045906707e-03 -2.9346235265764109e-03 1.5014299765733024e-02 8.1500242361609784e-03 8.0879441526907712e-03 -2.4290755969852978e-01 1.9799086764808470e-02 4.6712988122195407e-04 2.6269781192306924e-01 -1.8034970576326963e-02 -1.5309871651039289e-02 6.0985632414698676e-02 1.6490015855909243e-02 1.4890832348658407e-03 -2.7518238188242077e-04 9.0915448066477642e-03 4.9777370023754847e-04 -1.5964669871689974e-02 1.7879856828806329e-03 2.4532834649603516e-04 1.0433409758278485e-03 -1.4949177920005045e-02 -3.0793904708134243e-04 1.1269717875984572e-03 -1.1612628212186049e-01 2.4765701481605507e-03 -5.2369922884665937e-04 1.9094717731078965e-02 1.1167245961626479e-02 3.8962024606781220e-03 3.7710236681320099e-02 -6.7218819508229402e-03 -5.1678092927112673e-04 1.8909792575650137e-03 9.8240304569071658e-03 -2.3211941382884089e-03 1.0622482745934919e-02 3.6667460164787377e-02 
      </Row>
      <Row Index="140">
        4.2182361074925359e-03 1.3162189650606964e-03 7.3839729137807619e-04 1.4078736112914064e-03 3.9839454465931401e-04 3.1211030699822544e-04 -6.8967907840680048e-04 6.1131287406720643e-02 4.1285393138552548e-04 -9.3921561608183435e-03 1.1445766662192877e-03 -1.3722544828138686e-03 1.0162643259511883e-02 -5.9522886516004091e-03 9.8239199788479996e-05 -1.1170912188351325e-04 1.6013152348578683e-04 -3.8047696158152703e-03 -1.1377432628242173e-05 9.0397203604489218e-04 -9.7735823714723835e-03 4.5659135200889350e-04 -1.7023607712073863e-04 -1.2300719079407357e-03 3.3782503107415707e-04 -1.9901478659519398e-03 2.7158599177719005e-02 -9.8671192197957031e-05 -1.1208246868675692e-02 2.3137062928325902e-03 -5.4642466499454923e-04 -7.8906617534961754e-03 -4.0545200703176309e-03 1.3122380528340308e-04 3.4256321734720332e-04 8.1728565778283846e-04 7.9788070200487310e-03 -1.2732195695837403e-03 6.9722531560297007e-03 6.7390561104854942e-03 1.8964226367128648e-04 -1.5621826181204650e-04 -4.1350113488894044e-04 1.1676878131512101e-03 -1.5316437140357603e-03 3.7566495177819792e-02 -1.2108448021130071e-03 -5.3432788196519088e-03 1.5973240353518714e-04 2.7269943195264712e-03 2.3478517742958616e-04 -3.2611744184979016e-03 -1.9201050913477541e-04 1.2971969849230984e-03 6.4906733833600266e-03 2.2521178098776316e-03 4.0915030736440004e-04 7.1617225779100346e-03 5.6385438651078883e-03 1.0905025011785120e-04 -1.4128783637473268e-03 -2.4134641274402152e-03 4.6042202518070327e-04 -8.6333406160680332e-04 1.0066778236963565e-02 -1.2315154997012759e-03 -2.8834878516557083e-02 9.9354294652281155e-05 2.8452000837004832e-03 1.6108887646844039e-03 -1.7830168092149083e-03 -8.9670931084638236e-05 1.7084291576805015e-03 8.1091909356159966e-04 -3.2799206448381468e-03 -7.3987775459101283e-04 -1.1155233210633497e-03 1.4959932572345541e-02 -1.6558886561985481e-04 3.3972755181194830e-03 2.3669164981095503e-03 -3.2676376131859659e-04 1.1419590587217629e-02 -1.3039186373710260e-01 2.0044980657239475e-03 5.0701687369738124e-02 -2.0070988645284338e-03 2.9056645964164844e-03 1.0093833872096170e-02 6.2328606443297248e-03 -3.2231021581122926e-04 2.1955677775260113e-05 8.8811508586394278e-04 -2.8413158411664391e-03 5.5244788416897173e-05 -1.1441718704795656e-02 -3.0885799578906758e-03 -1.0474823537280830e-03 -1.2403261161962791e-03 -1.0168223855502694e-03 4.3404526757562407e-05 4.2715069326482863e-04 1.1877105016249879e-03 -1.5367836119783975e-03 2.0265672421498907e-02 9.3929244956625921e-04 3.7438384265898019e-04 -1.3730699160046100e-03 -6.1956789504138011e-04 8.3060037772515402e-05 2.8518762185699792e-04 -2.0000637093496229e-04 1.1593795150704415e-03 8.8432771116907791e-05 -2.1200818712840963e-04 1.3260367077759516e-04 -5.1321612757955493e-04 4.3490596781502015e-04 9.2750832662466878e-04 -9.8228510929319890e-04 1.4866897705349894e-03 -1.9159769466933173e-02 -6.2727513838516102e-04 -9.1136308109751596e-04 -3.6139362897489105e-04 -2.5263122299355807e-03 -1.6801196164815124e-03 1.6180970031293561e-03 5.7423062207170861e-05 1.1364832101411204e-04 -4.3738177553635077e-05 4.0557731554083376e-04 1.7908362096832886e-04 5.0663842321866381e-03 -5.6343208555844487e-04 -8.8241597115983582e-05 -5.0674675893026128e-05 -7.9151024226999751e-04 6.5485076204767952e-04 2.2801694342803117e-06 6.0607823293924536e-02 -1.7097696164838482e-04 -2.7690471734715214e-02 -7.5046790880099138e-04 -3.0426488315022683e-03 -2.6966575407527671e-04 1.6524856335325224e-03 2.9428630981372540e-04 1.0583400290219039e-04 -1.5390259545304407e-03 3.9852567001570490e-03 8.5013771080311509e-04 1.9880550358220006e-04 -6.3713300830073316e-04 3.8983981563111506e-04 1.7058948077411677e-03 4.9160751799977309e-04 -3.2083003501912066e-04 -4.1877021172095907e-04 -1.9500774092131135e-02 -5.8939110103325629e-04 6.8474449894124767e-03 -2.0766950747623976e-03 1.3739531738135372e-03 -9.2623180682434025e-03 2.1266824763520454e-03 -1.6284805519126838e-04 -1.0390160123547286e-04 9.6872906523393087e-04 -3.1855743890524812e-03 -1.9369355087621443e-04 -7.3312155506730023e-03 2.0367643815481875e-03 3.5292399408257190e-04 -2.7356365077395263e-04 -7.7608214585086772e-04 -1.5945933449606494e-04 1.8540875447120367e-03 2.9404936732902410e-03 -1.5133403993443546e-04 3.8357217706617208e-02 -2.7361623333183873e-04 2.3995017978998947e-03 5.9640791104884627e-03 -3.9648280937751442e-04 6.0525656350062700e-05 7.4680592197510251e-05 6.9440971246105933e-04 5.4560775838523312e-04 -1.3951831821703252e-04 -4.8768886212155610e-03 -1.0887520478904908e-02 6.5697367070518056e-06 -2.2409489023495974e-03 3.8207993148667101e-03 -6.8427982566706628e-04 6.5634315766812269e-03 -9.8553698964515199e-03 -2.4145026003544977e-03 1.3380246374793039e-01 5.4503347267170522e-03 2.4631214574787662e-03 4.0244013716144167e-03 -1.0676612418752552e-02 -2.5703230468768928e-04 -7.7659695648832035e-04 5.6120733418010566e-05 -3.7298094253856579e-03 1.2748429757578929e-04 5.2634583600364021e-03 3.3317558869539729e-02 7.0075927163800724e-04 1.2172140533644800e-02 -9.9592352875745938e-04 3.1504650324523718e-04 2.6809004460744863e-03 -7.3639613150818711e-02 -1.3353722456337491e-03 -2.9155215863342133e-03 -4.6683325690899356e-03 4.5514136024011938e-03 -4.6240079452671105e-03 2.2364938353821875e-02 -8.8957616208118137e-05 -2.7396559434222901e-03 -1.7050280452064345e-02 1.7480754578751412e-03 4.9035333505712429e-03 2.5198544652934057e-02 
      </Row>
      <Row Index="141">
        -8.7295666960293672e-04 -2.0263445782483158e-04 7.6963657247224870e-03 7.3400589460627321e-04 1.0996315614445473e-03 -5.1497727912155553e-04 -3.0218421198919100e-04 5.7347723125119807e-06 -1.3273010188471858e-02 1.3316247411817361e-02 -1.0103634496987958e-03 -5.3102583267165132e-04 6.2322200791142812e-04 -4.9357887251316604e-04 -2.7287059936898297e-05 3.2297238648074772e-04 -1.2911593288969167e-05 -1.7404220846453794e-03 5.5154999210964804e-05 -2.9429828861554652e-03 2.9848960049808776e-04 -2.6949832570363555e-03 -1.4777582635205227e-04 3.9598886516291343e-04 -7.3071444002048569e-04 -5.8398478117454439e-04 -8.6403253985793856e-05 -9.8202627493533534e-04 -9.7567455948663617e-03 7.9515863117475116e-05 -2.8934913928553574e-04 -4.8018234723556930e-05 -4.3077794541271580e-04 -9.5260959799226431e-05 -2.6092035767616428e-05 9.2409097092416818e-05 2.1852042872601979e-03 1.0092320130606208e-03 3.9684196221955181e-03 -2.8675512795627625e-04 4.5605993122015531e-03 6.7956540339226580e-04 9.8082867397615223e-04 1.6703104677195171e-03 -2.2989896080738426e-06 -9.6972986988112450e-04 1.4533228700777241e-02 8.4753838839028983e-03 2.3399003142427627e-05 -3.7246235635945979e-05 3.6405925514397808e-03 1.3214952398238348e-03 1.7089645882831239e-05 5.4229962409118714e-04 -4.5254973667762169e-04 6.0091941471343904e-04 -4.7055793557766214e-04 4.2020801002160546e-03 -2.8874181553480323e-04 3.3862562904094272e-03 2.8872987279653789e-04 1.2466143633304005e-03 1.2370517085084068e-03 -1.6890326242130493e-04 -1.0356129662498770e-03 2.0000198668886422e-02 1.1508084937745799e-02 1.0985442590127209e-04 -4.9573204677788585e-04 -8.8122838072735021e-03 1.2234968736007164e-03 2.9722149776258708e-05 2.3026388730187572e-04 -1.3713171982508363e-04 -2.0834029554659128e-03 8.7366684657620708e-05 1.1774410119476109e-03 -7.5877694891418601e-04 2.4741790451044861e-03 -2.4011607649021549e-04 6.7718155218748910e-05 5.3012878511601337e-04 -7.8345117310960055e-04 8.5300067334465046e-04 3.6216664651392838e-03 -2.3201529993013281e-03 2.3954638801952644e-04 7.9970058699737473e-04 1.1333025249937734e-03 -3.8431373953144547e-04 -1.5229809317170162e-04 -2.8186674906300474e-05 3.4749314643827897e-04 -1.1752721529871418e-03 -1.1682463949756750e-04 3.7373577954971093e-03 -1.0134065698630054e-04 -1.1734622648969621e-02 3.2268738889362856e-04 3.2105067891762679e-04 7.2829601569920563e-04 -5.4869292616513410e-04 -1.5823363544595660e-03 2.7203196671601867e-02 1.3449367339856185e-02 1.1977219143913954e-03 4.9934043596221644e-04 -8.6544490592914691e-03 1.1640200995712666e-03 -1.7654335470535226e-04 -2.4848982826555338e-04 -4.3881878293433162e-05 -3.7710161500220099e-04 6.2560810175005233e-04 2.4057780148697416e-03 -2.1780145562561373e-04 -7.1196157909918234e-04 4.4952846399632859e-04 2.4616879758755910e-04 -2.6090219686769958e-03 -2.6520083847014764e-04 -4.2150054449445994e-04 1.3071590358267247e-02 -1.8846052584957640e-03 3.4303099512767235e-04 2.3010588442652852e-04 -7.7038101614386179e-03 5.9003765890783613e-04 -8.1785358348868825e-05 -4.2012641322426714e-05 -1.5701942981177753e-04 1.4346421540290533e-03 3.7361881767156158e-04 -1.2962615549517165e-03 2.3826392325662984e-04 -2.3453303607996806e-03 -3.8742433318744197e-04 1.6041686097173664e-04 1.5698894561846245e-03 9.5625803486204877e-05 -1.7097696165227516e-04 2.0506286366126426e-02 -6.6202503677992922e-03 6.4420843163100314e-04 7.8256885083339417e-04 -4.4957049428262508e-04 -9.4382538062304764e-04 -5.6239030265577724e-05 2.5453556614252193e-04 2.9169527575341936e-04 -5.5844619921740363e-04 -1.0364817734903290e-03 2.6777092511733880e-03 6.2490174919008212e-05 1.7239153870450023e-03 1.1328991482326949e-03 -4.4232409848857235e-04 1.2066106344830671e-04 1.2064870683264131e-03 -3.9601995651819544e-04 4.5840782395589214e-03 3.6064380217072367e-03 -6.1255832353416368e-04 2.2523647221961429e-04 -3.4750342041256488e-04 3.1234872888260716e-04 1.7135614929378404e-05 2.0683414429371536e-05 -1.2492373414526269e-04 -1.5691506463733074e-04 8.4069673600153938e-05 2.3662115278009384e-03 -5.2005456587633845e-05 2.4867290268862077e-03 2.6065861939673202e-05 4.2503513561144616e-05 4.3093756257428549e-04 5.8851709770699982e-04 -1.2613392858974650e-05 1.5780124968757222e-04 1.4411447983674195e-02 -3.1347139681272554e-05 -4.8371141779677434e-04 -1.7657213613575529e-03 9.1253691802612878e-05 6.2517404794684207e-05 2.8107070695829206e-06 -4.4501333753886141e-06 1.5839142145038544e-03 -7.6159304880130596e-05 6.7031417884028249e-03 -1.6201909561024602e-04 -4.4299706384552644e-03 3.6176122626147052e-03 3.7925927384192679e-04 -1.1784738016575166e-04 1.7960784631959148e-03 -1.4511818724548030e-03 -8.9727280910587119e-03 7.5535033720735986e-02 -3.3211100549785343e-03 -1.7064325814457923e-03 -5.4659069411210626e-03 3.1953864620778497e-03 1.8918132849940050e-04 -1.6218943091165692e-04 -7.3565284734502211e-04 6.3632199017159734e-03 2.6331007094693732e-03 7.2786573038628732e-04 -1.4172882442219030e-03 1.2399616052297483e-02 4.2337483224624975e-03 -7.0406235274482563e-04 1.2504163157865942e-03 -3.4813634189410914e-05 1.2959232313676295e-03 2.3254850470403685e-02 -1.2862453117013551e-03 -2.0986245499575867e-03 -1.5726439243355988e-03 6.5669755705910458e-03 3.5434508748513087e-03 1.3576308312956593e-03 -3.8822280353305707e-04 1.3395030573161611e-03 8.4795726849564411e-04 -2.4422493809143240e-03 -2.4241443349617604e-02 
      </Row>
      <Row Index="142">
        -2.6891209465318833e-01 3.7731861465118977e-03 2.6202399362527329e-02 -4.4310790931071584e-03 3.1689892095529304e-02 7.7459066382105706e-03 4.4609093131801218e-02 -3.1518911546732739e-02 -7.7788291774877338e-03 1.4927583871319392e+00 -8.1681091983065168e-03 3.7500520309194818e-02 -1.0427957986505305e+00 -3.7355886052472956e-03 2.1899485717932349e-03 -5.6352160974584321e-04 -1.7457371504581709e-03 -1.6206111761831656e-02 -4.7444432325317171e-03 1.3748331530496660e-01 3.4161801857541252e-03 -5.3250882371957964e-04 1.0528534764261352e-03 1.1587967737239468e-02 1.1559718152814036e-02 -9.6046610029336010e-02 -1.2600917005127195e-02 -8.1504341633719113e-03 1.4839239906051844e+00 -6.1788062152192298e-03 1.5070331600786191e-02 1.4180358976555567e+00 -5.5648975374133283e-03 9.9055660532446077e-04 -1.3658652299496366e-03 1.2956711848751204e-03 1.3378804957588253e-02 -5.7588750295946289e-03 -2.3864451754793126e-01 -9.9621656935331912e-04 3.9642410640189640e-03 -4.1343658048455523e-03 8.7188428165305698e-03 -5.6258924213253847e-03 8.0064592339783358e-02 -6.6305016414830442e-03 1.3890500275146433e-02 -5.0434913115675784e-01 1.0115315766177024e-02 -2.6943422055670574e-02 3.6851301977691264e-01 1.4567435649110068e-03 -1.8604678929508012e-03 -3.0257980026255765e-03 -6.9135548452938789e-03 2.6479320506958004e-03 1.0226597805595622e-02 -3.6514308266188245e-01 -1.6223047713465888e-03 -1.6236582137625633e-04 7.9495639859951117e-03 4.2655703318590366e-03 6.5760796848053499e-03 -8.5942476295369552e-02 1.7586569672988217e-03 1.3389812659972855e-02 2.9534933120284634e-01 3.7357949309468896e-04 -8.0277760718643898e-03 6.9302044971385612e-01 6.6533247813205590e-04 -3.4784540527313529e-03 -4.0993633725266709e-03 1.2137112529986560e-03 -4.5181912347702635e-03 5.8177348824434150e-03 -5.3054549382143179e-01 -1.4037325230648934e-02 3.0069520248259818e-03 1.2491243495760251e-03 -1.1043523814011635e-03 5.4126480895234225e-03 -2.7154160105531400e-02 5.1433304055371387e-02 5.8899406534664855e-03 5.4249586064230471e-01 3.8792486133396586e-03 -1.2647523559709384e-02 -4.1456045202383507e-01 -8.3624476113572377e-03 -8.7732814817914617e-04 -3.1857591556971876e-04 1.8188956838603165e-03 7.1442575474054415e-03 -1.8306662346927460e-03 5.0005672642904386e-01 1.2915003843562978e-03 -2.9661214994681578e-02 3.8357362098760759e-03 -3.5751586995170781e-03 6.9554378286638685e-03 1.8468590642258864e-02 -7.4546725276710482e-03 1.7777367311576385e-02 1.1032680363565224e+00 4.2887778454634290e-03 1.7889416951357665e-02 -5.2013346462305066e-01 -5.9968879852144233e-03 8.7881952080798992e-04 -1.1861302458691120e-03 1.7740221119995937e-03 -1.1333114220450087e-02 3.7066723977663227e-03 1.5361290136644001e-01 -2.8899919450335321e-03 -8.6752207970755002e-03 -3.4347415317156904e-03 4.9051287565600454e-04 -2.5348232896431733e-02 7.5419798000867011e-02 2.0175317885543192e-02 5.2773972669311053e-03 -2.1511750724078631e+00 2.8514757511168276e-03 -4.6679786312135249e-02 -5.8225521642388856e-01 1.6460094958547083e-03 -1.1753732648262377e-03 6.7282563529996731e-04 -1.5231540361343859e-03 2.4219919125787470e-03 -1.1677922982511024e-02 -2.2071195547899558e-01 2.8274087583798346e-03 -1.5794853738664419e-02 5.4236537050834747e-04 1.2060811906676114e-03 1.4977218400830800e-03 -2.9006371336338488e-02 -2.7690471734654543e-02 -6.6202503678324826e-03 4.4239002394418137e+00 -3.0814465589564716e-02 3.0824484359620742e-02 4.8122745567758329e-01 1.1725271461716489e-02 5.5880282716856775e-04 -8.6985939839363878e-04 -4.7482846243322744e-03 5.6285253627933844e-03 6.9210734388765183e-03 1.4140786337017630e-01 -1.4620495744003467e-03 3.8683842857438139e-03 -6.5415420837648675e-04 -5.4516441580809705e-04 -7.0274841703465984e-04 -1.5593401849579545e-02 1.3975874147265532e-02 2.8638491964124218e-03 -2.1032934282849225e-01 7.0674245969419838e-03 -4.1173020873498056e-02 -8.1237203634202615e-02 9.2878211752498233e-04 -1.3866411084457117e-03 2.9219991583750993e-04 1.5261640207778690e-03 -3.7550029261161910e-03 1.2280433992306605e-04 4.8373919889585448e-02 1.0140991304942934e-03 1.4247816680213150e-02 2.0255891669515004e-02 -8.9389424799506487e-03 1.8372055521068797e-02 -8.4192106302072467e-02 -2.9233793887102941e-02 -4.9855181690481067e-03 3.7487031822170254e+00 -6.0799961771544810e-03 8.1663350674878829e-02 -1.2374391976741999e+00 -3.1432619140154168e-03 3.4081400765252293e-03 4.3396211842993988e-04 4.2880999614395817e-03 1.1649760851339109e-02 1.8137434981418493e-02 -7.4651242867409984e-01 1.8349526373425674e-02 4.4718149782001060e-02 4.8076047656945162e-02 -1.0883152093622561e-03 6.0989443920556358e-02 -5.7672858185334824e-02 -1.0485968105442947e-01 2.4819874775527426e-02 -3.4508953958038040e+00 4.8412985688979192e-02 2.3811352229674998e-01 -1.0412847198853601e+00 -4.5547568609909495e-02 1.9032539088943687e-02 3.0557272177107551e-03 2.0763843725552046e-02 -1.3702322920614497e-02 1.4187150197255922e-02 -3.0121554453757349e-01 -2.1075242530520007e-02 3.3463264643200118e-02 -5.3399178418118240e-02 -1.3249689341597686e-02 5.7312514162515260e-03 1.2677642569042002e-01 2.4410581174144165e-02 1.5526409476342540e-02 -4.9957794392065463e-01 2.1506597722476539e-02 4.3937762388992496e-03 6.6615171660066808e-01 6.3418275294413601e-02 -8.6049002380364781e-03 3.5936871934726874e-03 1.4247386455188776e-02 4.8842909335595139e-03 2.4080937016345075e-02 -3.5325746496271143e-01 
      </Row>
      <Row Index="143">
        1.4997461291616481e-03 -3.2479395577797031e-04 8.5309939590071278e-04 -8.4466033172467681e-04 1.6595842080303520e-03 -7.0732621180978118e-04 -7.8736925453211544e-03 -3.6525879492071316e-04 -4.1997314180726095e-04 -2.1114079375241790e-03 -1.1758222371847671e-02 -1.9801032086957026e-03 -1.2759809354010221e-02 -2.3225980163002306e-04 -8.3973619141578491e-05 4.3356166824688432e-05 -1.8271731801624636e-04 -1.4366852637736373e-03 5.4987221517856840e-06 7.1125112482065822e-03 2.2017883551086245e-04 1.3294742452267701e-04 1.0680717997843978e-04 4.6502169412852498e-04 -3.9441630560072341e-05 2.7555463787050935e-03 -1.6294426497782174e-04 8.1056681764755251e-05 -1.0227078254057692e-03 1.1241213930052261e-03 8.0095207305638100e-04 2.1141851528427402e-02 5.4446054650573224e-04 1.0958806152159498e-05 -2.5838478108572080e-05 -2.1366473512810682e-04 1.3059563341594402e-03 4.3692153459911265e-04 -6.6839710861431312e-03 -3.8298219624508564e-04 -3.4304911935177044e-04 -3.9254770512268337e-04 5.1372059623744186e-04 7.2127913971163117e-04 -4.2518982747591708e-03 -2.3563453271688642e-04 -1.0731016183701259e-03 5.1680410234442031e-03 -3.6751161066908115e-03 -5.4701184532690780e-03 2.6214944474300950e-04 3.3483528437435990e-04 -5.9988036905865919e-05 1.0831924238472422e-05 -6.6260273354731402e-04 -2.2986460875037626e-04 -4.9271149427786588e-04 -9.0130119326798652e-03 -2.0408700339166318e-04 -1.7740600737137994e-04 -1.8027605542880656e-04 -1.2833868068240148e-04 8.3894242315074434e-04 5.6672534429183102e-03 2.7196365056324397e-04 -5.5881718892689287e-04 7.8632028295405609e-04 2.2612782248269984e-03 -3.6580083604387161e-03 4.1597811305704724e-03 4.1434045995187218e-04 -2.9353380629290344e-04 -1.2372336434287451e-04 -2.9519180647047481e-04 -1.2270103158584754e-03 6.0837497071451491e-05 -1.5298272243109923e-02 -3.3087718987027948e-04 -2.9123580611789546e-04 7.9063440756672876e-04 -6.6908091300905276e-04 5.2508773580890473e-04 1.8026572714427876e-03 3.2594487794258969e-03 8.1124492272849347e-05 8.5473962486073418e-03 6.9130450866700908e-03 2.1992550915953934e-03 1.3964769119476639e-03 1.4984566989819641e-03 7.7486330846027532e-05 -2.5302052951168240e-05 1.1710151620000471e-04 4.0261181450387817e-04 7.8930940416874207e-05 1.1798713152411267e-02 -1.5188264542861886e-04 -1.2629596957802053e-03 9.1756684051729788e-04 -3.2564081384741511e-04 3.8544988004138628e-04 -1.9905229849820167e-03 -5.0853031598917936e-05 -1.1178739066946520e-03 1.1417442579063925e-03 6.1778059742628429e-03 4.0665855852565639e-03 -2.0926110832507616e-03 7.2468301872298828e-04 1.2709868131791210e-04 -1.0512940453341008e-04 -2.4690879926964364e-05 -9.0494028308212796e-04 2.0415594486528226e-04 -2.9355339241616263e-03 3.0955227178091488e-05 -2.2555087824388531e-04 -4.7095214421451984e-05 3.5770849582301718e-05 -1.6751838556625671e-03 -7.1907436505504012e-04 1.4127498970332563e-04 -5.2139686805484017e-04 -7.4204302121076982e-03 2.0273447498943033e-03 3.9423499994919921e-03 -2.9586211717416155e-03 -2.7761672228871246e-04 -1.5727841246179807e-05 -6.2372398076398876e-05 1.2377846601236667e-04 2.8720176587852808e-04 1.7489485568678020e-05 -8.3625032963578760e-03 7.4980879492513291e-04 1.1975641474711205e-03 -2.0600778878500999e-04 -9.8120783981402626e-05 4.3664761208065880e-05 -2.1845905419713442e-03 -7.5046790880179098e-04 6.4420843163291404e-04 -3.0814465589504750e-02 1.2661644041285966e-02 9.3374976020407525e-03 1.8964383515172045e-03 -1.3041501052461035e-03 1.3269500572124144e-04 -9.9965428002690983e-06 -4.4109155350469928e-04 -1.6334053805219480e-03 -4.1155964181558877e-04 -6.6921748447492657e-03 -4.2223589802995593e-04 2.6677588532085620e-04 1.9130728392231402e-03 -3.8230990255846975e-04 7.1088930116463504e-04 3.3622772025349639e-03 -1.4436620589083765e-03 1.2613524444777106e-03 4.1387469794787000e-03 1.4717083410042546e-02 6.6860179844048379e-03 6.6656746521531751e-03 2.2277049117170270e-03 2.6826526802583087e-05 -8.4148509326571839e-05 2.5654381490235710e-04 -2.7891370680460659e-04 6.4175462861269794e-04 9.3585801979142805e-03 -3.3597117299506073e-04 3.4071250583295979e-04 4.8473628646332424e-04 1.0482295403943986e-04 3.7044566855196467e-04 -3.1293565935227333e-04 3.6145488656904082e-04 1.9670728191354488e-04 8.0884115051962028e-03 2.2540768480577436e-03 -2.2926708152678577e-03 -6.5825502715764761e-03 7.8648609537725251e-04 -4.7320262721052488e-05 -3.6602142491449439e-06 8.4558993078951740e-06 4.3694229064550338e-04 -4.8170271229650008e-05 2.5533540562784861e-03 -3.3374801391458514e-03 -3.5731737191600724e-03 3.4606171139913997e-03 6.0382214758187723e-04 4.6519890242974118e-04 -6.9618271725515879e-03 3.9234490873143978e-03 -2.4558896646870577e-03 6.9964937141058170e-02 -3.7523751817090077e-02 -6.9030482243785628e-03 -1.7806023013799743e-02 5.5874168872462734e-03 2.9457188209244898e-04 4.3114842254128767e-05 1.4085848882582808e-03 1.5626609422921579e-03 1.3511635376145387e-03 -7.3877638036184377e-03 -1.5649240256615630e-03 8.8095378610020616e-04 1.1062153620732839e-03 -3.7482396622652093e-04 5.6689241332533538e-04 -8.1739793006402016e-03 1.5142837784561545e-03 -7.5430318543888257e-04 -2.2761616070343299e-04 7.8224526480911244e-02 -6.9000550679559625e-03 6.4502593308442312e-03 -9.0905013087390109e-03 -1.3271961064018508e-03 2.2955431631782545e-04 1.5475233324098788e-03 4.9681185281775359e-04 -1.1116015430614377e-03 -6.2613364367976199e-03 
      </Row>
      <Row Index="144">
        8.5741784323126180e-04 -7.4466320555404905e-04 5.2080395285741821e-04 -4.6631314907520844e-04 -4.4836982205269660e-03 1.2474627309512400e-04 -6.4188147690639533e-03 3.6185644739620344e-04 -1.1690552123352072e-03 2.3029958980855803e-02 -8.3345115897132116e-04 4.4004869589055112e-02 7.2085272835099801e-02 -3.4369795257241072e-04 -1.5888720762275640e-03 -5.3754042528410609e-04 6.7935094332064183e-03 -8.5123908648347575e-03 -9.9318089064637932e-04 -6.8336809035278723e-03 -5.1423188874568510e-04 7.5895223534100387e-04 -2.2178311460463573e-04 -2.5508124102517904e-03 1.6156940941570441e-03 2.5600137743349849e-03 -2.5587194485835948e-04 4.2585722662455416e-04 -7.3676319183442196e-03 5.3852358304111100e-04 1.0298355116360292e-02 -3.7917404989414649e-02 2.5173333843751811e-04 3.3668153520199917e-04 -1.3082529066584941e-03 7.1040060569064443e-03 5.9053840608779828e-03 2.5653498732268465e-03 1.4740971934023017e-03 7.4423733671382742e-04 -7.0472558644829597e-04 3.6852565710084745e-04 -1.8559262103070018e-03 1.9941383113498690e-03 -1.7124727937987139e-03 3.2746467992239570e-04 1.0921093861818998e-03 -2.0640114001276189e-02 -5.3788623558368998e-03 -7.6439050891609961e-02 2.3356467436975947e-02 4.0630550412146195e-05 -3.0234997592095691e-03 -3.2935965323445185e-03 1.2084438401328501e-02 2.8072036087961327e-03 -1.8161400284729123e-03 1.3770263955089845e-02 3.7133688767912454e-05 5.8464362581889251e-04 -1.8270326274499871e-04 -2.9312539319881203e-04 1.6432297690514436e-03 7.1484553962806729e-03 3.3484053819504145e-03 6.7358511325263382e-04 -1.6575699066281757e-02 -3.8540171224681063e-03 -7.9210188679362872e-02 -1.5475553687323895e-02 7.2900746604121804e-04 -6.6365842351944837e-03 -2.7176673387193234e-03 -2.2476549129299001e-03 -4.5155794078253209e-03 2.9930618668509712e-04 1.7318875588641092e-03 -1.0735049322536661e-03 1.8327733750025943e-04 -1.4921346288176984e-04 1.0023408826418390e-03 4.6135628696817449e-04 4.3851006114443147e-03 -4.3631310711638172e-03 -6.6444216761851749e-04 -1.3349961218906969e-02 -6.9733280001416098e-04 -5.6933266357640039e-02 -3.9113627881341984e-03 1.3495855860201078e-03 -3.8202414164519027e-04 5.0775601213676191e-04 -8.2029548988374751e-03 1.4929277660424844e-03 1.2754927658915616e-03 -2.2794208104175429e-03 -1.7255700380595929e-04 8.8429348488769897e-04 -2.9806203039340392e-05 1.1671223984314472e-03 3.1787018859381899e-04 -1.3428285493452680e-03 -1.2615268495356395e-03 2.0061778802374008e-03 1.8624774122647694e-02 2.3341169965910733e-04 1.2462356579998767e-02 4.1027908832088400e-02 3.6401321340526552e-04 9.9102873804996286e-04 -5.7811710756187277e-04 6.4536533797990726e-04 -4.3220219281679684e-05 6.5469345581485247e-04 -5.0630591874325503e-03 -1.4880224096027461e-03 1.1203256658062211e-03 -5.5544190032073837e-04 -1.1978218144696046e-05 -1.2951322936634035e-03 -1.9231906261306109e-03 -4.0622575028321645e-03 1.0241373907960150e-03 -2.0807351694003273e-03 3.3992194797214659e-03 7.1157231381333771e-02 3.0560644588227603e-02 2.2868374313231993e-05 -2.0007715113675439e-03 -8.7503923045162413e-04 2.6102075341891771e-03 -2.0923040659119874e-03 -1.7662021078088674e-03 -2.7638755960648353e-03 -2.4431855065785435e-03 2.5991674422057090e-03 -1.3532833942931483e-03 5.0295455288692018e-04 2.6705711326184545e-03 -7.3265323226513746e-04 -3.0426488315165277e-03 7.8256885084204610e-04 3.0824484359698201e-02 9.3374976020479412e-03 2.0935831176061087e-01 2.6856899304448234e-03 1.0580503863902358e-03 -4.4739605591055751e-03 -2.1377553006446614e-03 8.8959603837175001e-03 -6.3314418025535966e-03 -2.5041018793250215e-03 -1.9334475097156911e-03 7.6424511647125125e-04 -5.1615722209955462e-04 -6.2291765511370001e-04 1.6660040873062165e-04 -7.2291885250919119e-04 2.7391962521743779e-03 1.6468790048973503e-04 -2.2677254500920885e-04 -1.0247580388883987e-02 2.5602137480964654e-03 -4.2365805357362452e-02 -1.8598633444533164e-02 -2.5095539183336455e-04 1.0426382843338226e-03 3.7814366588330428e-04 -2.0136665769004101e-03 1.6795455901397194e-03 9.9612241087770892e-04 4.0055468594332299e-04 5.8106196607262913e-04 -8.2525855236478113e-04 3.8335135631621024e-04 2.3058767815153512e-04 -6.8952172513335008e-04 -4.0790954556197724e-04 1.7826916077863970e-03 -5.8725229592054991e-04 6.5354959002397912e-03 -2.6701084799336874e-03 -6.4391124767630301e-02 9.4217221784739458e-02 -2.0938609850515498e-04 7.8481430389011912e-04 4.6225700975504810e-04 -2.8245180759922722e-03 7.5413295925870006e-03 1.5702661857166947e-03 9.3589338660036714e-03 6.4327022888105885e-03 -5.3552332150117992e-03 3.4139481730274743e-03 5.5793532678826167e-04 -8.4772514079763436e-03 -9.1469356534452130e-03 8.1065336145672486e-03 -3.7097184048688950e-04 -2.7499261704053285e-03 -2.7949483748462636e-02 -1.6033464374988243e-01 9.6046283382842823e-02 -1.3978717117974207e-03 1.9685940045290902e-02 5.1912763616743744e-03 -1.8245478662343408e-02 3.0018632421674199e-02 6.9237357463943867e-03 1.5543620685409820e-04 -7.2578814782281063e-04 -1.6513040650880870e-04 -1.7385250196979701e-03 1.1805654328577869e-03 9.1270945922146190e-04 -7.6901296044139915e-03 -3.7193898586939649e-03 2.4154805639370891e-03 -1.4865128211524860e-03 2.3346914683803614e-02 -1.4897021659253279e-01 -3.8660983070425120e-02 -5.3375345025314623e-03 -3.0368726998281869e-02 4.5076609144361641e-03 -5.1029790364749299e-02 1.3840475208983902e-03 -8.3369577722353354e-03 1.4511301798960632e-01 
      </Row>
      <Row Index="145">
        -7.6160977438757271e-03 -3.4100310745348583e-03 -6.7207649467473374e-03 4.8906472782473034e-03 7.1851933937239210e-04 -4.0339512588542271e-05 -9.7024886941330157e-02 -8.8417697778915751e-03 1.7032476704903488e-03 5.7181341514927908e-01 -4.3737188856489695e-03 -9.4051877112644178e-03 -7.1503239747735279e+00 2.9932096303247511e-04 1.9367088955966061e-03 -2.0670400277259578e-04 5.3899089560442981e-03 -1.7712664518518828e-03 -3.2581006801888357e-03 -8.3131753696562782e-02 -7.0946592857468183e-03 8.6895337304842002e-03 -9.1077386344599748e-03 5.3429554277002467e-03 8.1367633019802099e-04 -1.0835376459876400e-01 -9.0718099645673012e-03 -6.1932705726910342e-03 1.4981471753500415e+00 1.3290086173358083e-02 3.0833158539326888e-02 8.5177905436166839e+00 -5.6328026911722784e-03 -2.4264138289509241e-04 1.5185236426260573e-03 -6.1718365236874129e-03 -1.3546703796016857e-02 -1.0953416815109307e-03 -1.4835468610925773e-02 -7.7826904495694738e-03 -3.1119757552211524e-04 -3.0300352835643807e-04 8.2172839272942610e-03 4.7268561264406372e-03 -1.3709906073314926e-01 3.4869411414577556e-03 1.9865672525742895e-04 4.8695914089051939e-01 2.3129320137096343e-03 1.1378748504355940e-02 2.8358450383325362e+00 -1.5774158566126892e-05 -1.2920161971923250e-03 6.2038389100345093e-03 1.3626603189353048e-02 -2.6926962593041281e-03 -2.0844842002274433e-03 1.9872822289954684e-02 -1.8347482430547402e-03 2.1456499510295046e-03 5.4714466750986901e-03 -5.1267855472829638e-03 2.2166738095781291e-03 1.5966796988168319e-01 2.1934052626939149e-02 -5.8644326888774856e-03 -3.7757147950856051e-01 1.1259390191220575e-03 -2.0625375708593907e-04 2.0224365657622911e+00 6.8533503972495208e-05 -3.1479040624289301e-03 5.8410915690885190e-03 6.2590197559551086e-03 -2.6150896004004665e-03 1.9337847182745449e-03 -1.2517387762272847e-02 -2.2541141862006953e-03 2.6675063781880226e-03 3.8423074100926158e-03 1.9045699112609782e-03 -4.9467568291996500e-03 1.7756743990289436e-01 2.3667137540371641e-02 -2.0529270626212792e-03 -6.7317094820464263e-01 -3.2351354823560996e-03 -1.4064252182942383e-02 -4.5566738461300247e+00 1.4726591868203798e-03 -7.9318304916320415e-04 -6.9456442690629672e-04 2.3498398834131962e-03 6.9190938943037850e-03 -1.1683786626477399e-03 -3.3230868917257794e-03 8.3703717519156839e-04 2.9633889516665450e-03 5.7056254578928250e-03 -1.6452194213822935e-03 -1.7873814853499592e-03 -4.6463726016003903e-03 4.2782296601040493e-04 -1.8793610721198530e-03 5.0800809317836126e-01 -6.7457813231109991e-05 -1.2196338098815818e-02 -2.7221832396277250e+00 2.9513401961918095e-03 1.5310911917842951e-03 2.5247990442864299e-04 3.4778543788043792e-03 -1.7967264556739027e-02 -5.6243627007693808e-03 -1.8113369843888449e-03 5.1546832427140643e-03 -4.5822042696705978e-03 3.9125662514929438e-03 -3.9925719178701691e-03 -3.4799098187541233e-03 3.6457752367276441e-02 3.3249739545224699e-03 1.0905320931993145e-03 -1.2893904791305886e+00 -6.4022896321853651e-03 -1.6468894850582172e-02 -2.5163043351631131e+00 1.0647953747662253e-03 -7.3644691110041904e-05 4.5870751719068181e-04 6.2685141181870463e-03 2.5812603412248336e-02 1.4101428127446525e-03 4.0394984470751183e-02 -1.2198643160576950e-03 -1.6066824164120419e-03 8.6996730450896072e-04 6.9199686058671883e-03 9.8572272943591166e-03 4.5599199425744086e-02 -2.6966575429152820e-04 -4.4957049438371088e-04 4.8122745567907188e-01 1.8964383510878327e-03 2.6856899303414616e-03 7.2037952455207233e+00 -1.0193702441405397e-04 3.0108208969162591e-04 5.6360299425446377e-04 -1.1944392811940934e-03 1.1846003475031017e-02 1.3360803876253709e-03 1.6497457824584671e-02 4.8809411954103890e-03 -2.4109126219490906e-03 3.8236936297426638e-03 -7.0461575970170998e-03 -4.9103461256194691e-05 8.8221203991122432e-02 5.3707763633212835e-03 -2.7440214089753424e-03 -3.7546310407879080e-01 -5.8340677152920739e-03 -6.6625132959785560e-04 -4.1615299108298132e-01 3.0358882475007790e-03 5.4384934625533246e-04 1.8373051429954046e-04 3.1353433481496398e-03 1.1564753783360970e-02 6.3095382277111867e-04 -4.5827041280999833e-02 7.5785066997001967e-03 -5.5992864170526773e-03 1.6908573755978155e-02 -7.1411765610949474e-03 -1.1264709601231928e-03 1.5081834275650505e-01 6.9412645974512924e-03 9.0602043268984923e-04 6.9384148273034518e-01 -9.4029072969033269e-03 -2.0108322093659384e-02 -1.1260311594755034e+01 5.3008392292730666e-03 1.9066679977275778e-03 1.3522744019968307e-03 1.1175269580574977e-02 1.9576013965338451e-02 2.2123636957773612e-04 -3.7520929297940653e-02 1.7865576684585757e-02 -2.0944501970175333e-02 7.9098253843098432e-02 -3.2286913932855599e-02 -1.8649007070307359e-02 2.7635794107424205e-01 2.4307517596284391e-02 1.2149284613305757e-02 4.1803043119515471e-01 -6.1979251050909456e-02 -1.2890165358961075e-01 -1.5497630077335485e+01 2.9412975019092888e-02 1.8480121259490147e-02 -1.6599730063557765e-03 4.4516649146040255e-02 1.4219189257235171e-02 -1.6283439362887231e-02 1.3300544633338518e-02 -1.8840166715599703e-02 -2.7743844474883428e-03 -1.3669362970903182e-02 -4.8668612315305605e-03 4.2926659355563158e-03 -2.3157222466103994e-01 7.0966060868427050e-05 -1.7992250983641656e-03 -2.4145046210464360e-01 -1.3102544972561636e-02 -9.5249259314506007e-05 8.3414642997163764e+00 6.4612700780004861e-03 -2.7989396304784475e-03 -9.6077718209351889e-03 -4.1348800263079966e-02 3.1018460544117044e-03 9.7955150960162066e-03 -7.8208228614780095e+00 
      </Row>
      <Row Index="146">
        2.3481052571026483e-04 -3.3217411416548124e-04 3.9775441928105275e-04 -5.7895894957082363e-04 1.1988851172675006e-03 -3.9276567192286110e-04 4.7068891896476124e-03 -4.8397116762905722e-03 -5.6433933335236250e-04 6.1723979600317516e-03 2.7942768085723995e-04 -1.4846098497939993e-03 7.3942264269725236e-03 -8.3506773610266612e-04 -1.2354351811300524e-04 3.2674578256408366e-05 -1.7570592191772094e-04 1.4577485127312056e-03 2.2956084155553600e-04 4.0889947672284495e-03 6.1122866694028903e-04 -9.9635664051555758e-05 -3.1115574058003927e-04 1.0034804665572687e-03 1.3568222372461027e-04 1.9747566771865046e-04 -2.4032856241249945e-03 1.2279103420835438e-04 5.1123758473512696e-03 7.9081751922258949e-04 -1.6044557331348248e-03 -1.3048884935044303e-02 3.3729725239067278e-04 3.8489028002418232e-05 5.2907354670637518e-05 -3.9394752531604605e-04 -1.7274619659601465e-03 9.8880798422710083e-04 -2.1041339169960496e-03 -6.1928317628578630e-04 2.1015645154261761e-04 -2.0821277005278802e-04 1.7486166578508321e-04 1.6860368215463428e-03 2.7444148459291875e-03 -3.0127698683519322e-03 6.3386558635222497e-04 2.9959866643637229e-03 4.2176302892080989e-04 -1.1964340129981578e-03 -3.7067320843504614e-03 5.4173860401089593e-05 -1.5088048302386347e-04 6.4247002837994837e-05 -1.3124264464741797e-03 -3.8188092431558590e-04 -1.0660854364527585e-03 -3.7022360427586415e-03 -4.1159340644004842e-04 -2.4685239650662201e-05 -8.1266320866479847e-05 7.2903084819941205e-04 1.1339394514225229e-03 -1.6241234713347944e-03 9.4683605709195394e-05 9.4852838952525073e-04 6.6056091211459250e-03 6.9674274847953245e-04 -8.2306707235091847e-04 -3.4797795515557617e-03 8.8319669222675936e-04 -1.3589971522596334e-04 -5.9063691206356190e-05 -1.5539611306184550e-04 1.1958387721260014e-03 -3.7213437381669828e-04 -8.6067828667163448e-04 -8.6472261696038041e-04 -8.4329469650483609e-05 -8.6515933584477202e-04 -3.4083590419351113e-04 5.8357118442325918e-05 1.1853079347037502e-03 1.2194928852149102e-02 2.1191469550973716e-04 8.4835012124386544e-03 2.2444277263265833e-03 -2.2247426275934555e-03 2.7294645039246113e-03 2.1950526992551623e-04 -9.5823426754430819e-05 7.6126930368205798e-06 2.8395713260427537e-04 -3.5622755583715297e-05 -1.8274557984497997e-04 6.9494582352457313e-03 -1.0837937281746893e-04 -2.2020469208868052e-04 1.1780061995020526e-05 -2.6387752972151669e-04 7.6697730386561546e-04 2.3021409714216829e-03 -2.3287610383826928e-04 1.7114499100076553e-03 -1.6260126622341690e-03 9.6435233515262757e-04 -8.1330912237286674e-04 4.9291467630699914e-03 3.3183088990689565e-04 -5.2679004427563000e-05 -2.0766987812648113e-05 -5.7214374066445081e-05 5.0797312475266176e-04 1.4811011894075489e-04 -2.0444741915659481e-04 1.1077778770894576e-04 -1.5364738996272512e-05 -7.6585422202435447e-06 -3.4057870466020634e-04 -3.6990979213645031e-03 4.1242418692315989e-05 1.5708896703667589e-03 2.6369187671248248e-04 -1.8272415084155252e-03 -1.7614099283939531e-04 6.3604628446821529e-04 5.5307627097104517e-03 -1.9049714001320494e-04 3.0912227054883919e-05 4.4180403199129466e-06 -5.0599444625589264e-05 -1.9561824281990985e-04 -9.0040864354429609e-05 -1.6289305142444151e-03 -6.6656958265762689e-04 -6.3466744968940822e-04 2.2807585804751965e-04 4.0016332379333290e-04 5.8955830705912553e-04 8.1103762376801675e-05 1.6524856335322516e-03 -9.4382538062370402e-04 1.1725271461719720e-02 -1.3041501052459812e-03 1.0580503863906936e-03 -1.0193702458072273e-04 2.7428859222649064e-03 -1.1677338558236012e-04 1.0970608422878649e-04 1.7659663919006438e-04 9.7624797655464029e-04 9.5700630803880241e-04 2.3273806410149117e-03 -1.0933628868043874e-05 -2.6750950225759617e-04 -2.3875818430956424e-04 -2.4635385220495715e-04 7.1176124535163700e-05 -3.6822536092811012e-04 1.8202950643417381e-03 3.7002427041615696e-04 6.2285043288529129e-03 2.4610125500655069e-03 -1.6461204340729382e-03 -2.9505164254127747e-03 7.7754748137212355e-04 -2.4113213153438562e-05 2.6271860731553976e-05 -4.7365765152986711e-05 5.9412081169843076e-04 -2.5443005140047973e-04 4.0693259738566485e-03 -1.3420220058447892e-04 1.6599399493652392e-04 -3.0057784828208662e-05 3.4027061767456009e-05 4.5460925732244246e-04 8.5047803905836288e-04 -2.9138355137830400e-04 2.3466095585373338e-05 -1.9915327220127697e-03 5.3624948146578373e-04 -4.9633790743665957e-04 9.3178146952896945e-03 1.9593799618447923e-04 -3.3709077198794055e-05 2.5496057406919334e-05 -1.1031052029876909e-04 -4.4326378877964506e-04 -7.1787396674116970e-05 1.3919599119876919e-03 3.7441118562872772e-04 1.7080232998228403e-03 3.0253121210142495e-04 -2.3487618856859070e-03 4.7531484410830789e-04 7.7927092565579547e-03 -1.1610476641307243e-02 3.7513616922021983e-03 -2.9172572266264858e-02 2.3281152616181668e-03 -1.5234428071590508e-03 1.5835293870420375e-02 -6.1755950922449745e-03 6.2616669907914878e-05 -2.7674486389002526e-05 -2.5623660376836610e-05 -1.7010244260746241e-03 -2.9461707088684463e-04 -2.9335014776710744e-03 -2.3892632871950130e-03 4.0545305513275942e-04 -8.1406339549037294e-04 -4.1017505407102027e-04 1.6048414632156844e-03 3.5760418708596559e-03 6.3860922686521417e-03 1.0587742724874026e-03 4.2143947783846673e-04 1.0659690945886278e-02 3.8956927263582991e-04 -8.6571282368508393e-03 -4.7362207085205115e-03 -4.9962282897914045e-04 8.0601624426160649e-05 4.0006866552283835e-03 -4.9040114312604065e-04 -2.9340898297094383e-03 1.3158509523121008e-03 
      </Row>
      <Row Index="147">
        -5.2535291503549646e-04 -7.8275178484829054e-05 -1.3084753307469931e-04 -2.9724074072675811e-05 -5.1697295019644245e-04 1.3705473742489446e-04 5.2942730559553202e-04 4.9757313824182030e-04 1.8968306992958291e-04 2.2508957951399428e-03 2.7476608473433740e-05 -1.2271846036307640e-03 2.4544021125235335e-03 -1.0907249001056773e-04 -1.7962623380903269e-05 -6.9046449291335719e-05 6.6452312117254940e-06 -7.4445300930062598e-04 -4.2655878971230060e-05 1.9312726554382587e-03 -7.9900957140850834e-05 5.5042853359228488e-05 -1.9910550196998015e-05 -1.7240434197634755e-04 -6.2312059993424639e-05 5.1874252153981761e-04 2.1970027565624883e-04 -1.7895869798149932e-07 3.2513872658190574e-04 -1.0788208505738063e-04 5.4830722237869970e-04 -1.8486410834029354e-03 -4.4000457279668462e-05 -5.3746985535488311e-05 5.0689513621516007e-05 9.6633555786537840e-05 4.4378337503383656e-04 -1.1986091504762286e-04 -1.2020672243221184e-03 -1.0499283515539300e-05 -4.0249598816769567e-05 -8.9114912897739174e-05 -1.5731389774597019e-04 -4.6053331734199020e-04 5.1269744143193994e-04 2.7959691940021851e-04 -1.7995988960703457e-04 1.5252579945773323e-03 2.6222898814693091e-04 1.8581409478449244e-03 -3.0276730406021135e-03 -9.2330198549694161e-05 2.6062102352220648e-04 1.3114707837837494e-05 9.5845044345090318e-05 7.9322092806448884e-05 -5.3215563411753569e-05 -2.8925647580055128e-03 -1.9112750761006371e-05 8.5838950535811805e-05 -1.6552324700927029e-04 7.6327831526326910e-05 -2.3714066087351333e-04 5.1492222339657892e-04 7.9731749961599102e-05 -2.9182342195071035e-04 3.5528651592011615e-03 5.5176633584077942e-04 -1.7505597874877365e-03 -6.1471058507676091e-03 -7.5862665214962975e-05 6.9924422438294052e-04 8.5060002244058972e-05 1.1068123844915425e-04 -4.1484478554527655e-05 -8.9743075302295498e-05 -3.8568709564103451e-03 1.1713617103552201e-04 -8.2476208965168466e-05 -7.6856928289184816e-06 -2.8750198289670403e-05 -1.0270870856328240e-04 -1.7733928506083636e-04 -6.5415647622805301e-04 -4.8323224658917627e-05 1.9368726122735852e-03 1.5092563027149439e-04 5.5880684819396712e-04 1.5313834467817200e-05 1.5146712615750270e-05 9.5014517933765573e-05 2.1401138281997392e-05 5.9508936129686789e-06 2.2431469905015065e-04 7.3333037190517238e-05 3.2566233098055078e-03 -5.1173688435998075e-05 2.2421371179112985e-04 5.2219661874276370e-05 -9.9626439050972781e-05 -2.2184048031890632e-04 4.0722626396638050e-04 1.2301414805251435e-04 -3.7885839530034230e-04 -1.6978497492114596e-04 -2.1809749781475244e-04 1.8722051956808413e-04 2.0660734721494045e-03 -2.3373372455013264e-05 -7.3726545514624228e-05 -2.4080758838057976e-05 8.2935344375723079e-05 -6.1874914272451421e-04 -2.0187156618104623e-05 3.3710759009977082e-04 4.5693391273908589e-05 1.8096429514214991e-05 3.9645577206597884e-05 7.6098995577750925e-05 1.0958623864168386e-03 7.0337816573764946e-05 1.5744394186286955e-05 -1.4771431362082513e-04 9.0539348836868316e-04 2.2293262847337860e-05 -2.7138545334001586e-03 1.6013766156389164e-04 5.3930697536609562e-05 1.7907098658448005e-04 9.8075124432394495e-06 1.7478766431539143e-05 5.2740026575097236e-04 -7.2868266751706032e-06 -1.0257271061559223e-03 -3.1559957565117480e-04 9.7347639480138969e-05 -6.6972538673741404e-05 2.9178760592263851e-04 -1.6199725405730120e-04 6.2073124547370486e-04 2.9428630981480635e-04 -5.6239030266099659e-05 5.5880282715885373e-04 1.3269500572124504e-04 -4.4739605591045438e-03 3.0108208960866190e-04 -1.1677338558247634e-04 1.7134830113829393e-03 2.7499393822227571e-04 2.8526465966164586e-04 -5.8393706045687559e-04 -1.0872448620936630e-03 -6.8076157021325356e-04 3.5993696243507786e-05 -8.2503746821745375e-05 6.1651825218156635e-05 -1.7651838291492684e-05 -1.6273394061309000e-05 -2.3983099306069912e-04 -1.9782744363512281e-04 -1.2920125089816982e-05 -1.4527333964369504e-03 -1.5583740777363201e-04 1.6173215374546562e-03 -6.0507846631346895e-04 3.6602594324034349e-05 -2.4213282202383457e-05 2.4325022093124593e-06 -1.2021625910630372e-05 -1.0403005321376474e-04 6.0256432161506735e-05 1.7177874077854577e-03 -8.7769975166608236e-06 -5.4059137683528118e-05 -1.7097111048538430e-05 -2.7383850495825342e-05 -7.9776435712092657e-05 2.0878382209892516e-04 8.2957582903811467e-05 7.1091980322690254e-05 2.6751316747433214e-03 4.3149039591723092e-05 1.6218932374761365e-03 3.1089274711527601e-03 4.0347581006731921e-06 -4.9868283919812415e-05 -2.2965177203071371e-05 4.5813505858346520e-05 7.1576964066117580e-05 -6.1530269692453715e-05 -1.3093140155482231e-03 1.9358220024907479e-04 -1.6524896281541702e-04 2.5649266261187887e-04 -1.3607381803046978e-03 9.6099844068201065e-06 5.4006504469430376e-04 1.0572944980749635e-03 -1.3702836378681559e-04 3.4678866439286828e-03 -5.6027492845064073e-04 7.2223039319431141e-03 8.9016652516581765e-03 -3.9166687539497703e-05 -4.3614691025144941e-03 -8.1514692720468878e-04 -4.5585381930255873e-04 -9.5186389777504414e-04 1.9409963780566510e-03 -1.5921483951113335e-03 5.2350430750129059e-05 -1.9696972887628546e-04 6.3103637583527541e-05 1.0349064285860920e-04 -4.0889978406700723e-04 4.8728296878344720e-04 -3.8573568611461077e-04 -3.4721701277551614e-04 -2.8849644611250480e-04 -6.6698069328263525e-04 5.1378901768216467e-03 -4.1120089190296418e-03 5.5602334349142064e-04 3.2343779474503318e-03 -8.2550587668969071e-05 -1.0462616972831118e-04 2.7840261004951250e-04 2.7351550125654089e-04 6.1292570414873851e-04 
      </Row>
      <Row Index="148">
        -1.3880000950087081e-04 -8.4463597020960265e-05 1.3484273064226884e-04 -1.0325259175291676e-04 4.5533225177902528e-05 2.6359349082813541e-04 -4.3740401457410831e-05 1.9364088650704304e-04 2.7754155555577236e-04 1.8516612360990094e-03 9.8147220667120678e-05 -6.1342635550388472e-04 -8.6396980750975960e-05 -1.4904152066846691e-05 -3.6547469928527556e-05 -9.3720958091268096e-05 1.0025554770649270e-04 -2.8177913225994688e-04 -5.5292126115496706e-05 1.2499425424504522e-03 2.8444080645641872e-05 -1.2179030420879052e-04 -3.0743615603253839e-05 -2.3557235104650597e-05 6.9229888437153352e-05 1.0426468161921947e-05 -5.2141256778566388e-05 6.0675833887200174e-05 9.9974143558923196e-04 -6.0416656865626439e-05 2.4075122895215626e-04 6.5471649734480386e-04 -4.3387566924131571e-05 6.7775879736786437e-05 -3.6690392455314858e-05 6.9672041183219967e-05 8.9793346845282217e-05 -1.5450724044718627e-06 1.0150282585359659e-03 -1.6469241969827094e-05 7.2521363278456042e-05 -6.9379974414642969e-05 1.8758292376766408e-04 -5.4020454317339501e-04 2.1124146378835671e-04 -1.2228684938062328e-04 3.8423741999535257e-04 3.4982502152497187e-03 2.4980123703043111e-04 1.2007126099544377e-03 -2.2963473993758421e-03 3.0410192350737364e-05 4.3245387988073767e-05 -7.0273442396489677e-05 3.9334900594785769e-04 1.4020485694792663e-04 1.7388303658617997e-04 1.7282080420723787e-04 -4.2890330188782286e-05 1.1357959941063463e-04 -5.1596650357512038e-05 3.4516596304389607e-05 -3.2313943085985166e-04 5.6660379807895182e-04 -1.7221287072387151e-04 3.1560385895872535e-04 2.5153774672495889e-03 1.6489308846432381e-04 6.5708590140798587e-04 -6.0243639504187207e-05 2.0666883925558109e-05 -1.3740718398989135e-05 1.1231350892782329e-04 2.4314280546845884e-04 2.9754479701111190e-05 7.1081200427187833e-05 -1.2820032117574019e-03 -3.3666797571175024e-05 9.6685082366393979e-05 -1.5607837659245083e-05 4.3213152443560658e-05 -1.6339244668006007e-04 -1.5163956037499648e-04 -2.4644724573141992e-04 7.3484418710489420e-05 6.7972786971488841e-04 -1.9853742947597555e-05 5.5099227144500063e-04 -3.7409474421702671e-04 3.7872105546518512e-05 -3.9509240262901660e-05 6.1444203003313341e-05 7.8878356361850998e-06 -3.8462849076608460e-05 -1.7597594465324244e-05 2.0495988531987735e-03 1.1821995759766154e-05 -2.1196172699502135e-04 4.6981695271017493e-06 1.3374295575474711e-05 -2.4725950054297621e-04 -3.0448366897397260e-05 8.1614762310440488e-05 -2.9830898984734651e-04 1.3693734711986069e-03 -1.2497123519823874e-04 -5.4774424498210049e-05 2.1268656388689217e-04 -2.9469032651423996e-05 1.7756994151507872e-05 2.9141615496856937e-05 2.0119655475507038e-05 -1.8907560373910344e-04 -3.0739554610592774e-05 2.8356603810674591e-04 1.8901714310632495e-05 -2.3849199089354426e-05 -1.6065613494052437e-05 3.6356060400157141e-05 2.0508329825257203e-03 4.3701372108680072e-05 9.6328181923725287e-06 7.8296859091191466e-05 -7.3261492067791187e-04 -1.6477264507191362e-05 -1.0458970727478024e-03 -4.1756505460668891e-04 2.5938327928254034e-05 2.1529446448744879e-05 -1.3059828446204322e-05 -1.4333196666777441e-05 8.1702932340672017e-05 2.6777295909581091e-05 5.0257943441034229e-05 -1.4045482527261300e-04 -4.4810108263172569e-05 -2.8073583540907043e-05 4.4029197662454595e-05 -5.2676249468319020e-04 3.0735107761430973e-05 1.0583400290240464e-04 2.5453556614235269e-04 -8.6985939839088816e-04 -9.9965428003150210e-06 -2.1377553006446458e-03 5.6360299428662164e-04 1.0970608422873209e-04 2.7499393822225419e-04 1.0827557379731382e-03 1.5521628702695666e-04 -3.0380110559286196e-04 4.4500338635143318e-04 7.2379165394795969e-05 2.3973173683630679e-05 2.0167990253687418e-05 -4.8744868067895756e-06 -4.2837868483795727e-05 8.6460018002705022e-06 -3.1965730294810854e-05 -4.9780860635275422e-05 -1.7312698611455157e-05 -2.7943345269568903e-06 -1.4177269011264932e-04 6.2096993803858395e-04 -2.2813987979791728e-04 1.4119893159495085e-05 -9.2738995763842468e-06 -9.2154749781381458e-06 -1.7555105071096616e-07 -2.6990459041894947e-05 6.7099334335538790e-05 1.0277727152394830e-03 -5.2625887734492929e-05 7.7476687533603863e-05 3.5535675729891168e-05 3.0477118744067808e-05 -7.0458436554743617e-05 1.1162830361628035e-05 -5.4870884535202606e-05 3.6878243975597491e-05 3.9736249164004662e-03 -3.9134270447198119e-06 8.7085123953204834e-04 8.3163761737425901e-04 3.0339840783536457e-05 -2.4308373465207353e-05 -3.4090477060344428e-05 5.8795072060343053e-05 1.7911418328051681e-05 3.4538142838703973e-05 -3.9739423431592313e-06 5.7335835429706689e-05 -7.1902734072298922e-05 2.5680814051451590e-04 5.0776222621320422e-05 6.3021202368082662e-04 -1.9202218194876890e-04 1.0121037331255098e-03 -7.5819063077376878e-04 9.6644144454150309e-03 4.9649494510643072e-05 2.6341373719555329e-04 -2.2461140745489994e-03 -1.3268007900870752e-04 -5.9090567496615173e-04 -2.0688369753527162e-03 -8.6009975018024390e-04 -4.9554453320600289e-06 -9.9094830147502394e-04 -7.0221881602302813e-04 -1.9093954880980519e-04 3.4356986884247459e-04 -3.6193096914477712e-04 -2.5523274194381772e-05 -7.3304193383438463e-04 -1.4913211349041588e-04 -5.9707537719437800e-05 -1.6242270651801072e-05 -3.8723874985709583e-04 -8.8004296584303298e-04 1.9067693760630203e-03 -8.1917096287969495e-05 2.1322441835473028e-04 -7.9606909669787356e-05 -5.5972469784464624e-05 -1.4196097669351505e-04 7.7787566875633842e-05 3.2667384214085622e-04 3.7046312633602369e-04 
      </Row>
      <Row Index="149">
        -4.5804518258774074e-04 2.0228775135699810e-04 -1.5666597933231344e-04 -3.4490174671476874e-04 1.0488772001007035e-03 -1.5722615565339653e-04 2.1079714240305638e-03 -2.4579564530853399e-03 -8.0067615469170059e-05 -2.4264577137755872e-03 -6.1427248366529739e-04 4.4785295478886340e-03 1.3414454539107556e-02 2.7286102945250364e-04 7.2964057899668148e-05 1.1420464154709119e-04 3.2383740955273851e-04 7.6154157960660264e-04 6.2060227904088506e-04 -3.7101146279077818e-03 1.7280891485693499e-04 -2.1401912505689125e-04 2.0373455224330156e-04 2.5734076521365806e-04 1.6841872205607643e-04 -1.3867625250169012e-03 -1.7525374470107413e-03 1.0684062690985950e-04 -7.2365246614247980e-03 -6.8329328036040966e-04 4.8153705589009561e-03 -4.2651572606402510e-03 2.7872956320545202e-04 2.1116036966999378e-04 -1.0982304751248201e-05 1.3015372491466151e-04 -7.0396712139136203e-04 1.5712998986267884e-03 -4.7837528291765768e-03 1.3258013546221676e-04 -1.4646568470225163e-04 -1.0478109167054569e-04 -1.3907110033584830e-04 4.9305841540498926e-04 4.2411946324726058e-04 -1.9582444377927374e-03 -5.9272743313774218e-05 -2.0181818556899378e-02 -1.5453583090764989e-03 3.1111105552791007e-03 7.2606387924847304e-03 1.9205390454011422e-04 8.0872521409817294e-05 -1.2865109791600042e-04 -5.6578056019522018e-04 -9.2874670011329659e-04 -1.2454072185283257e-03 6.8434337708672688e-04 1.3923212611266066e-04 -1.3507045884300801e-04 1.1920997203623829e-04 -9.2817479782295736e-05 6.7047046631605635e-04 -2.3530969561238891e-03 -4.8279307271032260e-04 -1.2772234096170704e-05 1.3549981765239583e-03 -3.8181133455563072e-04 -4.9712459296091683e-03 -3.9281301959768200e-03 1.8834066375676760e-04 -2.6629297781916852e-04 -2.4725504405964660e-04 -2.6736593051839442e-04 1.0096293564324788e-03 -3.3357320941917405e-04 3.7670502913067505e-03 -1.9072586460486263e-05 8.7028570222684454e-05 -3.4479257934815280e-04 2.1004089970842743e-04 1.7693727973209323e-04 -1.0547798209266969e-03 5.3610732113163473e-03 -3.0586924795394932e-04 2.3891145300451999e-03 6.6943675874783781e-04 -6.3435566173016961e-03 -2.3477960015356736e-03 -2.6556059538429978e-04 -1.4156290828768424e-04 -1.2008163513093500e-04 -4.5308007998588144e-04 1.7714084540801020e-04 6.6675234971370900e-05 -3.4118805070647018e-03 3.0695271875368427e-05 3.5559726208180377e-04 8.4895901307237048e-05 -2.0819165692182416e-04 1.7330934847623611e-04 1.1891425500985525e-03 -5.5280218517507528e-04 2.6625483788364729e-04 -3.7417440803320760e-04 1.4984119304171174e-04 7.7990786881885826e-04 7.9572207755591595e-03 5.4048912014207110e-05 7.1644802492259324e-05 6.2338542865689059e-05 2.2747581047842698e-05 3.0392696091877960e-04 1.4729941665789583e-04 -2.2237888642451242e-04 2.2646794242348403e-06 2.0799295942321161e-05 5.9853844755179339e-05 -1.4285267570807040e-05 -1.6765478012905899e-03 9.6906578519176043e-05 5.7730911625202171e-04 -5.5920455139555486e-05 3.4064141613943111e-04 1.6459136742336296e-04 3.6280138703942057e-03 2.5468706400275654e-03 -1.4967583509338793e-04 -3.4640062669946334e-05 4.6761954691837068e-06 4.0947291363939333e-04 5.9989556002962297e-05 -2.3728532916345024e-04 -1.2506150913658837e-03 -1.0522040205892137e-04 -6.7488437585103665e-05 -3.6286342549145744e-04 -4.0466750779145065e-04 2.8765079094543716e-04 4.4590315687210134e-04 -1.5390259545301796e-03 2.9169527575343204e-04 -4.7482846243351098e-03 -4.4109155350448574e-04 8.8959603837171254e-03 -1.1944392812948124e-03 1.7659663919008040e-04 2.8526465966167660e-04 1.5521628702697571e-04 5.1320991792706203e-03 -8.7780818815600715e-04 9.8644711591963771e-04 3.1523389378362854e-04 -1.7793734523223844e-05 1.4011896867311671e-05 -1.6195298666837020e-04 2.0933225824916468e-04 -7.5576802148411004e-06 -7.3032401858322792e-04 6.4204986444235668e-04 -8.0532890264174576e-05 1.0869230007908848e-03 6.4613895705581739e-04 -3.1336842444685403e-03 2.8060688075104423e-04 -1.2532178529225209e-04 1.0365821564241578e-05 -4.3007633336664651e-05 -2.9714675025231153e-05 3.2741368118399672e-04 -2.6424734543986292e-04 -1.0958817348062384e-03 -1.7440369207690956e-05 -5.8486982641965486e-05 -3.0037460751543320e-05 -5.6936961082629332e-05 -2.5039557851937826e-05 1.1713395215397383e-04 8.0180286927760341e-05 -6.8500978631073271e-05 -6.2958879628725786e-04 6.6809707659104631e-05 -3.8163804744872276e-03 1.4623258932648667e-02 4.7296571544725267e-05 -1.5415635527167995e-05 -5.8113471733565531e-07 -4.6365380314251561e-04 -4.3083978072905749e-04 -3.2823290994314007e-05 -1.3894117485015907e-03 2.8829855672103753e-04 7.0322299757136599e-04 -3.1718123082498427e-04 9.6427700420152762e-04 -5.6349458904355406e-04 4.0848511982464024e-03 -4.7521642554551940e-03 -2.7981573096572154e-04 -1.2608797164237254e-03 -1.9261833321343545e-04 -5.9238034920657450e-03 1.9497797290785615e-02 8.2952832075523461e-05 -1.0602233498500013e-06 1.2535386719498634e-04 -8.3803887853712549e-03 -3.8414237053380098e-04 1.6766120864377190e-05 1.4960677178713772e-03 2.5775537666973916e-04 -3.6821561876205426e-04 -9.2031334830183038e-04 -1.4152930271796533e-04 6.3109715510785880e-04 3.2889353399345659e-03 2.4434476877516721e-03 1.0143364913382048e-04 2.3359399412207875e-04 2.9553012704342796e-03 -1.0441175408552109e-02 -5.7736375290211575e-03 -2.3176743008208297e-03 -9.8410035738865243e-04 4.1629601425914370e-04 -2.2661300260014374e-03 -3.7202535606308007e-04 -4.2771050548137653e-03 9.7342781318851580e-03 
      </Row>
      <Row Index="150">
        1.9090708673696818e-03 -1.8902001921861644e-03 1.1017363428432736e-03 5.1216096470125725e-04 -1.4287825455029657e-04 9.5581840694022987e-04 2.6750473484962092e-03 4.9394462023645402e-03 6.3669259711192361e-05 1.2504621351976608e-02 7.3453112409704174e-05 -7.1458108637126802e-03 -7.4404888192645124e-03 1.8896245396010744e-04 -1.0622894143122504e-03 -5.7538511940132984e-04 1.6332511561437807e-04 -1.0551108429058317e-01 -7.6115201717537849e-04 -7.1642370518805176e-03 -3.3192381839550721e-04 -1.3803866898724759e-04 -8.5882387108221806e-04 -3.8648352869606606e-03 -7.2079150729647407e-04 2.6494287036862157e-04 -4.6338730556941786e-04 -1.1130901413690733e-04 -2.7733553326081406e-02 -8.0207483558324914e-04 7.0795479259339600e-03 9.2729120201866522e-03 -1.1092576830897920e-03 2.3062353860461068e-04 -3.7611875500824510e-05 1.2481677766291222e-03 8.8861809601693958e-02 1.4480937057613844e-04 -7.0495553825964674e-03 1.9425994688197768e-04 4.1368082794913941e-04 8.0326877092762490e-04 -2.0607747648533764e-03 -1.7064298542373429e-03 6.5120776540101566e-03 2.4117288683632582e-03 1.2127459772852955e-03 -3.1649133297511067e-02 -1.0861633948053562e-03 8.1434927973398907e-03 9.7773776467384721e-03 -4.2518181459774056e-04 2.0558814669712350e-03 -6.6647979557403828e-04 2.2791927748836739e-03 2.0435561008676988e-02 1.2149697238270085e-03 8.0092383684277069e-03 -5.4866406589036340e-04 4.9212457895969099e-04 1.0906105933309596e-03 3.9315146750241031e-03 -7.0726125602770494e-04 -1.1112564138612016e-02 4.1071541412942558e-03 1.4736541161175093e-03 3.7071244600052733e-02 1.0536969048588959e-03 -4.5922198337947050e-03 1.1166664912352076e-02 5.4866147131645091e-04 3.3006291672595936e-03 -1.2506025954650557e-04 2.9173824482379637e-04 -7.1217346650965088e-02 2.8610740267134144e-05 -1.5695441370155994e-03 1.8657452600841229e-03 3.0751700219733974e-04 5.7162773877887652e-04 5.4853286274414437e-04 -5.8233421635321692e-05 -6.2780887565296040e-04 -3.8870180069364713e-03 7.7147041610570177e-04 1.0853022694038650e-02 1.2895875914492594e-05 1.0618710741237478e-03 -1.2508793655499950e-02 5.5629790981764210e-04 1.0054408864293776e-03 2.7395005662909921e-04 -4.0278571130015692e-04 1.1035327968683423e-02 -1.2564059285768980e-04 5.4357484064900818e-03 -5.9227725008740607e-04 -1.2452749347897172e-03 6.2687893340110780e-04 1.3402614386581191e-03 -3.9829941240023502e-04 -3.5964400665454074e-04 1.2408517447458133e-03 3.1095074459159481e-04 2.7623950837464863e-03 5.2090402003550438e-04 -1.5047218511229600e-03 -1.0788406293888997e-02 6.5210888149982819e-05 -1.2854686420700947e-03 -3.9204962173263776e-04 -1.5450179441606161e-04 -2.1047086157572142e-02 -3.8488092297723282e-04 -2.0964986916023332e-03 4.4400722797618628e-04 -3.1500452625843334e-04 -1.5474369240726926e-04 -4.0738257468664763e-04 3.2321048561956972e-03 2.5819428557201304e-03 -8.4845186695988242e-04 7.7809924813864589e-04 -2.0140767522705438e-02 -3.4288943701248770e-04 2.0740213139574799e-04 -1.0084869617026371e-02 2.9150681972429145e-04 6.7864325536947691e-04 1.6729371841698107e-04 1.4093107222209285e-04 2.7600435528022271e-02 6.0953297923993510e-04 3.1553887271380532e-03 -1.5478657499564882e-03 -4.7740518088408394e-04 2.4189144507421267e-03 5.6407759431437166e-04 -1.1596828928815816e-03 -9.2398862641844062e-03 3.9852567001584099e-03 -5.5844619921826839e-04 5.6285253627706006e-03 -1.6334053805239219e-03 -6.3314418025513779e-03 1.1846003474708766e-02 9.7624797655525590e-04 -5.8393706045648821e-04 -3.0380110559294522e-04 -8.7780818815557521e-04 8.9186723966128256e-02 -3.2271008542954823e-04 4.1139281108066861e-03 3.2005790626113764e-04 -2.0645617170911420e-04 1.6453920411979052e-04 3.3441726052915732e-04 4.3430600469664821e-04 -2.0158684220697755e-03 -9.7709854662975104e-04 4.1934491704742898e-04 1.6790607703471405e-02 8.4666887766467517e-04 -1.3106990755427927e-04 -9.2079135252074451e-03 4.4649673597818855e-04 -5.5998240716990857e-05 -1.2093498758712629e-05 4.5621324003528377e-04 -3.7095313225097293e-03 -2.4684842332783896e-04 -1.8767443412014899e-03 3.8700739173561647e-04 3.7695837534100924e-04 1.0463356812886234e-04 -4.3993451306322906e-04 -3.2309874856158155e-04 2.5390894543562605e-03 -4.4359746291496049e-04 2.4188221620408693e-04 7.4228318119146288e-03 -5.0322606590752234e-05 5.1226153331526310e-03 -3.7354537360931195e-02 -3.8226242569482387e-04 7.2250345091074461e-04 1.7760896743604330e-04 3.0244661735558570e-04 4.0523188025283000e-02 4.6017287722910621e-04 -6.5322915436264936e-03 -3.3283203882264857e-03 -2.0559876024315443e-04 7.3570926968849915e-04 1.5888479949452761e-03 1.9350594359223150e-03 2.0584588425647921e-02 9.2547856036935515e-03 1.0874832741746480e-03 -3.8081524321835758e-03 1.8916012093479588e-03 3.5652101519436548e-03 -3.8576605097151870e-02 -1.0859789073198235e-03 -7.3469966895904895e-03 -1.0875641000150996e-03 -1.4527106981872392e-04 -7.2696283368709758e-02 -1.5579904438250162e-03 6.4097225671710945e-04 5.7893791175912053e-05 2.2305516387856085e-03 -3.1618901494522532e-03 -2.2708529175101844e-04 -1.6331298664617776e-03 7.0843535323862677e-03 -4.2654644924380297e-03 7.8349310136199141e-04 -2.2722481348055900e-03 2.8965056665382297e-03 6.3473874454751285e-03 2.3481720568308738e-02 3.3251819076220925e-03 1.3195033493490637e-02 1.0122358922955441e-03 -8.0961856930356259e-03 2.0938043340694764e-02 1.3830980081195239e-03 -3.7104408112119222e-02 
      </Row>
      <Row Index="151">
        4.9935009671189974e-04 -4.6759427487879897e-04 5.5751679037523844e-05 -3.8352764866493951e-04 1.3921750212991142e-03 -2.4867661929128620e-04 -2.1200506680425389e-03 -4.0152437161320603e-04 1.0799825288257750e-04 5.1645480956700185e-03 4.3837786284758786e-05 4.7367394137795039e-04 -8.4922974111807936e-03 1.6318487922257287e-05 -1.0919501632733085e-04 1.6030659377830976e-05 4.5543377862451717e-05 2.3279937512450124e-04 -1.2834558999808437e-03 4.7213010803547339e-03 -1.7237628944979802e-04 -2.6515501571047068e-04 9.9656740514790566e-07 3.5749230796153914e-04 3.0503007881850334e-04 -9.0390150387263321e-04 -1.3251200498384877e-03 4.1115391329130200e-04 7.3934741774065171e-03 -4.1784908437116249e-04 3.1287487415536455e-03 1.3871242437918596e-02 -1.1215506338658880e-04 -3.3040232285557998e-05 1.7046773600918642e-04 -1.3164833671576925e-04 -2.9108884546390212e-04 -2.6388367669564500e-03 -3.6151968434913404e-03 -3.4947931212334310e-04 3.3480777306314855e-04 5.5501327129656164e-06 7.8874734421301856e-04 2.0381967152446369e-04 1.5661906846593660e-03 1.1535760931146470e-03 -6.2145940959837213e-04 4.4604814130896342e-03 1.1502026583570298e-03 -2.1265696056777250e-03 -4.7422895132132048e-03 -1.6366556829236663e-05 2.0279394809637891e-05 3.0664306029025163e-04 6.1593119342099115e-05 2.9740576589177420e-04 3.0121902421362291e-03 -4.6550207900724616e-03 -5.2550053741988456e-05 -1.4345311228908903e-04 2.8292438469076746e-04 5.9290870468742263e-05 3.6591279176987441e-04 1.9236903313775422e-03 7.5956881210423668e-04 2.0714218158548320e-05 -1.3645185760876588e-03 3.0224240705673498e-04 2.6613254003219249e-03 3.8924291276352108e-03 9.5702546936049157e-05 -2.7988094690529672e-05 2.9751440309552270e-04 -1.6158230810901352e-04 7.4877049633278320e-04 1.4020633913267876e-03 -3.5002685919692245e-03 8.6737348481792653e-04 -1.8842111837754499e-04 -1.7139150030156397e-04 -9.4728713688305155e-05 3.5921396464860898e-04 7.6127871413866899e-05 3.0275452315945972e-03 3.1683938905512077e-04 3.8558342042729343e-03 -1.7368210126110506e-04 5.7384441481818371e-04 5.0663704462716730e-04 1.3455782880509182e-04 3.8971921332839506e-05 3.7658020565945957e-05 1.2248798826785048e-04 -4.8084784265396696e-04 -2.6560125662900697e-04 4.7753387467160680e-03 -1.8847997289336924e-04 -2.9825664172773182e-04 1.0852054192047374e-04 -1.4518124543112451e-04 3.5368876369203540e-04 -7.1635928773299863e-04 1.8827518636083243e-04 2.1259063699536671e-04 4.1173765596249808e-03 -2.8455186344441912e-04 2.3681664283046067e-04 -6.6672755460145394e-03 2.6976809484198158e-05 7.1537676635620353e-06 -2.6461179510095546e-05 2.2965760400888075e-04 -2.0068091774193796e-04 -6.4375785763076925e-05 -8.3788710558879709e-04 3.0186187829314270e-04 -1.6890261833619330e-04 1.5494043377409748e-05 -1.6229388671345070e-04 -2.8253579457552802e-03 2.0417274656402661e-04 1.4476952951718563e-04 -2.2636841827404844e-04 -1.1134367389163846e-02 -1.6576390313485095e-04 -6.3608834931961711e-04 -1.1144763591217632e-03 -1.2539207305778139e-04 3.9890516722032240e-06 6.1027187123393126e-05 -1.0778848791915451e-04 2.5179145827392002e-05 -1.4908773023515620e-04 -2.2602122537372371e-03 -3.1502192892671026e-04 3.0568555375999184e-04 -6.2123446337011379e-04 2.7462064122488563e-04 2.7577979071080313e-04 -5.4400090262235338e-04 8.5013771080242337e-04 -1.0364817734909212e-03 6.9210734388887411e-03 -4.1155964181633232e-04 -2.5041018793247167e-03 1.3360803877224825e-03 9.5700630803882518e-04 -1.0872448620937226e-03 4.4500338635140824e-04 9.8644711591974223e-04 -3.2271008542910002e-04 8.7678388090845129e-03 9.2213556503928373e-04 1.2950412297873214e-04 -1.1271936787160362e-04 -2.2173736514677703e-05 -1.8031934175569142e-04 7.3569473026951701e-05 7.6116525108646700e-04 2.5229863908249328e-04 1.0228291056408386e-04 3.3391933584510092e-03 -9.8928579352396568e-05 -2.9967611572274608e-04 -8.4745440560940466e-04 -1.0811865981257159e-04 3.7361318261783759e-05 9.1456468937015263e-05 -1.3302411731020737e-04 5.1942766274570840e-06 3.4738230924334992e-04 3.2372592703037682e-03 -1.2400232320218017e-04 1.7463255958527699e-04 5.7323876652606092e-05 2.7694593617593729e-04 2.6834432045038330e-04 -5.9187804086685667e-04 5.7329593432720071e-05 1.0034799837721928e-04 1.6279652581144614e-02 -5.5277357349737115e-05 9.8318104234801861e-04 -1.2126755500212472e-02 2.9326463042628312e-05 1.6011956295109709e-05 6.0554988800321993e-05 1.0092958335083190e-04 -2.3031659788855328e-04 1.4615991226364427e-04 -3.5360337092402196e-03 -2.1411516104211754e-03 2.0242928710168949e-05 1.6362839044853101e-03 9.9244239515907089e-04 -6.1075120076250046e-04 -2.1152365051682262e-03 2.3383626393912939e-03 1.7878989709156242e-03 7.5243742493921670e-03 1.7819172846092338e-03 1.1809463681302665e-03 -2.2873302746006949e-02 -1.3060826658773898e-03 1.8783499919208580e-03 -8.8378310446992595e-04 -9.6873221009896506e-05 -6.5098516318314124e-04 -2.0558272117232566e-02 -2.7317944331932409e-03 -2.0942200972619182e-04 2.9197659962272820e-04 -1.2682552751708386e-03 -3.1113342532104667e-04 1.0326619384488621e-03 -2.4635529102783843e-03 8.8691070443422718e-04 6.9782834518621745e-06 -1.9775818584813996e-03 -7.7858324970930294e-04 3.0739934987662138e-03 7.2063485616697632e-03 4.0218396284311814e-04 -3.0134358653466321e-04 -2.0440816401482676e-04 -2.4541539017307410e-04 3.2391624104109967e-05 7.8939827205880657e-03 -1.0074632340966609e-02 
      </Row>
      <Row Index="152">
        -8.2598142137070743e-02 -2.2929618500363365e-04 5.5664467060123207e-03 -1.0198720037954319e-03 -6.8078005488042895e-04 1.9056773299302356e-03 -2.1976936685478513e-02 2.7851248944449642e-03 -3.6084113540775439e-03 1.1549734373811193e-01 2.7789812364571644e-04 -5.0590935541769237e-04 -2.0296323285260764e-02 -4.8056078151077417e-04 2.7082469696183614e-04 1.5823707812732241e-04 -3.3912482549467490e-04 -2.9415925078329331e-03 3.3990784439404949e-03 3.2756694110231854e-02 -1.3093654798951981e-03 1.2090178071728387e-03 3.4573760169985936e-04 -1.9580095326431624e-03 -6.6603270325485582e-04 1.7646499230603237e-02 3.7252039165124738e-03 -2.4350191747359350e-03 -1.8915958301395461e-02 4.3692033193107067e-03 -2.7210286627058038e-03 -1.1656561306841340e-02 -2.9811827450756966e-03 -1.9870742045149329e-04 -9.1622371291259427e-05 2.2529022678491098e-04 3.7938120912064249e-04 2.8065785574041928e-03 -9.9294628181895592e-02 1.5607896177303362e-04 2.1780384815511082e-03 -1.0392155429567477e-03 1.9491804057519702e-03 -4.5708771853581343e-03 -1.2817121818344039e-02 1.4261982335655073e-03 4.8932904040686464e-03 -4.1945506597518278e-03 -5.6162807020107217e-03 1.0139893215393991e-03 2.1883128908192440e-02 1.7633226608384552e-03 3.9562731439371501e-04 5.0861906394850760e-04 4.0942227324693853e-04 8.0586231160371738e-03 -4.3863115648028689e-03 -6.8107013261697102e-02 -2.8491703672995500e-04 6.8413426796716872e-04 9.0733433665249330e-04 9.0501982094477046e-04 -3.6193688791618670e-03 5.6143680017443874e-03 4.1214014596584192e-04 6.5860122612620489e-03 1.3760403638921503e-02 -5.7398410726898844e-03 1.1922606222821968e-03 2.0059535977628329e-02 1.3875711079903274e-03 1.4266784764371339e-03 3.9850687087047282e-04 -5.2463119797218835e-04 -4.9437919221088020e-03 -2.3452119107061813e-03 -1.9093541612688170e-02 3.8016657614362015e-04 2.0558046212515758e-03 -2.5813176195552817e-04 1.4878207748632577e-03 -1.2697219771916866e-03 -2.4207770298300887e-03 -9.7359245995916055e-03 2.2303145641227734e-03 5.2333603271601303e-02 -3.8244164277121337e-03 -1.7108182750770161e-03 2.3084173354865678e-02 2.5129534486092913e-03 -2.6685156008648698e-04 4.8070694283579296e-05 2.7430882180583867e-04 2.5228796962715218e-03 -4.5939383442015341e-04 1.1364697515392258e-01 -5.1420053212192359e-04 -7.1104399080377184e-03 1.7341060642966778e-03 -2.0594348234266834e-03 -3.5647965718273228e-03 8.5141065243514898e-03 6.9526249308374960e-04 3.7733420958144291e-03 -5.9070108068903594e-02 7.8605396018680031e-03 -8.5079087690202357e-04 -1.0569817206208088e-02 -3.2467666895075785e-03 1.1142874341245963e-04 -1.3217429329253618e-04 3.5083855949653880e-04 -5.8413728647549300e-03 -2.5403818609870165e-03 1.1830203750184509e-02 1.6446665763146864e-04 -1.0034997094341275e-03 5.5704982174255334e-04 -7.1150867000706699e-04 8.7144401561732709e-03 3.2570441205386907e-03 -5.4918556815164964e-04 3.0554792247784596e-03 -1.0285939710811920e-01 6.1930002065729850e-04 -9.9583305640696439e-04 6.0882002127482515e-04 6.6490556718996712e-04 3.7306522364932964e-05 -2.0768030235398388e-05 6.9834974339419594e-05 8.3556139826553022e-04 1.8732886222698475e-04 -4.8616105344306507e-02 2.2087637465753422e-05 -8.1084628626204146e-04 -1.6084883242516910e-03 2.6036637555578368e-03 -2.2650273157647583e-03 6.2610904399471121e-04 1.9880550357842042e-04 2.6777092511732770e-03 1.4140786337027206e-01 -6.6921748447490359e-03 -1.9334475097375439e-03 1.6497457825391137e-02 2.3273806410149837e-03 -6.8076157021273022e-04 7.2379165394587260e-05 3.1523389378239108e-04 4.1139281108111452e-03 9.2213556503990043e-04 2.3555379629412576e-01 1.5759738771055336e-03 -3.1482623214207301e-03 -1.3150415953580986e-03 8.3967387373733854e-04 -1.0576438135562142e-03 -1.8222797716315881e-03 -2.6327787345043902e-03 7.5891595194944785e-04 1.3768974800323325e-01 1.3753797449679080e-03 5.8659042232382282e-03 8.8938125668493129e-02 1.9725584082552622e-03 -3.7206116819486074e-04 5.4233746061011379e-04 -8.3306538541287611e-04 3.6807954712655966e-04 -1.2004738544468055e-03 4.6633635359958736e-02 -1.9394683547887233e-04 3.0960187411164801e-03 5.9563308804228866e-04 6.4523618035502908e-05 -5.1149870478984236e-04 -3.1537587854805343e-04 -3.2420121806153754e-03 1.4315302803421539e-05 1.6576147114396025e-01 2.2135411684536099e-03 1.4662456806891443e-03 -3.7940427862906745e-02 -1.2031889409707226e-03 3.6484888542829110e-04 1.3294610776861391e-05 1.3069183944306966e-04 2.6647727977862634e-03 -8.2289177316617309e-04 -8.0684602971151265e-02 2.7209456067836778e-03 -1.2402940279165149e-03 6.7005281555826274e-03 -5.9744602496426304e-03 2.5211238113479438e-04 -4.4098879329956847e-02 -6.0934269864855936e-03 -2.6563800179868827e-03 3.1462511982830399e-02 1.6003158906732276e-02 6.9727625345200328e-03 -7.3909773044952054e-02 -9.8160006670883586e-03 3.3232005958229970e-04 1.5156028455589211e-04 -7.3074851234584352e-05 3.6018974940179235e-03 3.6298864933833417e-03 -5.1267427139570526e-02 2.3083700534994446e-03 1.0337802139205942e-02 -4.7656866884710526e-03 -8.0216762972669126e-05 -3.7275572466201170e-03 -2.2328445504203993e-02 -3.9127261482514884e-03 6.4633418294456138e-03 -2.5380727270530600e-02 -1.4030611303845267e-02 1.3593025757716592e-03 3.6292648092861444e-02 3.9161834712529708e-03 7.0138955566145765e-03 -4.5542162135267603e-04 -8.9852632663309749e-04 2.4937738494586669e-03 -1.1461623881001611e-02 9.5678551475644955e-03 
      </Row>
      <Row Index="153">
        4.8058852520531468e-04 -1.9193333115168339e-03 -1.0940970690470489e-04 -6.2870238554319749e-04 -2.6531248592960143e-04 1.7715121029814873e-04 -2.3581926851010625e-04 -1.7798027026064654e-03 1.0742606106334176e-05 -7.6679572001669971e-04 1.2796889305633399e-03 5.3064667043055142e-05 -7.4273672039702615e-03 1.2672268615179167e-03 -2.9317703706513041e-05 -1.7970751018830020e-05 -2.7515927405240151e-04 4.4141160872838769e-04 2.0792163010898681e-04 -1.5643960669579834e-03 -5.2936215292237769e-04 -2.5811748499481252e-04 -4.0865089115809446e-04 4.9319517562169783e-04 4.7328704240923950e-05 -6.7539868182497952e-04 -2.4965702040134347e-03 -9.6959149982030679e-05 7.8354565042856213e-03 -1.5448115954030139e-03 -7.0233390857624752e-04 3.5408002757228996e-03 1.0333554254054924e-03 1.4560469518933006e-05 -1.0453782517062132e-04 8.6706328787762051e-05 2.6468011349043905e-04 5.9675787023500651e-04 3.7429711365083614e-04 -1.7719333929442928e-03 6.4776937614613233e-06 -9.7966967510266676e-05 1.4745793516422658e-04 -4.4219246869287021e-04 8.5688378806271503e-05 2.7750371738652965e-04 1.1448320958035553e-04 1.3432990629488883e-03 3.6204441564704429e-04 -4.8510650314093767e-04 5.4559944366894264e-03 6.2555564889341803e-04 9.9439153762815626e-05 -1.5381906569367242e-04 -8.6182640986538664e-04 -2.2120174301259229e-04 1.0899905637230768e-05 -2.0272859201450610e-04 -6.8127256556749466e-04 6.1754222546683249e-05 6.4375463562579686e-04 8.1601635887211272e-04 -2.5719001980598066e-04 6.7423684468212930e-04 1.3049891122102297e-03 2.8914111831417110e-04 6.3538464456208699e-04 5.0164491254076440e-04 -1.6082165592884857e-04 -9.4469012710685085e-04 6.4922687411350774e-04 -2.5944286864332873e-05 -1.7215162945535736e-04 -6.6872173029261213e-05 1.3705037712200517e-04 2.0886897098354256e-04 1.5125865768165353e-03 8.3280158937319888e-04 2.5714835944305129e-05 1.1230528681032840e-03 4.1335889577531759e-04 -2.4601141112375779e-04 2.2645725520621203e-03 7.8853846997608661e-03 9.1528619814155304e-05 -8.5307582995029496e-03 2.0022755935461805e-03 6.3378268969723102e-04 -2.3699532465381035e-03 6.4258465066305173e-04 1.2348600743282076e-05 -4.4904376754428994e-05 3.2926435221789820e-04 -1.7062207177418569e-03 -4.4739152399549467e-04 -7.8865633717703498e-04 3.2545916486672070e-05 9.6124467638101369e-05 2.8462151489548507e-04 2.1442605809191733e-04 -1.3888803578398769e-04 -5.1866147857545565e-04 -6.6786169905680838e-04 4.1787758073909254e-05 -2.9155688738813357e-04 -1.3105576878091039e-03 -2.6068055809255367e-04 -6.5185894785438347e-03 -2.4242029219392642e-05 2.3059832406568774e-05 -1.5391403310079502e-05 1.9009571039937972e-05 -1.9100559087048660e-05 9.1594435267982496e-05 -7.2541573725576347e-05 3.7435429658859974e-04 7.9034787414370214e-05 -1.2483260521975936e-05 -2.0010575196608744e-04 6.0629652579697333e-04 1.4633962916693480e-04 7.8283834447248407e-04 -2.6070985992818207e-05 8.7378474026872377e-05 -8.6818490196239727e-05 2.5343001153786373e-04 -2.1586031753579316e-03 -2.0208901650616909e-04 2.8594879415676298e-05 -8.9142393087577633e-06 1.1260958782015547e-04 -3.3181631509561840e-05 -1.3287582835515115e-04 -2.7060378412271935e-04 -3.5689661387261766e-04 -1.2456390109803208e-04 2.6680028256110411e-04 2.1700934609899386e-05 -3.5594356792719481e-04 3.2158210246244169e-04 -6.3713300830119406e-04 6.2490174919156938e-05 -1.4620495744025091e-03 -4.2223589802983243e-04 7.6424511647043094e-04 4.8809411954580106e-03 -1.0933628868081014e-05 3.5993696243510598e-05 2.3973173683585650e-05 -1.7793734523235269e-05 3.2005790626141758e-04 1.2950412297862648e-04 1.5759738771054382e-03 6.8434237899575208e-03 1.2465666627340850e-06 -6.5181711555820576e-04 -1.0268989638390590e-04 2.3304863721755782e-04 -7.8944562538312728e-04 -3.7330682453587446e-03 2.9425770069618144e-04 -2.6154094550615847e-03 -1.7310816729319372e-03 -2.2051416162629112e-04 -3.8114081153395318e-06 -7.0052404532217928e-04 -2.5496506153397958e-04 -1.1689563108144567e-04 -1.1835691736227614e-04 -1.0393695978062611e-03 -5.6866390237856126e-04 -4.8131028155258375e-06 -6.8832055545929463e-05 -1.0657358675921371e-04 2.1731297561433777e-04 1.3139528169246674e-04 -6.9351498202792803e-05 -3.4375400261812961e-05 -5.6943383936827616e-05 1.5606195464556842e-04 -6.1245325650773523e-03 -2.0614378769925383e-04 -1.1013059473706985e-04 -1.3051013739128203e-02 -5.7443448205328360e-06 5.6288401295376771e-05 8.0635077737035999e-06 -8.1330360153154162e-05 4.1647761916082868e-05 -5.7139612058921770e-05 4.5109267155875321e-03 -1.5992651813064142e-03 8.2479355668255692e-05 7.3340348285902196e-04 -8.1138771744423781e-04 5.7399997160211349e-04 -1.0598424575939710e-03 4.1385763453564046e-03 5.4274500405864987e-04 -1.3343324958902204e-02 1.8317410020588240e-03 -8.4938294811347974e-05 -2.1453588056101480e-03 2.1884549170958500e-03 3.4971035418622694e-05 2.8201654607897127e-05 -5.3702158779929540e-04 -1.3427317678823261e-03 -1.1050702293977318e-03 5.7202180413446456e-04 -4.3471115459789390e-03 -1.2903747436914889e-04 -4.0398650726009549e-03 -9.3542130419784083e-05 -2.6880038139050428e-04 -5.0839124533494460e-04 2.9081263752515954e-03 5.5720653014073576e-05 2.9813716800582146e-04 -1.1217276373218243e-02 -3.4784860935532531e-04 5.4384011274042944e-03 -9.6295113636564057e-03 -1.8169271440346413e-04 2.7683193555021852e-04 2.4343704308070254e-03 9.8714782720105653e-05 -1.4566103831575336e-03 2.1415839073826628e-03 
      </Row>
      <Row Index="154">
        1.1981402217838364e-03 -6.0854010469456842e-05 1.8426106223508425e-03 8.2617471197877525e-04 -1.6919163132314632e-03 4.6224477353768318e-04 -1.0133679062659376e-04 5.0792856348017815e-04 -2.1137773010364395e-03 1.9306667832909574e-03 -3.8713790400274660e-03 9.1480499491815651e-05 3.9380596920777222e-03 7.2403576264619559e-04 6.4805447898726165e-05 3.7190230086022488e-05 -2.4570012270856006e-05 -1.4002843309530695e-04 2.2023848842058109e-04 -4.9696149033960635e-04 -2.3574721583890070e-04 -2.6558792173644978e-03 8.1854760892119708e-04 -1.2128474113373353e-03 -8.5579219913485549e-05 2.4813742086172985e-04 1.0111378523798237e-03 1.4768247881090379e-04 -8.2106756455833929e-03 3.8738657220841041e-04 6.0357126177187220e-05 -2.8179553802578639e-03 -5.0334525898923098e-04 -1.1158087203952502e-04 -2.7601865078885623e-05 -8.6771383340178123e-05 -1.9350253581318366e-04 2.7278776772032051e-04 1.9573994083637997e-03 1.5682749662100125e-04 5.7334952689109576e-04 3.5314758832365395e-04 -2.2967620775777263e-04 -4.2747030687845244e-04 1.6093769293396010e-04 2.2967133550198023e-04 4.7246735153315036e-03 3.3044892797592373e-03 -1.4400778001679871e-03 5.9511181998585239e-04 -3.7831777774721687e-04 4.0216898022939619e-04 2.4766017551796846e-04 9.0337867910884016e-05 1.4698226353566934e-04 6.0440468537570693e-04 -6.1670304856509955e-04 2.7567029994541581e-03 3.4016354231766743e-05 9.5421355557258640e-04 -2.2037529908511960e-05 -1.9852426150076402e-04 -4.2957712859963311e-04 -3.1776353749051606e-04 -8.5284086305786877e-05 5.3538542498916750e-03 4.5574112668762545e-03 -1.4335197019343035e-03 5.6438249847013278e-04 -3.3306460871784793e-04 -2.0131155620298821e-05 4.1173030066044046e-04 6.1642298085233353e-05 -1.6409631597292910e-05 -4.6621983882829537e-04 -3.3819499594314739e-05 2.1893787397667119e-03 6.2511575415776649e-04 3.6479908186792306e-03 3.0799393236310979e-04 4.1619946649221196e-04 -2.0935499307555812e-04 6.1384776453505402e-04 -2.3404089290595675e-03 4.2006840526676026e-04 1.6164347062312956e-03 -1.6282404249172225e-03 3.1949525847148851e-04 3.3157557916647651e-03 -5.0398878731420377e-04 -1.7910788430874729e-05 -3.5349373091429770e-05 1.1574507750710967e-04 -9.8325883842315109e-05 -1.3084850325154052e-05 -3.5087796851001052e-03 2.9727747059628707e-04 -5.2262486227134019e-03 6.3626117956071108e-04 -1.2243619100237874e-03 -4.9749367408208345e-04 -3.4539346438836223e-04 7.9953833210491901e-04 5.1656055123876178e-03 -9.6497574062421754e-03 3.9486344808882887e-03 1.8850277479879967e-04 2.5514670144145546e-03 -8.8297987759960550e-04 -2.0385646054603629e-05 7.3728766751022439e-05 -3.4392231573216560e-04 -1.0266080771218402e-03 -2.1994192935354299e-04 1.4138211505428933e-03 7.5125780554807960e-05 -2.6200381792098465e-04 3.8356754248110130e-04 -3.1209192056786848e-04 1.0075230274801880e-03 3.4489335971152855e-04 -1.2244403429286822e-04 3.0332604465069940e-03 1.5497293770112552e-03 8.1393608660849937e-04 -3.4577591269575176e-05 -1.0357213135538945e-03 1.5539519219378239e-04 1.9232363501412233e-05 9.3091839453825036e-05 -1.1704189687506978e-04 1.6477990596430736e-04 3.5283722902026970e-05 2.4902060643470225e-03 -1.3019467344484083e-04 9.2124081256017044e-04 -4.4594676158451238e-05 -3.3231292927045700e-04 -2.9274860593431380e-04 2.6311075826864622e-04 3.8983981563014654e-04 1.7239153870452413e-03 3.8683842857599321e-03 2.6677588532021223e-04 -5.1615722210432511e-04 -2.4109126218014865e-03 -2.6750950225746606e-04 -8.2503746821574572e-05 2.0167990253752070e-05 1.4011896867070273e-05 -2.0645617170829964e-04 -1.1271936787121597e-04 -3.1482623214208472e-03 1.2465666626871458e-06 1.1642058693052564e-02 -2.9626786187177514e-04 -5.1807482650054193e-04 -3.4859659375235420e-04 1.0942800221060769e-03 -5.9094797243189334e-04 -2.1541592486892061e-03 4.8595327890066375e-04 1.6611535182124164e-03 5.0155974820291840e-04 2.5693133392312717e-04 -6.4456507657179246e-04 -2.7650366347732689e-05 -1.0380163995489956e-04 2.4895227530515908e-04 -1.8058792465807660e-03 4.2164910332253766e-04 -3.2264643194501032e-03 -1.7175588685904150e-04 1.3878991003650558e-03 3.5585605346038791e-05 2.2810346746983141e-04 -3.0990884868559230e-05 3.7467938679503279e-04 -3.9073598074664949e-04 1.6549913368257407e-04 6.6482858623130754e-03 -4.7171744615789798e-04 2.2161823789634198e-04 5.6500505841308168e-03 -7.1513850778291070e-05 -1.6912450977474769e-05 -2.8546153952022741e-05 1.1116241894649840e-04 6.1405011257938125e-04 5.8856951776213541e-05 -4.8302990710744273e-03 4.6326893527973579e-05 -2.5541179157992453e-04 -5.1982892653549455e-04 -1.0224170457275011e-03 6.0857829184120683e-04 1.9996378628668529e-03 -4.0313264946086926e-04 -3.8718351774291813e-04 1.1049491470725877e-04 -3.4317399530448887e-03 3.8290249016147354e-04 5.0118659466669158e-04 9.7883673523714966e-04 -3.3592029655515085e-04 8.0240670564966921e-05 -3.1334763415031533e-04 7.5301398754156965e-04 1.1747114080754950e-03 1.4733433057990408e-03 1.2682280237478871e-03 5.8720084679254516e-03 3.1413671674810038e-03 1.0163945608521055e-03 -3.5828900695656046e-04 8.6827615180147533e-04 -1.0292809214214839e-03 6.2714040930510716e-03 9.5796981331376825e-05 4.9913419890883510e-03 3.2445514732759627e-04 -8.6432059321632157e-04 6.2762211764178484e-03 1.7531314798792360e-03 6.6257681095409577e-05 -3.2215157068881273e-04 2.9418528430267144e-04 -1.1420562459701457e-03 -1.0532207985552010e-02 
      </Row>
      <Row Index="155">
        -1.5968025777293414e-03 6.9513168910184664e-04 -2.0487623820094128e-03 2.7232221725841188e-03 -1.1091588564709327e-02 -9.3439817636162248e-04 2.0885328184971222e-03 3.9832874052466308e-03 -3.7675950677722725e-03 1.8722890496545741e-02 -7.7647435952695604e-03 -5.0464883829037799e-04 -2.5075075812824865e-03 -8.2379181620651832e-04 -1.2513920338033755e-04 -5.8708676730247341e-06 2.5921375660421624e-04 -4.8025462146864331e-04 3.5598410265237027e-04 3.6345138472676508e-04 1.0429717620729639e-03 6.0442413686924434e-04 2.4771926756315837e-03 -6.2329327573975163e-03 1.5551263097084156e-04 -4.3256401397672450e-03 2.4831052809881357e-03 -2.1420149758100485e-04 8.6123116152947155e-03 -2.2599842012792663e-03 -4.3582034747027820e-04 2.5225997086337770e-03 -7.2933271851303386e-04 1.5278168415471883e-04 6.1522658085060022e-05 3.1691482319240054e-04 -1.3301684475196807e-03 1.7133878097906792e-04 -5.9699036943026973e-04 1.8324080868426640e-04 -4.3881966334332820e-04 -1.3245265997122889e-03 -2.1645523667176148e-03 2.9949501976059625e-03 4.1741914523567014e-03 1.9968831105969427e-03 1.2904763604804290e-03 -2.4108362311698883e-03 6.4633642798725410e-05 8.4902097040640001e-04 4.0638246456916605e-03 -9.3663769693699134e-04 -4.8907346707858373e-04 -1.3605278527782129e-04 5.8518042773285026e-04 -5.9349325133582070e-04 6.4580097070964914e-04 2.3900822936867017e-03 -7.2082893766324194e-05 3.1208796037848069e-05 -1.7387688137232571e-03 -2.7430067659907839e-03 2.1510047272255842e-03 -6.4948562547844577e-03 6.3361720569706653e-04 1.9864761559358207e-03 -1.2067119231122359e-02 2.2461331596130250e-03 6.2867024480296740e-04 4.5036843139456550e-04 -1.8219132294762901e-03 -7.7582837371765654e-04 -1.6784120522093590e-04 -1.5061334054584236e-04 1.9509218055632771e-04 -1.7834100790500157e-04 1.3547169484081634e-03 -2.2484538183863700e-03 -2.8913002928478843e-04 2.5798208357494246e-03 -9.1884165288913522e-04 5.7606424568083011e-04 -1.8760974503437625e-03 -9.6382461984053647e-03 6.0255483747040373e-04 -2.0051588989438152e-03 1.6882075757029408e-03 3.9946058105231469e-05 -4.2918396618460974e-03 -2.2615905657514465e-03 -1.3487984570953633e-04 -1.1914424856023648e-05 5.8529198513361871e-05 3.7837035843876071e-04 7.6731707770588686e-06 3.9100341805170524e-04 2.2612273986512017e-04 3.3469227400751041e-03 -1.4173099627299447e-03 7.1515503565597327e-04 8.7675644606901616e-04 7.5070207212158020e-03 4.2240745844039770e-05 4.8547266968816732e-03 -5.6576287385080859e-04 4.6448474757580620e-03 7.5079800143738971e-04 5.0159749282130406e-05 -3.2758704851520515e-04 1.8087164201434401e-04 -1.4247886224601789e-05 -4.5927669554153843e-04 4.8572482642429823e-04 -5.1564914795244475e-05 4.0762887486389676e-04 -2.8781426353225240e-04 9.1749558152366684e-04 5.9917145517075950e-04 3.7182757705754100e-04 -5.8128812458582389e-03 8.1311765834433600e-04 -1.3645443764662025e-03 1.2927406784183984e-03 -4.6468111816868607e-03 8.2142216450850625e-05 -4.4723972864626484e-04 -4.0014500556346810e-03 4.8983044854878483e-04 -2.3988894013437893e-05 3.3006322649910616e-05 3.1448022852735439e-06 -3.6272420084565438e-04 -1.4289172811071671e-05 9.3001665448547155e-04 1.9783289314819798e-04 -4.6847986130710978e-06 -4.4498961275104979e-04 -1.7160081105325521e-03 1.9961421049841041e-03 -2.0877576502390653e-03 1.7058948077408576e-03 1.1328991482332119e-03 -6.5415420834830096e-04 1.9130728392220918e-03 -6.2291765511439173e-04 3.8236936297906254e-03 -2.3875818430952819e-04 6.1651825218322979e-05 -4.8744868066474909e-06 -1.6195298666831425e-04 1.6453920412069079e-04 -2.2173736514412290e-05 -1.3150415953568917e-03 -6.5181711555807251e-04 -2.9626786187194015e-04 8.1660419595855956e-03 -3.1833887245866221e-04 4.3097451043994789e-04 9.6379154525160632e-04 -7.9410523274711653e-04 2.7269604724574096e-03 8.5392201211144103e-03 2.3759605522767490e-03 2.9839216025596277e-04 -1.0146997801605551e-03 1.2749754836216356e-03 -2.5436856126650033e-04 5.8681409961427317e-06 -5.9465084579444875e-05 3.8771936470042567e-03 -2.5367777481798137e-04 -1.1171666314556822e-03 7.1106396741014207e-05 -3.2690101964856163e-04 -1.3887602139113202e-03 2.5027570326629806e-04 3.6426735589184013e-04 3.8717979910022331e-03 2.9905789409930212e-05 4.8768478650345926e-05 7.8730332603847604e-03 2.1987414392890432e-03 4.6664133970056212e-04 -2.6721617763669769e-03 -6.6883302824342461e-04 -2.3345512425401727e-05 2.0151731396071898e-05 -4.2935167266870623e-05 9.7906094837337670e-05 5.5203966390195494e-06 -7.5189655260959332e-03 2.0263806450486923e-03 2.7722183845390463e-03 -7.1769071316795507e-03 4.7942081622259075e-04 -2.8510862218120206e-03 2.4861545877113943e-02 3.0149930310087994e-03 1.6023786960324632e-03 2.0909313512031388e-02 -8.2925068342137361e-03 1.2100099521490733e-03 1.3029521381692000e-02 -2.0270898995708264e-03 9.2979062788205993e-04 1.2511412439076067e-04 -7.1450601309603809e-04 1.3720944264236402e-03 -1.4813427444144533e-04 1.8046987366390765e-05 -2.2783535135991297e-03 -1.8680586473286585e-03 3.1392024413395739e-02 4.5162684120935003e-03 2.4773894016656708e-03 9.5643457501103975e-03 -5.0056950067255334e-03 2.7638176133351487e-03 -1.4731638715629806e-03 1.8157797606052548e-02 4.5916989233324608e-04 -1.1283173666939775e-03 2.2316695156423993e-02 -2.6329748035644838e-03 -1.2858752421690740e-04 -1.7473984491570916e-03 -2.2677580611021506e-04 8.7241051185713860e-04 -2.0280066043390981e-02 
      </Row>
      <Row Index="156">
        -8.0686710323089883e-04 -1.4073781432398557e-04 3.1527454978722697e-04 3.5603714612295794e-04 -5.1988704890883572e-02 9.0735479814435787e-04 2.4831609531804581e-03 2.3925532393645845e-03 1.5827574704786428e-03 -6.4048107954711719e-03 -5.1261653123399467e-03 4.4951309672563305e-05 5.8395123831511686e-03 5.5270950703624998e-04 -1.8411995130038564e-04 -1.3018581557104934e-04 -5.7413845517339385e-05 -1.2807587089186767e-03 1.0734454844372821e-03 -9.4607079788544546e-04 -3.1263968610652400e-04 -8.7310926080184925e-05 -4.2498400579731786e-04 -2.8969225444221841e-02 6.1313787477603257e-04 2.4353766872306920e-03 6.1883054611452449e-04 1.4630769245321598e-03 6.2873025107918201e-03 -2.6356833264683860e-03 -6.0985448234150696e-04 -5.1180337191087943e-03 -4.9199334684264795e-04 -1.2516992231811517e-04 -1.6473979507413902e-04 2.6304325927493130e-04 5.1254917083201623e-04 1.3236222386597916e-03 2.8753619108173867e-04 3.5079531155559528e-04 2.1827247081664808e-04 -5.5352369675669855e-04 -1.5043904016652929e-02 8.8073428184832006e-04 -9.9416285384754111e-04 1.2023761628873718e-03 8.4770735947021017e-04 2.3792088723992855e-03 -1.5578539811254011e-03 2.0935585290263181e-04 1.8459060725941612e-03 -2.1319848605396070e-04 -8.3245388616939864e-05 -5.3276424676599980e-05 1.9947783161312904e-04 5.7249334790422657e-04 -4.0017247308184178e-05 9.2942845705273891e-04 8.7027352365195987e-05 -6.5276252511217627e-04 -3.4265588142332222e-03 -7.6183904324437640e-03 2.7654269462530547e-04 -6.3709846770478029e-04 -4.7612360068612081e-04 -4.3659902780750215e-04 8.8632426458099545e-03 -1.3680091688112218e-03 2.2230557911456783e-04 -3.2553883821329066e-03 -8.4908440572110271e-04 -2.2120896305237166e-04 -2.9060602990982690e-05 2.2043214100228928e-04 -1.1641507629261971e-03 -3.6643435676516657e-04 1.4345865152698423e-05 -3.8815581900025764e-04 -1.3879897049126275e-04 -4.5543936292691267e-05 4.5287341014412508e-03 2.1249608776260052e-04 -4.8528265202692905e-04 -6.0759471848014224e-03 -2.3110627916905768e-04 5.1718300237961756e-03 -3.0677633821454831e-04 -2.8566813712693415e-04 2.8188164984292996e-03 -1.6970009285132426e-03 -1.5631204080038263e-04 1.4256165265302129e-05 2.3079188640937054e-04 -4.4417427277515520e-04 -1.6240881686341302e-04 -5.7955736977322037e-04 -3.8132776552735059e-05 -1.0210668765285348e-03 -1.3508386506953618e-03 -4.1612703104993223e-04 -2.3944793732673907e-05 -6.4916060996177485e-04 -7.4334641598249171e-04 1.6643157300450526e-03 -9.1678940226358474e-03 -1.4660759274385052e-04 -8.8037913421681619e-05 -5.7627377413926872e-04 -5.0160268484960267e-04 4.2724356955685990e-05 -2.5629499756557963e-05 2.8763643553924309e-04 -1.2891420454209327e-04 4.8842012490244412e-04 -7.2465905745566772e-04 -8.3676736770479238e-05 -7.0269700699593374e-05 4.5576500386521404e-04 2.3391396573182260e-03 -1.0229925710456278e-03 5.4282177824835701e-04 -7.3724115541195026e-04 1.4699115132481150e-03 2.0806594341249207e-02 7.1854419125173472e-04 9.6187243344710016e-05 2.0355605251172193e-03 1.6208427459300941e-04 3.1734694787741505e-05 -5.0992758151222062e-06 1.0644894966518946e-04 -1.6864958812951025e-04 -4.9485948716287975e-06 -1.6118148044441671e-04 5.4808492450441476e-05 -3.9912416155899084e-04 -2.0813811810340703e-03 -8.0531582496905750e-03 1.5083236351247885e-04 -4.1212251948955468e-04 4.9160751799817563e-04 -4.4232409848673636e-04 -5.4516441576406977e-04 -3.8230990255841034e-04 1.6660040872666562e-04 -7.0461575965321543e-03 -2.4635385220527731e-04 -1.7651838291560094e-05 -4.2837868483762876e-05 2.0933225824907534e-04 3.3441726053131868e-04 -1.8031934175521958e-04 8.3967387373617974e-04 -1.0268989638398049e-04 -5.1807482650031230e-04 -3.1833887245715734e-04 3.0588246076671835e-02 6.2569343762114427e-05 4.6310856477178863e-04 -6.5111937858483571e-04 1.0416850477825985e-03 1.5826893138609743e-02 2.2554534077795360e-03 1.3636271945852568e-03 2.6915674459733196e-03 4.6591563971643720e-05 1.2444992384491973e-04 -5.4768879856198494e-05 -1.3045779600577350e-04 -3.8608997524719468e-04 -1.0874422403355649e-04 1.3729756535839077e-03 -2.9693118226050818e-06 -3.4909131906300339e-04 -1.2738558818315615e-03 1.0865434772782106e-05 -1.8452001180154897e-04 -5.6666268062239991e-04 -2.4598979489471543e-05 -1.1418096486175025e-03 -3.0773102467627059e-02 -4.7966606670357643e-04 2.3929951661697283e-04 6.4188628108157175e-03 -2.6431104787000661e-04 3.7127042462966383e-05 -4.5692111758153793e-05 -4.9748992829305705e-05 5.7013087448304182e-04 -1.4200928025143340e-04 2.4981812215405241e-03 -3.2917228705658290e-05 -1.9888707928618528e-03 -1.5494331286967656e-02 3.0994379941890536e-03 3.5300648073588979e-04 -2.4149159507649530e-03 1.4180136828707093e-03 3.2264296476931767e-03 -5.6874813273685140e-02 -7.3736656881420361e-03 1.3864488743429665e-03 1.2080475318936523e-02 2.5674809317864328e-03 4.4944713455485549e-04 -2.6167380171502653e-04 -1.7242900242400293e-03 2.0283216579934206e-03 2.0060025857636396e-03 2.5973487508960946e-04 3.2628077743967164e-04 1.6294988769935143e-04 2.4563543972868536e-02 1.9742814302891095e-02 4.0056666838444999e-04 -8.2208183374895757e-04 -2.9244772781314259e-03 1.8910377592897950e-03 3.9042847923417712e-03 5.8503536463781324e-03 -4.1148626803417035e-04 -4.8843763699605580e-03 1.5437827309543909e-02 -1.1742305290682320e-03 -1.4748114081007116e-04 8.4762372852969798e-04 3.5451157668602235e-04 -2.2258821236692018e-03 -2.2692896173407709e-02 
      </Row>
      <Row Index="157">
        -8.9488942188617471e-05 7.7151879358719217e-05 5.9884643491891348e-05 8.8072593625551448e-04 -1.9343646043033062e-03 -2.5315516207967603e-03 4.8716451727110800e-04 1.6850540502058695e-04 -2.9780295383342956e-04 -1.8399943874399249e-03 -1.1924367744931470e-03 -1.7855866692443375e-04 -1.2000937544075496e-03 -6.5414093657911873e-04 -4.5916504613707169e-05 9.2583218027343878e-06 4.3054129669631638e-05 -1.3385416387675575e-03 3.2603503924936322e-04 8.2440071237424584e-04 -6.2859845554249193e-05 1.3829573787237093e-04 2.5093634874843996e-04 -1.1259231497983344e-03 -1.9837572207701071e-03 2.2285278811853739e-04 1.6292384989193600e-05 -1.5744203294925860e-05 4.9147316614851708e-03 1.2360311241076246e-04 4.0863428581221217e-05 3.0547059376777597e-03 -1.7256217070614499e-04 3.1113573412556517e-05 1.0117979068651264e-05 1.8655138102873853e-05 8.2015324859713995e-04 6.8920485392452149e-04 -1.0663524740572167e-03 6.2185874531374728e-05 2.5353723474388001e-04 -1.4135178393480949e-04 -4.5963656242862735e-04 2.4519814364488794e-04 -2.5007424880445564e-04 -8.8459831444877334e-04 1.0553652984205200e-04 -3.9516638319830877e-03 -2.8469530443021689e-05 3.8691864961386269e-04 1.7393719730320889e-03 -7.0863640009530401e-05 -1.4643341835008511e-04 -6.8026568474124438e-05 2.0840405379469757e-04 1.2649665742543552e-05 -4.7100394643919980e-04 -1.0750148106482282e-04 2.8939781418780772e-05 9.5730706813559538e-05 -7.4175268905277321e-04 -7.4931087161007187e-04 1.5413506634363049e-03 -1.1114831051672047e-03 -3.2142121636215271e-04 4.5721447108185848e-05 6.0615644457195916e-04 4.7097439845974077e-04 3.0726254133148657e-04 -1.6075139113533865e-03 -2.3503740157986366e-04 -2.1728949402405361e-04 -1.8516614698135814e-06 9.4100924047357468e-05 -1.2253733492751315e-03 -3.4676551660652293e-04 -1.1442629473970567e-03 8.8376087037485979e-05 -1.8631517705870737e-04 -4.6448626557808737e-04 -1.6107129586777347e-04 3.1727965365276026e-03 -7.7126713565293936e-05 -6.8366232923391945e-04 2.9609286558796022e-04 8.0361439948355429e-03 1.3177978563007689e-04 1.9214093278881010e-04 -5.8576769970122289e-03 -5.8743510194950469e-04 3.3790690015084689e-05 1.1383233927230244e-05 2.1782810060699560e-04 4.4197893807959576e-04 -6.9751436601837857e-06 9.9348872120420817e-04 -4.1662760890189433e-05 3.4294592868306994e-04 -4.2419537295486430e-04 -6.7657020387532421e-06 3.9140954086943486e-04 2.3266082876872290e-04 -2.8585567328633663e-04 1.4990643558495222e-04 -8.4785970636805548e-03 9.8087609265996509e-04 1.6371446327744388e-04 -2.7723118816918024e-03 2.1231643725848359e-04 1.0321574081580435e-05 -2.3690100903537775e-05 -6.9073643563024006e-05 1.5986664832202014e-04 2.4062861462421437e-04 -8.3759052008958168e-04 2.2124973688810150e-04 -2.9395049773232179e-05 3.6671324643659667e-04 -2.5544496522156377e-04 -4.5598124765452042e-03 2.4259535951559191e-03 7.3011591258176790e-04 5.5887674211676716e-04 -1.0444039191224164e-03 4.0587720989309663e-04 1.0108920378280590e-04 5.9380489943370307e-03 -1.0734451140521244e-04 1.5049839334615382e-04 1.3268304236831348e-04 1.1042621338077757e-05 -4.8363061216040448e-04 -3.7795285575199788e-04 -4.6852219362643333e-04 -1.7914794741000824e-04 1.1493895644167562e-04 -4.7367560789439298e-04 -3.3548994927323176e-04 1.7558189121347359e-03 -1.0294840881316682e-03 -3.2083003501929782e-04 1.2066106344881436e-04 -7.0274841702477539e-04 7.1088930116463937e-04 -7.2291885251006430e-04 -4.9103461215782573e-05 7.1176124535172564e-05 -1.6273394061213393e-05 8.6460018002877139e-06 -7.5576802148728946e-06 4.3430600469714011e-04 7.3569473026984227e-05 -1.0576438135563304e-03 2.3304863721752486e-04 -3.4859659375227142e-04 4.3097451044009794e-04 6.2569343761958301e-05 1.6067781433164178e-02 1.6889984728666457e-04 2.0352531249821088e-04 1.4820815265306798e-03 -7.4533225233698597e-03 2.0700451932597493e-03 1.5782581708021631e-04 5.2970793708952968e-03 -6.2315801415204169e-04 1.9973480473569249e-04 2.6761414768315239e-04 -2.3455985200900118e-04 9.8263307545339018e-04 -6.7786331716257475e-04 6.2766824876428658e-04 1.0787973247945154e-04 -5.3121017190950793e-05 -4.3213850942641022e-04 -2.7427632902790020e-04 9.9470457275028135e-04 2.2169722544857840e-04 -1.0127997663337678e-05 -8.7782996478903903e-05 -1.0509868548131270e-02 4.1660533369878769e-04 4.1981764978008657e-04 -5.8263556443354236e-03 2.5431896730034148e-05 -2.3577426980163813e-05 -1.9890119248830002e-05 -3.1457459972422293e-05 6.2596970631913326e-04 -1.5141776120093303e-04 -1.6733407087596080e-03 1.0972388943461858e-03 2.0461365619994819e-04 -1.6884564756533067e-03 -1.9585637705444897e-04 3.6452254707153159e-03 1.1556027227493707e-03 8.9658910160806836e-04 -1.0454891399124823e-04 -3.9246278008965116e-02 -2.7501246054444039e-03 7.2903513466758562e-04 6.6282759690149684e-03 -1.0703868233041271e-03 3.2332951745069592e-04 1.5802670726159801e-06 -6.7105778707242879e-04 1.9193689821743901e-03 6.1588687311947576e-04 -5.3664283983526073e-04 -7.1717298584729212e-05 2.6489706307092874e-05 6.0293521869616718e-03 9.3351390597916947e-04 1.5300642078313711e-03 2.8261166799519810e-04 2.8137953416260564e-05 4.4437501952319925e-04 7.6515998867793494e-04 1.0424455970626332e-02 4.6713333630968496e-04 7.2161516483274998e-04 5.2321789998398885e-03 -8.0607145602817724e-04 -2.3758180455042124e-04 6.2637524621639252e-05 2.6135923685958714e-04 -1.5587584237982271e-03 -6.3604115221031826e-03 
      </Row>
      <Row Index="158">
        -1.7548594455880431e-02 2.2256800480713324e-04 4.9610750108869395e-04 8.5240945680217805e-04 -3.3757149228708094e-04 2.2012162350560673e-04 -1.0166138700816310e-01 -5.2250965135180777e-04 -2.5580088388817285e-03 -6.5671061969503342e-03 -9.7661367717256226e-03 2.6986517156033923e-03 -1.2436992194658014e-01 2.0238551115871815e-03 4.5140125857014504e-04 4.2631698486307753e-05 6.0723458794335189e-04 1.0952752452892671e-02 -1.2536062886689438e-03 2.0867185828550183e-02 1.3013257320474737e-03 1.5626087306432057e-03 -4.7061579760455533e-03 7.9970757114733448e-04 9.5820142085811799e-05 2.6210302367787305e-02 -5.5143357679173161e-04 4.0440852477661993e-04 -2.6246431173355123e-02 1.4180961306324846e-03 -1.3807990715765661e-03 1.7926725760584361e-01 -4.0801407201194496e-04 -9.2253956024180087e-04 -3.2471041832207725e-04 -1.6067637079767313e-03 -5.2372042213828518e-03 -1.6350009986592154e-03 -1.9551770318623818e-02 -6.5831009287586049e-04 -2.5821403004448740e-04 3.9856438133432683e-03 -3.1515894066996841e-04 -4.5477816280489747e-04 -7.3641814015041218e-02 1.1892975229860214e-04 1.0047986651619406e-03 4.9526746716482606e-02 -2.6754924654657231e-03 -4.6151781945868997e-04 1.4197678308577721e-01 1.0380581800408469e-03 7.0710565887799337e-04 -9.3230420667122366e-04 -1.7888649487461383e-03 -4.6454435732603550e-03 3.0240758489049648e-03 -4.2888407925585348e-03 -5.0705968257604150e-05 1.3982530402369686e-03 -3.5940379731877886e-03 -2.0744972296196651e-04 -7.2406247652114647e-04 9.0094879171201236e-02 5.8516244379847038e-04 1.3353137261567782e-03 -3.3925874771195019e-02 2.0016225569505913e-03 -2.5239417341912027e-03 -2.5191109628096342e-02 -6.3546083848390190e-04 4.2842407216691324e-04 -7.5036583763466586e-04 -1.3369055302458188e-03 9.5089997745467780e-03 4.1337793988298135e-03 -1.3373166254659008e-02 -1.9557181604369367e-03 1.0117353021587561e-03 -8.4347019015662550e-05 1.2092931587818212e-03 -9.0104687389524346e-05 5.5671494216205125e-02 1.6660082338644244e-03 1.7527388615945494e-04 -1.7892082271783849e-02 4.2090164521599860e-03 -2.9937920996707390e-04 -1.2959328460162034e-01 5.8723183526193656e-04 -3.3758788440529930e-06 -1.7296915566970827e-04 2.3454626286782687e-04 -2.0508500842958410e-03 -1.0851268271844239e-04 2.2331186862301289e-02 -1.9128096847509379e-05 -2.0941999166016502e-03 7.2296528086344975e-03 -2.2339059108960196e-03 -4.8352271740042738e-04 -4.6713815553035200e-02 1.2781406907610374e-04 2.0914559422631068e-03 3.0392796269752900e-03 4.6043738026231322e-03 2.5629675063285548e-03 -1.1608620782792300e-01 3.8563669996938797e-04 8.3112560163115315e-04 -2.0289773939240218e-04 1.0021656193975660e-03 -1.3347920538894966e-03 -3.0280208252425798e-03 -3.4087385224417233e-03 2.2029233306306018e-04 -1.5815113818362647e-04 5.9035859228204202e-04 3.2296241583567101e-04 8.8328118546307510e-04 -5.6623130586522241e-03 -1.4192994605648906e-04 7.8772914723687637e-04 2.2714956245350137e-02 1.9828693312935325e-03 9.6309991844891960e-04 -5.5676968641545699e-02 -5.3190648777311222e-05 1.8230379227256871e-04 1.7158426914715141e-06 4.5591844124572055e-04 -3.8142625477218806e-03 -5.5103233302844501e-04 -7.0120275557256084e-03 -1.2225752457012407e-04 5.0211394865971870e-04 -2.3868641979456094e-03 1.7776910385299896e-03 -7.0730135033563943e-04 3.8535930930767917e-02 -4.1877021173457058e-04 1.2064870683323812e-03 -1.5593401849389538e-02 3.3622772025354293e-03 2.7391962521430141e-03 8.8221203994216069e-02 -3.6822536092982164e-04 -2.3983099306022391e-04 -3.1965730295741100e-05 -7.3032401858391769e-04 -2.0158684220533954e-03 7.6116525108820346e-04 -1.8222797716420658e-03 -7.8944562538382779e-04 1.0942800221071095e-03 9.6379154525132876e-04 4.6310856477294049e-04 1.6889984728721275e-04 8.6933192687977084e-02 2.0775546753660779e-03 2.2817218439467376e-03 7.5492493824589335e-02 3.9422326618050790e-03 6.3915554569682342e-04 2.4039686217150802e-02 2.0757221827810645e-03 5.2431187027894110e-04 -7.3607431329947293e-05 1.3978710954209786e-03 -6.5407356147763052e-03 -1.1137967411143368e-03 1.5310558808710649e-02 -4.4822341572950571e-04 1.5153706366690485e-04 3.4360339428045187e-03 -5.8010824977913647e-04 7.3733674106694978e-04 -9.9011380608292586e-03 2.8998398208381358e-04 6.8607649404910293e-04 -6.1299820448536359e-02 -3.3885141284964226e-04 -1.2348772388218183e-03 -3.1275421426176564e-01 1.0215369897358716e-03 2.1013416782790680e-04 -1.6828722281044556e-04 2.6312793335658965e-04 -4.7590388565698707e-03 -1.1090122960925673e-03 -5.2586902441377301e-02 -1.1571988055768430e-03 -6.9044509198667309e-03 3.8916042237451348e-02 -1.0596708998589322e-02 3.2162280947686597e-03 -2.0069343505935602e-01 2.6622926153680609e-03 -1.3133756860458676e-03 1.1119170287891672e-01 -3.4369149465775392e-02 7.1814319269373128e-03 -1.1492146672473247e-01 1.1047212381876632e-02 4.0572251148214694e-03 -1.0646719901467611e-04 9.7886404204124474e-03 -1.8233069766334709e-02 -1.9120097673927174e-02 -1.3414922198640211e-02 -3.1485481680097018e-03 2.2922941532964036e-03 -2.2676976037481998e-02 -2.9267732291650417e-06 -4.4135567763350209e-04 -1.3566644871562974e-01 1.7746848292075901e-04 1.5303462648006520e-03 5.6320567840224718e-03 3.5507185329870072e-02 -2.4723744796642209e-03 1.8869323474535310e-01 -4.7246197357482950e-03 2.6619539783694912e-03 1.8145756944440723e-03 4.0656635870970348e-03 -2.8748390719554838e-03 6.6641011883654035e-03 -7.9918646611088925e-02 
      </Row>
      <Row Index="159">
        -2.4209453065420772e-03 -2.6677606728218207e-03 -1.5736574334550071e-03 -1.5707014394004146e-03 -1.7204565469329247e-03 9.6289232924918957e-04 -1.1280589057567248e-03 -5.8249247882150329e-02 2.6180253393116859e-04 7.9497618159563022e-03 2.4405288850908183e-03 -1.2912502724871794e-04 -2.7932975119137282e-02 5.0779332727844979e-03 -9.0755052162352218e-05 9.6455800074046034e-05 -1.1629489581027261e-04 1.9864193873321101e-03 8.1800946598502636e-04 -3.1103596691672286e-03 7.3696187192204849e-03 5.3781774173090879e-04 -2.2088824964128676e-04 2.4910665226592077e-04 -2.5284784098211777e-04 -9.3496900483158729e-06 -2.8319776142604985e-02 -3.0560574544701014e-04 1.5006183589153982e-02 2.1863424595578991e-04 -2.6551504967722156e-03 2.4970865724625924e-02 2.4472843113396078e-03 -1.2397244824941239e-04 -1.7976678593343426e-04 -5.4863153102803594e-04 -6.8688214571711870e-03 1.4321158000188371e-03 -4.2164094227706284e-04 -5.8158278463299184e-03 -2.9230605674509039e-04 1.4252655682693224e-05 8.4555776918522618e-05 -2.4004874650182875e-03 -1.3478783705211106e-03 -3.5677094674915283e-02 3.8991787171742051e-04 6.2011360067752985e-03 6.1831498100064358e-04 3.3921979043036177e-04 1.6155809688358502e-02 2.2986059887386053e-03 3.4881961175863008e-04 -5.2055415682799970e-04 -4.6859064862045524e-03 -6.7583730927573554e-04 -1.5197556040575932e-03 4.5483459657176262e-03 -4.2511849840638233e-03 2.5454321554914568e-04 1.7488587477044702e-03 2.1965051217289755e-03 -1.7633409887105548e-03 5.2754202647900539e-04 -3.7132357011988998e-03 3.2930008216455753e-05 2.4687753127945467e-02 -9.1543236174154718e-04 -5.9442920195502263e-04 -4.6488108492575009e-03 2.1146681048848080e-03 3.9472839862268912e-04 -9.1970539461375470e-04 -3.2670546299388981e-04 6.0861155870185757e-04 -1.9565288480196709e-04 1.3751076427061637e-02 -9.0028126749335247e-03 -8.4186615922537955e-04 -1.9698995795480456e-03 -1.0271736885927307e-03 -1.0110355566331324e-03 7.0231536883469531e-03 1.2157400802069041e-01 -2.7110984851225206e-04 -2.9834856467332749e-02 -3.1451865084970027e-03 -6.9872708818558699e-04 -2.7807107116535335e-03 -3.2026084949881763e-03 4.5163638725874075e-04 6.6721678550471508e-05 -3.0766956355015099e-04 -8.2443007716898054e-04 -7.1906540203151015e-04 -1.3580593485986725e-03 7.6160614787282657e-04 2.0904523391045062e-03 1.1491805483127490e-03 1.6281911601886967e-04 -8.9407061497211691e-04 -7.7355030847511136e-04 -1.8208361179592979e-03 -1.3110316944643131e-04 -2.0639453866107185e-02 -8.0346543543793100e-04 -1.8052376000789747e-04 -1.9125055084469267e-02 -5.1100596683722327e-04 -6.6324224299466571e-05 -6.5894914734482147e-05 -4.9103975283850548e-04 -6.2637378079529512e-04 8.4259859759920099e-05 1.6440720021085875e-03 4.6360700748820233e-04 5.2529747892791911e-04 -3.3960659240543124e-04 -9.7175199706564172e-04 3.4829976082196915e-03 2.4874864657754153e-04 1.5687182273022984e-02 1.7618015808162912e-04 -4.9447706739425001e-05 7.9491943330348841e-05 1.6974422686238293e-04 -4.1126227711494323e-03 -1.4765621382272650e-03 1.5297284121209252e-05 -8.1693891359178178e-05 -1.0241429191193538e-04 4.2654812740750003e-04 -3.1730715724778702e-04 1.3402543578471260e-03 -2.9372729347024104e-03 -1.1491866756772884e-04 9.7360736586148892e-04 8.7809487540366866e-04 -1.1077135854644163e-03 -1.2262993661329479e-03 -1.9500774092131877e-02 -3.9601995652211439e-04 1.3975874147296230e-02 -1.4436620589100167e-03 1.6468790047858726e-04 5.3707763630583827e-03 1.8202950643417207e-03 -1.9782744363412371e-04 -4.9780860635310876e-05 6.4204986444282429e-04 -9.7709854662824660e-04 2.5229863908171266e-04 -2.6327787345099551e-03 -3.7330682453594437e-03 -5.9094797243266714e-04 -7.9410523274655795e-04 -6.5111937858573776e-04 2.0352531249827333e-04 2.0775546753489318e-03 5.5578458203622255e-02 -1.1413982996448784e-04 -2.6679198533255288e-02 -2.4476346110139545e-03 2.0576657420582761e-03 1.7651011347528112e-03 1.5980901015572348e-03 1.4868408081080553e-04 1.0751698159108293e-04 -1.6931686446009300e-03 3.9843936449470152e-03 1.3694849136128145e-03 -2.2517119571268986e-03 -1.9055149820599269e-03 -5.9538863315953476e-04 5.3498746841933599e-04 6.3338461361638846e-04 -1.2917712660113966e-04 6.0530162601103200e-05 -1.6660555366523572e-03 -6.3599671087040930e-05 -3.3500013843607325e-02 -4.9532933149969214e-04 -2.2129576701870819e-05 -4.4559151537134412e-02 2.0224350622043090e-04 5.4852804190095107e-05 -4.3914160662027234e-06 -5.0618712933640406e-04 7.8574189948146106e-04 2.0669958134715528e-04 -1.5875057212406812e-03 2.0644158291848427e-03 3.3590121445683130e-04 1.1530137315572727e-03 -5.5021157297478075e-03 2.1758261232051601e-03 -8.9228570049003884e-04 -3.5274674050703961e-02 1.5431505339272003e-03 -1.1664383519303018e-01 1.2943997917217835e-02 4.1966065919581633e-03 -1.3255897510052961e-02 4.7313876228932614e-03 -1.4568254429526625e-04 8.3053315798062993e-04 -1.2455392460590713e-03 6.7912457533192659e-03 2.6097197741131333e-03 6.4157397754796563e-04 -2.5171832780251317e-02 -1.5886321831286871e-03 -1.4343082009512124e-02 1.3637948004835971e-03 -1.4342052603187635e-03 -1.6761453723550751e-03 6.1609438046602849e-02 -1.5001645824240344e-04 2.3583198254082233e-03 -8.3193311219054711e-03 -5.4273021646223524e-05 1.9013208600650616e-02 -2.1946015251386237e-02 1.2863962659342620e-03 1.5812598052547190e-03 1.3459582396300726e-02 -6.0794900655414545e-04 -7.0161075224128722e-03 -2.8354188738806168e-02 
      </Row>
      <Row Index="160">
        1.1595833773011405e-04 -9.0508396252957958e-05 7.1677399243622666e-03 1.9774329376589816e-03 -6.0025419264349705e-03 -1.2787130397761250e-04 1.0113178635757520e-03 -1.5634857750031379e-04 -9.5726459064229275e-03 1.5774247503350658e-03 -3.4806625708962181e-03 3.4516105341627148e-04 5.9357020396366700e-04 -4.8574163920278080e-04 -6.8311615097499563e-05 1.1960737210301985e-04 1.4378926844254084e-04 -1.1751394089542003e-03 2.6261641619852293e-04 2.3631361492179592e-04 3.9035866069148453e-05 -2.0984006951386691e-03 5.5887357169074085e-04 -3.0219197184374880e-03 -2.7165792448302639e-04 -5.6672056633585988e-04 -4.8656221184503095e-04 -1.4438228385310666e-03 -1.7440054197843669e-03 -1.9863544792752901e-04 -2.5336714687376749e-04 3.4286303581048116e-03 7.1721765881348210e-05 7.5372833129995313e-06 -2.4580194946707823e-05 -5.5455731358916398e-06 1.1578151597137071e-03 8.5425709849094866e-04 -3.9998387429526772e-04 -7.9265929784162281e-05 3.7202432893152990e-03 -7.6771732075047935e-05 -1.7503840339840732e-03 6.6988253628939495e-04 3.7093140014821113e-05 -3.5828445147127394e-04 7.5076775649136583e-03 -1.0409079714588376e-03 1.3967870412885594e-03 5.5130555173643625e-05 5.4050665656868446e-03 8.6399836661910350e-05 -2.2244394608397777e-04 2.0795229117934882e-04 -2.4801103953974932e-04 -4.5443744477770623e-04 -2.0728282359406061e-04 4.9060219745700184e-04 3.6584617445992867e-05 2.4575584999479158e-03 -7.7810549316329608e-04 -1.7031361274458257e-03 3.2541476375123803e-04 -3.4192249680856102e-03 3.6125639890180472e-05 1.1627666943958302e-02 1.4659134330445855e-03 2.4128033338369700e-03 -1.3288237577993925e-04 -7.6234386014881750e-03 1.2348708498525389e-05 -3.0344537421236103e-04 -1.0324243208265083e-05 -4.1190678475807110e-04 -1.1076294570404460e-03 -8.9837130502038592e-05 -2.0856865743585917e-03 -4.3679784885546080e-04 1.2543261183272855e-03 3.3004662411402486e-04 -2.2300972154126741e-04 4.2041543974447298e-04 -6.0526327973260685e-04 1.0088547743353216e-03 5.5865654258026864e-03 -8.1320466531442648e-04 1.9279052357965981e-03 -3.0614511965351351e-04 -4.2660602612194509e-03 -4.5419667292730288e-04 -7.8946300869811581e-05 8.3875898777958924e-05 6.9800766520728905e-05 4.1964770588877320e-04 -1.2197365807753435e-04 2.4383825114741020e-03 3.7879189516492988e-05 -9.6903692953352639e-03 -1.2528799887459819e-03 1.8127195469319624e-04 -8.0272417476903897e-05 3.2534551692521216e-04 -2.9832654370951439e-04 1.6758200590217293e-02 -7.7832123169330192e-04 3.6764643401114663e-03 -3.5162298092543051e-04 -5.3195942455177558e-03 4.7994226576231463e-04 -1.7551642374707011e-05 -1.3867620772305017e-04 -2.8056856843687670e-04 1.2465937191928839e-04 9.1430174636760104e-04 2.8554465059937861e-04 -1.2767189633151529e-04 -8.6482533106239934e-04 2.7720622239353447e-04 5.2064741515472045e-04 -8.5291903519359516e-04 -5.7047265837015249e-04 1.0573739631422954e-04 8.3064251374190060e-03 4.1024414535630882e-03 8.9944013803575085e-04 -1.2867346139411144e-04 -3.8281184785420308e-03 4.0779168501440437e-04 -7.7357147893961087e-06 -4.1988464220411859e-05 -5.2329431696476465e-05 1.5120234967883062e-04 3.8593366671810236e-04 -1.7380716510317362e-03 -7.8681132131025455e-05 9.0105660372265597e-04 -7.7051802209798662e-05 -1.6268577249270843e-03 4.7429347455558643e-04 -8.5931407248130646e-04 -5.8939110103637749e-04 4.5840782395589353e-03 2.8638491964462359e-03 1.2613524444768287e-03 -2.2677254501409557e-04 -2.7440214088567672e-03 3.7002427041650873e-04 -1.2920125089486842e-05 -1.7312698611314753e-05 -8.0532890264211005e-05 4.1934491704829178e-04 1.0228291056451483e-04 7.5891595194987893e-04 2.9425770069609058e-04 -2.1541592486893557e-03 2.7269604724575406e-03 1.0416850477817097e-03 1.4820815265304890e-03 2.2817218439462258e-03 -1.1413982996194560e-04 1.8720931521484137e-02 7.4300210161908353e-03 2.9466741303656699e-03 5.0440158966914839e-04 1.4183076169871356e-03 3.5086389901013248e-04 1.6683193773644290e-04 5.6048410058614356e-04 -1.4491617003967866e-04 1.0536942806474436e-03 -4.9529305419727943e-04 4.4649716777451880e-03 2.8282522735338222e-05 1.7389951444847880e-03 -2.3248416487883799e-04 -7.0113858067123648e-04 9.0105554691030188e-05 1.9767369693217338e-03 -8.1365451690066011e-05 1.0164628958714015e-03 -3.8249875583832894e-03 7.4837006237188082e-04 2.1242851103932454e-04 -9.2948040205786953e-04 1.4865587670368288e-05 -3.8062608942847700e-06 5.4428897516296609e-05 -8.6538113406751292e-05 1.2313749379645814e-03 -1.4227795368922753e-04 6.4406272232795572e-03 5.3062548922345153e-04 -8.8950140277848297e-03 -5.3270140259369155e-03 2.9250798987394606e-04 -2.0665166297708184e-04 8.1668554323664471e-03 2.3383565505847182e-04 1.6553180089163101e-02 -5.6613035734254663e-03 -1.1322303990971982e-02 1.4777581769392875e-03 2.2263747559370772e-02 -6.9617465488643624e-04 4.9822465456598585e-04 5.5043466903213572e-04 7.1023694701308660e-05 3.2684255358322711e-03 9.6200660896961915e-04 -2.0492441173303316e-03 -8.6235125477476500e-04 9.7348597007899506e-03 1.2760942773167718e-02 2.8031469949379132e-03 7.0162805678849137e-04 2.3039106642866146e-03 6.4378746129301100e-04 1.4589625485096907e-02 6.8083050603533375e-04 1.2377578396893147e-02 3.4501067663994522e-04 -2.4152946779178210e-03 4.2245078539067202e-03 -1.5134251575333116e-04 -9.4131494948163953e-05 6.4877133399141463e-04 2.7176488125113649e-04 -1.7043860778063072e-03 -2.1767203414655822e-02 
      </Row>
      <Row Index="161">
        7.7026685254608998e-02 7.4918412221464028e-03 1.3049512743630864e-03 1.1810682912814410e-02 -8.8348528775425983e-03 5.8442564036375521e-03 -8.9207190276203129e-03 3.7225037453927232e-02 -1.1288005040132984e-02 -2.0664990969253645e+00 -9.5569597107190041e-02 -6.0417398731367755e-03 3.9812885050466296e-01 -1.0932186146704621e-02 -1.9030896654170307e-03 -8.4166083184111394e-04 4.6472162994901089e-04 -7.1557126919543218e-03 -4.8346220228172344e-03 -3.4957428900385557e-02 1.1047310438644216e-02 -2.8544536995664394e-03 -4.2323483633363917e-03 2.4087190330916997e-03 5.5401324566105303e-03 -2.7666507533260928e-02 1.9763974658352453e-02 -9.8731156371573148e-05 -6.8379448134817122e-01 -1.5659912993972555e-02 -9.6737768871607843e-03 -4.5071779043107796e-01 -3.9056697755981678e-03 -4.8176067567445510e-04 -8.9770457559576466e-04 4.7151692120196553e-03 2.9518361744307220e-02 -6.2068037255897032e-03 3.2030458274786455e-02 6.2600715832632414e-03 6.1854671837616865e-03 5.2742496613407720e-03 -5.7249409516715033e-03 -2.1522037780586256e-02 2.7774888925602537e-02 1.4212165319563194e-02 6.5177420133020053e-03 -5.6495394303204982e-01 8.2200485247513333e-05 9.3011900787959290e-03 -1.4874154250329497e-01 -1.2637484260948344e-02 1.5742389078738095e-03 -4.0187318163102358e-03 1.0195421920341854e-02 -1.0718728413090961e-02 1.1306710564725871e-02 7.3317675160294637e-02 -1.8702542475525427e-03 2.5185230394936566e-03 -1.4832089839174986e-02 -4.8227643922456320e-03 -1.5512263367970569e-02 -2.1933188395052899e-02 2.0808224227913952e-03 8.3325273588084892e-03 6.7727821728717519e-01 1.2807464836693233e-02 1.2311428071610231e-03 -1.2983933209399368e-01 -9.0115623532361858e-03 4.7602271514545630e-04 -2.0671095746441909e-03 1.3342592586511604e-03 -1.0507589469931911e-02 8.1494276620191278e-03 1.5879520454294216e-01 -1.8420672875692434e-02 5.4044101681281764e-03 -5.7849018094046079e-03 -2.0332633609616568e-03 -6.6118822718010117e-04 -2.1108250407865958e-02 -5.8179417177360859e-02 3.0828956869053403e-03 1.1777420689443261e+00 3.8327573954544059e-02 3.2756836167272957e-03 2.8636118586375403e-01 -1.4042090554021204e-02 3.7435240011107762e-04 1.6391282668710427e-03 -2.6198148689840772e-03 6.0144448691975549e-03 4.3702020592013557e-03 -1.0488395011877705e-01 1.8380293639763227e-03 -1.7221118155268583e-02 -1.2614948249514965e-02 2.3144668319384221e-03 -7.2119708026044133e-03 -5.3959270332230858e-03 7.6325261678150524e-03 1.0844702684314939e-02 -1.0533692618098569e+00 1.6450246689337273e-02 -2.0189226470829005e-03 1.9192053233332373e-01 1.1078274331288728e-02 -1.4507084106053607e-04 -5.8225403853172635e-04 1.2255899524632853e-03 -2.2276033883248877e-04 -3.1451175138569234e-03 -4.4140248607474231e-02 1.2178237799108371e-04 3.6419041073485481e-03 1.3253690658071852e-02 9.3543208048830345e-04 2.5892032863341463e-02 2.9268802717592829e-02 -1.1493537426739822e-02 9.5615274575457931e-03 1.3741797546005357e+00 4.6677330500956529e-02 4.3328298916245518e-03 2.8301373985470946e-01 -3.8702498012231912e-03 2.2639091288223119e-03 4.3132209908061658e-04 9.1537493607730838e-04 -2.0674569683968413e-02 -3.1582058153264425e-03 8.0350817323066259e-02 -3.3889569370996048e-03 4.0686825669867775e-03 -1.2386971330839307e-02 8.8869956070828336e-04 -9.1696368894972208e-03 -1.7952005027968166e-02 6.8474449893749928e-03 3.6064380217114486e-03 -2.1032934282828628e-01 4.1387469794829865e-03 -1.0247580388849781e-02 -3.7546310408009731e-01 6.2285043288635763e-03 -1.4527333964389896e-03 -2.7943345246397334e-06 1.0869230007909837e-03 1.6790607703463724e-02 3.3391933584586350e-03 1.3768974800328238e-01 -2.6154094550587953e-03 4.8595327889635427e-04 8.5392201211123703e-03 1.5826893138582654e-02 -7.4533225233715944e-03 7.5492493824616799e-02 -2.6679198533227089e-02 7.4300210161882792e-03 4.1616339567870044e+00 8.0800518217650691e-02 1.0617053008581456e-02 -1.9410227264113189e-01 1.3096226640937608e-02 -5.4441728003774142e-05 -4.6080394156794435e-04 -1.7270052537778080e-04 -1.4909075605291422e-02 -1.6527153796430105e-03 2.8413466497350104e-03 -1.0716811991941907e-02 -6.8178609216932714e-03 -2.9713071483606000e-02 4.5359001929534369e-03 3.0625854928205921e-03 -6.5612356287294255e-02 3.6473853714353126e-03 2.9691851451598035e-04 -2.4704346676923863e+00 -6.1830410269545485e-02 -7.8112646620463544e-03 5.4482593765736098e-01 2.1476778140004059e-02 -5.2201511122924420e-03 -6.1121835743170420e-04 -9.5971849169242118e-05 5.0014252142600690e-02 2.4192863309050183e-03 2.6810496090993308e-01 -3.5628816572936765e-03 -6.0572255096036906e-02 -5.6921256065623038e-02 -7.9968430683086122e-05 1.2881171529490996e-02 -3.5056483424045271e-02 3.9907314459090848e-02 -1.7596919173545251e-03 -3.9379472698381930e+00 -3.3014524347772756e-01 -1.1435695942724807e-02 2.2951723901250887e-01 4.5393317010118589e-02 -1.5257749474870658e-02 -3.8713583852575811e-03 -1.0072602265619518e-02 9.5679941861004314e-02 -2.9781744645451073e-02 5.7623532069104699e-02 -1.7469765280462912e-02 1.0455783344845931e-02 1.2389638766891514e-01 3.1516759930123716e-03 -1.2505160203782645e-02 5.9483305978332783e-02 -3.0302724687519867e-02 1.1248970855783247e-02 2.6820712306558314e-01 4.4149500307770362e-01 1.5088532152763845e-03 -3.3704930022743723e-01 1.2924145159656170e-01 2.9642278593245974e-03 3.1556240100868577e-03 -2.5432522001503019e-02 4.9019960060827754e-03 3.0459954592093729e-02 -8.9305202424109803e-02 
      </Row>
      <Row Index="162">
        1.4592912816490979e-03 -2.0148227453893608e-04 2.5051402631168646e-03 1.6482920840930424e-04 3.4675099712746654e-03 -1.8694978106960965e-04 -7.6029241886965589e-03 -2.5959452525035473e-03 3.5131194362952606e-03 -4.7319418642238209e-02 -3.1952946592834083e-02 -4.8184025373101610e-04 7.1063428331372691e-03 -1.9007579003914963e-03 1.2839775390792191e-04 1.5481644997965662e-04 -6.2796235762349259e-04 -1.2077663256515308e-03 8.8163158734182092e-04 6.0080881662336050e-03 -2.4697151357470134e-04 -2.6635515309431090e-05 4.8911116046622112e-04 1.7723954856507795e-03 -7.4667019181396538e-05 6.8482320344854866e-03 -1.7059587346667628e-03 3.8754787278369278e-04 -5.7369866455210528e-03 6.1418826017211187e-03 6.1311991841313945e-04 2.2718046967362682e-04 3.1671232472503621e-03 2.0950495684297476e-05 4.8716211112125041e-05 -4.0048662432062750e-04 1.5570780190227590e-03 1.2573458074208975e-03 -6.6362782882668225e-03 -3.2189454066251978e-04 -1.0659252596311938e-04 -8.1235217380675427e-04 4.2028691120867337e-04 -1.4422596523108247e-03 -4.7547461857947032e-03 -1.4620928379258033e-03 -3.9977040432552600e-03 1.3161522659999036e-03 -9.3864410686110358e-03 -1.2498849461979322e-03 -4.7560258243768416e-03 1.6850996799189916e-04 4.5851630769602747e-05 -1.0999613739631070e-04 -1.8726380862470818e-03 -3.1089190466203689e-04 -1.8313740437647368e-03 -5.0939598867201230e-03 4.0833330761944411e-05 -5.4756238968328187e-04 -1.8142040952623395e-03 3.1222250436369059e-04 -1.1850708668417233e-03 6.2181297299616876e-03 -1.0054794591369404e-04 -4.8166253261926334e-03 8.5572246901177706e-03 7.9680288495439372e-03 -1.0367824974468511e-03 -2.3130137713778254e-03 2.2434632144252694e-03 6.2735554592412103e-05 -2.4492834502634966e-04 -6.7052839231918245e-04 -8.9742706263262750e-04 -8.0790377764230863e-04 -5.0227779692350039e-03 2.2356269536351336e-04 2.2570431645535863e-04 -4.0528175530992611e-04 -9.2319506359955783e-04 1.3959429942388742e-04 3.7435490371074687e-03 1.0251156210328072e-02 -3.8767767984088097e-04 4.3623589639838478e-02 2.5996727654900742e-02 1.2773015839177837e-04 5.1687164404068398e-03 6.3408665498500194e-03 9.4896733487035562e-05 -1.9183871157563148e-04 5.3408410366358357e-04 2.9579567397711379e-03 -3.9562463824591165e-04 5.9162309608511432e-03 -2.3843359404682619e-04 -3.7486782767793686e-03 3.0324784758250720e-04 -3.0857631076697603e-04 1.0759783458242798e-04 3.7036603557861689e-04 1.9087526283171935e-04 -7.5052167442209630e-03 -6.2759851677338802e-05 2.0357727588112239e-02 5.5512685297699651e-04 8.1135116880628466e-03 2.8712428912985007e-03 5.8883669662794427e-05 -1.6415654306817953e-05 4.4898363241937893e-04 1.9561194343044406e-04 -2.4504169176666575e-04 -2.5954950421460676e-03 -2.7936984883470892e-05 -1.0037376618513283e-03 1.9703203681320502e-04 5.3995601296265945e-04 2.1050006321707455e-03 -2.8017458993390490e-04 8.9664756617167246e-04 -2.9461155593806035e-03 3.8784912357543666e-02 4.2380755348091839e-03 7.1221595998773024e-04 4.0459656164326674e-03 -4.6254771082226672e-04 -6.6903820335483671e-05 -5.7899697783208096e-05 3.6286730132494216e-04 1.0936122709168106e-04 1.4340044681673825e-04 -5.3196541958984156e-03 -4.2897963230120045e-04 -1.3549195749710478e-04 1.2024768085071541e-04 3.3768703776798246e-04 -5.1164422374240515e-04 3.9103500846037120e-03 -2.0766950747634683e-03 -6.1255832353257597e-04 7.0674245970639149e-03 1.4717083410041581e-02 2.5602137480923003e-03 -5.8340677152735054e-03 2.4610125500660390e-03 -1.5583740777339757e-04 -1.4177269011246682e-04 6.4613895705629553e-04 8.4666887766571784e-04 -9.8928579351923070e-05 1.3753797449671534e-03 -1.7310816729321429e-03 1.6611535182130283e-03 2.3759605522783288e-03 2.2554534077788013e-03 2.0700451932592311e-03 3.9422326617934017e-03 -2.4476346110123837e-03 2.9466741303661105e-03 8.0800518217619355e-02 5.4107229151211779e-02 1.4619983032527761e-03 -1.8521627354095571e-03 7.9673468098872685e-03 -6.1389907755671344e-04 -3.1926019308149006e-04 1.4391142485763141e-03 -1.3132775151823151e-03 -3.3785784870855873e-04 7.6823887214169072e-03 -8.0478936817680597e-04 5.6040517969416454e-04 2.1531577614788717e-04 -3.9978613959623167e-04 4.2251832735473607e-04 -2.7794103682798714e-04 1.0430623213864918e-03 1.1943566692498132e-04 -4.0848516488287211e-02 8.2144852018684999e-03 -1.2918151360685504e-04 1.3982229652468092e-02 2.9511082215775797e-03 -2.8134465013158257e-04 -1.2287434527720738e-04 -6.5635715160877869e-05 1.3193008780738938e-03 -2.9956732780711656e-04 2.4295988741510482e-03 -3.2224559595054178e-03 -3.3506813257713911e-03 5.5283049203659011e-04 2.8944056357417601e-04 2.8591528223975413e-03 -1.0838415681221601e-02 9.2030811724221583e-04 -5.1018889469616104e-03 -4.9215281584937487e-02 -6.0909836196795082e-02 -1.9233659332069195e-03 4.6308705226127955e-03 3.9167388905192628e-03 -5.3046392204809207e-04 1.9375856091721983e-04 9.8561387223314052e-04 2.3474017267504591e-03 2.3034135467944576e-03 -4.8467635128870284e-03 3.9493686441815622e-04 2.1418614980761360e-03 6.6281309479485264e-03 -9.0993449115166691e-04 -1.0675821349205618e-03 -6.7661035937135652e-03 4.9243364862867301e-03 -5.5831566825428024e-03 6.6322959491124812e-03 2.4604208511904985e-01 -1.8030203926558859e-03 -6.9141415257471424e-03 -4.7033024191974734e-02 -7.7151569378714271e-04 4.6466262774196151e-04 3.8920761772322952e-03 3.3644352110029786e-04 -3.7957741905690046e-03 -1.9330724140310042e-02 
      </Row>
      <Row Index="163">
        2.7445944008670370e-03 9.8744217594756017e-05 1.7907851851607370e-03 1.1254945245357411e-03 3.7741248502717317e-03 3.2390228558168378e-04 6.5110239131412079e-03 -2.7589081858413796e-03 -1.3291230021568110e-03 -1.3553172764196209e-02 -1.2700562140683103e-03 -1.8460233296416259e-02 -8.2378652696268873e-03 -5.4406708556043620e-04 2.5997636722654462e-04 2.3264590789944038e-04 -2.1261471340355935e-03 1.7809992921892503e-04 4.4734253989442072e-04 6.1513588788597584e-04 -7.3622256006333070e-05 -5.9605084916912465e-04 -9.7902988546062227e-05 1.1916039351410335e-03 -5.2109290479079862e-05 -5.6106906182291222e-04 -2.0511145349359568e-03 5.0328171354323964e-04 -7.0486833300086316e-03 7.7811155399392165e-04 -4.1951543965424443e-03 1.8719222539850477e-02 -5.1722095940415908e-04 -2.6630991732112287e-04 2.0412619216812061e-04 -1.7077612890465093e-03 -7.3513278748293942e-04 -8.8420057045644762e-05 -1.9079945522325059e-03 -3.8574780193723350e-04 3.5684602631053108e-04 -2.3921450921743012e-04 9.6392493911054422e-04 -1.4712475666241731e-03 3.0535134520429663e-03 -2.0034277142888385e-03 1.5232244928820304e-03 1.4509742626563682e-02 -2.0040899019377542e-03 1.3300569304982746e-02 -1.8090541582953534e-02 5.9491695098556722e-04 1.1290357528365297e-03 9.3575288323650800e-04 -4.5338342364115922e-03 -1.4220848799723976e-03 -5.1076298866869346e-05 -8.1396346576558809e-03 -2.0945458034294859e-04 -3.6566117846559623e-04 -6.4307531411918889e-04 -9.0974275406691119e-05 -1.1236462125044661e-03 -5.7764745927350453e-03 -1.8890785898049156e-03 1.9971978976360688e-03 1.8596032204829527e-02 -2.3820005781533746e-03 2.0430366941949402e-02 2.3637111762369045e-03 6.6873124208982225e-04 2.2945290385312169e-03 6.1696063670853285e-04 2.7852915945479617e-04 7.7448067132304677e-04 2.6370261728580688e-04 -5.5486505703217226e-03 9.6731972627794871e-04 2.0312035617585378e-04 -9.3539859751196053e-04 -1.0515365936798471e-03 -2.8564270511770122e-04 -3.8270391585688013e-03 9.9615040412133204e-03 7.6356863533999508e-04 1.2963780647059053e-02 -9.8608919446516174e-04 2.2872031455199754e-02 1.1427376611619522e-02 -5.2106049682579952e-04 2.9317928283457279e-04 -4.5239105014992231e-05 2.1954767615257886e-03 1.0777893628564628e-03 -2.5627459466459612e-04 6.1441668191901666e-03 -7.4869774332228523e-05 -2.7018664215529790e-03 -3.7848849740372212e-04 -1.0295413963673367e-03 -8.3073378290829739e-04 2.4552197191702249e-03 1.1081138064685551e-03 2.8484880567430267e-03 -6.8570118738651188e-03 2.5042675795594370e-03 9.0997538625764429e-05 -1.4479829842102276e-03 1.4066382718251266e-05 -2.2747855842372364e-04 -1.4709768929235941e-05 -1.2322097884795045e-04 -1.8228212201119726e-03 3.6949652310705873e-04 3.4788453818546117e-05 7.2058088639932738e-04 -1.8008843308081612e-04 4.8847682797979741e-04 -4.4550826937936328e-04 1.5376314036821825e-03 1.1083215851470929e-03 2.7771867800571448e-03 1.3254311652007578e-03 -9.2468956619295994e-03 2.9165261680402926e-03 -1.6266191471331206e-02 1.4090953509029447e-03 -5.7073401293369604e-04 5.8978253780894545e-04 1.4004830574995686e-04 -7.3262972330274045e-04 1.1193931762221165e-04 3.3133238300153689e-04 3.2745485692142751e-04 1.5775141756237607e-03 3.6801744694509725e-04 1.3597551759160420e-03 -1.4043040462446881e-03 -2.6434184738786844e-03 2.5439463787289042e-03 1.3739531738171384e-03 2.2523647221769937e-04 -4.1173020873496780e-02 6.6860179844019079e-03 -4.2365805357366136e-02 -6.6625132960851374e-04 -1.6461204340722814e-03 1.6173215374551098e-03 6.2096993803872522e-04 -3.1336842444687251e-03 -1.3106990755339953e-04 -2.9967611572229332e-04 5.8659042232309666e-03 -2.2051416162671006e-04 5.0155974820144671e-04 2.9839216025650747e-04 1.3636271945838274e-03 1.5782581707989018e-04 6.3915554568341748e-04 2.0576657420556810e-03 5.0440158966810159e-04 1.0617053008592503e-02 1.4619983032510935e-03 4.6533659605059480e-02 -3.3947015199125019e-03 1.0521447386967605e-03 8.2561624955654507e-04 5.4192231580686701e-05 -1.6589473438635288e-03 3.9877693260936820e-04 1.0124816803976089e-03 3.8373451130666175e-03 -3.4907559319129048e-04 7.3645552127106560e-04 -4.5115593136647771e-04 1.0049697088288585e-04 4.5708721580157128e-04 -2.0952696086947180e-04 -7.6248878292589813e-04 -3.0367163508144852e-05 3.9932426226525382e-03 -9.2147798545766228e-04 1.5445495664847257e-02 -7.6040698560024822e-03 6.9360517556348988e-04 -1.5997082641995683e-04 -6.8862208753678236e-05 8.4884976447015649e-04 -1.1162170532592400e-03 -4.7802900107012298e-04 1.1992572471448068e-02 -4.4213384236428174e-03 -9.6751995360835202e-04 -4.4733403185642749e-03 5.0374612871134502e-03 5.3835399524327209e-03 8.5595597423713116e-03 -4.2155566612782809e-03 1.9551983154921450e-03 7.0714234572035378e-02 -1.5383521392923054e-02 2.9493869987118320e-02 -4.3977057221717075e-02 3.6499783096327629e-03 -6.1863231469866144e-03 -1.2080118445600431e-03 5.8713181711223415e-03 -7.6002622961004081e-03 1.2236732468519605e-03 -2.3123807245615802e-03 -2.5366155611104748e-04 2.8373225282846077e-03 1.9254006501452682e-03 -9.1746134702880690e-04 -8.9020873387403682e-04 6.5741208082875559e-03 5.7130355459618330e-03 2.6259576177402907e-03 1.4745086571313539e-03 1.9941977211077801e-02 3.4664117162881043e-02 7.7303847773128598e-03 3.5173942289214357e-03 9.9452934106167862e-03 -7.2997483951900508e-04 1.7756455047617158e-02 1.0391137969192253e-04 1.0666280227068076e-04 -5.4432863067749970e-02 
      </Row>
      <Row Index="164">
        -3.6340465490485196e-02 -6.0291078673536946e-04 -7.1048221493550390e-03 2.6283196681451825e-04 -4.1060561852950261e-03 -3.4385978433202624e-03 5.2002008358125809e-02 -3.6326984370303739e-03 7.9393076442735300e-04 -2.5755771323585464e-01 -9.2715594926433276e-03 1.2938452614639995e-02 6.6861824192585573e-01 8.3925591798804863e-03 1.0706104678367412e-03 4.1510749460347976e-05 -1.8083277527444208e-03 1.3392273512326081e-02 4.0664385396218805e-03 -2.9578121189484108e-03 -5.6470514404162730e-03 3.9002012851325762e-03 1.4769584441792149e-03 -7.1626743193142772e-04 -2.6948726415449986e-03 2.1597657538349191e-03 -4.2330430048451960e-03 -6.8392224619034936e-04 -3.0036107881586993e-01 1.4034791505858511e-02 4.7310286579440586e-03 -1.9274061420714474e+00 1.6195840924616706e-03 -6.5296525316148324e-04 6.2996054670716450e-04 -2.4222571495744506e-03 -2.3438309577493488e-02 1.0156714519701793e-03 2.5742587035528341e-02 2.7848845702842361e-03 -1.7379972692136980e-03 1.2140014802286825e-03 -1.2035340705897069e-03 9.7035136730250215e-03 3.0919547586466756e-02 2.3572377141167777e-04 1.4550969885479548e-03 7.2930078091886230e-03 -2.2828420056166809e-03 2.1492381972176844e-03 -2.5492802192744080e-01 3.2436839412225381e-03 1.8552943456846549e-03 9.6010875378271798e-04 -7.1391801266286192e-03 -8.1485704097359335e-03 -4.5431097527723896e-03 3.8479651966291328e-02 3.6187663387710067e-04 1.2643665792804182e-03 -3.4552442767453728e-03 2.2181509445016179e-03 6.8987864816316413e-03 -5.7698188501824177e-02 -6.7919490327035259e-03 -2.1438873191947927e-04 1.8441822049457812e-01 -6.2816930898527135e-03 1.0555696523595337e-04 -1.1259955070596561e-01 4.9131101387324683e-03 3.8192338041898727e-03 1.1152480872411719e-04 -1.8095139979346642e-03 4.3155341016785087e-03 -9.4953706613581934e-04 8.0335369081215191e-02 1.2996462001940046e-02 -5.0847599719405778e-04 -8.1542159442011819e-03 4.7789585344757413e-03 2.4364273212987286e-03 -6.8436208895241712e-02 9.4032260241245780e-03 2.9172076658010582e-03 1.7940228319967844e-01 -5.3270118804475963e-03 6.4363738325747821e-03 6.8177621288880630e-01 6.5575407230132887e-03 2.0569123208663553e-04 -1.7138592955834309e-04 -3.5022191894384935e-04 -5.8695693458008513e-03 1.5493675390736428e-03 -6.1108195647838315e-02 5.8511445807513107e-04 1.1847342311769191e-02 1.9804694168354120e-03 -3.5789771359107103e-04 4.2954021718388524e-03 1.2538692350547720e-02 5.7915314382886163e-03 -2.2798256427525032e-03 -3.0551113913246375e-01 1.4950172168814967e-03 1.7345145415308995e-02 1.4560897644845028e-01 2.2507329111708801e-03 6.1953908592045359e-04 -4.3895470918281325e-05 -1.5548218232179049e-03 -6.6291633260725652e-03 9.4536574510574456e-04 4.4005127151649504e-03 -1.8093060370560909e-04 9.5487172903574447e-04 -1.1763165552420851e-03 3.1869857760356834e-04 -1.3303793873784886e-02 -7.7171546045013972e-03 8.4073946774615438e-04 8.5702687948696621e-04 3.7719733834983060e-01 -3.4167992061218122e-03 -3.9470204530688696e-04 5.4995415199502418e-01 -2.0805436828615631e-03 1.2389660098932609e-04 -5.4839380202842403e-05 -9.5689436230710426e-04 1.2000061622794433e-03 2.3166543902819470e-03 3.4026127602160727e-02 6.6765622262132673e-04 -8.7975041469368076e-04 -4.7051512393113393e-05 -1.7016976505541126e-03 4.6876228294853717e-03 -3.0106369637559194e-02 -9.2623180682823159e-03 -3.4750342042878107e-04 -8.1237203634248800e-02 6.6656746521667563e-03 -1.8598633444527113e-02 -4.1615299108076442e-01 -2.9505164253911696e-03 -6.0507846630462100e-04 -2.2813987980044650e-04 2.8060688075786516e-04 -9.2079135251654110e-03 -8.4745440561373453e-04 8.8938125668420298e-02 -3.8114081288287416e-06 2.5693133389748796e-04 -1.0146997801212254e-03 2.6915674459755401e-03 5.2970793708970731e-03 2.4039686216875689e-02 1.7651011346941914e-03 1.4183076170044516e-03 -1.9410227264104662e-01 -1.8521627353517631e-03 -3.3947015198907415e-03 4.2091748895951469e+00 1.4739069578292708e-03 1.0418732205473916e-04 -9.1800886628967682e-05 1.6211857746798453e-03 -3.4022173652523691e-03 -3.3581816061747372e-03 -8.3897078049240514e-02 -2.4715085986195769e-03 -1.8140522608237731e-04 -6.1553645871227688e-03 -1.9450930898782558e-03 4.5265194034940937e-03 -2.7475912607911268e-02 -9.0078781909684810e-03 1.7469135843780558e-03 -4.8622550662378233e-01 -1.2882968485487253e-02 1.4079610439285488e-02 4.9017561692190270e-01 2.7077953763606330e-03 -3.2251264587013337e-04 -4.2102901332212949e-04 -2.6119931363758004e-04 1.0609099160218016e-02 2.7315157789253343e-03 -2.5178493572732086e-01 -1.0640282162947786e-02 1.4872428519616319e-02 -1.5605103501145148e-02 -9.7571578309538151e-03 1.1753553420178062e-02 1.6847160616086670e-01 -6.2568029011584175e-03 5.1928540840824496e-03 -1.3228586101234003e+00 -7.6232699971545997e-02 1.1119862216285015e-01 2.3421263720990737e-02 3.4331188838060522e-02 -3.0343814579277817e-03 -9.4868145117359831e-04 2.5320136521119162e-03 3.5710233957706936e-02 2.2730076620275472e-02 3.9962780841413803e-02 2.0702411327674711e-02 -7.0137323418848763e-03 -1.0754794889778315e-02 2.6812392734870353e-03 6.6759186990217618e-03 1.0246890606846834e-01 9.3938235721059173e-03 -1.0511487720793466e-04 8.4038990028408131e-02 1.6290016120979578e-02 9.3038098729610885e-03 4.1070478306101965e-01 -6.6949359506293271e-02 1.4257177059439963e-02 1.9287291244037691e-03 1.5707737071451199e-02 -7.8674253256454801e-05 -8.5770149126695103e-03 -6.1811457205253995e-01 
      </Row>
      <Row Index="165">
        1.9090313423456365e-04 3.0054919769655596e-04 3.3619684118869897e-04 1.9192982336939087e-03 -4.3026108006886596e-04 -2.0045055634956339e-04 4.3782767801229545e-03 4.9028814069610131e-03 -1.8743464393734290e-04 -2.5596329754843383e-03 -2.0177961913913759e-03 2.6966878644716676e-04 -1.5214342194767583e-03 -2.3604658303453215e-03 1.8283504013427796e-05 1.0312663865298948e-05 1.3227985703163220e-04 -3.6534201358268321e-04 -1.6642425472881191e-05 3.3329247103733306e-04 1.0353941716249827e-04 2.1389138372233593e-04 8.7867348229161740e-04 -5.8946501519961669e-04 1.0179380792706312e-04 2.3831274671511082e-04 2.8209748849606143e-03 4.6208880834441510e-04 -1.3789758786401513e-03 2.9362942213539099e-03 5.4091885586524460e-04 7.0356481087241463e-03 3.7346479856317761e-04 1.2784744505664578e-04 6.3655271148323547e-05 4.1189199853804647e-04 4.4470385392703440e-04 -4.8582276516006325e-04 1.3280472449903047e-05 1.9137552712945443e-04 2.7861164735253161e-04 3.0535969035142951e-04 -6.3488402602374788e-04 7.4597961907134705e-04 2.3564196730847670e-03 2.3940993015256909e-03 5.3750311770694136e-04 -2.7963502777956228e-03 4.7976723899137950e-04 4.5058516229280754e-04 3.5203157070555768e-03 -8.4139768206900828e-04 -2.0078876560316108e-04 3.4834992084826696e-05 1.4372980721660111e-03 -1.8971194978214395e-04 -1.2337400244255602e-04 -3.4084255831073884e-04 -1.0411345411931103e-04 -1.1304211642713903e-04 -9.6093604725506349e-04 -7.9581402230982992e-04 3.5435704366989671e-04 -2.2455669271233668e-03 5.4409876035067459e-04 4.9568116683587453e-04 -7.2717863587467013e-03 2.6030115505404228e-03 4.6401383112712209e-04 4.5879836051021528e-04 6.4181525421923812e-04 -1.4049503756300829e-04 1.6181090697446176e-04 1.5674607867023106e-04 -7.5957241102837109e-05 -4.3550599512577528e-04 3.8011180862029814e-04 -1.1522835138429721e-03 -1.1054939665268437e-04 4.2337569623904919e-04 -1.0773959394417137e-03 -5.3477862160869298e-05 2.4303302308381486e-03 -1.0535443301867176e-02 4.3832498208225268e-04 -6.1199315973459179e-04 6.9481788447292719e-03 3.9261939193336801e-04 -2.2297568152904734e-03 2.9164943514525046e-03 -3.8636138550542445e-05 4.5122469560201356e-05 -3.3496130033192420e-04 7.0760623748271356e-05 -7.2735476149568545e-05 7.6894074917435717e-04 -4.5560093684763551e-05 4.5957629991000455e-04 -4.4316209579010175e-04 -7.0136894203931890e-04 2.8917233446749025e-04 2.9225736061206705e-03 -4.0302534099948592e-04 1.3938009037609458e-03 5.8961541522255679e-03 4.0828710779461921e-03 2.5328419040487416e-04 -2.1624510326101465e-03 7.5919197650917342e-04 2.0237705263573009e-05 2.1109519058486897e-05 4.7168710282385364e-05 4.4034891228394882e-04 -1.1419296602324436e-04 -4.4623597388082636e-04 -4.4065343389462081e-05 1.6326386282053407e-04 1.4023591260772187e-04 4.2322963312776008e-04 -1.1106054946138730e-03 3.2687622137514416e-04 -1.7301328624439228e-03 4.1973142340927944e-04 -1.6440530299853817e-03 4.6374350279944007e-05 -2.5508137696064444e-04 -2.2143242282692821e-03 2.2988188135316962e-04 -2.8813001079744079e-05 2.6230129379118013e-05 -6.1634047410257496e-05 -8.6751376986979323e-05 8.7389952265828907e-05 -1.0742452080197973e-04 1.8302695850017266e-04 -2.1317526363668271e-04 -4.1866399709506417e-04 -5.3955173323477637e-04 3.8966613550469242e-04 -1.1477647516875645e-03 2.1266824763514348e-03 3.1234872888241227e-04 9.2878211753218490e-04 2.2277049117161276e-03 -2.5095539182768485e-04 3.0358882471297477e-03 7.7754748137276344e-04 3.6602594324160184e-05 1.4119893159511972e-05 -1.2532178529161701e-04 4.4649673597729197e-04 -1.0811865981291170e-04 1.9725584082549430e-03 -7.0052404532217668e-04 -6.4456507657205701e-04 1.2749754836214140e-03 4.6591563970632688e-05 -6.2315801415229431e-04 2.0757221827722595e-03 1.5980901015577448e-03 3.5086389900983308e-04 1.3096226640930797e-02 7.9673468098867325e-03 1.0521447386946832e-03 1.4739069577829333e-03 4.8137343484930956e-03 -9.0146524581848162e-05 1.8889638823882133e-04 1.7672385957344904e-04 8.4592558949783681e-04 8.2776976291734986e-04 9.9754357926752635e-04 -1.1143622650643949e-04 -1.0342742720760893e-04 -3.5967673241691831e-04 -6.0962050790702889e-04 1.6206397110765585e-04 1.6671664147266015e-03 1.9171235301516595e-04 -1.0718394237951341e-05 8.6693389200013272e-03 2.0882479681755889e-03 9.3040549114915881e-05 -5.9735007244130500e-03 5.5256236167667313e-04 -7.3680679524974714e-05 -6.4672525638452896e-06 9.2878945124445490e-05 1.0418776594167331e-06 -4.0389288707313965e-05 2.3431205323115878e-03 6.5209250216878567e-04 9.3179993794129199e-04 -2.0683178403785255e-03 1.9124234995150429e-04 -4.2153141642608952e-04 1.2954833575189589e-02 4.8564121823222719e-03 8.8939156240306965e-04 2.0683197514822546e-02 -9.0693518744157063e-03 -1.5187877583799632e-04 -1.0432729511511418e-03 -2.3151778176738070e-03 -2.1504288353234183e-04 -5.6724809418797701e-05 -4.4785830621757591e-04 -1.8964056256064741e-04 1.2110166174457634e-03 -3.2348899591278651e-04 2.9767465812430283e-07 -2.2595817613304929e-04 8.7762050788801390e-03 1.9482758594688342e-04 5.3082623287419983e-04 3.9271109994271801e-03 -5.8529165145972993e-03 9.7793095133883508e-04 -7.7930121405813822e-04 4.2267298408160230e-02 1.1869198459699766e-04 3.9282950150854139e-03 -1.2096878049834949e-02 -7.7185137618778453e-04 -4.1817397282944475e-04 -4.1703142374540664e-03 -9.4924011948456589e-05 9.2049455229427824e-04 -9.0669409299581252e-03 
      </Row>
      <Row Index="166">
        5.5527377954411124e-04 1.3676386894664820e-05 3.7258128321477225e-05 -1.9525390551649709e-04 7.6485876869385400e-04 7.8700728751104779e-05 4.5782724080786828e-04 -4.8456438637739009e-04 -1.7375342330360800e-04 -1.8477940850514588e-03 5.0188747386630179e-04 1.2022803016383508e-04 -1.8484746164640145e-03 3.3231369213516286e-04 -1.9761362829404255e-04 -4.8788459773457514e-05 4.1762545896695832e-05 5.4917071501175534e-05 -1.3642985771890819e-04 -3.0338976764460526e-04 2.2580893771864414e-04 -1.0885367504031521e-04 1.0739039417330133e-04 3.7517589516771746e-04 2.1025424084513745e-05 -2.1132293445943638e-04 -1.0963322342522842e-04 9.0632995151962350e-05 3.3458070603306286e-04 -3.9209379605662626e-04 -1.6755243907359916e-04 2.8990801071073768e-03 3.9180793446434302e-04 -2.9944674084499308e-04 -1.5763116245117890e-04 8.4622780338703692e-05 4.8287374894936019e-04 -1.6505788402120783e-04 2.3199986166454883e-04 -4.7116198831290693e-05 5.4880506697303029e-05 1.4179441446751130e-04 2.2290962717080626e-04 -1.9767200627109581e-04 4.1787991239645864e-04 -2.6006899606997793e-04 2.8330783858052382e-05 1.3329911843960804e-03 3.3967059892895171e-04 -2.9839663623654807e-04 6.4094574183351516e-04 1.2274874431076444e-04 1.8202349409093235e-04 -4.2647716218573183e-04 3.1931175621805028e-04 -6.0613456411171712e-05 2.4642793233527031e-04 -4.8083142861011369e-04 1.1859453963595427e-04 8.6738357682900898e-05 6.4014227142983847e-04 -1.0435079559404227e-04 -2.0775184152783263e-04 5.5864874833481753e-04 3.0191217834288808e-04 1.3029248176974493e-04 -3.2979759228889197e-03 9.1143816746011889e-04 2.1379591131705808e-04 1.3211085422784041e-03 -7.5762910163499985e-05 5.6218709736441169e-04 -1.8361432207529240e-04 -1.0144327041715481e-04 4.2997599683693784e-04 -1.0896606175170623e-04 -1.7599247448657485e-04 -4.3345723758266572e-04 -1.8730960435747648e-05 1.6075584368543819e-04 1.0311613449242186e-04 -2.5031607494537461e-05 -1.4806495096156193e-04 9.3547055531159780e-04 1.5326829092833678e-04 -1.5925243710188247e-03 3.7846908676304790e-04 3.4097084247200764e-05 -1.6030559994524851e-03 1.6399751824040549e-04 3.8838863298340152e-04 8.0509574103724180e-05 -9.5543833543217213e-05 3.7070147140612743e-04 -1.3199560282088629e-04 1.7168770784242379e-04 3.2007839660205454e-05 4.2527739333240566e-06 9.9824377878800731e-05 -1.8804933693009713e-05 -6.1541636514381458e-05 1.5173693097447912e-04 2.3200328331719670e-06 1.1850915613682167e-04 -1.6680883935267065e-04 -5.1012340107755888e-04 -3.0893253229284835e-05 -2.1610695851584302e-03 4.2538098390784024e-05 -1.0166840897470485e-04 -6.3816542117188109e-05 6.4181151001805312e-05 1.6836836988166174e-04 1.1524482077286793e-04 -8.0765888110803652e-05 5.3152482057824860e-05 6.5288118897271086e-05 1.2718973698661951e-05 -8.5533095630990454e-05 2.8300653016310204e-04 2.9907614643172971e-05 1.8083754132649713e-04 6.3282494236806004e-06 3.9519206865783196e-04 1.7170460376922435e-04 5.0577402804400046e-04 -5.8671960503561826e-05 -9.4861380084665820e-05 1.9373024473630688e-05 2.4540604694093171e-05 -4.7352244989460213e-05 -9.2219749008676417e-05 -1.9481937876526453e-05 -3.8383922312144707e-04 4.8614807256266708e-05 2.3299575324141960e-06 1.4575082610345273e-04 3.8694274019240925e-05 -1.6608707615754998e-04 -7.7278360255902734e-05 -1.6284805519141133e-04 1.7135614929310652e-05 -1.3866411084499095e-03 2.6826526802474206e-05 1.0426382843342346e-03 5.4384934620288483e-04 -2.4113213153302217e-05 -2.4213282202352608e-05 -9.2738995763941604e-06 1.0365821564322927e-05 -5.5998240717084993e-05 3.7361318261683795e-05 -3.7206116819516605e-04 -2.5496506153401709e-04 -2.7650366347774505e-05 -2.5436856126652023e-04 1.2444992384479190e-04 1.9973480473567721e-04 5.2431187027689391e-04 1.4868408081089926e-04 1.6683193773641192e-04 -5.4441728001668188e-05 -6.1389907755651047e-04 8.2561624955644879e-04 1.0418732205391690e-04 -9.0146524581781240e-05 1.4535988384153636e-03 1.8991123502990254e-04 5.6732911730231368e-04 -1.4448555399704044e-03 -9.8981228038411573e-04 3.5669238651649723e-04 2.4889085934659465e-05 -3.4277865230719568e-05 1.1215751682336236e-04 -2.9779989091711950e-06 -3.1451303936726774e-05 3.3869540346439619e-04 3.7871304366264292e-05 4.6256476236642494e-05 -4.1973453734033619e-03 -1.1230823219021967e-04 -2.9223935226984813e-04 -3.1801750887300306e-03 2.7315752767883826e-06 1.1814040834083779e-04 3.1003022165000969e-06 4.1315201822656914e-05 -9.0043755107908213e-06 -1.4805371039892771e-05 2.4232227504543628e-03 2.0799719143912987e-06 1.0903697265073578e-04 -2.5202206037998478e-04 5.9363003876490442e-04 3.5373428878312461e-04 1.4837063411410247e-03 -7.0253647629364214e-04 -1.8196381055967577e-04 -1.2005213501585597e-03 -2.0782298894412698e-04 -1.0374395095198220e-03 -3.5875776984424512e-03 4.9751373001213949e-04 -5.1125898461753074e-04 -2.0199650903060672e-05 4.4899539835833448e-04 -8.3061998269209252e-04 -6.5242336687019163e-04 -2.5625073480534197e-05 -6.6264381222502040e-04 -1.1645187179422936e-05 -1.5630986549057210e-03 -3.0090759872903835e-04 -1.3363716433691228e-04 4.0041339173508422e-04 5.3909064952984581e-04 5.5177087857256955e-05 3.7607443723184644e-04 -2.9481318160934221e-03 -9.2950430256008489e-04 2.2411642617506649e-03 -2.8942537580612365e-03 6.0971002612090087e-04 4.4843797613683666e-04 -1.3577610390463879e-03 -3.7532828602397693e-05 5.3747564654052873e-04 -6.6922866781726244e-04 
      </Row>
      <Row Index="167">
        3.2999096687877827e-04 2.0379071545162836e-05 2.2537249713333813e-04 -2.6024293199214914e-05 3.4179303242837852e-04 -2.0871255051037504e-05 1.7104003399153530e-04 -2.7007343991429598e-04 -1.2269632367711879e-05 -1.9104121818341174e-03 1.6285383699270745e-04 6.6186782222644059e-05 -8.0480958638802502e-04 1.4513261443467124e-04 -3.3277863965089913e-05 -1.1316907550594195e-04 1.7192900004606507e-05 1.4205737564493295e-04 -3.3058365904812273e-04 -5.5480875600528654e-04 5.8744841889170525e-05 -1.5654880054894642e-04 4.6887718904902873e-05 2.0320935678871900e-04 1.8908935711836345e-05 4.2668108843264309e-06 -8.3638647695068180e-05 4.3468909868804280e-05 -6.6234960047551784e-04 -2.5438258685890359e-04 -1.4223703149926752e-04 1.2284082647386896e-03 1.1918123788349957e-04 -4.2466883206435582e-05 -1.5245634130117626e-04 -3.3983758846732010e-05 7.8753727632484196e-05 -4.7215817488953339e-04 -3.5842046865334869e-05 1.5005634955902963e-06 1.5482375894011632e-04 1.8882737533925195e-04 -7.8980828040849625e-05 -4.6539388148318346e-05 4.3596042915852382e-04 9.8021280263765648e-05 1.9147349719954244e-04 -1.7510268809638255e-03 7.2886986957715252e-04 -2.5279022869075657e-04 1.0320303402229225e-03 -2.2826447008288955e-04 3.4511508188991413e-05 -1.6241490463910486e-04 -1.5440036094909967e-05 -1.3993343395953982e-04 3.8904021081519603e-04 -4.9064862592478400e-04 3.6210491501421655e-06 8.9292807181527549e-05 2.6385803269946093e-04 -5.3621674194181609e-05 3.7840567486291605e-05 6.0448002574497095e-04 2.1917799171886293e-04 2.2978996462209031e-04 -1.1886451138713450e-03 4.7316052490504567e-04 -1.1754919452535871e-04 6.8480970245987649e-04 -1.5406257702181683e-04 9.6667602815857427e-05 -4.7137238960772115e-05 -6.7950040277903949e-05 1.4601650062525968e-04 1.4498463388703267e-04 1.2613008074906229e-04 -1.8611179729698373e-04 2.1536886046732246e-05 1.7565753499959114e-04 4.2020509524953731e-05 4.1740849397434567e-05 1.1084779013656020e-04 8.3818539461242084e-04 2.6434283075361074e-04 6.7195252997026556e-04 6.5663966067347306e-05 -5.6579177384133168e-05 -6.0456580173939845e-04 4.1965020883913450e-05 9.0446689427131264e-05 1.9904939593602461e-04 -2.1485987303962581e-04 -8.7995679145646405e-06 1.5158177925699880e-04 -2.2508268309335937e-04 2.4053286016777870e-05 -3.1137562859146189e-04 4.0646243377209557e-05 -7.4545822141157099e-05 1.6214886020615753e-05 -1.5107428925662935e-04 6.7776778055454425e-05 -1.9577174382475805e-05 -1.7852932856325795e-03 -1.5027225372565614e-04 -1.3390767995727200e-04 -6.7330355851061285e-04 -6.3751571644772744e-05 -2.2314366701935043e-05 -2.6169523004130028e-05 -1.6548847939048381e-06 1.0917776001547449e-04 -4.1148738003004892e-06 -6.8758777322756870e-05 6.7889199286612183e-07 1.0961824321467292e-05 -3.1266073667780977e-05 -3.8948825447392615e-05 -3.4774475439087408e-05 7.8808077733217956e-06 8.7681937079150756e-05 3.0842843376094331e-06 1.7448234693632630e-03 -3.5516761435822682e-05 1.3559203474116705e-04 -2.0968936593124265e-04 -1.3148096660303693e-05 8.3001751236098801e-06 6.6203974460811877e-06 -6.9128412462533230e-06 -6.1524819303023295e-05 -4.1534676624106759e-05 -1.4239892160397213e-04 9.1656332292449705e-06 7.0072781266183925e-05 7.2225957388699196e-05 8.3886348470186113e-06 7.0251686084772371e-05 5.0017040025839758e-05 -1.0390160123580961e-04 2.0683414429328865e-05 2.9219991583754766e-04 -8.4148509326597087e-05 3.7814366588342994e-04 1.8373051428988152e-04 2.6271860731601512e-05 2.4325022093111295e-06 -9.2154749781297432e-06 -4.3007633336637166e-05 -1.2093498758754733e-05 9.1456468937015697e-05 5.4233746061013721e-04 -1.1689563108143028e-04 -1.0380163995496914e-04 5.8681409961057062e-06 -5.4768879856312118e-05 2.6761414768314783e-04 -7.3607431330105152e-05 1.0751698159127375e-04 5.6048410058607894e-04 -4.6080394156784374e-04 -3.1926019308124845e-04 5.4192231580589556e-05 -9.1800886629189726e-05 1.8889638823886922e-04 1.8991123502990579e-04 1.0610528893480642e-03 1.4305878771260234e-04 -5.6124706631317800e-04 7.0230301231922468e-04 1.2000475178385538e-04 -1.3462300002082910e-05 1.1692014828684351e-05 6.0729099100270579e-05 -4.5862426078931186e-05 -2.3465171969610860e-05 1.3240984746879745e-05 5.4426649919861063e-05 1.1165831357238008e-04 -3.3369326749624023e-03 -6.3535187662516515e-05 -7.8717386317838164e-05 -9.5026430730998923e-04 -2.0632798746870506e-05 2.3320621846417106e-05 4.3298738637384957e-05 -5.5258550541293467e-06 -1.1829938572323510e-04 5.7260280954548855e-05 1.9663559988336884e-03 5.7573342108265544e-06 -4.1068688575824394e-04 -4.4418728540152204e-05 -1.6957884862863384e-04 -1.8752713928450087e-04 2.6249577060023246e-05 -2.0401033717761023e-04 2.4255738237717822e-04 -7.6205793656389572e-03 2.4980143754519866e-04 1.5643235607106464e-04 -6.7955018166920844e-04 -3.0666740205507559e-05 -1.8515196902884427e-04 4.3890503465253216e-04 4.6692466294212846e-04 -5.1265876061569861e-04 -5.5224914902509304e-04 1.1538685202447038e-06 -3.0660859654489236e-04 3.3645713435095871e-04 -6.7804420397603131e-04 -1.1419635739900403e-04 3.7130222690026811e-05 2.1037009840745876e-05 3.3323997306867830e-04 8.3163290910108872e-05 3.0203811737706794e-04 -2.1171943282701465e-03 -2.3981751513981646e-04 4.0082440757245076e-04 -5.3427215649586067e-04 -2.1353972865476306e-05 2.4354188117089884e-04 -4.0881879470670390e-04 -7.5795351397397930e-05 1.2631996750989561e-03 -9.8659123677672560e-04 
      </Row>
      <Row Index="168">
        -9.7754225628599554e-04 3.2128174834535886e-04 -5.4448557565584324e-05 4.3021134890752121e-04 -6.1771009063397303e-04 2.5236192855275475e-04 3.9550392911936831e-04 2.7359620643132576e-03 3.3476795467932315e-04 1.0883478499095212e-03 -2.0402992926798740e-03 -9.8207078230585099e-04 -5.7856387483468663e-03 -4.6198723219214715e-04 2.3328804754548784e-05 2.3671040289630367e-05 -8.8261778465049479e-04 -7.7873524359010199e-04 6.9583760017845092e-04 2.5080924533727594e-04 6.0753508639989871e-04 -1.8858920203737237e-04 6.6976832183405767e-05 1.7149632909555651e-05 1.3615535159838300e-04 -1.6948742194009469e-03 1.6383512991186180e-03 -1.6812483416453559e-04 1.0223823394422724e-02 -1.5844364437904484e-03 -5.1414653531926639e-04 3.2604856897879841e-03 4.2650353963939410e-05 -1.8120183628051833e-04 -1.8440005433659375e-05 -2.7960085498225288e-04 2.1795469694371947e-03 4.3784184389731402e-04 -3.3783212502571519e-04 -2.4046072347627651e-04 -3.3831781778984917e-04 -6.5437185224029911e-04 5.5610698554443491e-04 -3.9830480968593152e-04 -8.6162241993089153e-04 1.6298407795819463e-03 -4.6270394611775019e-04 1.6145916826540097e-02 -3.7860940139908235e-03 -4.7674196357743587e-04 6.4427302333469605e-04 6.0813320646165849e-04 2.3471696586762139e-04 4.8233539572661486e-04 -2.0401029571742377e-04 3.2509184959794019e-04 -1.0616201811021464e-03 1.5021588418011322e-04 -9.7139429947905830e-05 -3.3024575506582134e-04 -3.7854577464564981e-04 -3.8959992569606236e-04 -6.7734951795297353e-04 -1.6722731484226649e-03 4.1788828855420131e-04 -6.9564377799620665e-04 -4.1562440441311743e-04 -7.6023913078114916e-04 7.9013002219069373e-04 -5.0020032161857131e-04 -2.6047711450687041e-04 3.9953007525465450e-04 5.7549494874318445e-04 6.0652931958834512e-04 4.4478320041852967e-04 -4.2108874724757286e-04 1.1128620374266096e-03 -1.3075805918337548e-03 2.0263454717462173e-04 4.2593892826657542e-04 -2.1078298689192893e-04 -2.9959342979553544e-04 7.1610626324352875e-04 -6.2451231955306802e-03 -3.1134679985600489e-04 -3.8853247533927604e-03 1.7546878816325322e-03 8.8952553231301697e-04 -2.9343466504354598e-03 -7.0351410872015975e-04 1.0583275049452345e-04 -2.9745664856356893e-05 1.6183230503217859e-03 6.9964376782344698e-04 -2.7079620666488682e-04 -4.0327345498594735e-05 8.8132746483369356e-05 1.0927782734272869e-04 -4.6200731388664493e-04 3.0578340041767429e-04 -2.6229584236260443e-04 1.2148771014262637e-03 -2.7419992315476371e-04 -7.0661516718224598e-04 3.3738733564684662e-03 5.8339855036148073e-04 2.0031127386766704e-04 -4.2599193444637917e-03 -2.8980312182841600e-05 -2.2294659703297592e-05 2.1521004832736404e-05 4.7031879309088003e-05 3.8183867624255589e-04 -2.2959905682514407e-04 1.9938565590188473e-04 -1.0031461054152598e-04 -3.6539362714776980e-05 1.6142047574347262e-04 1.3476042836315380e-04 1.3370493049463467e-03 2.8513871914208518e-04 -8.9718814146890142e-04 -1.6513744623997649e-04 8.5642779183087159e-04 5.1021314039808793e-04 -6.2840753272681263e-04 -3.0148693567340068e-03 1.2349732350527587e-04 -9.2648813322952685e-06 -3.1283573519846203e-05 2.1360476193844582e-05 2.0498883479040664e-05 3.8460058836738142e-05 3.4083644040833194e-04 1.0309714250266323e-04 -9.4945772201997800e-05 -2.8348408775705469e-04 -4.7741413492870168e-05 -5.0204936294834007e-04 -5.8764975783270738e-04 9.6872906523445216e-04 -1.2492373414490021e-04 1.5261640207770554e-03 2.5654381490221464e-04 -2.0136665769006565e-03 3.1353433481489112e-03 -4.7365765152928543e-05 -1.2021625910545140e-05 -1.7555105069925678e-07 -2.9714675025272001e-05 4.5621324003569208e-04 -1.3302411731016812e-04 -8.3306538541333408e-04 -1.1835691736227123e-04 2.4895227530516417e-04 -5.9465084579515782e-05 -1.3045779600623364e-04 -2.3455985200908445e-04 1.3978710954202275e-03 -1.6931686446012909e-03 -1.4491617003959046e-04 -1.7270052537324276e-04 1.4391142485761517e-03 -1.6589473438634265e-03 1.6211857746615266e-03 1.7672385957367498e-04 5.6732911730234870e-04 1.4305878771263226e-04 4.7964820173069956e-03 -1.2705931970492662e-03 9.1686759071844988e-04 -4.8919489684381284e-05 -3.2563316496153226e-05 -3.1094665539504283e-06 -1.9233352620333814e-04 -3.6053351710152540e-05 -1.3515101369943776e-04 1.0643590396832360e-03 -1.0059119267107266e-04 -7.6104683588081013e-05 2.0356064540866061e-03 2.0586667997020275e-04 7.3778924041640465e-04 -8.8952928888963445e-03 -1.9178898957350737e-05 9.9552538529107021e-05 5.8375119827184107e-05 2.0649761415738102e-04 -7.4612235888442402e-05 -2.4957517961823644e-04 -2.8855056258338119e-03 6.5003047055413083e-04 5.6230318768853214e-04 -1.1826116797584397e-03 3.3251921443604854e-04 5.7225780912429627e-04 5.8487608260499591e-03 1.9519294647453340e-03 -4.5378408807316784e-04 5.7524526438306996e-03 -4.0993309559087705e-03 1.0522430084484997e-03 -1.9695583484453660e-03 -6.7132988787003283e-04 5.3105260226862750e-05 6.7004633652827323e-05 -1.1930842718809703e-04 -2.5071929397932893e-03 1.3290994781052067e-03 1.4813335663621877e-04 -1.6515663533531331e-03 -2.4360579302729177e-04 4.5809203999095252e-03 6.4025489730218791e-05 -6.2044586660342277e-04 1.6134564531583660e-03 -2.9928467797797702e-03 -5.8990082410579497e-04 -1.7126309479377589e-04 8.9838210062014902e-03 1.9908476870591271e-03 4.3254978131869789e-03 5.3497817406950700e-03 8.9033716073911304e-04 -7.6094134523150528e-04 1.2759226929680272e-03 6.0171071365742367e-05 -2.5866887755470066e-03 -5.7323521638678173e-03 
      </Row>
      <Row Index="169">
        5.5940073695566594e-03 1.2986200553294631e-03 1.1743362278463371e-03 -1.1160209645905326e-03 2.2263257185403413e-03 -1.4622400569395007e-03 1.6384855066988236e-03 -6.8726938431109188e-03 -3.1032155482912287e-04 -1.3706097333403194e-02 4.8229882367301124e-03 2.0954712931568129e-03 -2.8003247115941932e-03 -6.7768837754014115e-04 2.0309277073017531e-04 1.6702770545084201e-04 -8.0327247526285105e-04 1.8576214272543169e-02 -4.1217032284709900e-04 -4.6883054772313415e-04 -7.2899029080840047e-04 -3.3702535557775162e-04 -2.1679547630629958e-03 3.7663401652849784e-03 7.0575240087875427e-04 -3.7368896808588465e-03 -2.8053083621709411e-03 3.6558815689785194e-04 2.5226457536198947e-02 -5.5273438570576476e-03 -1.3541980439435806e-03 8.0940225477261762e-03 3.0615961944442140e-03 6.7064716331901621e-04 3.1300212558435601e-04 -1.8433454844055193e-04 -2.7992942545386812e-02 7.8544834274466404e-04 3.4185213395852287e-03 -7.4179859587998154e-04 -1.0276488355442990e-04 -1.9207729675064789e-03 1.5085295599130315e-03 2.6839539833230161e-03 -5.6977203969076143e-03 -3.9377202501589131e-03 -3.2965354604985861e-04 2.8387112276449744e-02 -3.4506947382225584e-03 -1.7439597437100933e-03 -4.3223718258453836e-03 1.4853134260668678e-03 -1.8023766179739269e-03 4.3312767084641228e-04 -2.5878039930402885e-03 -1.6746322899272047e-02 8.1177908482235259e-04 -1.4608712012696978e-03 1.3087187640668761e-03 9.1161795156602648e-04 1.8257685819427958e-03 -1.8051711173632037e-03 7.9708677659891280e-04 1.5967956108703843e-02 -1.7842945254907148e-03 2.1462304302680233e-04 -2.9649025594570722e-02 8.4968523124612279e-03 1.0212327339681835e-03 2.7589699052398498e-02 -1.8708636413647002e-03 -2.9020542063639462e-03 1.6962421649473289e-04 -9.1725651158238277e-04 2.6422394458095737e-02 -1.4604923559142537e-03 -1.6595345933131944e-04 2.5155240926399633e-04 -6.2347251125849205e-05 2.9780798178863539e-04 -3.8259444588259472e-04 1.1002965278462662e-03 1.7706424187201742e-03 1.0907965126435652e-02 1.0273308662515079e-03 -4.5217118700627834e-03 9.2132137178048412e-04 -6.5399217728810514e-05 -2.6265408117836286e-02 2.3189438885190647e-04 -2.2025973876657829e-04 -2.8435402741606129e-04 1.6831091646602506e-03 2.7519311933425925e-02 -7.8465361374226508e-04 -2.4756779280794144e-04 8.9645692080276976e-04 -1.0062914115907978e-03 6.5136510951344442e-04 -1.5072577617586116e-03 4.1193423139189347e-04 -2.5073017152137276e-03 1.0065788440245106e-03 1.1399927433175506e-04 -2.3768978103920105e-02 2.3303523961609373e-03 -3.0439183744428074e-04 -6.9368747445015533e-03 -5.9175400956118496e-04 6.8105956149054885e-04 2.1374396887302756e-04 -2.7604404776717165e-04 8.1321208964022489e-03 -1.3856081014961439e-04 -5.0801941509660831e-04 -4.9342484152064799e-04 -6.4678018248351225e-04 -4.0985052894813748e-04 1.6857542169316424e-04 -2.8266713984098643e-03 -2.5908224574699560e-03 1.9629132481291610e-03 -3.8325022677431625e-04 7.4997518555547371e-03 -1.9383266460570900e-03 8.3172347520194272e-06 -5.5413615344511724e-03 3.0877441174320935e-05 -2.4791371752345807e-04 -1.1566696950826572e-04 3.4240131094947466e-04 -6.0766423140470073e-03 1.0819765156967753e-04 -2.0058210980042346e-05 5.9751797855354949e-06 -6.8420133178324731e-05 8.7432161853192951e-04 1.2394656717374162e-04 1.2926257162691537e-03 2.3424547402763674e-03 -3.1855743890552828e-03 -1.5691506463741764e-04 -3.7550029260776784e-03 -2.7891370680429585e-04 1.6795455901344445e-03 1.1564753783801285e-02 5.9412081169864911e-04 -1.0403005321372465e-04 -2.6990459041989720e-05 3.2741368118360912e-04 -3.7095313225086069e-03 5.1942766275013194e-06 3.6807954712697599e-04 -1.0393695978062885e-03 -1.8058792465809402e-03 3.8771936470052802e-03 -3.8608997524604109e-04 9.8263307545356539e-04 -6.5407356147722780e-03 3.9843936449498914e-03 1.0536942806482173e-03 -1.4909075605305661e-02 -1.3132775151811862e-03 3.9877693261098669e-04 -3.4022173652223930e-03 8.4592558949847236e-04 -1.4448555399703760e-03 -5.6124706631322505e-04 -1.2705931970489175e-03 9.6556416953873597e-02 -9.7582848973422169e-04 5.8782408829836930e-04 -4.4444725089675058e-04 -1.0372041590472062e-04 4.4646784479870460e-05 2.4331171137948864e-04 1.2545175502007800e-03 -3.9237917834691622e-03 6.4103610959898656e-04 6.5228284318321619e-04 -1.5353997233699956e-02 -1.5940358472231618e-03 -1.6385943746253086e-03 -3.9589630169597156e-02 7.8703109902259502e-04 -5.2815843459994949e-04 -1.4391616489282472e-04 1.4890377732400088e-05 -5.9489249314931200e-03 -1.4900226685378090e-04 1.5498628608785675e-02 2.8214440478013369e-03 -1.8302169632145593e-03 1.1577047011886773e-04 -2.7137067157350587e-03 2.7001185225617309e-04 -2.2528152954799430e-02 -3.5204260036639677e-03 2.3900939751735906e-03 -4.9576811732702994e-02 6.3430028111013757e-03 -2.4101188083636010e-03 6.4941624833216860e-03 -2.3154939235936534e-03 3.9597971476073484e-03 -4.8251752246815643e-05 -6.4947412325302371e-04 2.8289835944352131e-02 -2.4812830916031946e-03 1.1943035967916307e-03 7.0758273516541986e-04 7.3053034596044114e-04 -6.9057871198616441e-03 -7.4485953854721047e-04 1.5411090703932589e-03 -9.1948383837376878e-03 6.8824846074249206e-03 -6.5369721782755109e-04 1.3482884397049339e-03 9.7527562898303216e-04 -1.4811260214130598e-03 8.0883889265225082e-03 -1.1862038148956269e-02 -1.0777223124209376e-02 -7.0893935531118305e-04 8.4963411594445037e-03 -9.3150669267889376e-03 -9.0181993374753913e-04 3.4629644644263531e-03 
      </Row>
      <Row Index="170">
        1.9552366055602816e-03 5.1650306845760739e-04 2.0777440450172810e-04 8.9312572326131882e-04 -2.7457703613972817e-04 -1.0550337511999535e-04 -5.9534496225210573e-04 1.0271440916386106e-04 2.0838409600964364e-04 -5.7551899848628518e-03 -3.6358037047555438e-04 -1.0554229760230925e-04 -1.2086229241415891e-03 -4.6178260343129960e-04 1.8365007398248902e-05 -1.7277122967658407e-04 7.0176412353260744e-04 -4.3125081613315020e-04 -3.9454904670191589e-03 -9.2479059580170830e-04 4.3964341893874435e-04 -4.1865351079805463e-04 3.6108659158989848e-04 -2.1595921887720276e-04 4.2218920438948440e-04 -1.2719352762056088e-03 4.0991464243080717e-04 4.5364355377097015e-04 2.0184376651650043e-03 -1.1355814069666896e-03 -3.7029952664751134e-04 2.8960831175668389e-03 -1.4496572430163770e-04 -9.0738431279915356e-06 -1.7988676711252170e-04 6.9450069709118189e-04 1.0590874203017797e-03 -7.1315830055025571e-03 9.2373940002168919e-04 8.1368314940387658e-04 8.5667192658396389e-05 1.1873761753112238e-03 -9.8494389855196401e-04 6.8363607763240186e-04 3.1922775606212928e-03 -1.6549606202148088e-03 -1.7928330964555629e-04 6.1793538913235135e-04 3.1894060640044949e-03 2.5439830066434355e-05 2.7745914425314488e-03 -1.5466665783669558e-03 1.6852626397556233e-04 1.4927714767520861e-04 1.5800296744185628e-03 -5.7582761884989245e-04 6.1172713557685627e-03 -1.7160643304302281e-03 -1.1359568582812018e-04 -2.3250029385389354e-05 -2.2707379391542076e-04 -3.3135885175077096e-04 7.0482668641093761e-04 1.8545573174225168e-03 -1.1096250383029541e-03 -9.6511308540079416e-05 8.7891439314711217e-03 4.3739372144692597e-04 -4.9367163835521352e-04 -6.7784934629422366e-04 -8.3185092463946295e-04 -3.9134469798786408e-04 2.8297706684940905e-04 5.6266689499317925e-04 -3.5086715758123749e-04 3.4778597180356984e-03 -1.6900755910765897e-03 -1.5109235837343638e-03 -5.7476871218431480e-05 1.0958106605334084e-05 -2.3357094114097310e-04 2.0706394456598137e-04 6.6168416217338502e-04 -1.3274453365521022e-03 2.1929389655162002e-04 5.5471357021530387e-03 -7.4730507402672591e-04 -5.5254033604207331e-06 -7.8880906687439634e-04 -9.1197928666204159e-04 -1.0854274658822667e-04 2.2306491175649173e-04 -7.8624267733591689e-04 -6.3904898369225929e-04 2.1452223867963888e-03 3.3495034866867779e-04 -1.4275889215053378e-05 -4.6415486290104526e-04 -2.1739550979137405e-04 -7.0299406498726402e-06 4.2210141581028315e-04 -9.9069807162644602e-04 8.7459426502165200e-05 2.7937520299547037e-04 -2.8969048682593174e-03 -2.4828159464767620e-04 3.1925974440100569e-04 -1.3535363608818685e-04 -1.2082173296422850e-04 8.5695828335980969e-05 -4.0349759769663866e-05 -2.6732539497919226e-05 3.3334397094047499e-04 -7.8476367048831370e-04 -3.5979500405280973e-04 -2.6386335309744931e-04 -1.1823471634583860e-04 -5.6807041336706492e-05 7.2268714812630643e-05 -1.3746358085532460e-03 -7.8345312059793434e-05 -1.2201920921128297e-04 9.2311113055555671e-05 3.9973316967922834e-04 -1.3159509560809607e-04 4.5330391068074046e-04 -7.5234239933097413e-04 9.2434159320761516e-05 -3.8610131204751610e-07 7.4299130233225139e-06 -2.1095121505763941e-04 -4.4360386567590671e-05 -5.5053354724723946e-04 -1.5015481287920240e-03 2.3565936918880977e-04 -3.5273923245632017e-05 5.1694517522132756e-05 -1.9688521529961293e-04 4.4685974717173981e-04 5.1376775354406833e-04 -1.9369355087659520e-04 8.4069673599373150e-05 1.2280433994276557e-04 6.4175462861208949e-04 9.9612241088068137e-04 6.3095382273292699e-04 -2.5443005140039939e-04 6.0256432161385766e-05 6.7099334335604140e-05 -2.6424734543959577e-04 -2.4684842332823860e-04 3.4738230924346832e-04 -1.2004738544454385e-03 -5.6866390237845631e-04 4.2164910332198607e-04 -2.5367777481815615e-04 -1.0874422403436140e-04 -6.7786331716265802e-04 -1.1137967411174315e-03 1.3694849136128562e-03 -4.9529305419792312e-04 -1.6527153796564442e-03 -3.3785784870926167e-04 1.0124816803962142e-03 -3.3581816061927228e-03 8.2776976291757548e-04 -9.8981228038410641e-04 7.0230301231921817e-04 9.1686759071829028e-04 -9.7582848973404301e-04 1.0043404207370873e-02 4.1108691798147487e-04 -1.2411795672677791e-04 6.8672431886268199e-05 -8.4575922531088179e-05 -5.1327842396279406e-05 1.3039345344822609e-04 -5.1605557090747111e-04 -1.0749743760055997e-04 2.1688928703974332e-05 -1.9826919743982253e-03 -1.5375932903944668e-04 -4.1197730834130778e-04 3.8402571431728205e-05 -1.4040809872678235e-04 -3.7955439178154332e-05 3.3407881757163182e-05 6.0889856853413031e-05 -1.6572546320836341e-04 9.2066789811167532e-04 6.6384929750683483e-03 1.9366470895616204e-03 1.0165748152153587e-04 1.0896369238055426e-04 1.8943280751012670e-04 -7.7542584868724152e-04 -1.3527236873337404e-03 -8.8270031978689850e-04 -2.8025095569632233e-04 -1.9848454972152506e-02 1.7902085658189923e-03 -9.6383645787381225e-04 2.5550441848798400e-04 -1.3533517264581723e-03 3.6266060631558986e-04 -3.6669601708030702e-05 2.3697412769912611e-05 -9.9680281315049309e-04 -8.9775116757768916e-03 -2.5051618737255421e-04 -1.0807440043951264e-03 3.6094065983160247e-04 3.3550333391034470e-03 8.8279435656849652e-06 6.4472075048887341e-04 -2.4389578047554644e-04 -1.5566437057892542e-04 2.3923158013138522e-04 2.7572989251327352e-05 1.9902016899942193e-05 -1.0544340971165647e-03 3.5785178419458748e-04 9.2396611917696624e-03 -1.7062677923283692e-03 -7.6747104213015891e-05 -5.7377318090061262e-03 -1.0801787468909315e-05 1.4537954483401358e-02 -1.0260273264179064e-02 
      </Row>
      <Row Index="171">
        -9.6893455277738211e-02 1.0394070498035146e-03 2.9635517672465361e-02 -3.1739434584900296e-03 -6.2555342347836440e-04 2.3057299270465050e-03 -4.6203379209813586e-02 1.1330767401460384e-03 -6.3532256685613353e-03 6.4915034457587950e-02 -6.1216772742974518e-03 -3.0239161155160565e-03 5.1640600328545005e-02 -2.1975980798377421e-03 -3.9122767123461744e-04 2.1834816565316495e-04 -4.2012888343741228e-04 1.1988308270506100e-02 3.1922055019772549e-03 3.1861852966482651e-01 3.5092899642047148e-03 -1.7363265016803742e-03 -4.1320104970393066e-03 -3.2028793663826383e-03 -2.1203069600217450e-04 3.0230362355812973e-02 7.7143378718574108e-03 -3.9563374073452728e-03 -2.5540485463355633e-02 -3.7269132219762968e-03 -9.7765624336235701e-03 -8.3635984594934598e-02 -6.6202651247722760e-03 5.3362458163722787e-04 -3.8919158326591874e-04 -3.1203760491136617e-03 -9.6078161579035148e-03 7.5607193274341289e-03 -2.7347581701976065e-01 6.5223678507538539e-04 4.0562410123145681e-03 1.3113448641582925e-04 1.8338373725307888e-03 -5.5246416690271083e-03 -3.5797711303978685e-02 -5.6522539329724175e-03 9.1848946562945177e-03 1.7576079396226518e-02 2.6044473371762134e-03 2.4934316368452336e-03 -6.1974721429578494e-03 4.0198340480488565e-03 -2.0486798032710030e-03 -7.2108178998959299e-04 -5.3530112112263606e-03 1.1494500861524148e-03 -8.3772685905067062e-03 -3.8529400331358099e-01 -1.2281413664742141e-03 -9.7792770285089203e-04 1.4572103083232979e-03 2.5701137700806509e-04 -3.2783440953227799e-03 3.6253896429283561e-02 -6.2520117770742956e-03 1.2205445655947667e-02 3.5588615934077694e-02 6.6427269959796753e-03 1.0305030519905389e-03 -7.2655628536352879e-02 2.1925464171894948e-03 -4.4727372482060157e-03 -1.8941818519271625e-03 -7.4963940463296241e-04 8.7310983880753978e-03 -2.8338685434858985e-03 -4.6008213706347867e-01 -1.4348374805569053e-02 6.9172754589003072e-04 1.5977367438269052e-03 2.6114223282265314e-03 -3.1189883333883339e-04 1.3202375071860173e-03 -1.1641582420538477e-02 2.5830066782548400e-03 7.3053901044666247e-02 8.2569344974301462e-03 5.6554591366292928e-03 5.5295320494366251e-02 1.1962052074883517e-03 -1.3938268467184600e-03 -1.3261356948543468e-04 1.6423731026814214e-03 -1.5459162788833414e-03 6.6100889714704181e-04 6.3731331557756832e-01 -5.4964761640494825e-03 -3.6576754240104259e-02 -1.0047915197571380e-03 -3.0473575689897170e-03 -2.6613032290742494e-03 8.7970387805057504e-03 5.2549778086070139e-03 1.2001799260923804e-02 -1.8489351925323472e-02 -8.3134264326151248e-03 -1.0617537893398260e-02 2.3360548103877221e-02 -6.8799730130783623e-03 -1.1653659854930914e-03 -1.7732334831320640e-03 9.6386239414653942e-04 2.5458276732225997e-03 -3.6881969616622276e-03 -2.6423759635271438e-02 -1.0338058683644347e-03 -9.6327028784141122e-03 -5.2226715188156969e-04 3.1358538945798486e-04 8.9689010462603025e-03 -1.6852686655442484e-03 -4.0263285045991082e-04 6.8310379262227494e-03 -5.5989592768231233e-02 8.2338157929129352e-04 -3.9523617872578957e-04 6.6681579772733812e-02 1.3749867432501783e-03 -5.4559754895884549e-05 4.3020982827268739e-06 2.2249815296078359e-04 -2.8740184040099148e-03 5.5447625079008134e-04 -3.0484710771435752e-01 4.9169501819582573e-03 -8.0012387461299295e-03 1.3138735634803415e-03 2.4679842536722944e-03 -2.8835253928641766e-03 2.1756517603627873e-03 -7.3312155506859850e-03 2.3662115278048398e-03 4.8373919889835748e-02 9.3585801979279848e-03 4.0055468590112844e-04 -4.5827041277377134e-02 4.0693259738498501e-03 1.7177874077827172e-03 1.0277727152402617e-03 -1.0958817348116585e-03 -1.8767443411967493e-03 3.2372592703110575e-03 4.6633635359981440e-02 -4.8131028124731579e-06 -3.2264643194447207e-03 -1.1171666314574724e-03 1.3729756535967308e-03 6.2766824876536731e-04 1.5310558808848851e-02 -2.2517119571094923e-03 4.4649716777484518e-03 2.8413466496060025e-03 7.6823887214199438e-03 3.8373451130816472e-03 -8.3897078048991602e-02 9.9754357925874518e-04 3.5669238651639054e-04 1.2000475178404468e-04 -4.8919489684273731e-05 5.8782408831126176e-04 4.1108691798164010e-04 4.9704340457478469e-01 -2.2421982210319531e-03 7.9810694551169827e-03 2.0074040699366701e-03 8.1700855975592622e-04 3.5756683150552581e-05 -8.1110101753417707e-03 -1.1435203477308386e-03 -4.3091907828763721e-04 2.2799201911780936e-01 8.0172797188105991e-05 3.0003408383259106e-03 1.8319775284300732e-01 -7.8487155594724985e-04 -1.2285489935914670e-03 -4.7328978478676119e-04 -8.5440387756957517e-04 -7.2999798610709175e-03 -1.4622427097165610e-03 2.6753808562956699e-01 -2.8652042902839164e-03 -9.2693047489357978e-03 3.8667757011037890e-03 -4.9421734175091117e-03 3.7742129702909742e-03 -8.0898489362784209e-02 1.3092939095626433e-02 1.3059445927646574e-02 2.5296877072699009e-02 -4.8092167854752871e-02 -9.4551405962982511e-04 2.9688698729592033e-01 -1.6719355425164544e-02 1.4183073313519797e-04 -3.3800985730327634e-03 5.9212736015192410e-03 -1.0620116767948183e-02 -1.1926205940435710e-03 -2.6069082629000739e-01 -1.5131404468513066e-02 3.7603164549218561e-02 -2.0194438854092871e-02 7.9770279212892058e-04 -3.0676691855660142e-03 -6.1900179064424590e-02 3.9711829424639179e-03 1.3405111198930168e-02 -4.9828763288049371e-03 3.2611126854129806e-02 7.5714428942062761e-03 -1.6731666713028281e-01 4.0884712476656593e-02 -1.1529702932958470e-02 1.6177414228750256e-03 1.9223220610481394e-02 -3.8775793854222747e-03 -2.2681441222339400e-02 2.2618192502984896e-01 
      </Row>
      <Row Index="172">
        1.0749152409585683e-03 -1.0915768877152411e-04 -8.0350133455370579e-04 5.4336586512658579e-05 -3.9105480195608666e-04 -3.4616806139226562e-05 6.6001221980845418e-04 4.9420260523641187e-03 -1.5470375305554930e-04 -6.8484650852864704e-03 6.6708060039771160e-04 -5.9808029391171524e-05 -1.4099267968024631e-02 2.2232600592745960e-05 -2.9186791208848928e-05 -3.2971253637718812e-05 -2.8876222524531515e-05 -1.4522543682194619e-03 -1.1094675885940132e-04 -4.2822943482779957e-03 -2.5345109857323636e-03 3.5159546673640268e-05 4.2686938596483173e-04 -3.2729347797696290e-04 -7.2067596178740367e-05 1.7973325122768932e-04 1.5932055772535166e-03 1.1330959984218181e-04 -1.7671142731148559e-02 -7.1151998937962063e-06 -1.1711227100459631e-04 2.0041983571100985e-02 3.2706101418413305e-04 1.9985911143278155e-05 -3.7162756722552981e-05 3.7918667310561638e-05 4.1453693626998522e-04 -5.5238643320581690e-05 2.3049727202026637e-03 1.1669421730204693e-03 -1.7510534663857033e-04 -8.0080512440391070e-05 -3.2919593878188991e-05 4.5512570273812877e-04 5.2522160332287016e-04 2.7216511368222170e-03 1.9276796291156639e-06 -3.8019526313115559e-03 -5.1594883405396003e-05 -6.4065942110769214e-04 4.2559592465059026e-03 -9.5693884214610812e-05 1.0110486652497447e-04 -5.3675314460543966e-05 -6.2876126616855793e-05 4.6249294936292693e-04 3.3496651672745587e-04 4.2059892111733777e-03 1.8423161263134381e-03 -1.3713866589658459e-04 -1.1443585583452605e-04 2.0094576826786698e-04 4.0264821308235929e-04 -4.9483271050587696e-04 -2.5761665193988967e-04 1.6428253911171878e-04 2.8518856685755267e-04 -1.6931027793225598e-04 -4.3510786711991635e-04 6.6455821053548192e-03 -1.9573039527704186e-05 2.0408686460173387e-04 -4.9974198725573696e-05 -6.5238116212808922e-05 -8.9140688250682193e-04 3.3299853671759673e-05 6.0931082384929613e-04 4.4895905483597551e-03 1.0950012301755990e-04 -7.0988361404001471e-04 2.4788419956578434e-04 1.5486654506338855e-04 -8.5113905783278793e-04 -9.1057186841706772e-03 -8.2278449891309835e-05 3.8949963952826128e-02 -3.3182195581747675e-04 7.7727561793418387e-04 -1.6459620361747085e-02 4.0350779067461259e-04 7.2997689161621859e-06 -5.7090673326893465e-06 -3.4697083802546699e-05 1.9369078553243477e-03 -1.9824315521152491e-05 -8.2570953543655845e-03 -7.8028572845717861e-05 1.3026015406034557e-03 2.3033390390669439e-04 -5.5921148466118314e-05 1.6645816830759309e-04 6.4461768669672216e-04 3.4943186149034047e-04 4.3952866154312736e-04 -3.7635951795700002e-03 -4.0308476587544895e-04 -1.2152852109763605e-04 -8.5619880204426124e-03 3.3550410579899297e-04 -2.0307046038642741e-05 -8.1041860319433517e-06 1.5763298683072775e-04 -8.5590718549267020e-04 1.3636170723018830e-04 7.7749902863943898e-04 -2.2792765812627500e-04 3.7325865519426821e-04 -4.7499003013306076e-05 -1.9862705015943026e-05 -7.9566880914948637e-04 -2.0148679985211235e-04 -1.3406974561429941e-03 1.1874043156784655e-04 3.7937954633138204e-03 -6.5878775994170080e-05 3.3303268982709413e-04 -1.7948351996235345e-03 -6.6522407074522160e-05 2.1699408408744781e-05 9.3313356227461841e-06 -7.9373325519268374e-05 6.4054258438521472e-04 4.4522924764492378e-05 3.3101253324619162e-03 3.4604237211273252e-04 2.8930243368639405e-05 -9.7587120906297831e-05 4.0426595648080429e-05 2.8384483664116314e-04 -7.5962304874612700e-05 2.0367643815486043e-03 -5.2005456587835019e-05 1.0140991304874274e-03 -3.3597117299572887e-04 5.8106196607540382e-04 7.5785066996898465e-03 -1.3420220058406622e-04 -8.7769975166075216e-06 -5.2625887734558381e-05 -1.7440369207451364e-05 3.8700739173587077e-04 -1.2400232320234792e-04 -1.9394683548012992e-04 -6.8832055546100279e-05 -1.7175588685932339e-04 7.1106396741291329e-05 -2.9693118228577009e-06 1.0787973247951624e-04 -4.4822341573577326e-04 -1.9055149820604439e-03 2.8282522735367739e-05 -1.0716811991932973e-02 -8.0478936817661808e-04 -3.4907559319204140e-04 -2.4715085986208862e-03 -1.1143622650553755e-04 2.4889085934746676e-05 -1.3462300002046318e-05 -3.2563316496155015e-05 -4.4444725089698434e-04 -1.2411795672653825e-04 -2.2421982210364538e-03 6.5682205523074104e-03 8.3756134963140099e-05 -1.8187004666587528e-04 -7.9784918880594126e-05 5.2329802668980765e-04 -2.8300763479004610e-04 -3.3751555529029599e-03 3.7808376679488831e-04 -4.7854118292977119e-03 9.8913001117598934e-04 5.2779692880776277e-04 -2.1037723060339797e-02 -5.2128382921435320e-04 -3.7473946135546719e-04 -1.6619332100610389e-04 -2.1187404437281177e-04 -4.6668681181095961e-04 -3.5439165984331640e-04 3.6427587881992587e-03 1.2297108073964433e-02 1.6703536385989344e-03 -4.4538236720035674e-04 -3.0072804411460487e-04 1.1740087275266772e-03 -1.0804600196024500e-04 -8.4599865147097601e-03 1.5565396330900205e-03 -1.1016339244359769e-03 3.8386555983953401e-03 1.1378198364482570e-03 -2.2522132446916032e-02 -7.0538573279131244e-04 -1.4727318467679692e-03 -4.0173538824568491e-04 -3.0450980256711943e-04 -2.8106462803450627e-03 -1.0813573800516096e-03 3.0298979096170658e-03 5.7783100167846258e-03 -1.2288328797321474e-03 5.4111938219084804e-04 1.4214643956467346e-04 3.9789072257724541e-04 3.1596873253734000e-04 -6.1777600932335659e-03 2.0054764068773391e-04 6.7711933939679095e-05 -4.1686845321327465e-03 -4.5438694502138426e-04 1.2721386003186399e-02 -3.2026600025543131e-03 7.8675014259849607e-04 4.4295139493137969e-05 7.3132299131109643e-05 4.2896219528545921e-04 6.2102908810603998e-04 -1.3326270678191388e-02 
      </Row>
      <Row Index="173">
        3.1479769493754873e-03 -1.3125542452739993e-04 1.5099763151295043e-02 -1.5171004151765628e-03 -6.5993432541512805e-04 3.8474389376852078e-04 -6.0709957086819185e-04 9.3797234884517825e-04 -1.7469701051690024e-03 1.8172861916796124e-02 -1.5326022702144588e-03 1.6337758591574228e-04 1.5932487753958169e-02 2.3247328459136940e-04 2.2227169477155931e-05 1.2549079113882415e-04 3.3316870876067689e-05 -1.6544878342729060e-03 -3.5589681476283822e-04 9.4906124953966498e-03 -2.3050675158724112e-04 -6.0870473196668572e-03 -1.6726699599948795e-03 -1.0687004965148593e-03 -4.6978616128128241e-04 -6.5385297850350816e-04 1.1124134422396119e-03 -1.1762919430684101e-03 3.2294576236578665e-03 1.4562249799868025e-04 -1.0563244049816359e-04 -1.0951225944943577e-02 -9.5583707230999107e-04 5.5488681051616058e-05 -4.1277739257558101e-05 2.6220848327407436e-05 1.6464175152276182e-03 2.5550128226541199e-04 -9.7685865792904343e-03 8.2044860171920226e-05 5.0904066963764292e-03 8.5306399871867443e-05 5.9716556959118171e-05 -5.8260476644416380e-04 1.6014374269037943e-04 1.2049180585716347e-04 4.9467849966889094e-03 5.4433731564967336e-03 -2.7149612078430484e-04 9.6293702050201380e-04 -4.7069189418769142e-03 5.6645058201053376e-04 4.2618501237701861e-05 7.4440538128926672e-05 -3.2454188074480805e-05 9.5159813457740706e-04 -2.8730758729719448e-04 -1.3053937815668423e-02 8.4984547499807397e-05 3.2232305703383361e-03 1.7526733907021921e-03 6.0276043769486552e-04 -3.7115578737355196e-04 -1.6670116458087324e-04 -2.9436853748916400e-04 6.4195011163352498e-03 1.2973364236210649e-03 -4.2806769010681010e-04 8.8716129976516758e-04 -2.0468092709720054e-03 6.6283064456657708e-04 -5.2659625235017228e-06 2.0058331269954925e-05 -1.2118680134057865e-04 -1.7073693119263565e-03 1.4472170791029722e-04 -2.1463505150735529e-02 3.6951100584857802e-04 5.8417243668206168e-03 9.8385821972291065e-04 7.3475296556648612e-04 -2.6414676104553263e-04 6.3439745464170284e-04 -3.1889970335279849e-03 1.4116903244146273e-03 -4.0606816298807136e-03 -6.9687424270811413e-04 3.8363848463588649e-04 7.4341808620509431e-03 2.8059801567022159e-04 -2.0990135597344969e-04 -6.0466247956678099e-05 4.4173205095263037e-05 -5.8238441855956204e-04 -7.3055833418531058e-05 1.4781963549398827e-02 2.8098238685525414e-04 -2.6107830471404789e-02 -1.6928959905412140e-03 -1.2664621563691072e-03 -6.8540670954768575e-04 5.5986690652807571e-05 5.4588205628095139e-04 4.4067611426642506e-03 9.6267498171438252e-03 1.5903530623823765e-03 -4.8186298457279428e-04 2.2692312750727806e-03 -1.3149271711894403e-03 1.3135243112523203e-04 -1.1066218645878796e-05 -1.0565161221324460e-04 -1.2662911176270133e-03 3.4749679065933811e-04 -1.1484892683953918e-03 2.3084447637213186e-04 -4.7630090874823221e-03 -6.3110457728531542e-04 -2.1789048294988764e-04 1.6786434367130334e-03 -6.5702040800235447e-04 -4.5501546543179339e-04 3.8348498500036148e-03 -1.6809996232488855e-02 4.9825148933126465e-04 -5.6680256016828777e-04 -6.3080607036358760e-04 8.0100131673822991e-05 5.4865187692878245e-05 7.3621887649286382e-05 1.0953447617820402e-05 7.0501567491545319e-04 3.3439544768066459e-04 -1.2141525527164403e-02 4.3931047493483630e-05 8.6283320038093745e-04 9.8554320039846493e-04 2.2244115120285848e-05 -4.4447531477456227e-04 1.2089190343551534e-05 3.5292399407934770e-04 2.4867290268863135e-03 1.4247816680246069e-02 3.4071250583183905e-04 -8.2525855237252635e-04 -5.5992864167482281e-03 1.6599399493675215e-04 -5.4059137683283176e-05 7.7476687533686547e-05 -5.8486982642257042e-05 3.7695837534293229e-04 1.7463255958602539e-04 3.0960187411157580e-03 -1.0657358675932645e-04 1.3878991003650914e-03 -3.2690101964821631e-04 -3.4909131906266447e-04 -5.3121017190955848e-05 1.5153706366536138e-04 -5.9538863315609231e-04 1.7389951444854084e-03 -6.8178609216988095e-03 5.6040517969238146e-04 7.3645552127354560e-04 -1.8140522607668075e-04 -1.0342742720758356e-04 -3.4277865230600258e-05 1.1692014828794655e-05 -3.1094665540456687e-06 -1.0372041590529096e-04 6.8672431887134219e-05 7.9810694551048986e-03 8.3756134963752565e-05 1.4576539752257908e-02 3.3822027533641119e-04 -8.8500253682193128e-04 -2.1215817897206671e-04 2.6714782543672648e-04 -7.3247240174769768e-04 -3.3865080330838159e-03 2.4307490679666831e-02 6.3336173408118693e-04 -1.6473518554866850e-04 7.0541689194576485e-03 -7.0159617997483188e-04 -4.3116465099895661e-06 -1.2106295392295509e-04 1.6853002303535012e-04 -6.0781514372304848e-04 4.1572172121909462e-04 -8.1972693620853687e-03 5.6282961226903532e-04 4.3858267877305342e-03 -2.2270978194212352e-03 -4.6419899035876240e-03 1.6646139484646251e-04 1.4569622940361834e-04 -7.7370797189457393e-04 -8.7300984633043675e-03 3.1755421899409775e-02 -1.5922026427585365e-04 -1.1806632690557935e-03 -6.5353989648309074e-04 -2.8799813894188888e-03 3.9071426553371330e-04 -1.6067508546190273e-04 5.3867711739674488e-04 -2.4346571180287385e-03 7.8150626249740029e-04 -1.0844298361724111e-02 1.2651671879967423e-03 2.0748175341774023e-02 -1.1872111239127535e-02 1.9240446315285377e-04 -6.2750448405298766e-04 5.2892603517529571e-04 -1.4151466800175695e-03 8.8163895048000984e-03 -4.6563001096335483e-03 2.4307141885015447e-03 7.4110923551284121e-04 -1.7991824993862171e-03 4.1836893370351741e-03 7.6771561010262421e-04 2.3952246196601166e-04 1.5155261893849171e-04 6.1765942844956186e-04 -6.9334944642650883e-04 -5.1821266555941541e-03 
      </Row>
      <Row Index="174">
        -8.0544141778094401e-04 -2.7939750211327871e-04 3.3918348036143502e-03 -4.5986905650495869e-03 8.7670405872732407e-03 3.6923298342540973e-04 -4.1018427688505393e-03 -7.4009340021661011e-04 3.3548437241779847e-04 -3.4970140134271299e-02 -1.8495826307327469e-03 -1.7332326122736740e-03 -3.0066616491993214e-02 1.0303402244972574e-03 1.4386209791149231e-04 -2.9307318524167446e-05 7.8253554798219001e-05 1.6487083239391919e-03 -7.8305651227454469e-04 1.3877873048896566e-03 -3.2112734517888725e-04 -9.0683483730214301e-04 -1.4816221876409153e-03 5.0347955510340395e-03 1.7281095124376845e-04 1.4830526439835899e-03 -5.4601051258633068e-04 8.7423555181816853e-06 -1.4980060347239851e-02 -1.7111406112180899e-04 -8.6453949501105049e-04 1.5565724170595985e-02 2.1316768756629557e-04 -5.8662421610100688e-05 -1.4476194427901976e-05 1.7175756765288328e-04 -1.8821256165423988e-03 -8.3390446563063464e-04 -3.6951727770180437e-03 -1.1216483512292908e-04 7.8525441049304015e-04 7.5377449968170836e-04 2.4076230430957173e-03 -1.7641862197630333e-03 -3.3095898843088639e-03 -4.2392786775357922e-04 -1.0729009628416388e-03 1.1913956223418842e-03 -1.4452267327437311e-04 1.2581615072754238e-05 1.2899232192246313e-02 2.6129199549191251e-04 1.0538939022475963e-04 2.4953410406095130e-04 1.1805256765343311e-03 -7.1452243198487364e-04 5.1606057250462361e-04 -4.0918034047510154e-03 3.9088887044234129e-05 5.7695806992812950e-04 2.8923681392169073e-03 2.3038268833574238e-03 -9.3945384314129791e-04 4.7765828473072675e-03 1.1789190095212385e-04 -5.8941148390565141e-04 1.5674471118726441e-02 6.7486261109289073e-04 1.5850925640904269e-04 2.9302784582094787e-03 1.8968396820729424e-04 1.5893965601905590e-04 3.6562724136373140e-04 3.7591159576467158e-04 2.0842679323375343e-03 3.6010148546878566e-04 -4.5852329384470369e-03 9.3757568798183422e-04 1.0295734275080053e-03 1.3592898449084796e-03 4.3953470601615363e-04 -3.9763384257840038e-04 3.4758478914252260e-03 2.2704888042664739e-03 5.0168410734310886e-05 -7.8335755607235047e-03 -3.3791962927200159e-04 -3.1712404032141484e-04 -1.6438064257686236e-02 9.0470459685284589e-04 1.0247007598723420e-05 1.0397236320567813e-04 -4.6194048699283764e-04 9.3617752364445750e-05 -5.6173355869965080e-05 4.0549094579083733e-03 2.5493145368232035e-04 -6.0229459110443459e-03 2.4804497830058156e-03 -9.8607037919350160e-04 -3.1921448437157232e-04 -3.7924953928265819e-03 -1.7081013874023856e-04 -2.2002197876734341e-03 5.0207807358095394e-02 1.1617564994894328e-03 3.3809651388597205e-04 -6.8986631684189170e-03 -8.6161414169104531e-04 8.2984394575127485e-05 9.7136568675832362e-05 2.4701109482088709e-04 1.8249219204435568e-03 -3.1532901969611219e-06 -1.3934844428563631e-03 8.1492663857887782e-05 -1.5663923588276896e-03 -1.0550992758261144e-03 9.3154752010703515e-05 2.6685375550137731e-03 -2.8461093434022089e-04 3.4192631300189978e-04 -8.6847030423550797e-04 -3.0126726369271828e-02 8.8618455346699092e-05 -1.2006884968998637e-04 -8.5819105280178221e-03 6.3675767872345911e-05 2.2551641759925144e-06 -4.0414586509338393e-06 -7.0276905603938576e-05 -4.9964250043318947e-04 -7.3247002152200535e-05 -2.7575089077207654e-03 -1.0560591700303681e-04 4.2430856118547220e-04 1.3365781110123921e-03 1.4331337084260321e-03 -8.6890183986201744e-04 1.5132019859843164e-03 -2.7356365077437503e-04 2.6065861939240090e-05 2.0255891669490413e-02 4.8473628646323306e-04 3.8335135631147824e-04 1.6908573755903156e-02 -3.0057784828352481e-05 -1.7097111048447194e-05 3.5535675729795962e-05 -3.0037460751706113e-05 1.0463356812838293e-04 5.7323876652446782e-05 5.9563308804100323e-04 2.1731297561434614e-04 3.5585605346114739e-05 -1.3887602139119235e-03 -1.2738558818306892e-03 -4.3213850942652211e-04 3.4360339428023291e-03 5.3498746842030320e-04 -2.3248416487892700e-04 -2.9713071483604775e-02 2.1531577614764235e-04 -4.5115593136441437e-04 -6.1553645871201823e-03 -3.5967673241729865e-04 1.1215751682338844e-04 6.0729099100269909e-05 -1.9233352620350898e-04 4.4646784480184554e-05 -8.4575922531353320e-05 2.0074040699328832e-03 -1.8187004666568411e-04 3.3822027533650736e-04 6.4224074630023472e-03 -3.5384377874564362e-03 1.7723723875533171e-05 2.5719370739149799e-03 1.3799841535505368e-03 5.8956264440425421e-04 5.0356747370175876e-02 -8.8713936286889086e-05 2.4980383068266311e-04 -2.1956679045079586e-02 -2.0101597415352859e-04 -1.2127194668695891e-04 3.6540725326013714e-05 -3.6912865624259253e-04 3.1249771259100438e-03 -9.0638063086752145e-04 -2.9313720587980999e-03 -7.8259546732065979e-04 -6.7318147536312841e-03 2.0152846203337106e-02 -1.2169994705199048e-02 1.3627586191998810e-03 -1.9682663120374894e-03 3.8814507678259112e-03 -2.3170157020037008e-03 4.5653701593599383e-02 -3.4321438460131206e-03 -1.7875729987729078e-03 -5.8034855111461781e-03 -1.5921136672608031e-04 -5.0546167380761270e-05 -4.2656555519956715e-05 -1.5479262851430860e-03 1.0990321175707798e-02 -4.1838183470637759e-03 -2.1549430804904332e-03 8.6241592123580384e-04 4.8371350776583539e-03 -2.7536752407151820e-02 -3.5261243267792446e-03 -1.2533459444635802e-03 -6.8493107634449053e-03 8.5361435114002780e-04 -1.4795108198910134e-03 -4.4872492671660389e-03 1.6329412602048895e-03 -2.1865761034280812e-04 1.1614420446336869e-02 -6.9925306546014324e-03 5.1554083731386417e-04 -4.0588429065278615e-04 -2.5852859961862347e-03 -7.0292852692983594e-04 1.7204420592594838e-03 7.8975070833282139e-03 
      </Row>
      <Row Index="175">
        6.5944428160373096e-03 -2.4744608019968166e-04 -2.8023313328348967e-04 -1.7131423886253532e-04 -1.5374850949524427e-02 -3.4694047572461748e-05 -2.5099314188352893e-03 -2.4633833321960523e-03 -1.3177702258829367e-04 7.0054457903312439e-02 -1.0378580661836124e-03 2.6706440519472935e-05 1.6226123395401082e-02 1.3576801317066386e-03 5.2478708083103336e-06 -7.2673355976679652e-07 -5.2668583139418336e-05 -1.9872839826656861e-04 -9.8472772473077314e-05 4.6066772191081656e-03 -3.4704008858987400e-04 -2.0657290542186769e-03 1.9361302320376227e-04 -7.9782659454340765e-03 -1.8786132607553213e-05 -1.4468231112204112e-03 -2.0203649906116211e-03 -4.7180807703177917e-04 3.7824460125482212e-02 -4.1776167688303140e-04 1.4384823002250302e-04 3.7922565940071706e-03 5.0848892199593888e-04 -7.3694290968045247e-05 -4.0330945149278166e-05 4.7648713348156997e-04 3.7907990630255128e-05 -5.4019932196229005e-04 1.6033428044791020e-03 -1.4341588770202640e-05 -3.3771269498845263e-05 3.8895908277030052e-04 -2.1724277668594728e-03 -9.3521371353976271e-04 2.9289195408424562e-04 -5.0437562599292898e-04 -5.3018344700343778e-04 -4.3704722653030714e-03 -5.4103378930675169e-04 -1.2221978998196159e-04 -1.3768167056236180e-03 6.3967170473376491e-04 9.7736515678344821e-05 -2.3158017912849058e-04 6.5669164480077098e-04 -3.2368769070577862e-04 5.2557528343664863e-04 5.7370297254555336e-05 1.7943199850408049e-04 -2.2608415010408681e-04 7.7010198636168724e-04 1.7817310240157494e-03 -4.4198439266004974e-04 1.4832610320386283e-04 -2.5797537551195196e-04 -2.8019128458539946e-04 -1.9791185820868362e-02 -1.8306069236214383e-04 -9.7432672648500862e-05 8.5965419572708868e-04 2.7145431257817251e-04 1.2732285467448811e-04 -9.6767472919513653e-05 2.2458557481159352e-04 -3.4722048914754416e-04 3.0405408657447740e-04 -9.3717587162900351e-04 6.2788902489977622e-04 6.5470778345957242e-04 -2.3016820240822494e-04 3.2510285646681625e-03 -1.2464081036673343e-04 -9.5573060767751433e-04 5.2197671936092260e-03 3.2010683963329400e-05 2.6872487780926768e-03 -4.5206614664147077e-04 2.7147139061299910e-04 4.6158586179290140e-03 3.1274966286503735e-04 4.8726472597997866e-05 1.6737683498156686e-05 -2.9073647159205164e-04 3.6158393453972204e-05 -2.6110488855798919e-05 -3.0876750554950649e-04 -4.7354893704739005e-05 -4.2917463015901287e-03 -9.5328223982690027e-05 1.1623784725525756e-03 -2.4504006301430794e-04 1.2507407048499737e-04 1.3788012033433966e-05 -8.3449371986872058e-04 6.3544537077399026e-03 5.0556385123334911e-05 -3.0759993790391185e-04 2.4721530260363167e-04 -1.0972096959972321e-05 -1.5124134818500154e-05 -6.8585603324621078e-05 2.6326151764994373e-04 -3.1217445150275025e-04 -6.3352036694698305e-05 3.7269434681824753e-04 1.5267276328984926e-04 -5.7864869740942293e-04 1.5422505975897817e-04 -1.1297626745768064e-03 1.4548908637164112e-03 8.3622883447820318e-04 6.8500946335993927e-04 -7.2606188493112844e-04 -3.0058103863830565e-02 -1.6189698054894924e-04 3.6107575763615529e-04 7.1651715229852364e-03 -3.2554066760465833e-04 4.3901584214371594e-05 -1.8610396926464420e-05 -9.9925816131001216e-05 2.8308784278563426e-04 -1.6267466886903115e-04 -7.5563451036708695e-05 1.5943099147952902e-05 -2.8877789364229779e-04 3.2636345114514189e-04 -2.4219312591117334e-04 -5.7881347244686555e-04 4.6279681596913180e-04 -7.7608214584950867e-04 4.2503513561623942e-05 -8.9389424799236269e-03 1.0482295403946643e-04 2.3058767815041319e-04 -7.1411765607738431e-03 3.4027061767097355e-05 -2.7383850496152243e-05 3.0477118744041726e-05 -5.6936961082725826e-05 -4.3993451306308833e-04 2.7694593617608740e-04 6.4523618037104491e-05 1.3139528169261311e-04 2.2810346747013845e-04 2.5027570326678541e-04 1.0865434773445204e-05 -2.7427632902771171e-04 -5.8010824977323960e-04 6.3338461361590881e-04 -7.0113858067099146e-04 4.5359001929422549e-03 -3.9978613959784550e-04 1.0049697088321263e-04 -1.9450930898354812e-03 -6.0962050790750637e-04 -2.9779989091914018e-06 -4.5862426078963590e-05 -3.6053351709818687e-05 2.4331171138020080e-04 -5.1327842396482748e-05 8.1700855975121167e-04 -7.9784918879818433e-05 -8.8500253682163225e-04 -3.5384377874567085e-03 2.4394388137366038e-02 -5.4670152766995420e-04 -1.2545693947527171e-03 9.0630111320472856e-04 2.0270801085819445e-04 5.0368309094769574e-02 3.1958717841415918e-04 1.6770307267599815e-03 6.0496819085078535e-03 8.5299905226307094e-04 2.8998244830150837e-04 -5.0870565797671578e-06 -5.4991443719219248e-04 9.7868813641284469e-04 1.5489334695616315e-04 7.7971750396049755e-03 -1.2425847127694864e-03 -9.6569241531220054e-03 -6.0773397629814725e-03 5.8599407064724600e-02 -1.7104500642698335e-03 -3.6389899919446606e-03 5.2952534716888336e-04 -1.8029605074627994e-03 7.0833410854400522e-02 -9.6360707237244138e-04 3.9577133073107661e-03 1.3920803450385044e-02 6.2496301013439427e-03 5.6167452970942808e-04 -2.0391748916418135e-04 -1.8952998104854141e-03 2.1749913560403051e-03 -1.1104130915734652e-03 -7.9375527661884604e-04 8.8098696542432398e-04 2.9662698129890499e-03 -1.2415550317810328e-04 3.1476364646441228e-03 -6.6351094323211911e-04 5.3310451128132366e-04 2.3044495241131661e-03 -9.6115754922216409e-04 -4.7316263587847112e-03 -1.8603909029686564e-03 -6.9550734335004083e-05 -9.3286100389496189e-03 -4.7053292294884919e-03 4.7144631711924182e-04 9.1100158070949225e-05 -2.0668954894693973e-03 1.8698253839514057e-04 1.4283443323680615e-03 1.3352304305155577e-02 
      </Row>
      <Row Index="176">
        -2.4857979984297882e-04 1.7886096705465150e-04 3.9736781240706787e-04 3.5505375749347499e-04 6.5976498788329618e-04 -4.5211637332907145e-03 -1.9610224541544664e-03 3.6122520525779661e-04 -4.1495805736898109e-04 -6.0611765791418470e-05 -5.6815022543119792e-04 -2.4515609103190061e-04 -5.9534855042048251e-03 -7.5528671037810267e-04 -2.3187763686528980e-05 1.1670412899945828e-04 -2.2498759659566464e-04 7.7060649643420154e-04 -3.3236897588275610e-04 1.1306358074677780e-03 1.3844672789633302e-04 7.3798124848589719e-07 7.9311510196448850e-05 4.3251464454391320e-04 -2.9802690408917143e-04 -3.8321223995867876e-05 2.0767537370590394e-04 -6.8391827257853477e-05 1.2388170829725764e-02 -1.8591334011195532e-04 -1.1721803239594236e-04 1.0814027070265908e-02 -3.6262162443443909e-04 2.7643555660923028e-05 1.9422226731253753e-04 -1.2273947656306377e-04 -1.0344988335349026e-03 -1.5311379157391912e-04 -1.3446484754574273e-04 -1.7585223540004732e-04 2.2663840193111288e-04 4.4081051227110729e-05 2.0693760439982611e-04 1.2523244021273033e-02 -5.2202602299926404e-04 -9.7609266629912830e-05 7.3592986890570061e-05 2.2108346121435307e-02 7.7104221727342798e-05 4.4116207430600074e-04 -3.5832200860808072e-03 3.7135774072231346e-04 -3.6485480521472602e-06 6.6983066741097691e-04 -3.5689515118384960e-04 -9.3005059080912209e-04 2.4576594737610487e-04 8.2135948243378110e-04 -1.3036266513759970e-06 4.3050282836012629e-05 -3.6106797130033494e-04 1.9642216676921814e-04 1.0532849436486615e-02 2.6671060501865761e-03 1.6253783504656394e-04 2.8295162654116968e-04 2.1914725412787384e-02 3.6810553061886186e-04 6.6211009941738973e-04 -4.2687429479144612e-03 5.1348182884662814e-05 5.4233306911291405e-05 5.5563936762223834e-04 3.0992570906414676e-05 7.1348059387957297e-04 1.1367112110814183e-04 -1.3774334282067313e-03 -2.4271259854193039e-04 -1.0335385884591847e-04 -2.8354116344965485e-04 -2.7642630121535450e-04 4.3146932473605666e-03 1.4749873431099056e-03 -4.3678951852976766e-04 2.3504810481880800e-04 1.1359662020917760e-03 1.6896159624492368e-04 1.9841030059234224e-04 -1.9533909174954900e-02 -6.6108315148927579e-04 5.1905111481573632e-05 -4.4912733982663960e-05 5.0966309398221658e-04 -2.7519547885957590e-04 -1.9297130740832114e-04 3.3741226226911003e-03 -1.0205066188818772e-04 -4.6804702931772194e-04 1.0411739535605598e-04 6.4158430381114351e-05 5.6569729406314327e-03 -5.1267580135156733e-04 -2.2882461474050349e-04 6.7951780523500989e-04 2.4279527571968704e-02 8.8218908973213472e-05 3.7701318130441922e-04 -2.2387027781105573e-02 2.5613400290511222e-04 2.7469268751994635e-05 -1.4350359801863213e-05 1.2739446382755521e-05 -2.1376022281382762e-04 -2.8715666301915022e-05 -5.4430030740262314e-03 7.3465311142149360e-04 1.5225318561201684e-04 -8.7960121229811901e-04 -1.7421711638516794e-04 -2.5055311043973176e-02 -3.7691799381413607e-04 6.7120464634942527e-04 -1.1005843989988495e-03 -3.4919801376274151e-02 -3.9687895243748633e-04 -6.9354166871061910e-04 1.9305852552467417e-02 -1.0590251125697323e-03 3.0200743285568529e-04 2.3066291884680894e-04 -3.2349791532125527e-04 1.2860087335033743e-03 -5.9148540901771129e-04 -7.5088226514860579e-04 -2.6769674390615499e-04 -1.7189770069953297e-04 2.0309405474567025e-04 2.1188159601719190e-04 9.2738149700768921e-03 4.6917480297609202e-04 -1.5945933449652838e-04 4.3093756257474585e-04 1.8372055521070900e-02 3.7044566855126346e-04 -6.8952172513543977e-04 -1.1264709601306322e-03 4.5460925732252995e-04 -7.9776435711783591e-05 -7.0458436554750705e-05 -2.5039557851913672e-05 -3.2309874856064914e-04 2.6834432045020652e-04 -5.1149870479250126e-04 -6.9351498203019252e-05 -3.0990884868511092e-05 3.6426735589226763e-04 -1.8452001180171984e-04 9.9470457275030455e-04 7.3733674105855296e-04 -1.2917712660118208e-04 9.0105554691300696e-05 3.0625854928281182e-03 4.2251832735501905e-04 4.5708721580216272e-04 4.5265194034929124e-03 1.6206397110860135e-04 -3.1451303936642395e-05 -2.3465171969591636e-05 -1.3515101369936111e-04 1.2545175501994799e-03 1.3039345344845882e-04 3.5756683142956769e-05 5.2329802668983410e-04 -2.1215817897238232e-04 1.7723723875354494e-05 -5.4670152767043461e-04 1.8968830373267694e-02 -3.1383304336711580e-04 2.2268768491208110e-04 8.1022121978828335e-04 1.6260789734126625e-02 -4.7674810126912832e-04 -2.6612834656474578e-04 -3.0328784892566851e-02 -9.5722022897749815e-04 2.9659027115712302e-04 3.1541935240360944e-04 -4.0508331238901422e-04 1.6403159007890456e-03 -6.9483063058501607e-04 -2.4066081638626172e-03 1.8813462258640665e-03 -7.7901278633262633e-04 7.9713263916666999e-04 -1.4285365493077562e-03 3.5522994314618896e-02 -4.0899232698055846e-03 7.6771671824720877e-04 2.3429385317736630e-03 -1.5658885444008480e-02 -2.9077747815550777e-03 -1.2657449304518337e-03 -2.4397160376525839e-02 -3.7208528424219948e-03 8.1224070557650975e-04 8.0350009243782363e-04 -1.2009952495112618e-03 5.1518454248747712e-03 -3.1717617648704594e-03 -1.4627149176809767e-03 -3.7608122368796844e-04 2.8686356258436933e-04 1.8345087516265129e-03 -5.1069104915280289e-04 9.1571773758040362e-03 -2.6701242184408482e-03 -2.2522551125617456e-04 4.4817776048068809e-04 -2.1195601846979873e-03 2.3295329269823299e-03 4.0332528119734444e-04 1.7270246927057822e-02 5.8323652501658203e-03 6.0174647213799356e-05 -8.2757253592198165e-04 1.4628212100568062e-03 -2.8823281887887988e-04 2.6085348469719819e-04 -2.0019931174259379e-02 
      </Row>
      <Row Index="177">
        -3.5678967234731296e-04 -9.8209403970345166e-05 2.6123911910715947e-03 -1.2415457805431340e-03 -2.3876359676600067e-05 3.9853056907111772e-04 2.7073414404308022e-02 -1.0764267768402502e-04 -1.8904085353132760e-03 6.3585630524732650e-02 -1.2495296615344653e-04 -9.7834142703562277e-04 -1.8610976905320165e-01 -2.0640707665131770e-03 -3.2433719303538028e-04 -3.3294554111485547e-05 -1.2797903146752332e-04 -1.2302761605164865e-02 8.3488352965090107e-04 3.0799677473325460e-04 2.1124070940006789e-04 -1.9782502761227505e-03 2.1906541891917111e-03 -8.2132079111019163e-04 -3.8243139089705336e-04 -1.1453718230689663e-02 9.5502771282807240e-04 8.7577689334317199e-05 -5.1402407219925950e-02 3.7178683621336139e-04 8.6139125877182643e-04 2.5655153557494259e-01 -2.1230877034907059e-04 2.6414621923830789e-04 3.2841041448133934e-04 4.9853946997305276e-04 1.3517663271744529e-02 5.2627329823282110e-04 -1.6076065249781557e-03 -1.2792905658087165e-04 1.5104677023590474e-03 -2.8429281303755244e-03 4.5753019819450014e-04 4.6728278816038360e-04 1.4775519841051521e-02 2.8656048424291480e-04 6.6740094165990138e-05 1.5290430640510877e-01 1.0970644060886159e-03 1.0216269296507985e-03 1.5286193010112470e-01 -1.2159515149419362e-03 -4.1607847898561534e-04 1.4683662778710374e-03 2.5361799772279925e-03 8.4635243088820311e-03 -1.1952047633430884e-03 7.8615193288644747e-04 -1.1188623451470481e-04 1.3077206720232826e-04 2.9172679762770604e-03 -1.4169570935318454e-04 -2.3245841672990541e-04 -2.1871582399513700e-02 2.0289799068156089e-03 9.4491720505907040e-04 -1.2136495176523354e-01 -1.7120143167290158e-04 -3.2685869044585258e-04 -5.3539564880367152e-02 7.2863285235705288e-04 -9.9457577087538190e-05 1.2766612902569419e-03 1.6289919332529573e-03 -1.5954170930214118e-02 -1.5579130736816382e-03 4.3179332836302819e-03 -6.3272891658794350e-04 1.6335492632919557e-03 2.4348806369761666e-03 -1.7351365679627584e-03 -6.3007373168125214e-04 7.2179771273092053e-03 -8.0276325773009916e-04 8.6178999999431127e-04 -7.1244848784985493e-02 1.4194420157087606e-04 -1.0257880373654160e-04 -1.7290319085086736e-01 5.5770976586898280e-04 -1.2397541994016437e-04 2.4946891047342157e-04 -1.4932090280972421e-04 -1.8993047721699297e-03 -3.4544042845796596e-04 2.8935520781074864e-03 4.4724601194044700e-04 -2.8287611391885868e-03 -4.6636877314882724e-03 8.9784801692571747e-04 -4.1397394350393274e-04 2.5344432583583071e-02 -5.2977482983362044e-04 1.7615682554868312e-03 4.8195638674538521e-02 4.3991052127027768e-03 4.8206375163436718e-04 -1.6160179887508619e-01 -1.2737970685201896e-03 -5.1166784755333344e-04 2.6292891986963440e-04 -1.2813116017411398e-03 1.6854421552763912e-03 6.4119038312679573e-04 -1.9015056496805016e-03 -1.1249471610241812e-05 -1.1677064392902059e-03 -4.6531277381543779e-04 2.7999428252933889e-04 4.0216416634819563e-04 -3.8895325293939464e-03 -4.5134834965929183e-04 8.0441386966995099e-04 8.0694341972368022e-02 -1.5383162680765450e-04 -3.4115001598605636e-04 -7.6233674512181437e-02 2.9533991909379102e-04 -1.3041735238521202e-04 2.1007462288502587e-05 1.4177024146987214e-04 5.7646359316634310e-03 8.1084135827635961e-04 4.8828396988267464e-03 4.4640767778103552e-05 -7.3612559392866039e-05 2.0446714262014748e-03 -1.0305488001562252e-03 -6.3154672769668435e-04 -9.3271313951568818e-03 1.8540875447017741e-03 5.8851709770281046e-04 -8.4192106302099501e-02 -3.1293565936402201e-04 -4.0790954554529441e-04 1.5081834275510175e-01 8.5047803906503766e-04 2.0878382210121537e-04 1.1162830360986024e-05 1.1713395215823263e-04 2.5390894543586631e-03 -5.9187804087054013e-04 -3.1537587856611538e-04 -3.4375400263103595e-05 3.7467938679053465e-04 3.8717979910006528e-03 -5.6666268063620961e-04 2.2169722544732040e-04 -9.9011380609244082e-03 6.0530162609317983e-05 1.9767369693183701e-03 -6.5612356287219953e-02 -2.7794103682552470e-04 -2.0952696087550571e-04 -2.7475912608096564e-02 1.6671664147356949e-03 3.3869540346520219e-04 1.3240984747031614e-05 1.0643590396823832e-03 -3.9237917834795688e-03 -5.1605557090672605e-04 -8.1110101753916197e-03 -2.8300763479271324e-04 2.6714782542693050e-04 2.5719370739151733e-03 -1.2545693947588477e-03 -3.1383304336988832e-04 7.5785012318970738e-02 2.1571750981815114e-03 5.0905208759278965e-04 -6.7332413347815201e-02 -3.3420300749332763e-03 8.7201358742900782e-04 -3.2519028485764778e-01 1.1434637639931118e-03 7.1302737255333505e-04 1.5012153815713178e-04 1.4821325161162554e-03 -7.5476732332920259e-03 -2.0962227695364198e-03 -2.3239682690423150e-02 -5.5682639271536832e-04 3.0487556499026831e-03 -1.1822509156186137e-02 1.3927601463163243e-03 1.3455695560433186e-03 2.4242699242212418e-01 -1.3749238398294891e-03 1.4300569843538806e-03 5.2896546134573641e-01 -6.8879643888859372e-03 -2.5224025054834849e-05 -1.0461720345998060e-01 -5.7651686193559591e-03 1.9829251488767707e-05 1.0178038166837734e-04 -2.7625911873754520e-03 -1.6512867368910049e-02 6.1901564592328805e-04 3.4972767747543099e-03 -9.9253704826895994e-04 3.8524808671676555e-03 1.5247875898038389e-02 2.3214303243588620e-04 -1.8776328600081523e-04 2.5707461438301403e-02 -1.9223444091730039e-03 1.2746166866466121e-03 1.4125934375539155e-02 4.2603857719233562e-03 3.9526910222815667e-04 1.9019866217262868e-01 4.7405257949824850e-03 -1.7031924893098314e-03 -2.3352908175715125e-03 -6.1162908925731152e-03 4.6104236030195672e-03 -2.2351067003711818e-03 -2.2346519293613032e-01 
      </Row>
      <Row Index="178">
        5.3829794715086199e-03 -8.9887955951901250e-04 1.0518949065748285e-04 4.0986737729591105e-04 -5.2870590462076195e-04 1.4269519044152705e-04 -1.0583568864630153e-03 7.5947467927492971e-03 -2.5211124845989910e-04 -1.7708115546195571e-02 -3.4953160931362488e-04 1.5284032654339639e-03 2.9089540457902498e-02 -1.3624303314948606e-04 -2.8772106278872897e-06 -4.7187836221648018e-05 -6.5312686216675484e-05 -1.3690313052438139e-03 1.5565356831652671e-04 4.0434545921751094e-03 -3.0091203506754974e-03 4.8567813119951070e-04 -4.8964334457919710e-04 -4.2539629568299521e-04 5.3130127428151989e-05 3.3796186244832490e-04 -5.4006851209956923e-04 -6.0101745246759824e-05 4.3875906209964195e-03 2.4348050224656868e-04 8.4289199725486562e-05 7.2036537885509233e-03 -2.7050933501464997e-04 2.8377342552809743e-05 -1.3118664307929960e-05 1.2782062710217442e-04 1.0026190276940542e-03 2.9416472889902661e-04 -7.8476303153754250e-04 -4.5285259563828951e-05 2.2054741281067754e-05 2.2974877554387076e-04 8.8948626854011992e-05 3.6548978869942270e-04 -6.4656013560133486e-04 8.1033925302998397e-03 2.6795840979992056e-04 -1.9627462121915781e-02 -8.5379940633178997e-05 -1.5056312610636675e-03 1.5068909644863293e-02 5.1061861360082793e-05 -2.3327620038283807e-06 -4.8729643022571998e-05 -1.5994720738038513e-04 -3.8760104395460624e-04 -5.4963407958142708e-04 -3.4184359569219835e-03 6.2823427405591216e-05 -1.3052760573356733e-05 -1.6992802990295030e-04 -2.8788021728688371e-05 2.9380760633607628e-04 2.3672483790494079e-03 5.6319178085429203e-03 2.8061122318489467e-04 5.1876798658448686e-03 6.3039401395217605e-04 -9.3071314772536417e-04 1.8485135463531366e-02 3.6631599421237820e-04 -2.8778025038550255e-05 -6.3818003261231337e-05 -4.0215740354888365e-04 1.4102676063758547e-03 2.1822126671130310e-04 -1.7910387692647259e-02 6.4526863809185424e-03 -5.9468241391361868e-04 8.7545950528956397e-05 1.0731927248452365e-03 -3.5385769448063338e-04 -1.5449861267933370e-03 -5.4039174533308705e-03 1.7226232788541962e-04 5.2236528421835682e-02 1.3711562878007417e-04 -1.1901078107353809e-03 -2.3945543453436580e-02 2.0519987012024335e-03 -6.8865659432834495e-05 2.1884143245971648e-04 -1.2409299794101511e-04 2.9261907933037954e-03 -2.1431202912499357e-04 1.8569790309746446e-03 2.9144304120180039e-05 -1.3158900614675118e-04 -4.0770129714541022e-04 1.7875441448703165e-04 -1.6589813963208757e-04 -1.3583926675156237e-03 6.3051188729095669e-04 7.3643850226961529e-04 6.5563411743786403e-03 -2.1005027144188788e-04 -4.1303477129325464e-04 5.8372609442255974e-03 3.7443980394313045e-04 -5.8745870086635954e-05 1.0388476978731397e-05 1.6939708504954841e-04 3.9238632905914451e-04 -1.2618401993815946e-04 -2.0880371189515926e-03 5.4246468640031364e-04 -1.9051425499356459e-04 -6.8950255203616725e-05 2.8104672584269136e-05 -6.7965808088564506e-05 -7.4355994153954032e-04 -3.0779641305959844e-03 1.4343710863025773e-04 2.2420344672344134e-02 7.0461345999983617e-05 1.0063463596366347e-03 -1.1656293121579953e-02 -1.9896264190166218e-05 -3.4163362165859617e-05 -3.7283224527478358e-05 4.4850505537683891e-05 -6.2972548018104535e-05 9.7552940006070260e-05 8.9430238520270960e-05 -1.0730673981778119e-04 -2.2413501517013355e-04 2.6464311450928981e-04 -1.7633167743300303e-04 2.4148142682782725e-04 1.3683467397932775e-03 2.9404936732858062e-03 -1.2613392858778592e-05 -2.9233793887114105e-02 3.6145488656875904e-04 1.7826916077859135e-03 6.9412645973886411e-03 -2.9138355137816479e-04 8.2957582903739707e-05 -5.4870884535356955e-05 8.0180286928160357e-05 -4.4359746291531269e-04 5.7329593431775080e-05 -3.2420121806169683e-03 -5.6943383936555996e-05 -3.9073598074648144e-04 2.9905789409362632e-05 -2.4598979490659395e-05 -1.0127997663939708e-05 2.8998398207444971e-04 -1.6660555366480520e-03 -8.1365451690316800e-05 3.6473853714514143e-03 1.0430623213875945e-03 -7.6248878292456239e-04 -9.0078781909479488e-03 1.9171235301530237e-04 3.7871304366354769e-05 5.4426649919808723e-05 -1.0059119267107931e-04 6.4103610959855006e-04 -1.0749743760125798e-04 -1.1435203477402900e-03 -3.3751555529033068e-03 -7.3247240174754958e-04 1.3799841535502510e-03 9.0630111320505469e-04 2.2268768491109727e-04 2.1571750981839743e-03 3.8781820730818817e-02 5.4053034759254546e-04 -2.3718527206828682e-02 -2.7748555401533497e-04 -9.8423896067330839e-05 5.1400845274607310e-03 4.6224343716882547e-03 -3.4845286555782069e-05 1.1590450391945885e-04 -2.3693816372577937e-04 2.7992916227044806e-03 1.2547039840171657e-03 -3.5976953240250825e-03 -1.7608996596374511e-02 -1.8043549311929294e-03 3.8890835897177622e-03 3.8011298459654217e-03 -3.3718931260631486e-04 7.6503582517634117e-04 1.1461623372900195e-01 2.9778924279241191e-03 1.1958270207005239e-02 -9.9128537283769969e-05 1.1844712321365588e-03 9.0280077977070716e-03 1.4587984864266311e-02 -1.9020011920262798e-04 4.8669552617699703e-04 2.9364697317188623e-05 6.9470735283142879e-03 3.4285338779461148e-03 -3.2562413285108609e-04 7.8778880149512672e-03 1.6797275589300472e-04 4.3826892786923144e-04 -4.5269250865033299e-05 3.4266472603316535e-05 -3.6093648901644113e-03 -9.2530861233370496e-03 1.8650891775009656e-04 1.4945162306109756e-03 6.3940520068525922e-03 -1.8081674049960934e-03 6.0492485740381149e-03 -3.7531637097824059e-03 -6.5211464271825110e-05 1.9969890914171037e-04 1.4255479701632927e-05 1.3074007724224050e-04 -8.7284516235232529e-04 -1.6090887248389201e-03 
      </Row>
      <Row Index="179">
        2.0608226749227123e-03 -2.1137818827482300e-04 2.4788955848840215e-03 -1.6987078753561301e-03 3.6472779662536040e-03 -1.9210210659902034e-04 -8.4490234624001433e-04 -5.5483848239030900e-04 3.8558400936970652e-04 6.2176233493612780e-03 -9.2035599032314519e-04 5.3021584450943255e-05 -5.4456975091850129e-03 2.0257727189518517e-04 3.1064460799201611e-06 -1.7831730609477322e-04 1.2251216834036728e-04 -6.0853920217117277e-05 -1.7627243791926243e-04 -2.8953187106758350e-04 -4.8534202514634328e-05 -1.5009405757277002e-03 -5.9209545945420248e-05 1.8357548255062807e-03 -1.5251959332664492e-04 3.0055988798478395e-05 -4.8374755938068536e-04 -1.1335662344897118e-03 -5.4596085821318118e-03 -2.8811862934539380e-04 -2.2344558126868234e-04 5.2552007243087950e-03 1.1025608655954153e-04 -7.1461688173982005e-05 -1.2795956239866006e-04 9.7817352303062336e-05 -1.2994207629971012e-04 -5.4141691845764584e-04 -1.8565625820099168e-03 -9.8203602932121176e-05 1.5057476117045533e-03 -1.5820326004331074e-04 8.1698403366393154e-04 -1.0176927952445865e-03 3.9973838465627749e-04 -5.3458396798078595e-05 1.6471124216543061e-03 -5.5430298839337297e-03 4.0774902923203390e-04 -1.9750788708308535e-05 -1.5380960200553628e-03 -2.0523195477084772e-04 6.8486387537917102e-05 -5.0888580250121451e-04 3.0264872933763757e-04 -9.1730654218195829e-04 2.8684346820397549e-04 -2.5862458453316372e-03 5.0926609649610492e-05 1.4213105505010331e-03 7.1486896763838154e-04 8.5160645084901522e-04 -3.8497378987888695e-04 1.1954598518429586e-03 1.5020310850748166e-04 2.1421016914249047e-03 -7.7739529168807664e-04 8.0421964899868466e-04 -2.1989121250872085e-04 7.5661516328484613e-04 -2.3741378889826270e-04 1.1004190227009338e-04 -2.4078527717513661e-04 1.3029105227263142e-04 -3.0978138536065514e-06 1.1590149145653428e-04 5.4773963941642800e-06 3.8751586683707364e-04 7.1640920160390511e-04 4.8706590083157173e-04 2.0712104937260778e-04 -1.1419954177513376e-04 7.9270290423129027e-04 1.2018943696168270e-03 2.2760489069604097e-03 -1.3512113958643809e-02 6.0378212663411875e-05 -4.4435766500282119e-04 -5.3875648311293989e-03 5.5547184537189161e-05 4.4416243647257348e-05 1.0843687045139646e-04 -8.5053384288121534e-05 -9.7950929860886934e-05 -2.4234977907562801e-05 -5.2457246226228077e-03 8.1234547141381046e-05 -4.1119210248578980e-03 9.2843240980982440e-04 -2.2325594889452784e-04 1.3743354350972844e-04 8.1383024002905173e-04 1.1650524534887451e-04 -2.1037095278343158e-03 -3.7777959771823889e-03 6.6801442704380915e-04 -6.4671838989380107e-04 6.1230506595792780e-03 -5.0019484183438977e-04 -2.1655937494852821e-05 1.8035290456431028e-04 5.6636124253827663e-05 8.3159970160064691e-05 -4.2080748098156332e-04 -2.1694986328324346e-03 1.2336526204160473e-04 -2.0535136234602937e-06 -7.4784331147416177e-05 -5.5648589862515954e-04 1.5428888467977006e-03 5.5291440679287711e-04 2.4239959579128840e-04 -6.6188897245278823e-04 -7.7974271837085996e-03 -1.5843220239932041e-04 -2.6055866180161496e-04 5.8436244106196689e-03 -3.9126408849229697e-05 -2.7284177009915953e-05 6.6958792365888063e-05 1.5485612879680232e-05 -3.8084724216180203e-04 -1.4501164892168419e-04 -1.3109595099887981e-03 -1.3826909959263839e-04 7.2949186207943667e-04 6.7683632362002238e-04 8.2348959341577567e-04 -4.7256272250582572e-04 4.6120514241416581e-04 -1.5133403993412890e-04 1.5780124968721687e-04 -4.9855181690633887e-03 1.9670728191416463e-04 -5.8725229591972592e-04 9.0602043256055032e-04 2.3466095585498279e-05 7.1091980322721072e-05 3.6878243975620300e-05 -6.8500978631074355e-05 2.4188221620273330e-04 1.0034799837719988e-04 1.4315302803498409e-05 1.5606195464544818e-04 1.6549913368243063e-04 4.8768478650153968e-05 -1.1418096486167512e-03 -8.7782996478852782e-05 6.8607649405252294e-04 -6.3599671087381966e-05 1.0164628958713930e-03 2.9691851452371548e-04 1.1943566692610382e-04 -3.0367163508031010e-05 1.7469135843692363e-03 -1.0718394237966499e-05 4.6256476236550099e-05 1.1165831357234929e-04 -7.6104683588247221e-05 6.5228284318401102e-04 2.1688928703805441e-05 -4.3091907828196607e-04 3.7808376679465461e-04 -3.3865080330841724e-03 5.8956264440408962e-04 2.0270801085857843e-04 8.1022121978844316e-04 5.0905208758877940e-04 5.4053034759267513e-04 1.5390480296903132e-02 1.3141142861967832e-02 1.1792398488962786e-04 -3.8199052592896208e-04 -2.5134569190485845e-03 -1.1789257402580579e-03 1.1783334278978822e-04 4.2020043137125731e-04 8.4622415906407096e-05 5.8533239088331837e-04 -9.9546876583952917e-04 4.4614442407411581e-03 6.9446977149484736e-04 -1.6541355365971015e-02 3.5981329233990295e-03 -1.0805841906582272e-03 2.8627865993897995e-03 1.2253487182747394e-03 2.4891896812654279e-03 3.6625676983845085e-02 2.0245434924006850e-02 -3.5321878190160017e-03 -6.0612081115032435e-04 -2.4603118283333392e-03 -3.8969822890006136e-03 3.8294159466210388e-05 1.2134085612175017e-03 2.8076843868279336e-04 1.6277827750994346e-03 -3.7735367563965726e-03 -8.5768926195166090e-04 -1.2152063115061481e-04 4.5289113405533269e-03 -6.7347075491876966e-03 -1.7030433455164234e-03 -7.2681618375268779e-04 -4.0384487022132517e-04 5.3256004180398438e-04 3.4460451917844512e-04 -1.2201774008961752e-03 7.2289478307901653e-05 7.9525720590309119e-04 1.1417204509026817e-04 -1.1945415597849735e-03 -5.1971371229482749e-06 5.3773386983428390e-04 -8.1408095950070622e-04 -1.7212607858902999e-04 1.8284143688046381e-03 6.7416665479103370e-04 
      </Row>
      <Row Index="180">
        -2.7033381781940657e-01 1.2091362859142585e-02 6.5660460248102570e-02 -8.2573051069269009e-03 -1.0310677625856357e-02 4.1746889508596716e-02 1.2529632659012263e-01 1.1374989536057845e-01 -2.9004350742869445e-03 8.0633714720956178e+00 4.6104990240775412e-02 1.0833634845646145e-02 -3.0983634150705797e-01 -4.2630643445919797e-02 3.7263686949828845e-04 9.7557954531146684e-04 6.4149811126958944e-03 -8.4206497873123398e-02 -1.3877626226442674e-02 2.1208454090636053e-01 1.4069472636911939e-02 -8.2141539163755883e-03 3.7158066986006672e-03 -1.3316794216382100e-02 2.7284142321736926e-02 -1.3354049856747396e-01 8.8998554005591368e-02 -2.2019790750499313e-03 5.9417268937718113e+00 1.0097273824002162e-02 2.0160476240773662e-03 1.3598820644511989e+00 -3.2959102657004635e-02 2.9492420578592915e-03 6.6421524986726155e-04 1.5536507511770204e-02 7.2829118910948232e-02 -1.9266372945516363e-02 -2.6659137667371535e-01 4.8456102508694018e-03 9.8833545266542311e-03 -2.1025323630775417e-02 -3.9675193340853454e-03 -9.6861313887595557e-02 1.7458936161900063e-01 5.3304992121742889e-02 1.5043214531677340e-02 -1.5396147188611167e+00 5.0908993797509350e-03 -2.6925281130925072e-03 -1.6371252234750955e-01 -1.7609912855377663e-02 -5.6552664777442807e-03 -8.8916157865882861e-03 2.2605291199237598e-02 4.5516175011579119e-02 1.8615393333878127e-02 -4.5730709352566024e-01 -5.1767296463240964e-03 2.3725254335710266e-04 5.9289012085546045e-03 -9.6636713156814658e-03 -5.0430878574913185e-02 -2.0129097243684546e-01 3.4066741214724416e-03 2.5339896535935713e-02 -1.1713434134963308e+00 -1.5491009398219013e-02 -1.5013008667482675e-03 5.6097226981478343e-01 -1.6302228919029438e-02 -7.8163670245059852e-03 -5.5133603476487103e-03 -6.6355091588221615e-04 -5.0308658949949514e-02 -1.6404482321008551e-04 -6.5159222901698399e-01 -4.1463310890229366e-02 1.5356405997396516e-02 1.4156943866217908e-02 -1.8057537007374336e-02 -7.2203293677071678e-03 -6.7202679533230114e-02 -3.0193321914829951e-01 3.5499166299874929e-03 8.9290921385477873e-01 -2.0568837387508587e-02 3.8492439668229572e-03 3.1984383332087418e-02 -1.2796810222274024e-02 -2.3767381437855839e-03 9.1454873389440472e-04 -5.9080354802863999e-03 1.0743582193094792e-02 -1.0814785435462326e-03 5.8782825960329532e-01 -6.6852203471351457e-04 -8.8593756576484745e-02 1.5322509054571803e-02 1.6621493974992907e-02 -1.8552691300729701e-02 2.9587442313761647e-02 -6.9919154230802250e-03 3.1337784911424915e-02 7.1066079989722271e+00 2.5212663864876077e-02 1.4895278251398081e-03 1.5687280796774417e-01 -1.2048774860225125e-02 2.1294970484425080e-03 9.5609612835509481e-04 9.5979246550865482e-03 -2.4617376786445530e-02 1.4480197539866568e-02 1.1476392456901863e-01 -1.0564324724344543e-02 -1.4764473382665066e-02 -1.5306816764463438e-02 -1.0930381465394018e-02 1.1300552890681970e-01 1.1994964795946594e-01 -3.0342365496504820e-02 5.6546384387670123e-03 -8.6266127247479858e+00 -2.3384044482262500e-02 1.2550332850882868e-02 -1.1139258485202674e+00 1.2392627403953131e-02 -4.5172775315133473e-03 -3.0665584146302161e-03 -8.7541363742041148e-03 3.3660850811703114e-02 -2.5262819744271248e-02 -4.4579619572910367e-01 1.0194921700010462e-02 -9.3311642705381503e-03 1.0892492912949112e-02 1.7672252326477927e-02 -3.8607415747055090e-02 -1.4994948582286743e-01 3.8357217706960711e-02 1.4411447983608168e-02 3.7487031822164751e+00 8.0884115051008121e-03 6.5354959001885649e-03 6.9384148272672519e-01 -1.9915327220620949e-03 2.6751316747448944e-03 3.9736249163992675e-03 -6.2958879629321923e-04 7.4228318118808806e-03 1.6279652581126597e-02 1.6576147114393791e-01 -6.1245325650653992e-03 6.6482858623072433e-03 7.8730332603136888e-03 -3.0773102467632540e-02 -1.0509868548150392e-02 -6.1299820448328601e-02 -3.3500013843845267e-02 -3.8249875584475714e-03 -2.4704346676932971e+00 -4.0848516488679681e-02 3.9932426225899320e-03 -4.8622550662463482e-01 8.6693389198884974e-03 -4.1973453734039518e-03 -3.3369326749639328e-03 2.0356064540911767e-03 -1.5353997233706451e-02 -1.9826919744749816e-03 2.2799201911802491e-01 -4.7854118292679770e-03 2.4307490679664118e-02 5.0356747370236751e-02 5.0368309094760186e-02 1.6260789734116300e-02 -6.7332413347994280e-02 -2.3718527206780290e-02 1.3141142861979579e-02 1.7970869244306115e+01 3.9800679139244823e-02 -7.0019918539412918e-04 2.2462158906574814e-01 9.1484695906495859e-03 5.3273490437838467e-03 3.9664373105724416e-04 2.1089680279078267e-02 -6.4338747248936290e-02 2.6695247731281263e-02 -4.7215069736860915e-01 3.2133892461146438e-02 -1.0687993721622151e-02 1.4553116007600658e-01 1.4643959060564854e-01 7.0465864698765854e-02 1.9053421319224662e-01 5.3451132716131347e-02 5.1271187799583520e-02 2.2309290051696411e+01 2.1212192061662463e-01 6.9046620442190267e-03 -5.2417491000608152e-01 -7.1251721605410490e-02 2.1048297169906107e-02 -2.9655927268124119e-03 5.9602966286336281e-02 -2.3407797107858697e-01 1.9111940020177492e-02 -3.4417532428841202e-01 -3.0478829146921384e-02 8.3719628687259129e-02 -8.8514511294420756e-02 -9.5208380562931405e-03 -6.0196410963490030e-02 2.7915341819193740e-01 -1.3961653069877097e-01 2.5115382902421768e-02 -1.5717494461731571e+00 -1.2942859276689056e-01 -3.5894898175378442e-03 2.4460794704692024e-01 3.5175228255022140e-01 -3.2120981868972276e-02 4.4074182148527707e-03 -9.5549127819039348e-02 2.0592357298471753e-02 6.0886995951997001e-02 1.0172416182834987e+00 
      </Row>
      <Row Index="181">
        -2.0374777361350134e-03 -2.4057393446273983e-04 -9.0065382997136373e-04 -9.7962286626789344e-04 1.0359265925667591e-03 -3.9099054335734563e-04 3.9905576183820240e-03 -2.9876261105447194e-04 3.8221521173655362e-04 4.7243620022886845e-02 -5.9684601502298460e-03 4.6029928340596618e-04 1.3526588861108357e-02 -2.6018627228621759e-04 -4.8830844982454373e-06 -7.2073605190770083e-06 4.2079726966334774e-05 -1.6182938460314630e-03 4.2171557548558846e-04 -2.1310677894753050e-03 -1.6837378911398887e-04 1.9370645028012751e-04 9.3087622515798749e-04 5.2731399359308428e-04 -2.2916579151484318e-04 9.7174920062411199e-04 -3.6206009939848525e-04 -1.9554679280594893e-04 8.6561820176519755e-03 1.0345792423970615e-03 7.5900327288346003e-05 -1.3986433752940286e-02 9.9727960083000142e-04 7.1970248710770054e-05 2.0940782118826842e-05 6.2065547257502508e-05 9.4669996795335859e-04 2.6695653809490766e-04 2.3864203841771070e-04 -2.4435670638862467e-04 -3.8873008483324058e-04 -5.3486291539124597e-04 1.1157369723590813e-04 -4.5459792769580315e-05 2.3823495260401895e-03 -5.0266620922178457e-06 -1.4739404627688007e-03 -4.6709798755044662e-03 -5.2803952463187018e-04 1.5615859953473643e-03 -8.8505647337866478e-03 -2.5170821478555502e-04 -1.4731065896311096e-04 1.0002475049338076e-04 1.8111649370881715e-04 9.6014474959431328e-04 -4.1839676521187967e-04 2.4007642049812539e-03 -1.5384156089484017e-04 -4.0119981709335704e-04 3.6701776409568676e-04 5.1860516885499086e-04 1.7486555245279853e-04 -4.1166893479910663e-03 3.1226176037772030e-04 -1.2795608233205878e-03 -2.0787579914690602e-02 2.4206644823139296e-03 1.1819565503619761e-03 1.5551117575771656e-03 4.9566627637315317e-04 -1.7759738221372360e-04 9.4272880700812037e-05 -9.6481417111993206e-06 -1.1310682085878682e-03 -4.8286168788785541e-04 2.8532211174417954e-03 5.0912954938614474e-05 -5.6547854186156724e-04 1.2691732231738737e-03 -3.8670819837197112e-04 -1.1419683137358066e-04 -1.1013864419010672e-03 1.1198599091695738e-03 1.2948101805554391e-04 -4.2698942363802228e-02 5.6908921578777971e-03 -6.5942274093641617e-04 -1.5450668027439107e-04 1.6496260878348275e-03 -2.8083478355957203e-05 -2.3383274807249957e-05 -1.1553078255441968e-04 -8.1911896178232108e-04 -9.7908925891190823e-05 -3.8576157565237412e-03 8.5838568884478994e-05 1.6272591004699052e-03 1.1722595982855914e-03 -3.7931731027168389e-04 4.8987882461031234e-05 4.5430726357266749e-03 -5.3080603056364101e-04 -2.0621330978724483e-03 1.8472984244469783e-03 5.5872460084010339e-03 -1.0302244419595002e-03 7.4440414911840502e-03 6.2533232105462921e-05 4.3196071781889580e-05 6.0235176458483915e-05 6.7366048544277666e-05 -2.1230713923652096e-03 3.1825844284237765e-05 1.7867225286487542e-03 1.4316558851814980e-04 2.8788176985172775e-04 1.4856119141835357e-04 -3.4877205246261088e-04 -1.3666362906638793e-04 1.6857519100163532e-04 2.1845133042766238e-04 -1.4209110960179995e-03 -3.4629885620194090e-02 -6.7814190391532123e-04 -1.0008631618843740e-03 7.2325573696785384e-04 2.0021563979157910e-04 -2.3390079286843887e-05 1.3708373421779038e-05 -4.1044318304557905e-05 2.7749950182177907e-04 7.6719238893380171e-05 1.4621955041829726e-03 -1.0587950961681025e-04 -4.5148535589928634e-04 7.4826040755389248e-04 3.3194043624344693e-04 1.1331892334385521e-04 -4.9537122691491447e-04 -2.7361623332972963e-04 -3.1347139681116862e-05 -6.0799961771480990e-03 2.2540768480581157e-03 -2.6701084799324827e-03 -9.4029072970975847e-03 5.3624948146555550e-04 4.3149039591759087e-05 -3.9134270446233247e-06 6.6809707659199716e-05 -5.0322606591641416e-05 -5.5277357349767242e-05 2.2135411684557349e-03 -2.0614378769936298e-04 -4.7171744615748977e-04 2.1987414392894162e-03 -4.7966606670180045e-04 4.1660533369886239e-04 -3.3885141284848222e-04 -4.9532933150235603e-04 7.4837006237233683e-04 -6.1830410269554881e-02 8.2144852018672283e-03 -9.2147798545805237e-04 -1.2882968485517843e-02 2.0882479681744595e-03 -1.1230823219042421e-04 -6.3535187662623269e-05 2.0586667997025271e-04 -1.5940358472223137e-03 -1.5375932904011791e-04 8.0172797201044643e-05 9.8913001117567449e-04 6.3336173408183344e-04 -8.8713936286708350e-05 3.1958717841514927e-04 -4.7674810126956384e-04 -3.3420300749415479e-03 -2.7748555401510360e-04 1.1792398488988691e-04 3.9800679139327444e-02 9.0828562236659922e-03 -4.6534019637707092e-04 1.9227120755650251e-02 -1.4441576871246518e-03 1.7399215688783387e-04 1.2355190779640105e-04 -3.7445631144424649e-04 -1.6037507304150767e-03 -2.9998047125010321e-04 -1.1523661894812659e-04 2.5476283887856709e-03 3.6150919420381766e-03 -4.1116992082424007e-04 -9.7924599011502242e-04 -1.7891306495819677e-03 -1.8653414233381401e-03 -2.6438379449096258e-04 -2.8186786062478547e-03 6.0263785816272807e-02 1.0459850310615651e-02 -9.0901585713805064e-04 1.5347454743579902e-02 -5.7613297383646879e-03 5.5228696127140094e-04 4.0389687155433169e-04 -9.8567533291569554e-04 -8.0643739163619617e-03 8.4387099493841208e-04 8.2758779643464508e-04 -3.2167242267816748e-04 -1.5701886636545561e-03 1.5087459151879781e-03 -2.7210156573549606e-04 3.9574755987379262e-06 4.9224199979353185e-03 4.0068485097214356e-04 -2.1520269005794682e-03 -6.6949935480975515e-03 4.1484459806477136e-02 1.8975033189366983e-03 -1.4133064264773688e-02 -1.2257042945457368e-02 -6.6770809481324855e-04 -1.6829409122100071e-04 -7.6639676094676168e-04 5.0422821774788462e-04 -9.5962743242529675e-04 1.5449519989710345e-02 
      </Row>
      <Row Index="182">
        -1.7869557851335656e-03 -2.7740141557805367e-04 1.0810919791028745e-03 -8.2557037870917413e-04 -6.0800472191198038e-04 -3.7686856044807395e-04 1.2845966091590885e-03 -2.6998881963393958e-04 -7.5061363002888563e-05 3.5060173397228833e-02 -1.0429391686679807e-04 -1.8001590328377330e-02 4.9399840459557198e-03 4.0091458551194323e-04 5.6190451728492063e-04 2.0522132593591945e-04 -2.3854127848774139e-03 6.5223955456605882e-03 6.6690198621456630e-04 -4.4182161361543543e-03 5.8530514813034864e-06 -3.8631576276587469e-04 -5.3907027885564886e-04 -4.3620850460055968e-04 -3.2228582835841860e-04 1.3502726002910699e-04 -1.3806268019113434e-03 -2.1648423784807660e-04 1.0833851074565637e-02 -2.2534092049126403e-05 -5.1201115888970094e-03 -1.1929266803965444e-02 -1.8588626841243997e-04 3.1599612055363199e-05 4.3589635142569135e-04 -2.4502473561458286e-03 -4.4813048776979683e-03 -4.2503862628466386e-04 2.0076170048191067e-03 -6.2152353787975898e-04 5.5393585949337857e-04 -7.8478054276173281e-05 1.4606941323930343e-04 -8.1557127540254123e-04 1.0727457202235266e-03 -2.8641589886928666e-04 8.8127622222338234e-05 -5.0035139885516999e-03 1.3844087724641787e-03 2.5512205236577531e-02 1.1410789904571006e-02 2.0047053804721617e-04 6.9377236182003102e-04 1.2810959535289636e-03 -4.5753925051331993e-03 -1.6402391220655390e-03 5.4735294921642776e-04 1.0611855062640091e-03 -3.2822616814672575e-04 -3.4804881353608409e-05 7.1890541163452566e-04 -3.7932698906364797e-04 -2.9347507938943130e-04 -2.7997515862952229e-03 -1.1804726654006791e-03 1.6976321296159353e-04 -2.8875368711384797e-02 9.5803101041892508e-04 2.9683014730839757e-02 3.0580859467779664e-02 -1.0387470819819009e-04 1.6038659892346251e-03 8.8921010617465466e-04 8.3193637996489909e-04 2.6370617773956960e-03 -5.8583125350714256e-05 7.0068043605615860e-03 1.1494072977502601e-03 1.4204080466225129e-05 7.5963987866764678e-04 -1.2820587246129694e-04 -1.7497049767912208e-04 -2.4620535599668529e-03 3.9213980799687742e-03 5.3941332301987721e-04 -1.6900657663204255e-02 -1.0649274039229231e-04 2.3022345625389580e-02 2.2362954102238097e-02 -1.9213689028198385e-04 4.8959069726360431e-05 -1.3904248890002878e-04 2.9622599612848504e-03 -2.1453477090998523e-03 -5.2654195252966468e-04 -6.1435039590941320e-03 -2.3275554009164401e-05 -2.3750693347066136e-03 -4.5268309673430747e-04 -2.7396432091095126e-04 -3.6620411287839258e-04 4.1339599387442937e-04 2.3831871108458588e-04 -3.0079853734410640e-04 1.7531829307226132e-02 3.9666080949738326e-04 2.4884396307881277e-04 3.0160023450172935e-02 -4.6113743146149514e-05 -1.5833041496067437e-04 9.5500256765198340e-05 -4.5240752362586190e-04 1.6844151488426625e-03 3.4451537149899735e-04 3.8381032886437016e-03 5.5322957772988447e-04 -5.3158132897218949e-04 -3.8457787322856160e-04 3.6036165367531517e-04 5.3141170436173980e-04 4.1316002496916658e-04 2.5240164995849021e-03 -7.4708127417104364e-05 4.0618264293359407e-02 -5.0910582917622826e-04 -2.6933483293490757e-02 -4.2428359538893012e-03 -2.0229730971545092e-05 5.4455967770907464e-04 2.8534024420772200e-04 -8.8045632479928073e-04 1.0629484093208214e-03 3.5499699319425926e-04 4.5142352477993003e-03 6.9593261118521335e-04 5.1001964868128773e-04 -1.3686349019061028e-03 7.9235430694239023e-04 -1.7187368348315145e-03 6.8080208064619121e-04 2.3995017979053391e-03 -4.8371141779851508e-04 8.1663350674856014e-02 -2.2926708152682137e-03 -6.4391124767631439e-02 -2.0108322093498998e-02 -4.9633790743747143e-04 1.6218932374758891e-03 8.7085123953219027e-04 -3.8163804744878282e-03 5.1226153331517020e-03 9.8318104234861991e-04 1.4662456806882607e-03 -1.1013059473691722e-04 2.2161823789565798e-04 4.6664133970036035e-04 2.3929951661819451e-04 4.1981764977996449e-04 -1.2348772388126698e-03 -2.2129576705623433e-05 2.1242851103844563e-04 -7.8112646620520088e-03 -1.2918151360978946e-04 1.5445495664846492e-02 1.4079610439303059e-02 9.3040549114386248e-05 -2.9223935226996387e-04 -7.8717386317833692e-05 7.3778924041632051e-04 -1.6385943746246440e-03 -4.1197730834072535e-04 3.0003408383257185e-03 5.2779692880900472e-04 -1.6473518554921559e-04 2.4980383068111867e-04 1.6770307267608563e-03 -2.6612834656492338e-04 8.7201358743146376e-04 -9.8423896068110164e-05 -3.8199052592944200e-04 -7.0019918544020343e-04 -4.6534019637841588e-04 4.8026723931744730e-02 2.7338941305257825e-02 6.1395107065923341e-04 8.2974361281084523e-04 3.8405737775935162e-04 -1.1479077892656547e-03 -3.5605862221293159e-03 6.1935471227429371e-04 1.3055643599734639e-02 -1.5961262235134300e-03 -4.1712396481304445e-03 1.8356316775002763e-03 1.5863176043267868e-03 1.7580940191114676e-03 2.8434258934907398e-03 6.5802946694365830e-04 -7.7466506194411456e-04 -1.0551745558344605e-01 4.3221735686129401e-03 1.0956795075607435e-01 6.5601889554987469e-02 3.3128680285386151e-03 -2.6192270977151546e-03 -5.4434526203828116e-04 1.3689943430498014e-03 -1.3226689260774719e-02 1.6423642230963377e-03 1.3885070874436502e-03 -2.9405433980779158e-04 1.7998903295952068e-03 4.6212997585030283e-04 7.9914628711789536e-04 -3.7047797706597622e-04 2.7964144594292495e-03 2.4168761755567142e-03 -3.8892618508838770e-05 -3.2090787569515457e-04 -3.4040104797802531e-03 4.9650176025765290e-02 -3.1898789307326161e-02 4.4716977484080120e-04 7.7844614084863380e-03 -1.6224393547652973e-03 1.9913771084511010e-02 -1.0294770596555934e-03 1.3700138843714370e-03 -4.6595121633053044e-03 
      </Row>
      <Row Index="183">
        -1.1559492383029379e-01 6.8311710040074303e-03 9.4662920110764048e-03 -8.8274022668105284e-03 8.1221635824846317e-04 -1.0191443963341040e-03 4.4813145136174626e-01 9.2845869781834622e-02 2.9210168722002550e-03 -2.7856412857715895e-01 1.0345829105968818e-02 1.0351210603719352e-02 1.8700106363072678e+01 -5.6166325427639951e-03 -4.1423861896330294e-03 3.9103746531454764e-04 -6.7640860943178893e-03 4.1910401218127724e-02 6.1885954936595766e-03 3.1334144815156151e-01 8.1837271455746929e-03 -8.7443057003753211e-03 1.7485320428538821e-02 -1.6696556201054591e-03 3.6424482961265880e-03 2.6426090342949848e-01 3.5743387024892881e-02 9.8033350057651347e-03 -2.6895355520677526e+00 -2.2999276855109940e-02 -8.7566308544140270e-02 -2.1543272144963339e+01 7.6446840904620394e-03 3.3546313533268091e-03 -2.7101506744351411e-03 2.0363358662201625e-02 3.9118706469309927e-03 1.4388394434789120e-02 1.2288283933244770e-02 1.9446416940274769e-02 -3.2560301815767190e-03 -5.8686975459663060e-03 -1.7652182373446124e-02 -2.5314007722439413e-02 4.9711746364405940e-01 3.6288649245680205e-02 -6.2701583239359593e-03 -1.1758804896323909e+00 -9.4939315199624730e-03 -6.1227519904321070e-02 -7.0343209621041751e+00 -2.2008837704903250e-03 -3.3444566147480259e-03 -1.4202341856329959e-02 -2.6102128357880616e-02 1.2793864083008089e-02 -8.0094233913872159e-03 -2.6387882128443607e-01 -6.5893475918343825e-05 -7.7879898191284269e-03 -1.0423164479018254e-02 2.0338991996453615e-02 -1.8221947689426088e-02 -5.5502049710210599e-01 -4.8741236686119294e-02 1.7782362686560305e-03 5.6779045224675428e-01 -1.0166227755824764e-02 -2.6143451796460937e-02 -3.8206005132560676e+00 -4.2334991284320722e-04 -5.6747111660038208e-04 -1.3038798126574491e-02 -2.0296171606188906e-02 9.4682008821393993e-03 -1.1729298828221602e-02 -2.0510113085299508e-01 1.7363756630601301e-02 -8.2379001260513007e-03 -2.2667645523881674e-03 5.1533423578575821e-04 2.7711428242467306e-03 -5.9389258974284331e-01 -1.1045926786977134e-01 8.3503082759079916e-03 1.5490767657843207e+00 8.8914774338633151e-03 -5.7202209771496371e-03 1.1947923331832953e+01 1.5240151495987675e-04 -1.1999079883775465e-03 1.8158982088678499e-03 -1.4060745678349917e-02 -3.0962090113504814e-02 6.5306053048601598e-03 3.1314568564135925e-01 -4.0314433187056409e-03 5.0954932008400247e-03 -9.5803912025038684e-03 3.6951155136861757e-03 -7.8981795791266407e-03 1.7356724976808025e-01 1.9961302738297215e-02 -5.1409178241206277e-03 -5.5273760450418585e-01 3.9077511975944106e-03 -1.2384194505339785e-02 1.3257335202078821e+01 -4.9133231237741271e-03 -4.5631760671818178e-03 -1.9157448410493383e-03 -2.0314416887118325e-03 6.7407776783559026e-02 1.1904464738884957e-02 3.5845540564423573e-02 -1.4630226812355929e-02 1.3330297819351244e-02 -7.3412089066167141e-03 9.4896268956823349e-04 3.3555072441764366e-02 -7.9402720282800487e-02 -1.8612100928484310e-02 -1.1813152350320877e-02 2.0466152341496127e+00 8.0859537212347732e-03 9.2972018839762138e-02 5.0757717892879555e+00 2.2103431841655752e-03 -2.2570686672045426e-03 -2.0427215160001566e-03 -1.2570545801720456e-02 -5.9746882226335174e-02 -4.2781905760591599e-03 -6.6348042744607483e-02 1.6098471658715141e-02 -6.9545831521864443e-03 3.2256387276053955e-03 -1.3639038320722996e-02 -2.1779227564454828e-02 -6.2750518974111991e-02 5.9640791111590374e-03 -1.7657213611458333e-03 -1.2374391976788317e+00 -6.5825502704948136e-03 9.4217221785019234e-02 -1.1260311594762243e+01 9.3178146948145191e-03 3.1089274709332482e-03 8.3163761745974618e-04 1.4623258932374483e-02 -3.7354537361828283e-02 -1.2126755499963338e-02 -3.7940427861030912e-02 -1.3051013738984096e-02 5.6500505844985227e-03 -2.6721617762799355e-03 6.4188628119552504e-03 -5.8263556442277320e-03 -3.1275421425335281e-01 -4.4559151537953312e-02 -9.2948040177098790e-04 5.4482593765294496e-01 1.3982229652233752e-02 -7.6040698560575493e-03 4.9017561692926392e-01 -5.9735007254588801e-03 -3.1801750888713620e-03 -9.5026430731337541e-04 -8.8952928889085570e-03 -3.9589630168478607e-02 3.8402571313156386e-05 1.8319775285283413e-01 -2.1037723060382429e-02 7.0541689202587854e-03 -2.1956679045199573e-02 6.0496819093533993e-03 -3.0328784892616922e-02 -3.2519028486156198e-01 5.1400845273779083e-03 -2.5134569193701051e-03 2.2462158905642582e-01 1.9227120755052063e-02 2.7338941305683928e-02 3.1404151498843021e+01 -7.6906787042761689e-03 -5.4482893097728517e-03 -3.8286092855724344e-03 -3.0222682853123871e-02 -5.3980237558639871e-02 5.4633568364850262e-03 -1.7275269996630482e-01 -8.9255230493055643e-02 6.4469338666142545e-02 -1.2470945665630942e-01 2.0013809112317756e-02 -9.1328015679155869e-02 -5.0379453848648337e-02 1.7685525360367249e-01 -2.4781960550624635e-02 4.8109706602823836e+00 1.2499130400953837e-01 7.3572682709209081e-02 4.2846339064544736e+01 -7.8234067021798831e-02 -4.6073841123540897e-02 -5.9120912889919905e-03 -1.1736925142092761e-01 5.3983378289049047e-02 8.6662038952083811e-02 -1.4480105228355455e-01 5.8025519919418463e-02 -2.2822579996617520e-03 5.2205708053380595e-02 4.6356048915001391e-03 -2.1416725962672013e-02 8.9496498421091952e-01 -4.1187743747483962e-02 -6.5904448452270489e-03 2.4344988783230292e-01 4.5083052222317552e-02 -9.1488355688258444e-02 -2.2213606433174370e+01 1.6597054703309078e-02 -2.6862074002060310e-02 2.1771102216186791e-02 7.4104326901414441e-02 -1.1749829650249843e-02 -5.2150150820126168e-02 2.1062050550593472e+01 
      </Row>
      <Row Index="184">
        9.9614361678496827e-04 -4.3155292650865461e-04 5.6202619432967234e-04 -8.9799413612563729e-04 -1.4577587797865409e-03 6.4388424120063580e-05 -2.1070105221942443e-03 -8.4561553886840658e-04 2.5089471706246820e-04 1.9471570848114517e-02 -3.9396925119222163e-04 6.4754617367946202e-04 3.1928099339650906e-04 3.9648180180836055e-04 -5.2197519783845443e-05 -3.1630363792286165e-05 7.1413265520271774e-06 1.7173035341825271e-03 -9.3529139946449576e-05 -2.3859984909944121e-03 -3.7829696375538124e-04 -8.4332160971973061e-05 -7.5858681867415180e-04 -4.4576863450063176e-04 3.0236908997093200e-04 6.0052447991346819e-05 -8.2238782370060506e-04 3.0004363903455948e-04 2.2155140155221902e-02 1.0815033493201285e-03 4.7209921277412657e-04 1.5502703915355021e-02 9.2298159578615643e-04 -3.6491972001991306e-05 -6.2583381600917268e-05 -6.2948092787681124e-05 -7.3457532685304930e-04 4.3346522590475721e-04 3.0578662199379908e-03 -2.5506287677970772e-04 2.3531970540742290e-04 -3.4614206263055571e-04 -1.6861927618636030e-04 2.7088779478151408e-04 -1.5404617762585816e-03 -2.7384579599712064e-04 -2.1930097901307587e-05 1.3611109053054127e-02 -2.4129234867718320e-04 3.9648735164503346e-04 1.0448795077412587e-02 7.8086960502884084e-04 5.8141309801661156e-05 -1.1003073708205175e-04 -1.0576039817537797e-04 1.4726634146795033e-04 -5.5712375058120361e-04 3.0743741477194247e-03 -2.4638817176545619e-04 2.9516433783334994e-04 -3.3359653307334959e-04 1.1739794428117928e-04 1.5637016052995182e-04 1.6319782163478243e-03 9.2426517540178735e-05 1.9264119562947823e-06 1.0210032848752659e-02 6.8309178687951579e-04 3.6286118404048068e-04 4.9100942814908066e-03 1.2690301473157551e-03 1.6615045883656130e-05 -4.1092311696130229e-05 9.1527731705764656e-05 1.5246972472611094e-03 9.0975716484325946e-06 3.2117840281818966e-03 5.2810431154251547e-04 2.8117299480235995e-04 -1.0165991663742824e-03 3.9556373302399028e-04 1.5389595466682999e-04 3.2151175886464302e-04 2.9960562445261879e-03 -2.0657837487877972e-05 4.0620205321101555e-02 1.8903320090073276e-03 1.0308557086942567e-03 -3.8117866540392509e-03 2.2382795182265508e-03 -5.7137819698195244e-05 2.0230860461552258e-05 1.1007991912023252e-04 1.3748208055979240e-03 -1.4398937413196908e-04 -4.7846660234326793e-03 1.4564889007770898e-04 -9.0471873601956181e-04 -2.6440299557484105e-04 6.6205367037408622e-04 8.1408253563009176e-05 -1.4969436853528250e-03 2.7240743605536983e-04 -2.4095794549170140e-04 9.9094766298035847e-03 5.8423029747815391e-04 3.1754364849836736e-04 -4.0214847194061099e-03 9.4319619647907508e-04 8.5624997314363545e-05 4.1644699034417993e-05 -4.3695070408400960e-05 1.0500867712292489e-03 2.3636610044699418e-04 4.5137612766898982e-04 1.2652799028829015e-04 -2.2995624416708577e-04 1.2167039914234802e-04 -1.1967023629815563e-04 -6.8157358528071147e-04 -5.6843816783103823e-05 1.4512725289894451e-04 -1.0611600139853739e-04 -1.7912190129837358e-04 3.7867696155934744e-04 -3.9185162264788640e-05 -6.7567420169589720e-03 -5.8536143122780309e-04 -1.6366260505570537e-06 -2.7077038341890777e-06 1.0543174524332984e-05 -4.8572536926795584e-04 -7.3329175592135032e-05 2.1069566313335619e-03 -1.1957525930190831e-04 8.1957303709434895e-05 8.4384111176616128e-05 -1.6605663524302825e-05 2.6978893972579260e-04 8.3293765977488551e-04 -3.9648280937826848e-04 9.1253691802283335e-05 -3.1432619140112864e-03 7.8648609537651255e-04 -2.0938609850463489e-04 5.3008392292421824e-03 1.9593799618480270e-04 4.0347581006820385e-06 3.0339840783432997e-05 4.7296571545142922e-05 -3.8226242569481877e-04 2.9326463042166333e-05 -1.2031889409729879e-03 -5.7443448205490855e-06 -7.1513850778364525e-05 -6.6883302824350104e-04 -2.6431104787104018e-04 2.5431896729872019e-05 1.0215369897287087e-03 2.0224350622197185e-04 1.4865587669919591e-05 2.1476778140005232e-02 2.9511082215776877e-03 6.9360517556336411e-04 2.7077953763687823e-03 5.5256236167693258e-04 2.7315752768170259e-06 -2.0632798746914992e-05 -1.9178898957302598e-05 7.8703109902179824e-04 -1.4040809872687202e-04 -7.8487155595449026e-04 -5.2128382921424771e-04 -7.0159617997500817e-04 -2.0101597415370185e-04 8.5299905226298345e-04 -9.5722022897769547e-04 1.1434637639940188e-03 4.6224343716876146e-03 -1.1789257402582598e-03 9.1484695906686384e-03 -1.4441576871240928e-03 6.1395107065919112e-04 -7.6906787041872704e-03 2.8638026510463691e-03 -4.6715425983303877e-05 2.6426638497971367e-04 -1.1292112144868638e-04 3.3513092723957277e-04 9.7411718133258787e-04 5.6874446819017987e-03 -1.6880667156102432e-03 -3.2738095421256776e-03 -2.7238275840266168e-04 1.8066872001805843e-03 -3.2404319559905755e-03 -8.4130624184446112e-04 1.3157689047474982e-02 -3.4955045037373005e-03 2.9496685101348088e-02 -8.2606154780244558e-03 1.8227299446983486e-03 -4.6059421715893833e-04 8.8004614533443905e-03 1.0376481376898720e-05 7.2566831203994494e-04 -6.3816475433784510e-04 3.0042847945106910e-03 2.9668636815057834e-03 1.8808209627369475e-03 6.4604942699697488e-04 6.0405651282526213e-04 -2.3441892119310630e-03 5.3611009465959810e-04 2.3390882054389033e-04 -2.3435628590930120e-03 1.2575197327827064e-03 -3.3537288963117473e-05 1.2157094945014861e-03 1.3738801646663050e-02 -1.9706109045531349e-04 7.8955782086178958e-03 -1.6792384238586110e-02 1.1543748151415963e-05 5.9152734295815781e-05 9.3834001223933202e-04 -3.0719577258184628e-04 -1.2687417756105681e-03 -5.8404347951838661e-03 
      </Row>
      <Row Index="185">
        -1.0353822072075615e-04 -8.7410946815881453e-05 -1.4738443153249244e-04 -1.2560707686706698e-04 -3.6641418175473867e-04 2.6851720254713013e-05 -3.4391749095910096e-04 -1.6914144282829686e-04 -2.4609016836324871e-04 4.6744627077573708e-03 9.6761256997431044e-05 3.0265404509387250e-04 -3.7769395212760015e-03 1.3168246268462823e-04 -1.6401180074502707e-04 -1.4219906711427993e-05 1.6687677588729652e-04 -3.5569692148558008e-03 7.0817873901738229e-07 -1.3247631133136845e-03 1.1384948574927594e-04 6.0282604858255540e-06 -1.2823962626401552e-04 -2.7520007798864654e-04 3.6232161257734354e-05 -2.9149766849866001e-04 -9.5042767289831270e-05 8.6274881104099303e-05 1.5418116785016756e-03 4.8133602991283324e-05 -6.3833901613498389e-05 5.1725895899239482e-03 7.2849481496769478e-05 -5.6665680168825595e-04 -3.0009940504334941e-04 4.3930201995779603e-04 2.8295626557989888e-03 1.0288836171544989e-04 1.8503632927282451e-03 -8.3722208898622476e-05 -1.1353866874627607e-05 -1.6775562486525644e-04 3.1696538794498061e-05 6.9288611097871773e-05 -2.4552243570897733e-04 -5.2531957921916894e-06 1.8564930686018871e-04 3.7406701316013979e-03 -6.0009559407533941e-05 -4.2755098922965529e-05 3.8596603923191086e-03 1.1965662567204563e-04 9.7346731801803248e-04 -5.6958980647736071e-04 6.3855844532726379e-04 8.4511299885643796e-04 -1.3614381881292114e-05 1.9035125582044649e-03 1.3354142152888345e-04 -1.4917144840172745e-04 -1.1060213673662334e-05 -1.8766251540383583e-04 6.9396985552094576e-05 -1.0015208083594407e-03 3.2498143608364859e-04 4.6056040373866451e-04 1.3442005085879227e-02 -2.8247530398957735e-04 2.0832730076023390e-04 5.3533148864692848e-03 3.4663284294737372e-05 2.0479861829378740e-03 -1.0279987617042765e-04 -4.4543960763478597e-04 -3.5064528259992622e-05 3.0200250635751278e-04 2.9334879054907781e-03 -2.1136493478700336e-04 -9.0237871989281085e-05 -7.2913106396465394e-05 4.1891896397777684e-05 8.7579728207952878e-05 7.8252026016290693e-05 2.3759496011134529e-04 1.2756087250932746e-04 2.4372692037979427e-03 -9.1383631183588471e-05 -6.9197385371994741e-06 9.4289917886847263e-04 5.3755816453155032e-05 6.8304272082425014e-04 8.6004278379325436e-05 -2.6997729140073798e-04 1.0344575664373301e-03 6.4492727163308061e-05 -2.9739367189282745e-03 -2.8672843485545068e-05 2.7527457692838136e-04 1.2881348810128463e-04 3.4323136371138506e-05 3.4481690757756601e-05 -2.0704043330889259e-04 -1.1302463769062110e-04 4.4048561341308379e-04 5.3559993899662426e-04 -4.2906608162994654e-05 9.3306996105267529e-05 -4.0779748630860313e-03 1.3133708015420330e-04 -2.1908833005637512e-04 -1.2261159173417306e-04 7.6231455623362887e-05 -1.5542719285381935e-03 8.2581807585089569e-05 5.0793927591333277e-04 2.7362100219058272e-05 1.1166152665011489e-04 -5.4829557950780358e-05 3.3594709762711132e-05 -1.5783427134643830e-04 3.3093369174131901e-06 1.0424741037563974e-04 1.3798142206019985e-04 1.2732197290263314e-03 -2.4323046722679251e-05 4.0590425378084232e-04 -2.3755758222239187e-03 -3.0338799405324089e-05 5.8832757983793118e-05 1.0423309255250604e-05 -8.0471026885407538e-05 1.1667270498945045e-03 9.2959570132250535e-06 9.8998554682988571e-04 -2.8524363970924838e-05 5.7000802957498211e-05 -4.8258658933601718e-05 -6.5751560573288704e-05 -1.2129350331316737e-05 4.7139733941670104e-05 6.0525656349929343e-05 6.2517404794699548e-05 3.4081400765103263e-03 -4.7320262721334706e-05 7.8481430389127499e-04 1.9066679975745515e-03 -3.3709077198666444e-05 -4.9868283919711341e-05 -2.4308373465224524e-05 -1.5415635526949223e-05 7.2250345091045805e-04 1.6011956294868400e-05 3.6484888542637206e-04 5.6288401295306704e-05 -1.6912450977567061e-05 -2.3345512425426446e-05 3.7127042462850590e-05 -2.3577426980248353e-05 2.1013416782212670e-04 5.4852804189861604e-05 -3.8062608943462308e-06 -5.2201511122853539e-03 -2.8134465013154311e-04 -1.5997082642014819e-04 -3.2251264587612738e-04 -7.3680679524882773e-05 1.1814040834085308e-04 2.3320621846414924e-05 9.9552538529014932e-05 -5.2815843460042589e-04 -3.7955439178167030e-05 -1.2285489935906918e-03 -3.7473946135565888e-04 -4.3116465103853270e-06 -1.2127194668716624e-04 2.8998244830174017e-04 2.9659027115673520e-04 7.1302737255070207e-04 -3.4845286555634564e-05 1.1783334278985685e-04 5.3273490437830140e-03 1.7399215688818868e-04 8.2974361281130254e-04 -5.4482893093599216e-03 -4.6715425983279998e-05 1.5907376435679802e-03 2.0867536884665978e-04 6.2118644357741755e-04 -2.4992655558398716e-04 -1.0051876718975112e-03 1.5339917229346923e-03 -1.1867447110336671e-03 3.0978245287898305e-04 -4.0514044057654211e-05 9.5422002700163919e-04 8.2779031689093473e-04 2.0922528714741716e-03 -4.2555245814734726e-04 5.0773165289865212e-04 -2.6350251221135684e-03 7.7806534450146477e-04 2.0146950128317720e-03 -7.5824066995944239e-03 3.7571329943758607e-04 2.0207848680559395e-04 4.1190719452038980e-04 2.1613201557050348e-03 -7.7720568632035705e-03 -2.7624345663755517e-03 8.9710406671858825e-04 -4.4359737052037784e-04 -1.8418538339862677e-04 -3.9234811176084140e-04 2.1241569401889143e-04 4.2279824800227757e-05 -1.2114258537539226e-04 1.0018252892815034e-04 3.0913691527371609e-04 -5.1265934944439893e-04 -1.2878491637336835e-03 -8.0709039973338821e-04 4.5925130026433954e-03 -9.0750483512501857e-04 5.0977532653439517e-03 8.5279176378160316e-04 -2.8159461353977049e-03 1.2200651521964674e-03 -4.7624059473426878e-05 -5.6816741166087203e-03 
      </Row>
      <Row Index="186">
        3.7461585123904390e-04 -5.7176063054182274e-05 -3.2199188563108820e-05 -1.9250961817604919e-04 7.2142395143256523e-06 -3.3755933637175524e-05 5.0571910237710903e-04 7.7790617203493391e-05 -2.2652174665546286e-04 2.8498049933152331e-03 -6.9467239692331119e-06 9.1891344973355415e-05 -2.9751846134118409e-03 1.5773058040932682e-05 -1.0276568851688337e-05 4.0420515947948681e-05 1.0947366183119739e-04 -5.4727525441900958e-04 -1.0537916282144123e-04 -1.9115481907421676e-03 4.3270062778321804e-05 -3.3845924536192624e-05 5.7134855939829843e-05 8.1174993990406306e-05 6.3353322921178663e-05 -4.6751475598563611e-05 -7.0248441634270789e-05 -9.9376175677478619e-05 2.2631027452524530e-03 -8.8426485907258179e-05 4.6800205997014205e-05 2.4823774945894606e-03 3.9984467338699601e-06 9.3351749840259879e-05 4.5246327130427132e-04 5.3223057373601518e-05 5.0949343234875030e-04 -3.1634874048890266e-04 -6.0199567741626905e-04 9.9893953613543444e-06 6.0021738622359944e-05 -1.5604507664214489e-04 3.8648596113762370e-05 5.3422500038189475e-05 3.3533364500299648e-04 1.4429323139267996e-05 -3.3336808388302467e-04 7.5704051346238699e-03 3.4811259647473487e-05 -2.1621011071776275e-04 2.5950042919509198e-03 -2.3589131995747388e-04 -3.6299612364877176e-05 2.6034723106960842e-03 4.5097003876380768e-04 8.3881445593207661e-04 -1.2008289877905669e-04 -2.9058734467777778e-04 -3.7174893874671933e-05 7.5512897487887086e-05 -1.3042251821635811e-04 2.2738142592653408e-05 2.3600765554454822e-05 -2.2139480813157791e-04 7.7177177128637600e-05 -2.2944367019502856e-04 4.3373103070874081e-03 8.7643580449739585e-06 -8.3599089413365123e-05 1.7750748772757952e-03 -1.4257725111650131e-04 -1.7474288033058670e-04 2.2064805296629127e-03 2.0827056502136095e-04 -1.6592102624717053e-04 -2.3428554730220701e-04 2.0065511852851645e-03 -2.1701607452152653e-05 -1.6235255403548648e-05 9.5891482394310987e-06 1.0037102120087626e-05 3.7105039424905131e-05 2.4700337707264826e-05 1.0994709554924820e-04 6.8687892153073207e-05 3.2494831957562420e-03 -3.2482224145266927e-05 -5.0412770102682908e-05 -9.6895239609334771e-04 4.9467090648199971e-05 -2.0399316510227037e-05 2.2926060581571401e-04 -1.8867047342655983e-04 -5.9710130067404041e-05 1.8224933653064428e-05 -2.9911714747141854e-03 1.7848488075742849e-05 6.1794460545545491e-05 1.6800680982502874e-04 -7.9686994116659905e-05 6.2039687488108387e-05 2.7275370515714051e-04 -7.9554409326820368e-06 2.4467011702818185e-04 1.7467062136719100e-03 2.7984260831256816e-05 -7.0991916991384909e-05 -2.2526476659853051e-03 3.4967655898990671e-05 4.3440022693950049e-05 1.9242925810615077e-04 -8.0500479995455727e-05 -7.7035311626377355e-05 -4.9903548363924540e-05 -3.4371798532807640e-05 5.4503685603850618e-06 3.4768950620454007e-05 -1.2992419396921895e-05 -1.7523250280184356e-05 -3.3108999431161927e-04 1.1870321234561890e-04 1.0211213041099506e-05 2.2222093657977334e-05 -5.2753101822138049e-04 9.6082499453176238e-06 1.6566337630501403e-04 -1.1265522436579301e-04 -4.5960498292566179e-05 -3.8826370195285285e-05 -4.0273051538269487e-05 5.2699326630716375e-06 5.8842198683713501e-05 -4.3640599746186046e-05 7.4304689638576490e-04 -5.5643539063748577e-05 2.1959375852063337e-05 2.6830389567382854e-05 2.8542921663693199e-05 1.3455286847143449e-04 -8.7501491659473470e-05 7.4680592197571183e-05 2.8107070695336826e-06 4.3396211842420748e-04 -3.6602142492571724e-06 4.6225700975576227e-04 1.3522744019610622e-03 2.5496057407070675e-05 -2.2965177203076321e-05 -3.4090477060370334e-05 -5.8113471719657250e-07 1.7760896743578521e-04 6.0554988800163320e-05 1.3294610776704019e-05 8.0635077736544974e-06 -2.8546153952051452e-05 2.0151731395995299e-05 -4.5692111758244974e-05 -1.9890119248816823e-05 -1.6828722281152448e-04 -4.3914160661844004e-06 5.4428897516299651e-05 -6.1121835742927733e-04 -1.2287434527688811e-04 -6.8862208753870790e-05 -4.2102901332552456e-04 -6.4672525637819587e-06 3.1003022164985384e-06 4.3298738637374021e-05 5.8375119827187502e-05 -1.4391616489285546e-04 3.3407881756996032e-05 -4.7328978478694377e-04 -1.6619332100611026e-04 -1.2106295392309016e-04 3.6540725325994510e-05 -5.0870565798582444e-06 3.1541935240354260e-04 1.5012153815676418e-04 1.1590450391945621e-04 4.2020043137132220e-04 3.9664373104801240e-04 1.2355190779654649e-04 3.8405737775916513e-04 -3.8286092854808995e-03 2.6426638497966992e-04 2.0867536884665343e-04 1.3070717302812575e-03 2.8276997365021079e-04 -5.6725011084780429e-04 5.5433383565892396e-04 2.1799114972756396e-03 -4.7673355075573493e-04 -3.6160765615968730e-04 2.9832033602475438e-04 -4.3974657634840506e-04 5.2552653321418137e-04 9.8812866387386258e-04 6.5393559775802777e-04 1.4565047861601027e-03 2.4015743569141528e-03 3.7103266777860225e-04 1.1321658449160942e-03 -6.2461524028959436e-03 6.3693826978327144e-04 1.0227094180762760e-03 3.1949951573560396e-03 -3.0747383484960920e-04 -1.9005483968658424e-03 1.6910007422960781e-03 8.2679191555737157e-04 -8.4496024058466440e-05 -2.1264396082492111e-04 -3.6862976070009762e-04 -9.6587221959424272e-06 1.2952811520761844e-04 5.4741400146642830e-04 -4.8878728716545252e-05 1.1342852656291539e-04 3.4737169872279027e-05 -4.4175367965822404e-04 -3.1221272233404162e-04 2.8234484246284063e-03 -2.8728262268454805e-04 -1.1424321519173599e-03 -2.1712825639549301e-03 -1.0648306991796210e-03 1.7526525764428798e-04 7.5891033918690904e-04 -1.3512413753666145e-03 
      </Row>
      <Row Index="187">
        -1.8425335199719756e-04 1.1882441343682862e-04 1.1878965091472946e-04 -1.1139953695312246e-04 -4.3812919876515255e-04 1.3363745317344477e-05 1.7742453648399549e-04 1.3299942216641021e-03 3.0717245344518557e-05 4.8980700515316444e-03 -4.7178590611336897e-05 -1.1792079171806837e-03 -2.2872379367708029e-02 -1.4307594844495598e-05 -2.8067990690302906e-05 -1.8835239907742641e-04 2.8443994412668226e-04 -2.0776266554305748e-03 -4.0779835612482756e-04 9.8646719448330922e-04 1.2600998741768305e-04 -1.5233201355822554e-04 2.9061967821758495e-04 6.0694113750911494e-05 -3.5589491333084394e-05 -6.9427400703071102e-04 8.9813093528425675e-04 -1.0589272820628326e-04 -1.1883521177541961e-02 1.7271157282748584e-05 -6.5781947995632167e-04 1.4921157346050151e-02 2.1272850342872202e-05 3.1279104996330583e-06 -4.3410599765376923e-05 1.0425384739298537e-03 9.9497271213709604e-04 -1.5316561485183636e-03 9.5153077059913216e-04 2.5017805716228694e-04 -2.6793315030673465e-04 1.1711522190500584e-03 1.3608208953624218e-04 -2.2339386324869009e-04 -3.0451062878038282e-04 -1.3486742861115210e-04 -1.9917193600933400e-04 -3.7817210252865774e-02 -1.1220853108746126e-05 -7.1237578126448486e-04 -6.1365247357230146e-03 1.4037339813854867e-04 1.8771869155262411e-04 5.2387783837480432e-04 2.9614160831294978e-03 -2.5678634966926420e-04 6.5720306078619669e-04 -1.0441751942165678e-03 1.7753612015918192e-04 -1.2807591388982065e-04 4.2050111379025173e-04 1.8337249795768312e-04 -2.8396866779274808e-04 -3.6706689367112938e-04 -2.2029578713227832e-04 -1.4253828295690205e-04 -1.0066236161074160e-02 -6.1283233057696923e-05 1.2510525862927859e-03 5.8592366989351774e-04 -1.5373794942508037e-04 6.5656578588678578e-05 9.8735309979118210e-04 1.1182318684905823e-03 -3.8193379811028022e-04 5.4870981640572046e-05 -2.3236752652032733e-03 -3.7119263094755051e-04 1.4856433065658578e-04 -2.2474926247196408e-04 -1.1712454086171276e-04 -8.3080235282458580e-05 7.3521367122856424e-04 -3.2419090461326405e-03 -6.1169325165449928e-05 1.3988271466658375e-02 -1.0624959845231818e-04 1.5477986110603720e-03 -6.9287183127757501e-03 -1.2322779990806606e-04 6.3004969585658474e-05 2.4551723226326830e-04 8.8940503946045510e-05 1.0569990484318448e-03 1.0667663670609062e-04 2.2876176652375513e-03 1.1727447949434668e-04 -1.5683796978088835e-05 3.1091458306386306e-04 9.7060419841143997e-05 -1.6305334242529973e-04 -3.3075731973580130e-04 6.4634426282973809e-05 -2.5675901061602939e-04 6.4215733971986089e-03 1.0168238114806083e-04 -3.0204737846210362e-04 -1.7386222347802960e-02 -1.0604891730974127e-04 -5.0420078458197209e-05 -2.9080030682617430e-05 5.7601762743132170e-04 -5.9431835577072769e-04 -2.3657419788040892e-04 6.3733143096222911e-04 -1.4547165778070782e-04 1.4456664995415869e-05 -9.8702109291990379e-05 -4.4647328557574466e-06 5.9465845545089019e-04 5.1032927599014427e-04 -3.6581161377071889e-04 -8.7992972733343805e-05 -1.1922024853729507e-02 -4.1152624170565089e-05 -9.0437053834062310e-04 -3.9145915370570883e-03 8.3047933685414946e-05 2.6860341949356062e-05 8.4464477894986845e-05 -5.7500772303210955e-04 3.5125589808232549e-04 6.5748157854678135e-05 -4.1948865402530178e-04 7.7268838901771095e-05 -9.1074659585728066e-05 1.1672746580176181e-04 -1.2268276315856612e-04 -2.5327575272091540e-04 -1.6924822675842832e-04 6.9440971246055062e-04 -4.4501333753863372e-06 4.2880999614376969e-03 8.4558993066145144e-06 -2.8245180759935568e-03 1.1175269580634861e-02 -1.1031052029840957e-04 4.5813505858520752e-05 5.8795072060236246e-05 -4.6365380314231780e-04 3.0244661735690648e-04 1.0092958335060787e-04 1.3069183944058871e-04 -8.1330360153238079e-05 1.1116241894626705e-04 -4.2935167266703114e-05 -4.9748992829848349e-05 -3.1457459972437235e-05 2.6312793334860862e-04 -5.0618712933565846e-04 -8.6538113406715649e-05 -9.5971849158216216e-05 -6.5635715160846481e-05 8.4884976447063137e-04 -2.6119931364032567e-04 9.2878945125392026e-05 4.1315201822817024e-05 -5.5258550540823737e-06 2.0649761415742970e-04 1.4890377731197058e-05 6.0889856853527102e-05 -8.5440387758038694e-04 -2.1187404437268686e-04 1.6853002303443684e-04 -3.6912865624285236e-04 -5.4991443719288246e-04 -4.0508331238907428e-04 1.4821325161220701e-03 -2.3693816372501305e-04 8.4622415906680966e-05 2.1089680279054224e-02 -3.7445631144399300e-04 -1.1479077892659309e-03 -3.0222682853276339e-02 -1.1292112144834258e-04 6.2118644357789590e-04 2.8276997365036659e-04 4.1917237261924270e-03 -1.2700442456246505e-04 1.2739931703756964e-03 -2.3937897922573495e-03 -1.4474210873710895e-04 9.5426935424620745e-04 -4.7318084277892398e-04 -1.3374949776983162e-03 -7.6602703096056253e-04 4.4641747200724830e-03 -5.1366617258692465e-04 -4.9787027314899775e-04 1.3475577869786627e-02 -8.4030200969885610e-04 -3.9583010110804707e-03 -4.4480745799631016e-02 -1.1806340620447203e-04 1.4502470679709036e-03 -1.9509460066585911e-04 8.5070149024372155e-03 -3.3139133639783751e-03 1.8654167381763004e-03 -9.2984358319622706e-04 5.0386742869138086e-06 4.1740974544926058e-05 -2.2469455092135023e-03 9.1361664311385532e-05 -2.7036844162058927e-04 1.6360192807523053e-04 -1.7032479868271866e-03 -2.2680701972065337e-04 -3.1625036105652716e-03 1.2351109588382668e-04 2.8759872055735339e-03 2.0492889363991091e-02 1.4431801755797839e-03 1.3783296898233735e-04 -1.5003442405357821e-03 -4.9709442891357784e-03 6.4762476585530915e-04 3.5909540769065739e-03 -1.6466762824560856e-02 
      </Row>
      <Row Index="188">
        7.8493945069308818e-03 -1.9993487127002284e-03 2.0374117605365671e-03 7.6021714220882164e-04 -3.9477924706632084e-03 -1.9068695115187278e-04 -9.7968486806766612e-04 5.8319770934835147e-04 -1.9964164158527004e-03 3.7148029077987310e-02 -2.4832990082766238e-03 7.0416232214559615e-03 -5.5742936689342493e-03 1.0322190292815971e-03 -2.1473016634251697e-03 -9.1841271379011378e-04 2.1466584634449726e-06 -1.9694717996385633e-01 -5.9025730654288858e-04 -8.8974787323339299e-03 -2.8225110880168713e-04 -1.3539528224747466e-03 -2.2517817399676627e-03 -6.0631268291965190e-03 -8.7587983812262293e-04 8.3453555149757414e-03 -1.6548031147326503e-03 6.6241096935116400e-04 -1.4077153909658735e-01 1.2039110935264247e-03 -4.6543345528914370e-03 4.1178502113581317e-04 -9.6329953379146148e-04 -5.7822762858329366e-05 -4.1278963042733902e-04 3.4947554014366335e-03 1.5192212830758672e-01 -2.6270828925215040e-04 -3.5957779137217316e-03 3.8664948339027830e-04 1.0129350763532705e-03 -2.1711408845509483e-04 -3.0203927170693451e-03 1.5632061675469044e-04 1.4441170953797489e-02 1.0004538034728561e-03 3.3093475573829911e-03 -1.4258670699048315e-01 -6.1094511794951289e-05 -6.0138760492230992e-03 -3.0842775734928551e-02 3.2413625904637207e-04 4.2245882905534715e-03 -1.7960039832636953e-03 3.1263013508201279e-03 3.6442563829965829e-02 2.3963310753540440e-03 1.5535861482261382e-02 -5.4272797949365265e-04 1.9622836944742025e-04 1.6498076377815113e-03 2.6649212955251467e-03 1.8007541741392984e-03 -2.6230453453055136e-02 4.8541788378963779e-03 4.7312253200538223e-03 1.7954051428144702e-01 -2.4835688130312589e-03 -3.6084268745684850e-04 7.0021791559156554e-02 1.6188681879724214e-03 6.7679557058209772e-03 -8.4953088794812587e-04 -2.0540481485419246e-03 -1.2646281385697897e-01 1.3805027346850823e-03 1.1155489862879620e-03 2.4576400611899807e-03 4.0526444902655445e-04 1.3345695784075517e-04 7.0360241071498741e-04 7.7165897571593658e-04 -4.2573169405344113e-03 2.9189657948474057e-03 1.8142596982664294e-03 1.3648489842767120e-02 -7.3623817779971956e-04 -1.9771755889188003e-03 -9.1410377167058243e-03 -4.5704972824175960e-05 2.4258276671364626e-03 2.1968373353573045e-04 -4.7139394528080553e-04 3.6979083120333850e-02 3.1336489413169577e-05 -5.7470681217433039e-03 -8.0400456557452524e-04 -2.9792276194522474e-03 -4.3469149779871291e-04 2.1536795486644805e-03 7.9813954633732934e-05 2.3144553848922708e-03 3.7543928587251228e-04 4.8563910693696852e-03 8.5244265015558610e-03 3.6752951401140344e-04 3.5600139934318332e-03 -1.1838843134317933e-02 8.9486049059125071e-04 -1.3267007094820878e-03 -5.3853587475283379e-04 9.3474055306401460e-05 -5.6441099261216543e-02 2.8706233057917150e-04 -2.2873892099473103e-03 7.9190897767407453e-04 -8.8648660775192401e-04 -4.7043276784191485e-04 -3.6822425949697979e-07 -7.6483145680063258e-04 3.9215081669121965e-03 -9.3542028762471502e-04 2.5920074453018582e-03 -4.1853299321186199e-02 1.0747876438466572e-03 7.2715288925270056e-04 9.1801703419474023e-03 -3.0914775016502652e-04 6.5881206443426862e-04 2.8575357559769421e-04 -9.4101880979339907e-06 4.0982625683853469e-02 5.0494925712218919e-04 3.3176920329704984e-03 -4.7181312672101017e-04 3.9696301926333763e-04 -7.1208875884382940e-05 -7.8558893740954955e-04 3.8672837722499367e-04 -3.9766048477925774e-03 5.4560775838379677e-04 1.5839142145023760e-03 1.1649760851345003e-02 4.3694229064304355e-04 7.5413295925826265e-03 1.9576013964787364e-02 -4.4326378877852790e-04 7.1576964067074714e-05 1.7911418328013301e-05 -4.3083978072856700e-04 4.0523188025284401e-02 -2.3031659788931395e-04 2.6647727977753277e-03 4.1647761915716841e-05 6.1405011257801060e-04 9.7906094837504204e-05 5.7013087447788102e-04 6.2596970631810522e-04 -4.7590388566086661e-03 7.8574189948177331e-04 1.2313749379632040e-03 5.0014252142613014e-02 1.3193008780724531e-03 -1.1162170532570126e-03 1.0609099160188151e-02 1.0418776609276773e-06 -9.0043755107023504e-06 -1.1829938572319870e-04 -7.4612235888671385e-05 -5.9489249314964576e-03 -1.6572546320714476e-04 -7.2999798610836608e-03 -4.6668681181181483e-04 -6.0781514372624818e-04 3.1249771259106445e-03 9.7868813641244787e-04 1.6403159007875204e-03 -7.5476732332964338e-03 2.7992916227026808e-03 5.8533239088594171e-04 -6.4338747248741890e-02 -1.6037507304130002e-03 -3.5605862221247710e-03 -5.3980237556995547e-02 3.3513092723884376e-04 -2.4992655558386660e-04 -5.6725011084747599e-04 -1.2700442456494614e-04 1.8612864127920675e-01 -1.5440052380555173e-04 5.0336631951354710e-03 -8.8161477960129533e-03 -5.0793792110016868e-03 1.0909099658376137e-02 9.3229565407485521e-03 3.8987085584979951e-03 -1.1868890312084782e-02 1.2488782204695924e-02 3.2314309567313456e-03 -5.6060287002961950e-02 -9.8246903149640987e-03 6.0942422736672587e-03 -8.5861280348449753e-02 6.2306158706747442e-03 -1.9120826431890812e-02 -4.1328331184143459e-03 -1.2133795493580938e-03 3.3351365926388354e-01 -3.7462634005672700e-03 2.0504551364448065e-03 1.3287763693005184e-03 4.9252844735738939e-03 -3.0197103966149580e-03 1.7359752918907978e-03 3.5797360307987243e-04 1.6375006757405736e-02 -1.2753948641602729e-03 5.0483852876427922e-03 -3.5532117891036701e-04 6.2871012584342070e-03 -6.2153430073808424e-03 3.0745082293602198e-02 1.9409741631570485e-03 2.5272448908140233e-02 3.2709429814406230e-03 -1.0277814288648504e-02 4.5317544780044752e-02 1.8276857244741516e-03 -7.3445043674469135e-02 
      </Row>
      <Row Index="189">
        -7.3412116236361248e-04 -3.1521871779392204e-05 -1.0480448403818975e-04 -2.0675916748309314e-04 9.7148316562159758e-05 1.4102871532172603e-04 2.0922257894914927e-03 -1.5244755446960684e-04 5.5851753195440752e-04 2.0549812576640909e-02 1.5158516438901074e-04 4.2445217092071841e-04 -2.7788085887646974e-03 -1.6095291853789707e-04 1.7007396101752074e-05 -9.5651427136780125e-05 2.1575933112428450e-04 -2.0460065846477000e-03 -1.9718029938246605e-03 -3.4889939552878342e-03 -9.1539740678258979e-05 -5.4527956795532954e-05 1.0033953330450512e-04 5.6538321773456912e-08 3.7809210073449541e-04 -6.6376548612070117e-04 -2.0039629967240889e-04 -2.8357632692669753e-05 1.1916506057418542e-02 -1.9414602166726073e-04 -7.0356931027373837e-04 -7.7354408866708857e-03 8.1030656264724369e-06 1.4584505813078152e-04 -1.9133276917990304e-04 4.1117812285525602e-04 4.5856177506862789e-04 -3.1472619311372707e-03 4.5602738523752469e-03 1.7450933576841729e-04 5.3390140394768567e-05 -2.1733119578652092e-04 -2.6185058581951214e-04 -1.5881188872616842e-04 1.8172581566152802e-03 -6.1621545624509046e-04 -4.5640447163954588e-04 1.6201461449802237e-02 1.0702989211746406e-03 2.6653160914521037e-05 8.6580296523695588e-03 -6.9937676999943100e-04 8.8800110425832964e-05 4.4447336993256193e-06 5.0108955815985137e-04 3.1978997544571319e-03 3.2611602630781521e-03 1.6828780455214187e-03 -1.3678172724006384e-04 -3.8500791834940730e-05 1.9119330872133179e-04 -4.6254987712544045e-05 -7.1228278548293375e-05 -2.7175028942144591e-03 2.9054758574069374e-04 -6.5213687593453822e-04 -9.6458367592642952e-03 2.1502963941333960e-04 -8.0476079499376490e-04 3.0595699926109221e-03 -2.1208376831271511e-04 -2.8583024530464914e-04 -5.6052648494236729e-05 1.5178196002654885e-05 -1.3543323725297568e-03 1.2375098325549440e-03 5.0895737589359141e-04 -2.2429550033841415e-05 -5.8519591641938715e-05 -2.5959572037361801e-06 5.4947362587761533e-06 -7.1449875377959152e-05 -1.1036046296200928e-03 6.1124566645223005e-04 -5.0100486682845904e-05 2.9544270041793330e-03 -3.7363162831530357e-04 -3.2663939990701689e-04 -7.5168288018451213e-04 -1.6705756682961956e-04 -3.2492337947697889e-05 1.0172630629408223e-04 -2.9462774527442670e-04 -3.6521579072983741e-04 1.0556101622608153e-03 -3.4500476122039520e-03 1.2965629383895921e-04 3.2971350321522527e-04 1.5143663641743786e-05 8.2882554832600704e-05 4.2870021690672615e-06 6.1771850762580333e-04 -1.8539307433668736e-04 -1.3040441908560131e-03 1.4838793484076388e-02 1.6035259955201209e-06 4.0438039645433960e-04 8.7456187553648645e-04 5.4825005566753321e-06 1.2995835958041170e-04 -1.2024366113247560e-05 -5.2697303779163032e-05 -9.4921224692288454e-04 -1.8856818128998491e-04 1.0202391089138077e-03 -3.3255635187817538e-06 3.5400371868494866e-05 -2.9524168554425148e-05 -1.6025866273798630e-04 1.7316425311634165e-04 1.8823886122563689e-04 1.5656725020294574e-04 -4.8119485512290944e-04 -2.1962879258314721e-02 -2.1553811751257577e-05 3.5090528520347741e-04 -1.7609059513322700e-03 -3.0134379975137732e-05 -1.8781278367107517e-05 -1.9475535148398603e-05 -1.4736312244190054e-05 4.4586574829275603e-04 -4.2810296096733660e-04 1.1615781295269672e-03 -1.2113717317651892e-04 5.3254312820005009e-05 -7.9615333596660755e-05 2.2709230429479444e-04 -1.2475967109195751e-04 -1.2028206512507608e-03 -1.3951831821555725e-04 -7.6159304881317418e-05 1.8137434981405944e-02 -4.8170271230510106e-05 1.5702661857194019e-03 2.2123636942239511e-04 -7.1787396674064007e-05 -6.1530269692461480e-05 3.4538142838698254e-05 -3.2823290994076702e-05 4.6017287722861116e-04 1.4615991226337919e-04 -8.2289177316735573e-04 -5.7139612058910712e-05 5.8856951775766782e-05 5.5203966387019324e-06 -1.4200928025241092e-04 -1.5141776120107661e-04 -1.1090122960969572e-03 2.0669958134589793e-04 -1.4227795369010666e-04 2.4192863309064824e-03 -2.9956732780843929e-04 -4.7802900107143031e-04 2.7315157789097322e-03 -4.0389288707568644e-05 -1.4805371039931775e-05 5.7260280954552650e-05 -2.4957517961829369e-04 -1.4900226685418509e-04 9.2066789811163542e-04 -1.4622427097150496e-03 -3.5439165984342904e-04 4.1572172121840615e-04 -9.0638063086746073e-04 1.5489334695613623e-04 -6.9483063058550136e-04 -2.0962227695393394e-03 1.2547039840169259e-03 -9.9546876583935895e-04 2.6695247731281894e-02 -2.9998047124980956e-04 6.1935471227425696e-04 5.4633568369010788e-03 9.7411718133220634e-04 -1.0051876718976845e-03 5.5433383565899790e-04 1.2739931703752477e-03 -1.5440052380722227e-04 8.4984178887429918e-03 5.2884184987431263e-03 -3.3283163517368037e-04 1.5924807153238391e-03 -2.4897216674238509e-03 1.4573428770678576e-04 -1.6626504797860274e-03 -1.2077534817243763e-03 2.8892368408029463e-03 -3.7180962371530690e-03 2.5969300267155396e-02 1.0894696281200864e-03 2.4275126679796171e-03 5.6838510168992218e-03 2.1756361310599041e-03 -1.7938374285404190e-03 1.4581797269303995e-03 2.9151004600998401e-03 2.3146683758049243e-04 1.5376804059290618e-02 1.0889684971084525e-03 -3.9374502129402300e-05 -4.3020187101009766e-04 -6.4308636913858316e-04 -9.7457855832159683e-05 -1.1261331368851712e-04 3.1207925638803711e-03 1.6863632964395168e-04 -8.9269518574611347e-04 -3.6772003804251938e-03 -9.7751436413688500e-04 -1.6086307101901135e-03 -1.0907764354184672e-03 2.2043006922824685e-03 -4.0566414694241161e-04 2.2889522181089681e-04 -1.8477607006646590e-03 5.9040851439903569e-04 5.6409048555189486e-03 -1.1792075079154309e-03 
      </Row>
      <Row Index="190">
        6.3306404519298409e-01 5.8401923258275673e-04 2.0342238495677845e-02 -2.5563900001223105e-03 -4.9274914516087565e-03 9.0775812813964282e-04 1.3168741095470579e-01 -3.3543587232633121e-03 -3.0660340865081293e-03 -3.7184290313125956e-01 1.0775927598654207e-02 -3.8905903152987309e-03 -1.9284132399006992e-01 -5.5007758205393642e-03 -1.6808521082598490e-03 6.9436426067023133e-04 1.3551434250292510e-03 6.3083505749011934e-03 -6.6616766412364165e-03 -2.9925517984702821e-01 3.7130700312244108e-03 -7.0604077305699842e-03 -4.1105503554007905e-03 -2.2918436436911716e-03 -4.3110218478020768e-04 -5.0876594880388898e-02 4.6976691041826883e-03 2.6281349389908892e-03 -2.3574607735518760e-01 -6.1891134656702762e-03 -6.5800175377068726e-03 5.3953430202972186e-01 -5.7462607323552628e-03 -7.6474793098531280e-04 -1.8539287721323350e-03 2.2238245469677707e-03 2.1096774129254481e-03 1.2203237233100267e-02 5.3870381135977574e-01 -1.0407149486129363e-03 5.8872309746027807e-03 2.8453613762818852e-04 -8.2857852495115403e-03 -9.0160224406383438e-03 7.1358043360578161e-02 -1.4140165885022538e-02 1.6331629764487959e-02 4.7083711488191682e-02 1.3897960197459286e-02 -1.0344664556037442e-02 1.0765245164976989e-01 2.3861290635962332e-03 -2.5894584273715715e-03 -4.5703114279602650e-03 2.4007297135946182e-03 -1.7571936626975676e-02 -1.9084249377679482e-02 9.9363382032100489e-02 -6.8332601603094123e-03 1.2721707389762194e-02 -3.0530524858787822e-04 -3.6083465222183086e-03 -5.6868793363932177e-03 -2.6221283441466958e-02 -7.7387263568324260e-03 2.1478964742514484e-02 -3.5966647689148168e-01 3.3161613611379370e-03 -8.2294263456160754e-03 -2.1607097702903388e-01 3.1482524322815481e-03 -2.2444041660761860e-03 -4.6165141308585900e-03 7.8277366319137731e-04 1.0332795115451043e-02 -5.8651302631467644e-03 4.9342774511790566e-01 -2.4384555217705106e-02 9.1085307231356660e-03 -5.0038361381576912e-04 -1.1337010838012862e-03 -1.1945380711367790e-03 1.6489019567227481e-02 -7.2384581364324241e-03 5.6055122560603188e-03 -3.4535854307957692e-01 2.7062350002791113e-03 -1.0058347467179485e-03 -4.4039154454637242e-01 1.3874984211616204e-03 -1.3832033020539924e-03 3.7414972476751407e-04 -3.8542818690041336e-03 -7.9927713554259761e-03 -2.8384254395820152e-03 -1.8632316926284576e-01 2.0033451342620218e-03 -6.2025240359436858e-02 -4.2634119971233370e-03 -9.5780547067270128e-04 -2.9434047587139633e-03 -4.2003821008510314e-02 -4.9186824428468501e-03 1.8066069757146717e-02 3.6887099243159194e-01 -5.2946092604245348e-03 1.0746768333792227e-02 -1.0126710775178438e-01 -1.9141418430576145e-03 8.6370979772087270e-04 -5.4556993006444027e-04 9.1025108639361182e-04 1.7287292980209153e-02 1.4190157664199468e-02 -6.6590685221439294e-02 -1.0801373184321506e-04 -8.7358954218884621e-03 -1.1778261124826273e-03 8.7788509677225179e-04 1.7380548159305398e-02 -7.7302996819453851e-03 8.0893158639518126e-04 1.4221792086009821e-02 5.0866735145593367e-01 3.5908653613924424e-03 8.8293439211209711e-03 1.3582659603195424e-01 8.6319609837856234e-04 5.8055984967072399e-04 -8.9704384512168112e-07 1.3474863264997024e-04 -5.0138682856080141e-03 2.7114986434211286e-03 6.7849863129624044e-02 -4.8721754194355760e-04 1.1232926930463523e-02 1.6132214425561599e-03 -7.0275951229784375e-03 -7.2786857707843322e-03 5.4108244570768849e-03 -4.8768886212368218e-03 6.7031417883976502e-03 -7.4651242867430023e-01 2.5533540562686710e-03 9.3589338660813905e-03 -3.7520929302147010e-02 1.3919599120027944e-03 -1.3093140155491856e-03 -3.9739423422294196e-06 -1.3894117484927063e-03 -6.5322915436485020e-03 -3.5360337092461419e-03 -8.0684602971151875e-02 4.5109267155881982e-03 -4.8302990710806072e-03 -7.5189655260933796e-03 2.4981812215236765e-03 -1.6733407087611563e-03 -5.2586902441479233e-02 -1.5875057212253463e-03 6.4406272232785337e-03 2.6810496091007252e-01 2.4295988741550121e-03 1.1992572471422491e-02 -2.5178493572778393e-01 2.3431205323138880e-03 2.4232227504523002e-03 1.9663559988334633e-03 -2.8855056258366707e-03 1.5498628608790810e-02 6.6384929750682442e-03 2.6753808562966097e-01 3.6427587881879622e-03 -8.1972693620961847e-03 -2.9313720588024809e-03 7.7971750396045409e-03 -2.4066081638733604e-03 -2.3239682690502979e-02 -3.5976953240404400e-03 4.4614442407465114e-03 -4.7215069736831672e-01 -1.1523661893690987e-04 1.3055643599730628e-02 -1.7275269995479192e-01 5.6874446818937175e-03 1.5339917229261636e-03 2.1799114972746573e-03 -2.3937897922755641e-03 5.0336631950973348e-03 5.2884184987399795e-03 3.2781841622451253e+00 5.6775357287443456e-02 -1.7618674002604884e-01 -1.5228197190214506e-02 2.8408002353440501e-02 1.1324002070958366e-03 5.4298625622205041e-02 -1.5124263704489410e-02 2.5237647395990034e-02 1.2546536950972687e+00 4.0039417828353657e-02 5.3576527118159495e-02 6.3767720370903191e-01 9.6769658116273999e-03 1.1114927097231574e-02 1.0936436747232058e-02 -5.8637495383513892e-03 3.5961621696480366e-02 5.7619129806499123e-02 8.9788256671281874e-02 -2.5860428663193422e-02 4.1908191243686756e-02 -2.4152874206890589e-02 3.0067100131459142e-03 -5.7877316265001442e-03 1.3529961189667825e-01 1.4521214396482744e-02 2.8543323598560683e-02 1.5082836316579951e-01 7.8106715270593874e-03 -1.7348986670793765e-02 -6.1526698455292544e-02 2.5574714488726030e-02 -2.3595302051739597e-03 4.2495359387701090e-03 -6.2907326097649263e-03 -9.1940879034766165e-03 -2.7924140252155883e-02 -2.0319839100901316e-01 
      </Row>
      <Row Index="191">
        -1.1238984333118013e-03 3.1983441754942138e-02 3.5676917848811995e-04 9.2708314759968810e-04 1.4037967401143769e-02 -2.2354578861004297e-03 1.6656433170833370e-02 -2.0700561049986316e-02 8.0009971972875432e-04 -6.8905339066986926e-03 2.3462393279962725e-03 2.8378348697521982e-04 -9.0225840748472841e-02 -5.3016346516874006e-03 -9.9952302959387639e-04 1.7740074181467856e-05 1.6248054361206292e-03 7.7559678933475694e-03 -3.1053670576066776e-03 -3.6143061419519618e-02 3.5205758301506129e-02 -3.6576926569163032e-03 1.0477227277203367e-03 5.3664830606214575e-03 -2.0312703842909896e-03 1.1246045565770982e-02 3.1178839387993321e-02 -1.0371185360785254e-03 -4.0697951707997282e-02 -4.3722538850142420e-03 -5.1077280965971250e-03 1.1593906669028442e-01 -8.6277139462671935e-04 5.0433555388207287e-04 6.5902545274305196e-04 1.0679572061943411e-03 -3.5567746372636155e-03 -4.2167160405718954e-03 1.1253263102230626e-02 2.4740695967256799e-03 8.0066217135016382e-04 6.3762433336431862e-04 1.0424950916534323e-03 2.8039273804370754e-03 8.2758146656973508e-03 -3.6628746745722474e-02 4.9795533772814538e-04 -1.9300436332930104e-02 9.1027391798778612e-04 -3.6472416443120714e-03 -1.8265893372307218e-02 -3.1329813022742577e-03 -5.7181920888231541e-04 -1.4069126445548728e-03 2.6392460775791840e-03 -4.5492479733607802e-03 5.0330955766269940e-03 2.3736308977643006e-02 -2.3714725242745750e-02 1.3418781622325307e-04 -1.6620545762030953e-03 -7.8571177265934766e-04 1.7135885452024633e-03 -1.1195563407856948e-02 -3.0873112503488745e-02 1.3382450261202605e-04 8.3713757944972045e-03 -1.6243691729292062e-03 -4.7958499268557359e-03 3.6975183817972379e-02 -3.5910085985136862e-03 3.6797216088219932e-04 -6.7095016299128368e-04 6.8289714223520107e-04 9.3419830391207048e-03 -3.8339006025269601e-04 5.0747520634717880e-02 -1.0504145820682315e-01 4.4232666685050867e-03 8.5998675979911954e-04 -3.2938709210199035e-03 4.4684201525798661e-03 -3.6227995780316311e-02 -5.6087000350306337e-02 1.6984538899056378e-04 1.1449430430633889e-01 4.2234795517297474e-03 9.1414765777773563e-03 -7.7552940289109529e-02 -6.5206448186555487e-03 1.2381151339457136e-04 -1.0992936997433408e-03 -2.0068056557615149e-03 -5.5089794878898646e-03 -7.3545808895947307e-04 -1.9262667701934855e-02 1.5785686360183057e-02 1.7891184081673672e-03 -1.2584909361901819e-03 -3.2709524091964481e-03 2.1092215528987785e-03 4.6457358256731113e-03 2.8936990795913331e-03 -1.5607852023510060e-03 -1.1666242410378051e-02 1.8174366074221720e-03 4.8441859262020239e-04 -8.5618240411537982e-03 -4.4998357597726777e-04 -7.2374765080444881e-04 -3.9403703902951207e-04 -4.6155205229462355e-04 3.0965054457749728e-03 -2.7465956011741123e-04 3.7887209428550950e-03 -9.4976746803523623e-03 1.0549606869904027e-03 4.5185276379680270e-04 7.4005875464059484e-04 -4.9813076507758611e-03 -8.6583317029817475e-04 4.9029311605536009e-03 -1.5135419073553091e-04 -1.2690580620585923e-02 -2.7565827107910168e-05 4.8766444252771966e-03 1.3729625966270476e-02 6.1266536478880211e-04 -6.7145358158007817e-05 -2.4100242898998647e-05 -6.0388465399383224e-04 -2.1612569810307569e-03 -1.9107465874523832e-05 1.0151994154611876e-02 -9.6035017231995631e-03 4.9027099919005460e-05 -5.4415278708144408e-04 2.8390024401809804e-03 1.2220208992650746e-03 -5.8325380046030150e-03 -1.0887520478892021e-02 -1.6201909561186132e-04 1.8349526373415109e-02 -3.3374801391506323e-03 6.4327022888291735e-03 1.7865576683124829e-02 3.7441118562960007e-04 1.9358220025101627e-04 5.7335835430065559e-05 2.8829855672330633e-04 -3.3283203882223441e-03 -2.1411516104224496e-03 2.7209456067844862e-03 -1.5992651813070136e-03 4.6326893526338385e-05 2.0263806450449909e-03 -3.2917228713430502e-05 1.0972388943453898e-03 -1.1571988056092997e-03 2.0644158291729386e-03 5.3062548921967308e-04 -3.5628816573343158e-03 -3.2224559595115574e-03 -4.4213384236517633e-03 -1.0640282163027592e-02 6.5209250216851939e-04 2.0799719142967563e-06 5.7573342106959080e-06 6.5003047055311319e-04 2.8214440477943858e-03 1.9366470895617049e-03 -2.8652042902508890e-03 1.2297108073962438e-02 5.6282961226824775e-04 -7.8259546731386650e-04 -1.2425847127713130e-03 1.8813462258609722e-03 -5.5682639275129488e-04 -1.7608996596372190e-02 6.9446977149788822e-04 3.2133892461566060e-02 2.5476283887920729e-03 -1.5961262235127801e-03 -8.9255230488896942e-02 -1.6880667156137670e-03 -1.1867447110328624e-03 -4.7673355075557777e-04 -1.4474210874004995e-04 -8.8161477960149864e-03 -3.3283163517365153e-04 5.6775357287435213e-02 2.6009595981525552e-01 8.4461421086903903e-03 -2.1255074249023620e-03 -8.8239216342642819e-03 5.9251671476540767e-03 7.0078184019162423e-03 -1.0755623420415002e-01 -2.0360987275749864e-04 -8.3888163901659762e-03 2.5912179043202921e-02 1.5346208634303606e-03 -1.3488257843943252e-01 -2.7447406802915058e-02 -8.6219378036191396e-03 -3.0043805659512087e-03 -1.5410115382309001e-03 -2.3122012249676579e-02 -4.6539458305273982e-03 1.2930857677504404e-02 -7.6070126035331392e-02 -1.6581945841489219e-05 1.6432176183280037e-02 -5.2790278285886026e-03 2.5621067634164262e-03 1.1820922358494787e-02 2.1886893515630362e-02 5.1576112715659081e-04 -3.7481434630462149e-03 -1.4928668981336081e-02 -7.7117958277451021e-03 5.5837771477201759e-02 4.4146310601098332e-02 -2.8238356885216271e-03 8.7915728531534490e-04 -6.9634605214021657e-03 -4.7167966375724381e-03 1.6030678678100142e-02 -4.7045763898405223e-02 
      </Row>
      <Row Index="192">
        -3.4646261684692189e-02 2.3058061976387340e-03 -5.7378104958231382e-02 4.7500784885937501e-03 1.7145782199634862e-02 -2.3523002523698992e-03 1.9971359756763229e-02 -2.8081762744327707e-04 -5.0215426475369723e-03 7.5967698245555937e-03 7.0368697539773331e-03 -4.8820355944162452e-04 7.9386304908687588e-02 -3.0619429472555654e-03 2.5706925762681784e-04 -5.4179545623235081e-05 -5.9415387326018643e-05 1.0122875354802094e-03 3.5728190436824861e-03 3.4073464432977207e-02 -9.7601371336552070e-04 1.4437870363252919e-02 1.0904869730223938e-02 1.5434399864412751e-02 2.0181052348395567e-03 -7.5390553743737154e-04 1.0892309280798773e-03 8.1583531543887866e-03 8.5025157047788014e-02 -3.3519973625423666e-03 5.0289937413152130e-03 -9.6773535928498688e-02 3.3620824647128452e-03 -3.6332964400142241e-04 3.0962845609663892e-04 1.2388740255339062e-04 -3.3950429287096240e-03 2.6715579849284216e-03 -2.4567101988411777e-02 7.1570376791652316e-04 -1.3234127662665185e-02 -1.4731326828656896e-03 3.1377878488932365e-03 1.7101274761060908e-03 5.6515021828357770e-03 7.8911617400873740e-04 -2.5179527618011538e-02 5.1110090197523661e-03 2.6945156298333883e-03 4.3242291913989650e-03 -4.7362507775090990e-02 -1.8040987355492210e-03 -4.1019190930913219e-05 1.2011290221834933e-03 1.5097204263082864e-03 -2.0593689028515494e-04 -6.3601115582032318e-03 -1.7917836117222308e-02 -1.6735757487225389e-04 -2.0435038620406170e-02 -4.8449137430843642e-03 2.8944303484254585e-04 1.2862869668255027e-03 -1.9462294270736341e-02 3.6192829588851949e-04 -1.9052824720520334e-02 3.4069163730965357e-04 1.0931721231034752e-03 4.4543709962677827e-03 -7.6793511318840046e-04 -1.8990499808150749e-04 1.7162341811486834e-04 1.0783712016838101e-03 7.7869401231108609e-04 1.8281523821296330e-03 -2.7184728286299767e-03 -3.5100916707032859e-02 -3.4301647579920713e-03 -2.3019384933191958e-02 -3.4970761959009777e-03 -4.1981829905737289e-03 6.5534159010746662e-04 -1.1441007312783802e-02 1.9114293337070265e-03 -6.3630425666245660e-03 -2.2325670699007816e-02 3.8537396541615809e-03 -1.4265166157599179e-03 5.2863855508103796e-02 3.3508495162735963e-04 4.8618454791799631e-04 1.4530677452231910e-05 -6.8478269077061615e-04 1.6927264358942984e-03 2.4430366498987000e-03 6.3927747475953201e-02 -1.9357579451348660e-03 1.5046901229034329e-01 2.6360965878861817e-03 4.8772247157985171e-03 1.7278033751849352e-03 5.4044805166153162e-03 -1.3434778996999218e-03 -1.6781350998373898e-02 8.7323821684888669e-02 -3.3242031512873138e-03 5.0440497868477902e-03 6.5373591127038111e-02 3.3561138486692052e-03 3.7376470991174436e-04 -1.1852239905103188e-04 -6.3743801024690244e-04 -3.2634405390158747e-03 -1.0235013008861120e-03 8.4042647913764590e-03 -8.9203864034990976e-04 2.1733463576422474e-02 2.1603352095461575e-03 1.5863821003916159e-03 -6.4306186614662003e-03 -3.5800072730947374e-04 1.1475096682985950e-03 -1.1907041869068519e-02 -1.6239810770342089e-03 -2.2395842053904436e-03 -4.7919168454592332e-04 1.8343919249717899e-02 2.8526441382763397e-04 -1.1898245460631451e-04 -1.4562324959394024e-04 -3.1139701823727902e-04 -2.0064695154784484e-03 -2.0069112915921394e-04 -4.8979383097784712e-03 4.1179583315724411e-04 -2.5991273225931741e-02 9.5537431379639787e-04 3.3931815168853022e-03 1.9288736213200312e-03 -2.9346235265631931e-03 6.5697367291131514e-06 -4.4299706384570234e-03 4.4718149781868860e-02 -3.5731737191573507e-03 -5.3552332149896312e-03 -2.0944501971619900e-02 1.7080232998196668e-03 -1.6524896281489259e-04 -7.1902734072359746e-05 7.0322299757071189e-04 -2.0559876024442289e-04 2.0242928708964075e-05 -1.2402940279194752e-03 8.2479355668435561e-05 -2.5541179157961293e-04 2.7722183845383594e-03 -1.9888707928593097e-03 2.0461365619910132e-04 -6.9044509198707416e-03 3.3590121443272114e-04 -8.8950140277865453e-03 -6.0572255096055905e-02 -3.3506813257739294e-03 -9.6751995361843424e-04 1.4872428519492331e-02 9.3179993794005687e-04 1.0903697265079310e-04 -4.1068688575840451e-04 5.6230318768885068e-04 -1.8302169632193888e-03 1.0165748151949594e-04 -9.2693047488827673e-03 1.6703536385967981e-03 4.3858267877324528e-03 -6.7318147536302901e-03 -9.6569241531203765e-03 -7.7901278633613069e-04 3.0487556498556140e-03 -1.8043549311916405e-03 -1.6541355365971819e-02 -1.0687993721590461e-02 3.6150919420411005e-03 -4.1712396481297254e-03 6.4469338670122056e-02 -3.2738095421280507e-03 3.0978245287924082e-04 -3.6160765616025385e-04 9.5426935424533944e-04 -5.0793792110037511e-03 1.5924807153221750e-03 -1.7618674002611368e-01 8.4461421086757804e-03 3.2619798654048016e-01 -2.7498049210777170e-02 -2.4728313752636354e-02 -1.0368116129849366e-02 2.4585395641378405e-02 -1.6322814224893140e-02 -9.1076369520204259e-02 -5.4225961158028246e-02 2.6501069895250834e-02 -9.6233877448571731e-03 -1.4196607018917007e-02 -1.6894314898406367e-02 2.5007161144383052e-03 -1.9949970186036070e-03 -8.9602471581558089e-04 -2.0670477847895406e-02 1.7923032103135547e-02 -7.5751822185424200e-03 -3.2625366060517343e-03 -9.0701635453966215e-02 4.9522681073541117e-02 -7.7220620872334696e-03 1.7447174940670167e-03 1.7669985408380384e-02 1.3679144931069802e-03 -3.1212558192695014e-02 -1.0085239220281327e-02 -1.4040736216393020e-02 4.4182024387287768e-03 -1.8058851969860769e-02 -1.3481574345710883e-02 -7.2566963316893565e-04 -2.8163838688340620e-03 -4.1869893354997655e-03 -7.6517122177015978e-04 -1.2139540043489484e-02 7.7482903817402124e-02 
      </Row>
      <Row Index="193">
        4.7993131259471689e-03 2.6308849844400468e-04 -4.3158136058680796e-03 -1.0509930251003413e-02 5.4894085685003563e-02 -2.3821843424093698e-03 -4.0942521087779932e-02 1.9783094860881707e-03 -8.6126995828489650e-03 -9.5155727460450645e-02 -7.8422135155185486e-03 -8.8926954777060890e-03 -1.5069858579713191e-01 -6.3387930245023712e-04 -4.7379531049409479e-05 -3.2424939178590882e-05 1.2481690338972673e-03 -2.7957634483175876e-03 -5.5170607682877154e-03 1.6634655081082750e-02 5.0919959400529818e-04 3.8235397557136175e-03 -1.0654173844000227e-02 3.7648465622976329e-02 -5.5101732670993775e-04 2.4624440083258425e-02 -1.9620927730999655e-03 -3.2405896965224806e-03 -2.6653832046792503e-02 1.1336877933816603e-03 -4.9450297797362652e-03 7.0411548719704342e-02 -1.5154208074676344e-03 4.3223262917013033e-06 3.9517243072654390e-04 2.7935588305872867e-03 6.3844028590975821e-03 -8.6989157580351500e-03 -1.8740838169409302e-02 -5.3008287809577564e-04 -1.9912668674286482e-03 1.0562128267489135e-02 1.2820485068843382e-02 -3.9304001270369787e-03 -3.6998956049206777e-02 4.2738398935322774e-04 -3.4262549295974859e-03 1.5491371607065929e-02 -2.2991328448432047e-03 6.2834004148037970e-04 4.4654780964698659e-02 3.7885002764017489e-04 -3.2696245953606207e-04 5.6155038489600316e-04 5.9566832371869410e-03 2.6705814259895128e-03 7.5085977504042549e-03 -2.0174399232119500e-02 -4.1392779672816404e-04 2.5067035841749435e-03 5.1132583816688865e-03 2.3590917017015128e-02 -3.2705081397276306e-04 5.2898796291410935e-02 -1.2069738049635959e-03 2.8447748351278362e-03 3.0269117680283841e-02 2.9417181501105519e-03 1.6382809529326345e-03 4.4762357573276290e-02 2.6946310281739452e-04 -8.2202306478247351e-04 1.2183090449549711e-03 1.4974242649742273e-03 -5.1428315129100621e-03 3.7326725635553060e-03 -1.7141937397642248e-02 8.7494052808861911e-04 -2.4849319986464113e-04 -1.4547811926748089e-03 2.8519142377627649e-03 -7.8650489727862677e-04 2.9076926465494396e-02 7.2589839336578699e-04 -3.7212592720903270e-04 -1.5129425999962365e-02 -4.0654551358421109e-04 -1.1187545167592877e-03 -6.6225567602543833e-02 4.7349356495664935e-04 -2.0383667036241032e-04 3.6351005328004449e-04 -2.0460205139730334e-03 9.9958617887882517e-04 3.9241712170445808e-04 1.6566217113629933e-02 -1.0020361823533386e-03 -6.1722219909216166e-04 2.4808770600345465e-02 -8.3095075222122255e-03 -1.6564732255951696e-04 -3.7632565866430906e-02 2.9042556957186109e-03 -5.5674206817718647e-03 1.8036593353567873e-01 -1.5298481279394441e-03 5.0722936827507781e-03 -3.0187982829067650e-02 8.4624804025961765e-04 -1.6837231765015614e-05 -9.8016271597426330e-06 8.0185123722665728e-04 5.4504421773090075e-04 -4.8198470378874123e-03 -2.3369001659263589e-03 -8.0048841642005319e-05 3.2370337669801463e-04 -1.8020117523575782e-03 -3.1054892382729807e-03 5.1837793785505515e-03 -9.8516018455629961e-04 3.4574789087721963e-04 -3.5751802454783155e-03 -8.2652665414000737e-02 -2.9728137294569162e-04 -6.1242904723571171e-04 -4.4436132123719219e-02 6.3163260809189371e-04 -1.2540351660722364e-04 -1.0685139383993791e-05 -4.4531584236949528e-04 1.7933803045697139e-03 -9.3780544491717244e-04 -1.2092349672701896e-02 -3.9237441395603700e-04 3.3245356693676967e-03 -3.4155379645678225e-03 2.4211044318554524e-02 -9.2533853344943170e-04 1.5014299765743172e-02 -2.2409489023533027e-03 3.6176122626165857e-03 4.8076047656861076e-02 3.4606171139943895e-03 3.4139481730025879e-03 7.9098253843930877e-02 3.0253121209816713e-04 2.5649266261125009e-04 2.5680814051387969e-04 -3.1718123082704339e-04 7.3570926968842001e-04 1.6362839044860578e-03 6.7005281555791996e-03 7.3340348286008578e-04 -5.1982892653392137e-04 -7.1769071316845137e-03 -1.5494331286962537e-02 -1.6884564756538406e-03 3.8916042237476162e-02 1.1530137315642897e-03 -5.3270140259367143e-03 -5.6921256065677106e-02 5.5283049203729495e-04 -4.4733403185526766e-03 -1.5605103501044937e-02 -2.0683178403803053e-03 -2.5202206037921136e-04 -4.4418728540183972e-05 -1.1826116797594571e-03 1.1577047012611974e-04 1.0896369237953230e-04 3.8667757010721338e-03 -4.4538236719797800e-04 -2.2270978194170901e-03 2.0152846203340936e-02 -6.0773397629813866e-03 7.9713263917077564e-04 -1.1822509156161971e-02 3.8890835897250078e-03 3.5981329233977354e-03 1.4553116007558475e-01 -4.1116992082775809e-04 1.8356316775022894e-03 -1.2470945665902633e-01 -2.7238275839891512e-04 -4.0514044055850939e-05 2.9832033602544133e-04 -4.7318084277360277e-04 1.0909099658379773e-02 -2.4897216674247321e-03 -1.5228197190203074e-02 -2.1255074249394296e-03 -2.7498049210794420e-02 1.6184746047176229e-01 -8.7804315248883352e-02 -1.1008097560081809e-03 -1.0569845812047451e-01 3.0970087527406459e-02 -2.8568678141616396e-02 2.3580704796721408e-01 -2.8416323573774695e-02 -6.0973313640192046e-03 -1.1794084997881171e-01 -2.6084609471322636e-03 7.3389989453965122e-04 -8.9640465248348906e-04 -3.9177602673057359e-03 3.4606081174378689e-02 -3.6565847678166855e-02 -1.0050586384215354e-02 2.9392447653790038e-04 -7.4511309685388553e-04 -1.1259060945866498e-01 -3.1189978176408319e-02 -2.4384633906290032e-03 -8.4315976671780715e-02 2.3618272481034340e-04 -4.7085173512012267e-03 -1.5662655260704851e-02 4.7967622999677377e-03 -1.8432402553570648e-03 7.3481105043529268e-02 -1.5450009393153386e-03 -2.9133648439157722e-03 -1.5839437286338746e-03 -1.7475171660710446e-02 2.8510856801565523e-03 2.2562352031222553e-02 7.1020912639393377e-02 
      </Row>
      <Row Index="194">
        2.9192472345442866e-02 2.4527381518853024e-04 3.5884472076815471e-03 1.0038394174736207e-02 6.6195694259315971e-02 9.3087845920784016e-04 -3.0609206087223072e-02 1.3881214948028946e-02 3.1012052951511215e-03 1.7786326342873049e-01 2.5146727472500248e-03 3.3419290267647159e-03 5.9716218494116013e-02 -2.2783436661461473e-03 9.2704830095519976e-05 -2.6918607138442293e-05 -4.9696776070988317e-04 -7.2210885960467246e-03 3.2111234782184004e-03 1.4580706328678916e-02 4.9699702503624814e-04 2.9774683181616884e-03 9.4089850458678459e-03 -3.6605145252917998e-03 1.6031465067331135e-03 -1.4977902590505708e-02 4.2461897004561783e-03 4.0667659394484842e-03 1.0501040539213524e-01 2.2779837654209600e-03 -2.0338960559818514e-03 4.4903626213130821e-02 -4.2727999558600108e-03 -8.7264912230441277e-04 -8.6213235465528587e-04 2.9881878804977678e-03 1.6457365381528380e-02 2.3613834013683915e-04 1.1849153049945577e-02 6.6948088119137277e-04 1.7507175613744388e-03 -1.9832781240108049e-03 3.4189803332047623e-02 -7.9030034319002573e-04 -2.3149930033145583e-03 1.0728619119054063e-02 2.6059549542682241e-03 -2.4405018216187235e-02 -2.3083685537107490e-03 3.6809535559717554e-04 7.2209069798834236e-03 6.7369876775763386e-05 2.1788422112702377e-03 -1.4373221149211832e-03 5.5447371510193855e-03 1.7689718124556109e-03 2.7412712963761458e-03 1.6542663017372727e-02 2.1385853149518668e-03 2.5584433746434834e-03 3.6201832592605843e-03 -2.3839202007184618e-02 -7.0918014524866402e-04 -9.8882849906560544e-04 2.1300985182361315e-03 2.5790577719351296e-03 -5.8669551111433904e-02 -1.0736283625257526e-03 -4.8140839956032182e-03 -3.5080421420868646e-02 -4.6240645202418190e-03 2.4004652719972048e-03 -3.1199145353396837e-04 2.5339008376689433e-03 -1.1352137395072862e-02 4.5639838138309321e-03 8.3674403637366002e-03 2.9333813284374011e-04 2.8071159929318051e-04 -6.3128938536077817e-05 -3.6251725183092387e-03 -6.9208906450092533e-04 -7.3327786246453752e-03 -2.6010562923341696e-02 1.7699626055855955e-05 -1.0632750711587313e-02 -1.1553099732682925e-03 -1.1693882383682699e-03 1.3553017622894181e-02 -2.7832176501675441e-03 6.0912445379483066e-04 5.3153772866481458e-04 -1.3130404665355443e-03 3.5193831448084995e-03 1.2545588042049693e-03 -6.6508861862671909e-03 -9.0062036980105391e-04 -4.1989884596447813e-03 -1.3986174477650250e-02 4.9114442418978721e-02 -9.4267408395207718e-04 7.1117678637849686e-03 2.8419612541273611e-03 4.2749698414758144e-03 2.4665038661192337e-02 -1.4828097087785522e-03 6.1286328187102300e-05 -7.4406236071724585e-03 2.2702695396322001e-03 4.2372690309857436e-04 -4.5454294715572798e-04 2.3535181481607395e-04 1.4725765024644045e-03 -4.1917660295690917e-04 1.0404202612375180e-03 -9.3285868535766120e-05 6.5361611995995439e-05 -6.1114188867233618e-05 -9.4413393158119217e-04 8.2836125490297341e-04 2.2304962505496559e-03 -4.7844258564859569e-03 2.4580327613361319e-03 -7.7271117307060155e-02 -3.3591074137542115e-04 3.2676020816785048e-03 3.7081422470343739e-02 9.3936112288377747e-04 1.7988292469433512e-04 5.5932905601834698e-05 -1.8664489842756403e-04 3.8604239048925792e-03 -4.1484126983210023e-04 9.3371853449336073e-03 1.2829677176656555e-03 2.5334643132810912e-03 7.4590604240721385e-03 -3.7264183950605510e-02 8.0952506136519435e-04 8.1500242361564629e-03 3.8207993148807601e-03 3.7925927384214553e-04 -1.0883152092394238e-03 6.0382214757822954e-04 5.5793532680504642e-04 -3.2286913933109673e-02 -2.3487618856853302e-03 -1.3607381803047872e-03 5.0776222621676617e-05 9.6427700420221034e-04 1.5888479949446410e-03 9.9244239515856435e-04 -5.9744602496274446e-03 -8.1138771744440272e-04 -1.0224170457270325e-03 4.7942081622261157e-04 3.0994379941869377e-03 -1.9585637705464565e-04 -1.0596708998590831e-02 -5.5021157297571732e-03 2.9250798987357532e-04 -7.9968430763077691e-05 2.8944056356478790e-04 5.0374612871046526e-03 -9.7571578309878504e-03 1.9124234995098518e-04 5.9363003876455964e-04 -1.6957884862896060e-04 3.3251921443659682e-04 -2.7137067157345096e-03 1.8943280750838287e-04 -4.9421734174774357e-03 -3.0072804411344651e-04 -4.6419899035849326e-03 -1.2169994705198641e-02 5.8599407064725870e-02 -1.4285365493091574e-03 1.3927601463019634e-03 3.8011298459621947e-03 -1.0805841906579654e-03 1.4643959060603778e-01 -9.7924599011240667e-04 1.5863176043249454e-03 2.0013809113073933e-02 1.8066872001777045e-03 9.5422002700087428e-04 -4.3974657634902002e-04 -1.3374949776989932e-03 9.3229565407444946e-03 1.4573428770614126e-04 2.8408002353414397e-02 -8.8239216342560524e-03 -2.4728313752635338e-02 -8.7804315248874304e-02 4.6774605337637681e-01 -8.9758576121396517e-03 -7.2277003026737230e-03 3.3636390759359938e-02 5.7098973870876625e-03 1.2916628197325553e-01 -2.9880931533990546e-03 2.3594637400515393e-02 5.8580569318493758e-02 1.7925166296681852e-02 3.2589268184336703e-03 -1.8145821596874286e-03 -1.4381771975535931e-02 2.9530790382420152e-02 -4.0165058380207952e-03 1.3836014424511434e-03 2.6119616240404247e-03 1.2099687273550448e-03 2.7858322633784294e-02 -1.6701452810125646e-02 -4.1416278314944377e-04 9.7213421259511462e-03 -1.5777028709151472e-02 4.5236066171661128e-03 -1.1610954221243782e-02 -2.2834291708577203e-03 -5.1744591358536818e-03 -2.3670750196827923e-02 3.6599272200810176e-02 9.3153783467294794e-03 1.2154770416930257e-03 -1.5218401391694711e-02 3.6530990136805983e-03 1.0982975651090358e-03 3.1403735971460317e-02 
      </Row>
      <Row Index="195">
        -8.6906487013056061e-04 7.5783234726531888e-05 1.7060989727596329e-03 -2.2091483196881798e-03 6.1427204204558827e-04 4.7712586579266886e-02 -9.5983914385279340e-03 -1.8943679693731626e-03 1.2232966267739162e-03 -3.7122610592383865e-03 -1.5763822427904018e-03 -3.9305163993128486e-03 -2.2185980210785328e-02 -9.0229352602355130e-05 1.3853167154158786e-04 -4.5496678238910382e-04 2.4521791704832686e-04 -4.2804930817355235e-03 -3.2096422936615746e-03 3.9630333966121367e-03 -1.3289973893661003e-03 -7.8261471770273844e-04 -2.7774420545887644e-04 1.5203485489689444e-03 -1.5523110758921006e-02 2.5571086596154549e-03 -2.9697334055984303e-03 2.0567386092665632e-04 3.4950273878130128e-02 1.2820769682161219e-03 -1.4097192935197261e-03 4.6282301812023974e-02 1.8266948003140280e-03 -6.4955309988943156e-04 -1.2560020207533634e-03 1.8555824361265313e-03 2.5952757693391004e-03 -5.0001466140591581e-03 5.8950807896745727e-03 3.2155668771559684e-04 6.8914869069008379e-04 -1.6300499874260157e-03 2.6220239457493133e-04 -2.4015774163729048e-02 1.6163626299275924e-05 6.7584935433395721e-04 4.3305699820687070e-03 1.3358627175399995e-01 -3.2863411492351502e-03 4.5437394726089986e-03 -4.8914122212124767e-02 -2.6355981082367367e-03 7.4802254270633223e-04 -2.4262497882134278e-03 4.6532482159651924e-03 -9.9029867202319460e-04 5.8460321319859856e-03 4.0854915731038943e-03 -4.1686856164345823e-04 1.7198064317168298e-03 1.3542814350666170e-03 1.2052881398076087e-03 -5.0930611812746947e-02 1.4224490568813725e-02 -3.6422662248069421e-04 3.0807991625978401e-03 3.1667437558253742e-02 -1.3211470943058634e-04 3.8264591520461438e-03 -1.2206627097540945e-02 3.5252514920481801e-04 4.6483358668364177e-04 -1.1494222248637463e-03 7.9789655476911192e-04 -2.1588632243052103e-03 3.5539099895509491e-03 -3.2797426396753426e-03 4.4653127023419614e-04 8.2967515767312650e-04 4.9909581273381576e-04 -6.2298669873489532e-04 -1.0936904260024893e-02 9.0745128660735253e-03 6.7728164487179665e-03 1.3895540457755651e-03 -4.7277652595173691e-02 9.6277406336217619e-04 4.4763348378738799e-04 -6.6099731233911108e-02 9.4305712555412154e-04 3.7199347244378997e-04 7.7901549173101450e-04 -2.4193152541624567e-03 2.4687934707247061e-03 -2.3145987192593753e-04 8.8278855194587891e-03 8.5104767940566428e-04 -4.9927730539607237e-03 6.5628701023240279e-04 -8.9556650270004173e-04 1.2136313777641242e-02 -3.7012719366991825e-04 1.6683234967884045e-03 3.5324828126470191e-03 8.9649207939620099e-02 -2.0738470091537240e-03 -2.2641327408813626e-04 -7.1790287598404223e-02 -2.4513584863046977e-03 5.9681293255419571e-04 4.7830082402276785e-04 -2.1252112039406041e-04 -1.5333390702700722e-03 -3.7001581300694373e-03 -3.1504477162649480e-02 -2.7060886551806412e-03 -6.8912989970026928e-07 3.0005240463871000e-03 -9.6457973503791348e-04 9.7126565784067337e-02 -2.4751727161550538e-02 -2.8696850269126859e-03 7.4139399655425292e-03 -1.3985526798996117e-01 2.3076817971521488e-03 2.1067621799421587e-03 1.0140723478035607e-01 3.9088480427985350e-03 -2.8304510422122627e-04 -1.5976539976448462e-03 -1.0886710760098044e-04 3.4434706550476313e-04 7.6201560156269332e-03 3.5884980188138349e-03 2.8091413047158162e-04 -8.2339612766378287e-05 6.8561998221219347e-04 5.0262778819901328e-04 -6.7666110895286471e-02 8.0879441526861065e-03 -6.8427982566507221e-04 -1.1784738016784081e-04 6.0989443920394355e-02 4.6519890242663169e-04 -8.4772514079616956e-03 -1.8649007071427803e-02 4.7531484410850977e-04 9.6099844073034980e-06 6.3021202368071614e-04 -5.6349458904272865e-04 1.9350594359190216e-03 -6.1075120076426164e-04 2.5211238112166079e-04 5.7399997160128419e-04 6.0857829184048648e-04 -2.8510862218132302e-03 3.5300648073680052e-04 3.6452254707150730e-03 3.2162280947419658e-03 2.1758261232028564e-03 -2.0665166297752756e-04 1.2881171529566471e-02 2.8591528223923450e-03 5.3835399524287814e-03 1.1753553420041030e-02 -4.2153141642611554e-04 3.5373428878318928e-04 -1.8752713928441370e-04 5.7225780912316393e-04 2.7001185225344893e-04 -7.7542584868699194e-04 3.7742129703002558e-03 1.1740087275251276e-03 1.6646139484444828e-04 1.3627586191973609e-03 -1.7104500642683418e-03 3.5522994314615683e-02 1.3455695560218826e-03 -3.3718931260429607e-04 2.8627865993878397e-03 7.0465864698547209e-02 -1.7891306495830691e-03 1.7580940191117968e-03 -9.1328015676264584e-02 -3.2404319559899311e-03 8.2779031689107980e-04 5.2552653321396919e-04 -7.6602703096377491e-04 3.8987085584978182e-03 -1.6626504797854344e-03 1.1324002071274597e-03 5.9251671476436771e-03 -1.0368116129837473e-02 -1.1008097560240848e-03 -8.9758576121306225e-03 3.8754835486156192e-01 -9.4949262522025790e-03 2.4079837067354001e-03 1.3473398162853008e-02 4.2027083957896672e-02 -1.4232790885727549e-02 -1.4509250737941935e-03 -9.6840433306528695e-02 -1.7860515094903870e-02 3.1229164515606911e-03 1.5126738075256926e-03 -7.2419314705075514e-03 3.2792608167584447e-03 -2.0379426775465052e-02 -4.4932298340361332e-03 6.8226076401233047e-04 4.4837478362462681e-03 -1.9164466828155965e-02 -3.5227924224862789e-04 -3.7081670721463768e-02 -1.1272296567748452e-02 3.1333535625198555e-03 4.3492822717653389e-03 -3.6190906158772218e-03 1.3763872131204807e-02 6.6575687591409263e-03 4.6611827205074535e-02 -1.1598169399860067e-02 3.4595168388157869e-04 2.0350093362180976e-03 -1.1829170891092398e-02 1.2813388219505110e-03 2.1691937479721847e-02 -2.9480761923901574e-02 
      </Row>
      <Row Index="196">
        7.7894098805969536e-02 1.4205533349935101e-03 5.1707621060770315e-04 -1.9381927570661650e-03 1.1159813805304619e-02 3.2233482786817036e-03 6.1379188188997069e-01 2.9639272377474102e-04 -7.7908104096336972e-03 1.5188880820947759e-01 1.2498393655772572e-02 -7.8387828029423678e-03 -4.0422470929685517e-01 -1.9111947726393956e-02 -1.4656415020425084e-03 -1.6099405623519469e-05 -2.2289988430330143e-03 -6.5885743607360631e-02 3.9906540133969326e-03 -3.2918200239768325e-02 1.2438544382653571e-04 -5.8646430483793033e-03 1.7194266572906861e-02 7.5288145560459263e-03 2.5593063825866125e-03 -2.0852819028291159e-01 3.9500356971790412e-03 9.4334778515159368e-04 8.0074572022228452e-02 -1.4857413314024459e-03 3.0012245898847212e-03 1.0817903890267644e-01 4.0555841074227938e-03 -3.1276267675378611e-05 1.0991247471781040e-04 7.6489437217826762e-03 6.1093233840414207e-02 3.0425381953009811e-03 6.9503793226543209e-02 2.4882246832182084e-03 3.5219396625911781e-03 -1.6140500986175338e-02 -2.7513634136966392e-03 -8.6270740982172800e-03 4.0253481557777349e-01 2.0621919891469220e-03 7.8692406263602965e-04 1.1882834744511683e-01 1.5314853080887092e-02 9.2934891814646647e-03 -1.0426234446990179e-01 -1.2340965572153639e-02 1.5110412510619398e-03 4.5501806845058834e-03 1.5155571713383886e-02 7.6930401257425673e-03 -6.5354886413185875e-03 2.2979682303926552e-02 -2.6979969843715645e-03 -4.5197368376987956e-03 1.0824903600304192e-02 7.0445446516989030e-03 -4.2571856567368560e-03 -5.4209202364321407e-01 5.3708829294851768e-03 4.1008921825782529e-03 -1.6438621210095761e-01 -7.9722631907145347e-03 3.4301043108894147e-03 8.1876987315695260e-02 9.5526359546213579e-03 3.9358114706235445e-03 4.4679561150988700e-03 9.7554049107421159e-03 -3.4910133177746605e-02 -6.3465889635242467e-03 3.3099096813295148e-02 -2.8899597390785736e-03 3.5603767519641893e-03 1.1627440871482264e-02 -1.3634710493825253e-02 -1.9485974164491215e-03 -1.7124014776220298e-01 -1.9203002306813488e-03 7.0306728153219922e-03 -1.0755104103640178e-01 1.5270025189177971e-03 -2.2985340552822420e-03 -4.3905624750948391e-03 2.7838151527462274e-03 1.3245786092408451e-04 1.5670934904290501e-03 -1.8567058000750203e-03 -6.2700368535351103e-04 -6.8196941598319682e-05 -6.5361036347741930e-02 3.4150217884421630e-03 3.6261945405561963e-03 -2.3968991386328797e-02 -4.9447286099701948e-04 -4.9830300800656757e-03 3.1121477538325459e-01 -1.1734218625963216e-04 1.0163976832221561e-02 1.8894633324738463e-01 2.5599684172027598e-02 1.1268950348803930e-03 -2.4479816576419466e-01 -8.6989617180607270e-03 -2.1420977149851084e-03 1.4743035854889314e-03 -7.0108456567376243e-03 -8.2920466888487671e-03 7.2948933611207481e-03 9.6748356264448887e-03 -1.1854571113434353e-04 -1.1658964088625545e-03 2.3581031350272674e-04 -1.3173024792597909e-03 8.8022633549829088e-03 2.0037021805283661e-02 -5.7216093015233227e-05 3.7340229663567204e-03 -3.4212575190629479e-02 1.4001844816894371e-03 -2.5342509467292176e-03 -9.6921620827686183e-02 1.2811866883000456e-03 -1.9964375808806389e-04 6.3726695697652325e-05 -1.7095651094942953e-03 1.9021926170163184e-02 9.9315653225851008e-04 3.5932988521654607e-02 1.2885979920778112e-03 2.0907390499414480e-03 9.3953443948471167e-03 -5.1968899408126462e-03 -4.7835598722282269e-03 -2.4290755969862066e-01 6.5634315767039153e-03 1.7960784631424441e-03 -5.7672858186646803e-02 -6.9618271726155367e-03 -9.1469356532459523e-03 2.7635794105111700e-01 7.7927092565991535e-03 5.4006504470468022e-04 -1.9202218194725243e-04 4.0848511982690232e-03 2.0584588425579073e-02 -2.1152365051927691e-03 -4.4098879330022100e-02 -1.0598424575968268e-03 1.9996378628349375e-03 2.4861545877102986e-02 -2.4149159508386475e-03 1.1556027227379584e-03 -2.0069343505987258e-01 -8.9228570054356027e-04 8.1668554323428497e-03 -3.5056483423453244e-02 -1.0838415681271472e-02 8.5595597422856162e-03 1.6847160615884604e-01 1.2954833575189825e-02 1.4837063411354823e-03 2.6249577058712337e-05 5.8487608260396895e-03 -2.2528152954823355e-02 -1.3527236873454029e-03 -8.0898489362374093e-02 -1.0804600200406411e-04 1.4569622934267751e-04 -1.9682663120481041e-03 -3.6389899919455834e-03 -4.0899232698637898e-03 2.4242699242164481e-01 7.6503582512196799e-04 1.2253487183091910e-03 1.9053421319385144e-01 -1.8653414232954676e-03 2.8434258935404882e-03 -5.0379453785296846e-02 -8.4130624188040893e-04 2.0922528714590466e-03 9.8812866387106013e-04 4.4641747200032736e-03 -1.1868890312257740e-02 -1.2077534817288293e-03 5.4298625622211105e-02 7.0078184019081169e-03 2.4585395641587016e-02 -1.0569845812046837e-01 -7.2277003026181841e-03 -9.4949262522135425e-03 2.1504509671755057e+00 -2.4406003314325027e-02 1.0394708880177699e-02 8.4871202172307769e-01 6.6616278541246771e-02 -1.2900580106504633e-03 -4.3660607115708672e-01 -8.7936366957257192e-02 -8.8548345367109038e-03 3.3572460603362303e-03 -3.8357957936632457e-02 -1.4796403672090799e-01 3.0663844697611270e-02 6.0546984107418211e-02 -1.9781886861223110e-03 2.8446082163649661e-03 1.1789616032708218e-01 -2.7887024994834031e-03 -5.3115511457105472e-03 7.7762736646445463e-01 -5.6831059085106217e-03 4.7916782832643501e-03 -7.0471297852387760e-03 1.9084726204047775e-02 7.2010480010569894e-03 3.3837984568812929e-02 2.1034231717695917e-02 8.1042091371779090e-03 -8.1104012665691866e-03 -4.3046966193205111e-02 1.6960279801892048e-02 -1.2974433882906025e-02 -7.5821033845288888e-01 
      </Row>
      <Row Index="197">
        1.3514715512311537e-02 -2.6227948352261388e-02 1.5188955907968482e-03 1.8674912742562902e-03 7.7880459103495392e-03 -3.8099440307099550e-03 -3.4145582972520197e-03 2.0674916456219050e-01 6.2740887892327735e-04 -6.4964788212559910e-02 -1.0844604264580171e-04 1.2485218227794442e-02 2.2188397459729448e-01 -1.5796815565805370e-03 1.0095912554960416e-03 2.5107485972907222e-04 -3.9977543536109730e-03 -6.2327799406346283e-03 1.7253037384813569e-03 2.3004300166490799e-02 -2.2150576381317386e-02 2.2234141020705533e-03 -3.9197307403069448e-03 2.8622263203625931e-04 -7.6045227223209277e-04 2.1938996735780536e-03 1.3352773465923756e-02 -1.8381266670771251e-03 -4.8254377786304814e-02 3.3514795630718575e-03 6.4169640446505860e-03 -3.8562562606372808e-02 -1.4290792363570091e-02 9.5856393445829802e-04 3.0922094912634590e-04 -5.2881439457739643e-04 1.5676073277703317e-02 6.1455755160148839e-04 -1.6696349582407066e-02 -7.6907044223951393e-03 -5.9431114617218561e-04 6.3824604510675370e-04 -6.0973762755928140e-04 1.5408095511209863e-03 3.5202871222571597e-03 1.3853864246830772e-01 -4.4263477821611386e-04 -4.1118188211809681e-02 8.5925176158335725e-04 -1.2042722350158241e-02 -3.3237020944412166e-03 2.9213725170096037e-03 -8.2481474502998919e-04 -2.7845140828736473e-04 8.5026956294071143e-03 2.0899529399593941e-03 -4.2122533430020634e-03 -3.7079449483569782e-02 -7.7158143647199084e-05 1.2930454009040665e-04 -3.2732409337231511e-03 -6.9623865427189680e-03 1.8697860644428174e-03 1.0364934486051330e-02 -1.1610717729156173e-02 -6.1723344248781897e-05 -5.1738737184976458e-02 4.3836407402484956e-03 -2.0441608933100680e-03 1.3867514304334350e-01 -6.6395836899155111e-03 -1.6801831307957441e-03 8.0470095844974165e-04 -1.8636322963864332e-03 -2.7776957074467923e-03 -3.2051100921643982e-03 -9.1067691612130020e-02 4.4467578764494031e-02 2.8895837474157415e-03 6.3472372924148757e-03 8.9376885068566114e-03 1.7304829416443651e-03 -6.7169418307271078e-02 -2.3346582662068327e-01 4.0490312945828943e-03 3.0116109428010773e-01 1.3639912249245878e-03 -8.4026421061924872e-03 -1.6023081081646495e-01 2.1519369041041854e-02 -2.5477919040663849e-03 -5.0981556234241943e-04 5.5761198677173190e-03 -1.2462303229134331e-03 -2.2494442254548108e-03 2.3208229342644993e-02 -2.6471008859219394e-03 -6.2575587378727593e-03 2.5686982705509787e-03 1.4126299100442052e-05 2.4755248849133021e-03 -8.9589629012912508e-03 7.1671086779990720e-02 -4.4339911081973243e-04 5.6057604692474901e-02 -2.5720208415333130e-03 1.9091350013741657e-03 1.2483673345991519e-01 9.0031514891901719e-03 -3.7035146336714814e-05 -1.3589103276456392e-04 1.6773074290774535e-03 -3.5416076496550073e-03 2.0537587346181017e-03 -1.0124743910581380e-02 8.0476859569639653e-03 -7.0339613432612857e-04 4.2718217932185415e-04 3.8954503083314142e-03 -2.1994898862194301e-03 -9.1237623940401691e-03 -4.1221753919330348e-02 -2.8724208190897271e-04 4.0308737684377149e-02 -9.0196962005709147e-04 -5.0260496468686276e-04 -1.6441035577539509e-02 2.7934552489448251e-03 -4.9093863689499834e-04 -2.5749250152969083e-04 1.4446905814225041e-03 -3.7340725476623371e-03 2.2195576874417533e-04 -1.8270772327217744e-02 -4.4761252414874386e-03 -1.1587183732502185e-03 -3.7045612407088360e-03 -7.1231628225204291e-03 -9.9839534669763849e-04 1.9799086764816769e-02 -9.8553698964707545e-03 -1.4511818724497662e-03 -1.0485968105459911e-01 3.9234490873169096e-03 8.1065336145929069e-03 2.4307517595403283e-02 -1.1610476641307179e-02 1.0572944980725921e-03 1.0121037331251234e-03 -4.7521642554534940e-03 9.2547856036841857e-03 2.3383626393866895e-03 -6.0934269864691970e-03 4.1385763453589269e-03 -4.0313264945848271e-04 3.0149930310005221e-03 1.4180136828669809e-03 8.9658910160389516e-04 2.6622926153659632e-03 -3.5274674050681409e-02 2.3383565505973405e-04 3.9907314459176391e-02 9.2030811724821602e-04 -4.2155566612822604e-03 -6.2568029011345061e-03 4.8564121823190384e-03 -7.0253647629350303e-04 -2.0401033717781097e-04 1.9519294647438734e-03 -3.5204260036572066e-03 -8.8270031979315045e-04 1.3092939095672662e-02 -8.4599865147140848e-03 -7.7370797188544733e-04 3.8814507678266519e-03 5.2952534717527928e-04 7.6771671823806136e-04 -1.3749238398501271e-03 1.1461623372900516e-01 2.4891896812643567e-03 5.3451132715660155e-02 -2.6438379449399488e-04 6.5802946694641477e-04 1.7685525360548127e-01 1.3157689047480188e-02 -4.2555245815039419e-04 6.5393559775913605e-04 -5.1366617259002764e-04 1.2488782204689020e-02 2.8892368408016036e-03 -1.5124263704434648e-02 -1.0755623420419280e-01 -1.6322814224946261e-02 3.0970087527399104e-02 3.3636390759355893e-02 2.4079837067097418e-03 -2.4406003314450364e-02 1.0430638698481800e+00 1.1714498765722225e-02 3.6570359347348802e-01 -1.4345420858592972e-02 1.3040990792829518e-02 6.2367813035983488e-02 9.9155448863083487e-02 -2.4687707191013708e-04 -7.9548649593699783e-04 5.7499990470544354e-03 8.1958956096071789e-03 2.0270861319243015e-02 -1.2905194079546489e-02 2.8275992241598671e-02 3.9260269919423295e-03 5.3848026561141848e-03 -4.3701621837467716e-03 1.2922579094177874e-03 -2.1369019283092292e-02 -1.3572055901622618e-01 -1.0043582632686676e-03 -7.5260341207473193e-03 1.2284853177941923e-02 -3.0376846018289050e-03 -2.9738657878197100e-02 2.2724783933203027e-02 -6.7181257004257262e-03 -4.6085096542045415e-04 -2.6842645565984258e-02 4.7857473752624113e-03 -1.5845766587860056e-03 1.2673806344047758e-01 
      </Row>
      <Row Index="198">
        1.3449553950981699e-02 -7.0269066235716798e-04 6.7945429369570820e-03 9.3899774014883641e-03 -1.7758181331200801e-02 4.3428714729424585e-03 4.6830213917952185e-03 -1.0867241421899446e-03 -7.7043955510455661e-03 1.8802609629634759e-02 8.3174112529821615e-03 1.1524047462013465e-03 -2.2517817190582878e-02 -4.8633851269471798e-03 6.2487649551740305e-04 1.0389407215163117e-03 1.5412315816173278e-04 2.4415839107412088e-03 -1.9087324917999669e-03 1.1478655162352691e-02 -1.6664775247529004e-03 -6.3843123840090499e-04 2.3291005199267889e-03 -8.3312357226219269e-03 1.1834513802493202e-03 -5.3309831646994044e-03 -4.3855178094022963e-03 -9.8327724564862967e-03 1.1770860288791596e-02 2.6124613433680804e-03 3.0086195547590622e-05 1.8588245976715712e-02 1.2585317139310812e-03 4.1302802416482223e-05 2.1283985092811208e-04 -8.9525480290906265e-04 -5.5161154272911073e-03 -2.4438521069596111e-03 -1.8546938576173289e-02 -6.0499942102815760e-04 -1.3936608107495523e-03 -6.7729961808704262e-04 -1.8209344775032693e-03 1.5794654785005052e-03 9.7071801895261545e-03 -4.7368962840527162e-04 5.1738591600358978e-02 -3.8098252666114885e-02 1.0746403784844677e-03 -1.1892333900547225e-03 6.5943354550483946e-03 4.7669119042682145e-04 1.9424462710999901e-04 2.9579427687654019e-03 -2.3104280933798557e-03 -3.0963894385307722e-03 5.1584323131489834e-03 -2.9814877784305249e-02 -7.9324440003904206e-04 4.7820113768362767e-03 -4.7164969315697663e-03 -2.6117943816869882e-03 -2.0503904639056197e-03 6.2167116722470633e-03 -1.3087808960631220e-03 3.1590313858858202e-02 3.5448127181103573e-02 -2.6405959479709196e-03 6.3919820265188887e-04 2.3223590277510198e-02 3.7582893677316764e-03 -4.8841149997000052e-05 1.2341991401956659e-03 -3.5648500660551835e-04 8.4095695756277733e-03 3.3547012239964653e-03 -1.9422422800820627e-02 3.3756839834757080e-03 1.4056557896595379e-03 -2.9374224084904588e-03 -2.0338974293672152e-03 -6.1751736894899434e-04 4.1530671542915065e-03 8.1396251609702208e-03 5.3466010790741425e-03 -5.3005508722737460e-02 6.8392803046746220e-04 -3.7703215927716305e-03 -3.0195202118335374e-02 -1.0410008910767994e-03 -7.6491375408883899e-04 -1.4651904447555986e-04 1.8219276035746149e-03 5.7464493040648712e-04 -2.2433019612472238e-04 -2.2071368505552913e-02 -1.6788991551223674e-03 -2.7788560435509504e-02 -7.7524651550879026e-03 1.8412678536451760e-03 -9.7102033386691280e-04 2.4665079502684401e-03 -2.2308592994742639e-03 1.0532856087051135e-01 -4.4126915223603978e-02 -4.0873353798674683e-05 -2.3920439783059510e-03 3.2928869604724298e-02 5.5038275813061414e-04 -1.4753764201603549e-03 -4.8234716734628640e-04 1.4732134493631983e-03 -1.0944204157188114e-03 -3.3752158870426910e-03 -1.6514049270801134e-02 -9.9474115756856274e-04 -3.6776747059611425e-03 3.0851772805466984e-04 2.9184810161638364e-03 2.5548470884417251e-03 1.2229141411544131e-03 -8.3501476908047489e-04 3.3734101593044741e-02 -3.3109341602531650e-02 -3.1017654147445090e-04 1.4439334696020843e-04 5.0114737464101111e-02 2.0016462549713003e-03 -1.9716821054945738e-04 -6.6800134857162435e-04 5.5064318098913922e-04 -3.0698468774097432e-03 -1.4013762450882927e-03 -1.3099075301396423e-02 -1.2464948298086739e-03 4.9902370970949413e-03 -9.0318081628487949e-04 -4.3329777827638520e-03 -6.3624363149239645e-04 4.6712988125674482e-04 -2.4145026003588206e-03 -8.9727280910635743e-03 2.4819874775567741e-02 -2.4558896646855941e-03 -3.7097184047355826e-04 1.2149284613165889e-02 3.7513616922027690e-03 -1.3702836378641232e-04 -7.5819063077324999e-04 -2.7981573096525565e-04 1.0874832741716253e-03 1.7878989709164562e-03 -2.6563800179775221e-03 5.4274500405760567e-04 -3.8718351774519300e-04 1.6023786960314111e-03 3.2264296476955390e-03 -1.0454891399166999e-04 -1.3133756860070761e-03 1.5431505339306151e-03 1.6553180089160915e-02 -1.7596919173499259e-03 -5.1018889469577177e-03 1.9551983154857400e-03 5.1928540840187054e-03 8.8939156240350464e-04 -1.8196381055998311e-04 2.4255738237705451e-04 -4.5378408807382475e-04 2.3900939751764216e-03 -2.8025095569614300e-04 1.3059445927676661e-02 1.5565396330884610e-03 -8.7300984633096393e-03 -2.3170157020029353e-03 -1.8029605074620695e-03 2.3429385317744905e-03 1.4300569843383251e-03 2.9778924279240922e-03 3.6625676983845376e-02 5.1271187799781126e-02 -2.8186786062498088e-03 -7.7466506194780096e-04 -2.4781960550171789e-02 -3.4955045037360797e-03 5.0773165289881030e-04 1.4565047861596187e-03 -4.9787027315018615e-04 3.2314309567246791e-03 -3.7180962371523734e-03 2.5237647395934371e-02 -2.0360987275228754e-04 -9.1076369520192074e-02 -2.8568678141594681e-02 5.7098973870863962e-03 1.3473398162865514e-02 1.0394708879929770e-02 1.1714498765720144e-02 3.5331368105578803e-01 -1.6484573002462843e-01 1.6399117902153884e-02 2.9814877548367709e-04 3.0406338006663702e-02 -2.7666366199830480e-02 3.1908555511281876e-04 6.1486310950330456e-03 2.5256354096443072e-03 -4.2140711427367181e-03 -2.9481735896217252e-02 -1.3377526878725621e-02 1.5113466461932658e-03 1.3159462514782455e-02 4.2445413218370559e-02 8.1612203589163917e-03 1.3252184401777549e-03 3.8406440054829308e-03 3.7404414706398992e-03 5.1667444025390342e-02 -3.0824060071253405e-03 -2.2009341243364081e-02 2.6792208917919870e-03 -8.1156728493828531e-03 4.9429074749286067e-03 3.7126759608936584e-03 -3.3436139266544342e-03 9.0891613090286760e-03 -1.6762311081393935e-03 1.2445206578939027e-02 -6.2827695718848664e-02 
      </Row>
      <Row Index="199">
        2.2787017203683124e-01 2.3426055339253127e-02 -2.4633527220085938e-03 1.1656299874970966e-02 -2.5747359421558258e-02 7.5369327353766891e-02 -1.8857900689317453e-01 3.5113866341382360e-01 -7.1900488533090279e-02 1.6869574586951416e+01 1.6744725365062552e-02 -3.9270890891313748e-02 2.8634315646544337e+00 -7.0852077271506456e-02 -4.0089028695455831e-03 -4.7381294793882867e-04 1.8665382511009465e-02 -2.4761359212640333e-02 -3.2831394570155714e-02 -2.2686315917155042e-01 2.4187636247275046e-02 1.9040062644212874e-02 5.2683610017371079e-03 4.5015980856710769e-03 2.0525237666264573e-02 2.6504158815876089e-01 2.0607919486394752e-01 2.1971569968079141e-02 3.5359973409222469e+00 6.3340035893729052e-02 -1.1602014606031830e-02 9.2114887821480806e-02 -6.4416877507451398e-02 3.3645400763671063e-04 3.6616107679940946e-03 4.4825673473979782e-02 1.0349103754844613e-01 -6.7661800149987350e-02 3.6261326284771656e-01 1.3884408728200778e-02 -3.2921192400499066e-03 -1.4122440727673435e-02 -1.8825589106118201e-02 -1.4226126865333555e-01 -2.5038470372617638e-01 1.8171213093789884e-01 2.6535032790653279e-02 4.3353327390653646e+00 -6.0288205671786166e-02 2.1543536413588527e-02 -1.5150433166029416e+00 -2.5317705965069770e-02 -7.5839917961033620e-03 -1.1312381121929782e-02 1.0102956212081526e-01 1.2850540236484242e-02 5.8138015595601944e-02 -1.3955200420869573e-01 1.7763002988604448e-03 2.4860480790822148e-02 -1.9663841123161774e-02 -1.4381660961895193e-03 -1.2322384426194311e-01 3.0620321695721309e-01 1.3700750601143952e-02 9.8837658417689767e-02 -7.2716011784541479e+00 1.2529641754667864e-02 1.0981239540130527e-02 -9.7307347896094143e-01 -5.2097944977835819e-02 -1.2150851907780202e-02 5.1323456332950101e-03 8.5715568412694232e-03 -5.9708172986958630e-02 7.6600084314804029e-03 9.7867216583523486e-02 -4.8319721927512660e-02 7.5282724067031737e-03 1.6624245517663283e-02 -3.8595390417619058e-02 -3.2667317815177510e-02 1.8789799004392904e-01 -7.6877974902292578e-01 5.8856150714916566e-03 -1.3407648773298888e+00 -1.3510461181578393e-02 1.6720849503830237e-02 1.0253333740934067e+00 -2.2153992436988013e-02 -3.0482021256843517e-03 5.6211880927401481e-03 -2.5527368679609364e-02 -2.4152035995850696e-02 -1.8106201554825674e-02 5.3018749733070081e-02 -1.6133376700494084e-02 -1.7845030995669205e-02 3.1537444620761690e-02 2.0447335248950260e-02 -6.4803469923087498e-02 3.5771857748503333e-02 -1.1035110033155160e-02 7.6497563583206585e-02 1.4759178609731524e+01 -3.4146638774137372e-03 -1.3922223359449815e-02 1.9970927963128133e+00 2.9069261438769978e-02 1.9783775342734344e-03 7.4966793456196501e-04 7.3675178110683137e-03 -4.7632204697165004e-03 -7.1101880053664190e-03 4.0410988370524592e-02 -2.4781241976609358e-02 1.0197395880606308e-02 -1.2933299999512649e-02 -2.2332130054362187e-02 2.5977583379515412e-01 -2.8084470321093224e-01 -1.1217194908158357e-01 3.0304476386006307e-02 -8.4671895140838842e+00 -3.4240482172244846e-02 8.6019848547255112e-02 -1.9985669448066119e+00 2.6905057402857119e-02 -7.5829606507870073e-03 -7.7846353335568885e-03 -5.1661014051815057e-03 -8.1512209296299432e-03 -1.9979573650388716e-02 -1.4652532866760737e-01 2.9086247357923423e-02 2.4648831787835723e-02 1.1278832254105392e-02 3.1276561116987511e-02 -8.4520704094352639e-02 2.6269781192417030e-01 1.3380246374847937e-01 7.5535033720698863e-02 -3.4508953958042863e+00 6.9964937141067329e-02 -2.7499261701821598e-03 4.1803043119671202e-01 -2.9172572266391139e-02 3.4678866438918841e-03 9.6644144454228892e-03 -1.2608797164450347e-03 -3.8081524323482288e-03 7.5243742494006671e-03 3.1462511983079366e-02 -1.3343324958873470e-02 1.1049491476246287e-04 2.0909313511928707e-02 -5.6874813273559255e-02 -3.9246278008982394e-02 1.1119170288034308e-01 -1.1664383519341825e-01 -5.6613035734786182e-03 -3.9379472698405067e+00 -4.9215281585423327e-02 7.0714234571850554e-02 -1.3228586101236033e+00 2.0683197514565654e-02 -1.2005213501711243e-03 -7.6205793656403120e-03 5.7524526438346157e-03 -4.9576811732556791e-02 -1.9848454972265728e-02 2.5296877074115542e-02 -1.1016339243782314e-03 3.1755421899558822e-02 4.5653701593693329e-02 7.0833410854493684e-02 -1.5658885444014080e-02 5.2896546134519651e-01 1.1958270207105048e-02 2.0245434923950201e-02 2.2309290051695328e+01 6.0263785816106585e-02 -1.0551745558346370e-01 4.8109706602740516e+00 2.9496685101335136e-02 -2.6350251221602221e-03 2.4015743569142239e-03 1.3475577869857230e-02 -5.6060287003349751e-02 2.5969300267111251e-02 1.2546536950954206e+00 -8.3888163911849389e-03 -5.4225961158573810e-02 2.3580704796807850e-01 1.2916628197278718e-01 4.2027083957804745e-02 8.4871202171339810e-01 3.6570359347396830e-01 -1.6484573002528435e-01 8.3598148496502674e+01 -1.4162324231133300e-01 -3.5174978704743487e-01 4.2420863960162478e+00 7.8493199102477984e-02 4.1074694520831789e-05 -2.3773309111818838e-02 -1.6879659152729085e-02 -1.0838864669979797e-01 -8.7984639779106477e-02 1.4800841418717425e-01 3.3574701989111215e-03 2.5002249983428204e-02 2.2867758687898920e-02 -2.6895865185127349e-02 -1.2432659423309209e-01 -5.1139053526023359e-01 -3.7568520943483197e-01 8.3876769011082652e-02 -1.8348309596482728e+00 -1.4908056443759010e-01 -3.9448975214581350e-02 -1.7147512707181538e+00 6.1759012873404617e-01 -7.4696847397859312e-02 -8.8197473736097987e-03 -3.1091627105218056e-01 8.2444147876576945e-03 1.9753597651884972e-01 4.0772321950291506e+00 
      </Row>
      <Row Index="200">
        8.2852623224879546e-03 1.2478155392475279e-03 -1.4886745862197903e-03 2.5661590025689816e-03 -1.0286050531360280e-02 6.4401962396452329e-04 7.7084136773514875e-02 -3.7644083689731614e-03 4.1041207209105285e-03 1.7318051402374079e-01 7.0717717191095625e-02 1.8234444884820122e-03 1.1183213131563940e-01 -5.8882494641901133e-03 4.4497190324636893e-04 -5.7823505278941333e-05 1.5337636042546468e-03 6.3038103763598651e-03 -2.0367264547499313e-03 -4.8067451236143310e-02 -3.7396946390150718e-03 -2.3284372978771006e-03 1.3889163490468008e-03 -5.4129833096948077e-03 8.9826977899352956e-04 -2.0344852975403033e-02 1.8568629893695606e-03 1.0362315916664921e-04 7.7674243352504613e-02 -4.3856909870562122e-03 7.0975365841727256e-04 -1.2638829216828640e-01 -8.3470653934411207e-04 -4.2433916764630236e-04 -2.9624920480229855e-04 2.4614107461603521e-03 -8.8156995395438364e-03 -1.9679617124510884e-03 4.7394376143777062e-02 9.0713813816335558e-04 1.8540921073110089e-03 6.4346504669101148e-04 -3.5575375124447250e-03 -1.5609046943102500e-03 4.6384732108059268e-02 -2.3314645081865051e-03 5.8156244790332212e-03 -7.9221590290900146e-02 2.3643371143717826e-02 1.4652837680054875e-02 -3.9796571374200340e-02 -3.7395762510045814e-03 -9.1781834942961105e-05 1.1765518455215604e-03 7.2046364813602437e-03 -2.2243163092205975e-03 2.3243566166271795e-03 3.9091904820576229e-02 -1.5751687652680313e-03 -1.6041642551052199e-03 1.4190683985964708e-03 -6.6708308834989571e-04 -2.2566103292188250e-04 -5.8327867903163855e-02 -2.9185248397828323e-04 3.8624370170698280e-03 -2.8358820017764685e-02 -1.5375764782013968e-02 1.4700645338222983e-02 -7.9024528092190849e-03 1.6156001306377524e-03 5.5664696096740726e-04 1.3523502743755245e-03 3.0956400576169912e-03 1.2139594744247195e-02 -7.2409647323752602e-05 6.3180193921705818e-02 3.1646187371305312e-03 -2.3294142808875096e-03 -3.2638993756458901e-03 -4.4860585731087976e-03 -1.2221803919346130e-03 -1.4273928155618315e-02 -6.1655310347425996e-03 -1.9830000740561626e-04 -1.6091268029488504e-01 -3.2469165741474237e-02 -4.2487802963700472e-03 1.1927953903148492e-02 -2.7095312447314238e-03 -4.6861185350188794e-04 4.2939215602906533e-04 -2.5446349905853469e-03 -4.4428695486020686e-04 1.6706470744981550e-03 -6.9950656402493872e-02 2.4210138478720881e-03 8.5522611517231395e-03 -6.7362667752231941e-03 -6.3382842758863411e-04 -2.3505480911490597e-03 1.7791132959034103e-02 -8.9096660371387531e-04 7.7122643572006024e-03 -5.0809783105719444e-02 -1.4327553741221315e-02 -1.2541349586347788e-02 3.1041030842408723e-02 -6.2702356823523611e-03 -7.5110214372087897e-04 5.5224653649379801e-04 -1.7845857421121332e-03 4.6860485246852501e-03 2.3142506317751894e-03 1.7089300309174327e-02 4.1547580117060751e-04 7.5154980635239177e-04 -5.1339872944354548e-04 -5.5115272525679999e-04 2.9376711791583021e-03 6.7292392507651427e-03 6.0044712022551405e-04 3.3114135356285823e-03 -1.6120745566709349e-01 -1.1503765520160900e-02 -1.0577085405690509e-02 2.5192918868212288e-02 1.6882954484523718e-03 -2.5138200263133750e-04 1.5249278562151636e-04 -1.4650879832050264e-03 -1.5732893826710947e-03 9.5801385643801140e-05 3.7750702025802774e-02 -2.0726664481676149e-03 -2.4420786735972408e-03 1.4743509323145339e-04 -2.6754843242827783e-03 4.2615681128119545e-04 -1.8034970576303599e-02 5.4503347267253408e-03 -3.3211100549866987e-03 4.8412985688734894e-02 -3.7523751817089848e-02 -2.7949483748420302e-02 -6.1979251054367523e-02 2.3281152616210429e-03 -5.6027492845030994e-04 4.9649494510829988e-05 -1.9261833321099469e-04 1.8916012093334776e-03 1.7819172846045110e-03 1.6003158906734427e-02 1.8317410020581293e-03 -3.4317399530459872e-03 -8.2925068342131203e-03 -7.3736656881341900e-03 -2.7501246054420364e-03 -3.4369149465792032e-02 1.2943997917204353e-02 -1.1322303990971882e-02 -3.3014524347772412e-01 -6.0909836196803541e-02 -1.5383521392936639e-02 -7.6232699971708229e-02 -9.0693518744231656e-03 -2.0782298894598400e-04 2.4980143754477213e-04 -4.0993309559087115e-03 6.3430028111003400e-03 1.7902085658114131e-03 -4.8092167854627221e-02 3.8386555983891176e-03 -1.5922026428072302e-04 -3.4321438460152053e-03 -9.6360707236940344e-04 -2.9077747815598968e-03 -6.8879643889760075e-03 -9.9128537286164754e-05 -3.5321878190103422e-03 2.1212192061661084e-01 1.0459850310619655e-02 4.3221735686177938e-03 1.2499130401828040e-01 -8.2606154780318422e-03 7.7806534449818853e-04 3.7103266777747555e-04 -8.4030200970768216e-04 -9.8246903149874498e-03 1.0894696281142325e-03 4.0039417828278578e-02 2.5912179043158443e-02 2.6501069895261992e-02 -2.8416323573764099e-02 -2.9880931534295848e-03 -1.4232790885738276e-02 6.6616278540883533e-02 -1.4345420858580649e-02 1.6399117902190386e-02 -1.4162324231044754e-01 3.2822860482530103e-01 1.5103446920003427e-05 1.1265338781842971e-01 -5.7068772887401836e-02 1.8013618976500667e-03 1.4386970351090711e-03 -1.4200020353961541e-02 -2.8022399190927028e-02 4.2242551952315077e-05 3.8106247952373773e-02 6.6562630843296638e-03 -6.1553346498538046e-03 -3.5027003080102814e-03 3.0539761813788389e-03 -7.5055496681576683e-04 8.6028480864825577e-02 -4.3328793453780989e-03 6.2721174428966991e-03 -3.3035089472568266e-02 -2.5689483106277766e-01 1.9756151266029032e-02 -7.6969624310260276e-02 2.8777496357018852e-02 2.2790505123493872e-03 -2.9727866659340365e-03 -1.7479357116677564e-02 -4.9955253965766264e-03 6.7859536894786521e-03 7.8856328493693589e-02 
      </Row>
      <Row Index="201">
        -8.2569541148153902e-03 2.7251493765130183e-05 -3.4164490445304230e-04 1.0020940747142611e-03 -2.2477706317705626e-04 -8.1951971936818991e-04 -2.2685276385408324e-02 -4.1357689737152800e-03 -3.2379005547910553e-03 1.0128130786539602e-01 -3.2964870991512730e-03 2.6113308231409310e-02 -8.8951463177182610e-03 1.0228494691955463e-03 3.9031658678662252e-03 1.4350564756378855e-04 -7.5705291287082623e-03 -6.9530759622235764e-03 4.1750003981848201e-03 -3.0226411153384591e-02 6.2532841868519207e-04 1.1613191242273446e-03 -1.7484495458219144e-03 -4.4676057570392225e-03 -1.1345051644920251e-03 -1.2007878891066304e-03 -7.2282502350663243e-03 7.7090428190068616e-04 2.1813105796873788e-02 1.1050322456758604e-03 -2.1604119767536373e-02 8.7951545298565748e-03 -1.7733019137153010e-03 -2.1296989330245996e-03 -1.8854700932359469e-04 -1.2606454371188662e-03 5.4723342157177446e-03 1.9980814997290833e-03 -1.4362134823097672e-03 -2.2570050025446796e-03 1.3801682031487975e-03 -2.0686522757309006e-03 6.7171020789677516e-04 -1.0041044173306757e-03 -1.0427527022822070e-02 -1.0336968701893032e-03 1.9458178650510957e-03 -5.5404590919494012e-02 4.2430050646866807e-03 6.9634911003075117e-02 1.5498409623958054e-01 6.8126905999743581e-04 5.5822155952030272e-03 3.2882617702959666e-04 -9.2640741339239940e-03 2.5960143448019030e-03 -2.9847160761798663e-03 1.3365941023124606e-03 -1.8175419094599646e-03 1.8213425284524104e-03 -1.7787020275634308e-03 -4.9059092130516457e-03 -1.0176496516049183e-03 8.0765978434727270e-03 -9.0791993755234834e-04 4.4247608487321122e-03 -7.9753778445599721e-02 6.1467059512571240e-03 1.6230432236014489e-02 1.3063560144676245e-01 -1.4800988616761358e-03 1.1146155402571337e-02 2.4969080537690092e-04 3.4587483045653913e-03 -6.2044114668251826e-03 5.4764306059858561e-04 2.1846724072009049e-02 4.6433409669266457e-04 -1.6616987700010522e-04 1.7100965524455281e-04 -2.8619410574363124e-03 -7.7083209704051359e-05 4.2880950938098683e-03 1.9606293660617280e-02 2.9074052122868288e-03 -3.3003986428351340e-02 4.7528612110842028e-04 3.1547326446151693e-02 5.1539740523509181e-02 -1.7409340940611057e-03 1.1358484498223617e-03 -3.1841022062044366e-05 5.0481356990781240e-03 2.0917429540068255e-03 2.7977088582908927e-04 -1.9419337295229266e-02 6.0428294082646647e-04 -3.2920901384001040e-03 -1.1742670911052133e-03 2.8903297512814091e-03 -1.6465602233634389e-03 -8.7671809339821410e-03 1.4653465727811643e-03 3.4401337488102063e-03 2.8752633839943739e-02 -2.5392538998852254e-03 3.6245995643701942e-02 9.1231438519693064e-02 1.1569526860935337e-03 2.1134735927731511e-04 7.0181227845907287e-04 -3.7285555655575068e-03 -1.5629077541359599e-03 8.7924192284813624e-04 1.3350612118840033e-02 1.3817987293623379e-03 -1.2203669684555385e-03 8.0902555580685681e-04 1.8739400580387328e-03 -7.0407160849217387e-04 -6.6967074793986420e-03 4.8366348214308533e-03 9.7601892446134986e-04 9.6073326043117468e-02 -2.4207774212847144e-03 -5.6592606293777860e-02 -6.2008398510355889e-02 2.3064317138536943e-05 3.4460228185755632e-03 6.6575264013527674e-04 -2.2078645080656320e-03 1.6252654882479289e-03 3.7349951868542730e-04 4.0416873292403732e-03 4.1356335916016562e-04 -1.0816490283812805e-03 6.7557228064048756e-05 1.5841378634094926e-03 -2.1545428848033701e-03 -1.5309871651015831e-02 2.4631214574991137e-03 -1.7064325814503370e-03 2.3811352229661434e-01 -6.9030482243780042e-03 -1.6033464374987821e-01 -1.2890165359010197e-01 -1.5234428071627375e-03 7.2223039319426119e-03 2.6341373719606948e-04 -5.9238034920667537e-03 3.5652101519380343e-03 1.1809463681317009e-03 6.9727625345139543e-03 -8.4938294811161275e-05 3.8290249016114828e-04 1.2100099521479175e-03 1.3864488743494385e-03 7.2903513466671122e-04 7.1814319269496996e-03 4.1966065919417650e-03 1.4777581769361240e-03 -1.1435695942725976e-02 -1.9233659332186319e-03 2.9493869987115395e-02 1.1119862216294152e-01 -1.5187877584313478e-04 -1.0374395095203819e-03 1.5643235607103179e-04 1.0522430084477230e-03 -2.4101188083620606e-03 -9.6383645787187500e-04 -9.4551405959314438e-04 1.1378198364506847e-03 -1.1806632690540947e-03 -1.7875729987775657e-03 3.9577133073173832e-03 -1.2657449304542367e-03 -2.5224025079945839e-05 1.1844712321334729e-03 -6.0612081115285401e-04 6.9046620441113316e-03 -9.0901585714187050e-04 1.0956795075607913e-01 7.3572682710546289e-02 1.8227299446972856e-03 2.0146950128296657e-03 1.1321658449161692e-03 -3.9583010110812479e-03 6.0942422736533705e-03 2.4275126679800048e-03 5.3576527118176176e-02 1.5346208634122518e-03 -9.6233877448730146e-03 -6.0973313640230592e-03 2.3594637400517728e-02 -1.4509250738070426e-03 -1.2900580108679560e-03 1.3040990792817161e-02 2.9814877547901242e-04 -3.5174978704714843e-01 1.5103446902468842e-05 5.6009969957714256e-01 4.0666773593476790e-01 1.3225026532963733e-02 -1.6219762750920557e-02 4.3878265387117168e-03 -1.9965476804772286e-02 7.7344493173041613e-03 1.3265991433375401e-02 4.4883628973442224e-03 -5.0869272892019174e-03 1.1029870961662353e-03 8.9925726337975811e-03 1.9068106702624689e-03 -4.5338141790851887e-04 -1.3781043628544057e-02 8.5803565168945974e-03 2.2822939346505249e-03 -4.7238420110084656e-03 -1.9890139329322140e-02 1.2015082744488320e-01 -1.2406352013450596e-01 6.2770493678965429e-03 5.2494836924986001e-02 -7.5175497593499112e-04 3.1753928023049258e-02 4.3892490501463710e-03 -9.5126532318353402e-03 5.6209292901513358e-02 
      </Row>
      <Row Index="202">
        4.5724837145343145e-02 -6.9177047805570879e-03 4.2795522894337523e-02 -1.0265907421462828e-02 -2.3986540499294051e-02 -5.3018671329496669e-04 1.7248092433806317e-01 1.9392568585528736e-02 7.1750994807047164e-03 -5.0736716356254874e-01 1.6256860276262941e-02 4.9759989465179899e-02 3.0026515455689605e+01 6.6940192910824869e-04 -3.4153136688530594e-03 -7.3213147105732901e-05 -1.4761749845117578e-02 3.9918373637875426e-02 7.6891575335285012e-03 1.8380407577075175e-01 1.9990354273708988e-03 -1.7638234555278132e-02 8.4190467705907157e-03 -2.2859634921076122e-02 3.8205531259905001e-03 1.7215037013641421e-01 -1.8986971402839004e-03 1.5481621317491090e-02 -3.0664496067792015e+00 -2.6158338333637232e-02 -1.2059264208308207e-01 -3.1228187519558560e+01 2.8870840021477662e-03 1.9376431446431752e-03 -5.6888623711301989e-03 2.6143624473425886e-02 2.0674902211197832e-02 2.6184021513660838e-02 6.0967047920826190e-02 7.4765740809713543e-03 1.0738186084555679e-02 -1.2655907108346298e-02 -2.0516656049665016e-02 -1.2183289559786203e-02 2.9947016074456201e-01 -1.9382172446427148e-03 3.8820833193753401e-03 -1.1633264153470009e+00 -4.8640897316687415e-04 -8.3835767801929251e-02 -2.4309908701288805e+00 2.6280803778195860e-03 -7.6041443720953339e-04 -1.6028513426698865e-02 -2.3321421231635497e-02 -6.8979337054102530e-03 -2.3260531104895676e-02 -2.9394339799011959e-01 6.7127775426811809e-03 5.3112112684363666e-03 -1.1232154708253006e-02 1.6559316330216234e-02 -5.3717866420868177e-03 -3.4313533548979080e-01 -3.1007083181904704e-02 1.3941686084166349e-02 6.5533270946571065e-01 5.5522043535631838e-03 -7.2332583344966395e-02 -1.3688419315971259e+01 1.9752330943028085e-03 8.4908346340206720e-04 -1.3509834781569197e-02 -1.8394914685103458e-02 4.6239963170933152e-03 -1.0533380539271775e-02 -2.2095309510859806e-01 3.5919231639638838e-02 5.9735284054838189e-03 9.4835607439733849e-03 1.3456816077223266e-02 -5.3601460432215475e-03 -2.5223268393251885e-01 3.3089755857872660e-02 8.2395417581437869e-03 1.1602066286050103e+00 1.7032557512123958e-02 -1.5235905870156330e-02 1.3755515975031813e+01 6.8565728732039588e-03 -8.8085734602572074e-04 2.6789950320633693e-03 -1.8590693018584403e-02 -7.7463095478549349e-02 1.1035798335427671e-02 2.7625682799839524e-01 -5.4861598893261032e-03 -4.9025911183617897e-02 -2.0180260409585316e-02 -2.2267940845921430e-03 -1.1915678866200707e-02 6.4273789872395071e-02 1.4351642741723847e-02 1.7537810261373465e-02 -1.2574243419124045e+00 9.5748161435960100e-03 2.7836591673639610e-02 2.0102669584076921e+01 -8.3097548148440836e-03 -3.4266286841262428e-03 -2.7295635155133446e-05 -1.0966757732080001e-02 7.7246775998003336e-02 2.1290569487356636e-02 5.5971759855310665e-02 -1.3894134441642336e-02 -2.2266365216125905e-03 -1.0033130177003358e-02 7.3022274131613329e-03 1.2900336169110460e-02 -8.6566339526363834e-02 -9.4508115059674935e-03 -6.7017964504429983e-03 2.7797936467713953e+00 4.3485424053812949e-04 1.1274248984103474e-01 5.1403402239757270e+00 4.3847201321134399e-03 -6.8569302424492662e-05 -1.9511706608454915e-03 -1.4076190401321353e-02 -8.6602511813794081e-02 1.1707288031743701e-03 -7.4015288630221221e-02 1.1732109681169334e-02 -1.7965799906079383e-02 1.0413271019305448e-02 -2.5971699120830749e-02 -1.3627398247491485e-02 6.0985632431538761e-02 4.0244013729697770e-03 -5.4659069405960103e-03 -1.0412847198958417e+00 -1.7806023011367245e-02 9.6046283383584452e-02 -1.5497630077326903e+01 1.5835293869278289e-02 8.9016652511646477e-03 -2.2461140743748054e-03 1.9497797290183527e-02 -3.8576605099092470e-02 -2.2873302745470170e-02 -7.3909773039758875e-02 -2.1453588052509076e-03 5.0118659547049305e-04 1.3029521381746179e-02 1.2080475321795348e-02 6.6282759691915771e-03 -1.1492146670531156e-01 -1.3255897511669446e-02 2.2263747559959968e-02 2.2951723900155230e-01 4.6308705219574864e-03 -4.3977057221880500e-02 2.3421263711497886e-02 -1.0432729535141405e-03 -3.5875776987319696e-03 -6.7955018170096082e-04 -1.9695583485130896e-03 6.4941624857510760e-03 2.5550441813493308e-04 2.9688698731689556e-01 -2.2522132446952448e-02 -6.5353989475980256e-04 -5.8034855113455741e-03 1.3920803452276864e-02 -2.4397160376574689e-02 -1.0461720346832948e-01 9.0280077977089590e-03 -2.4603118290937864e-03 -5.2417491003194527e-01 1.5347454742134836e-02 6.5601889555802373e-02 4.2846339064484710e+01 -4.6059421724076177e-04 -7.5824067004501838e-03 -6.2461524030862359e-03 -4.4480745799221566e-02 -8.5861280351787583e-02 5.6838510159731293e-03 6.3767720368343817e-01 -1.3488257844886675e-01 -1.4196607027933794e-02 -1.1794084997243684e-01 5.8580569316505127e-02 -9.6840433312735286e-02 -4.3660607129891105e-01 6.2367813032570218e-02 3.0406338005141365e-02 4.2420863960230690e+00 1.1265338779865823e-01 4.0666773593173566e-01 1.1948564023374820e+02 -4.8587592864838144e-02 -5.6986460934326737e-02 -1.2985434983942396e-03 -2.1255770978627325e-01 -2.8519690348340551e-02 1.4234303780276136e-01 -1.4987373659644732e-01 5.3005994033262421e-02 5.1908783802469216e-02 5.7865360979960201e-02 2.2395033315358942e-02 -1.1535354916235379e-02 2.4893040780140913e-01 4.9923801474048846e-03 1.7669711813361681e-02 2.7243417205761661e-01 5.3184564771562842e-03 -1.0077630928838158e-01 -4.7821661008015383e+01 -3.3147378935989652e-02 -6.8286793981232607e-03 2.0868022501540809e-02 9.2034930915824487e-02 -1.9929521334272948e-02 -8.5067692388714033e-02 4.7218546795835358e+01 
      </Row>
      <Row Index="203">
        5.9144089211416642e-03 -8.4703639471943246e-03 -1.3724010242435053e-03 2.3018087005889135e-03 -3.8578354952822934e-02 7.3051903352509958e-04 -5.1659641873974177e-02 -5.7266868885614214e-03 -4.5078624037118535e-03 5.2131979055138777e-02 -1.0767698515135739e-02 3.4701513714713809e-03 -3.4007343838080073e-02 2.4393518414217899e-02 8.2241135690507743e-04 -2.6693786440409905e-04 1.2452014304811703e-03 -8.3271549437323907e-03 1.0218329979937409e-03 -1.6316125713571994e-02 -1.0067962517190717e-02 6.7732741343629402e-04 1.0835002632613028e-03 -1.5260531191041649e-02 3.0171414894698614e-03 2.5721749035618798e-03 -2.1206364758323597e-02 3.5969485846003412e-03 6.9876393370417220e-02 1.9009979517983812e-03 2.0837898446983485e-03 8.0126211526188484e-02 8.6343479730571025e-03 -1.1075638966690361e-03 -1.5240050772844620e-03 1.9918369939702146e-03 1.7206262480854578e-03 2.8161136010972990e-03 1.5175906101197414e-02 -1.9171151479444961e-03 -3.8382426203568965e-05 1.9264310666416364e-03 -3.2986134153122765e-03 -4.6933988116171898e-03 -3.3643949091384337e-02 4.1990806522528498e-03 8.6010182222940115e-04 5.1534099870642724e-02 -5.5216280082791471e-03 4.8104370694996984e-03 5.2889380315321421e-02 1.2221014512615851e-02 2.6937666278496301e-03 1.8417084258863774e-04 1.0300991593152863e-03 1.5338279268178445e-03 -3.1587617066459669e-04 2.5593134443223142e-02 1.1955325494471987e-03 1.3982821378375403e-03 2.5027408439029838e-03 3.1793403933980564e-03 -1.4717579046429627e-03 2.3363553641114285e-02 -5.1076775870709315e-03 4.8541314850767715e-03 3.7243139738990738e-02 2.1211948431835055e-03 1.7195786551173530e-03 1.4347376405957846e-02 4.8125972406303829e-03 2.6893527417628455e-03 3.2116724543294201e-04 1.8611309142959912e-03 -9.7616352673633791e-03 1.6166501687407790e-03 2.0044707540700091e-02 1.6290966106729983e-02 1.3784336306500722e-03 1.2232466332051939e-03 1.8167987197411750e-02 1.2780078695420792e-03 -1.3403004997904634e-02 3.6433339675930404e-02 -6.3889264871801188e-04 9.9646351087705032e-02 2.8568818106715216e-03 7.1644998318224924e-03 -4.0863748599085259e-02 1.3876900215483094e-02 4.3355840585604377e-04 -3.6687019610801355e-04 8.5716647996569948e-04 -1.7007519027165269e-03 -1.5728988837730370e-03 -3.5751364021075371e-02 -1.3355442176844084e-03 -1.4615911731060971e-03 1.7830748442815513e-03 8.0416414767450969e-03 -3.0481591422357708e-03 -2.0850858996961000e-02 9.2930337998034518e-03 2.2138563260538954e-03 3.2488231727453652e-02 -4.4115172888618036e-03 4.7099780899635957e-03 -2.5872508252810955e-02 6.1147552060616533e-03 4.7881441026591384e-05 2.6579104886189113e-04 6.6504748568173961e-04 -1.8174547710039239e-03 2.4963838954087116e-03 -9.2251343108423756e-04 2.6839071042583807e-03 3.3523359246234036e-04 -5.1837465503378529e-04 -1.8928599005220200e-03 5.8771046438910301e-03 -6.0831604895977311e-04 4.0532150192580047e-03 3.5946365335097451e-03 5.0127548938653677e-02 1.6236342930351453e-03 -1.9328849247618419e-03 -2.9191252841154203e-02 -3.5299222887050902e-03 2.7973791837805064e-04 1.9697961959290206e-04 -2.1447358726972918e-04 2.2967437147302511e-03 -5.5320903042933856e-04 1.6621498707124593e-02 -9.5705597989325600e-04 1.4227800878867025e-03 -3.5528326525226581e-04 -5.6593419930415752e-03 -1.0803107543986730e-03 1.6490015855859859e-02 -1.0676612418756601e-02 3.1953864620814245e-03 -4.5547568609755659e-02 5.5874168872448240e-03 -1.3978717118253805e-03 2.9412975021820387e-02 -6.1755950922466095e-03 -3.9166687540734507e-05 -1.3268007900953501e-04 8.2952832076291997e-05 -1.0859789073128583e-03 -1.3060826658784198e-03 -9.8160006670943156e-03 2.1884549170955031e-03 9.7883673523903249e-04 -2.0270898995675374e-03 2.5674809317859371e-03 -1.0703868233038084e-03 1.1047212381857092e-02 4.7313876229053697e-03 -6.9617465488527018e-04 4.5393317010124168e-02 3.9167388905234054e-03 3.6499783096449051e-03 3.4331188838555349e-02 -2.3151778176697950e-03 4.9751373001331346e-04 -3.0666740205717406e-05 -6.7132988786807943e-04 -2.3154939235954103e-03 -1.3533517264578965e-03 -1.6719355425290669e-02 -7.0538573278414543e-04 -2.8799813894175761e-03 -1.5921136673043051e-04 6.2496301013428646e-03 -3.7208528424195887e-03 -5.7651686192777673e-03 1.4587984864260582e-02 -3.8969822890023262e-03 -7.1251721605521026e-02 -5.7613297383662075e-03 3.3128680285320544e-03 -7.8234067029081089e-02 8.8004614533474541e-03 3.7571329943803552e-04 6.3693826978450364e-04 -1.1806340619957626e-04 6.2306158706931236e-03 2.1756361310633697e-03 9.6769658117376312e-03 -2.7447406802882011e-02 -1.6894314898416925e-02 -2.6084609471891118e-03 1.7925166296708581e-02 -1.7860515094903540e-02 -8.7936366956795214e-02 9.9155448863011489e-02 -2.7666366199834654e-02 7.8493199101312083e-02 -5.7068772887371916e-02 1.3225026532930097e-02 -4.8587592882264108e-02 1.1770822578694501e-01 -5.2775543798164876e-04 3.1493426766227225e-03 -6.0518761592885080e-03 2.3843227917532961e-02 7.9783398977414793e-03 1.5225190564405848e-02 1.8054781579090490e-02 -1.4426189544514871e-04 -1.2803649590618311e-02 1.7745931527180028e-02 -2.7996217658271092e-03 -4.7849052467657922e-02 1.3304465566521359e-02 4.9872630276727448e-03 1.3625024801978225e-02 1.5862392579508111e-02 -1.8595665271989303e-03 6.0606623694528461e-02 -1.3076198336327791e-01 1.0663352612280165e-02 -7.9034534563142281e-04 4.1667377442042124e-03 2.9467906276025983e-03 -1.1559358641836716e-02 -1.0381654123244693e-02 
      </Row>
      <Row Index="204">
        5.7707923833479752e-04 -1.2678383868322696e-03 -4.3328688503072726e-04 -1.2023169760578805e-03 -2.3955135118083198e-03 5.7509375538507268e-05 -7.5531716320667696e-03 -5.5019385815635764e-04 6.8159983352299516e-04 1.5542235702535878e-02 4.1653405279271603e-04 4.7875662877387148e-03 -3.4614732837311202e-02 -1.1848520528396625e-04 2.4274050170207239e-03 3.7170772561086977e-04 -1.0222942934981077e-03 2.7936545644893156e-02 -9.3084761447366320e-04 -8.6612902926754831e-03 -4.3204152825142977e-05 -3.2670511931564422e-04 1.2464243954864315e-03 -2.7214394546446058e-03 5.4199641073262445e-04 -6.5359009752957789e-03 -3.2738981239348872e-04 -6.8791391793018158e-04 9.8813834656115707e-03 -1.1348186540007382e-03 -3.8530157657649805e-03 4.1329896515861719e-02 -6.7352532276685959e-05 5.8488322764019820e-03 3.8440056202911875e-03 -6.0934174779381069e-03 -1.8062603257630649e-02 -1.0783857256171127e-03 1.0463656429474943e-03 2.6130943164997188e-04 -1.9882984029782891e-04 6.5479671008318932e-04 -1.3441777807811951e-03 7.2262086864116615e-04 -8.8160108705336998e-03 3.4243423984059093e-04 1.6214621880476440e-04 2.1222871002413823e-02 3.4262761611207962e-04 -8.6457258173348039e-03 2.8963371143911232e-02 -4.4649116845262449e-04 -1.4893975528794956e-02 1.1137730815347842e-02 -5.8527164952692501e-03 -5.6981686098838413e-03 3.5540198502459815e-03 2.2063985871911163e-02 -1.6086149499638033e-03 2.9291347147623855e-03 -2.4572846995140930e-03 1.8214345535845500e-04 2.3033921629249648e-04 7.4775354886068846e-03 -4.7477482009433691e-04 -3.0444131783785439e-03 2.9873411377035808e-02 2.3255485244005857e-03 7.2971991812889325e-03 5.9473756655641807e-02 3.3799434767941075e-04 -3.2490149600942285e-02 4.3913415169653976e-03 6.4226711143433139e-03 6.8782908282562505e-03 1.5213704197607082e-03 1.2337138171498063e-02 3.3122162907151392e-03 2.5716306505354364e-04 -2.2172129104855443e-04 3.7414471339092259e-04 -1.2661241291424957e-05 4.7660575644240949e-03 1.2795082259866031e-03 -9.3774909203803158e-04 7.2245165072626349e-04 -4.5256246803274114e-04 -1.9813226879352303e-03 -1.0512731471362002e-02 -5.7333853955777309e-05 -8.6848561235759181e-03 -8.4097311867225785e-04 4.2613339911747004e-03 -8.9268136323097935e-03 2.0639003534482503e-04 -7.4698292779914466e-03 -4.9790290082741759e-05 1.8825824523218482e-03 1.9823915528536813e-04 3.6838032409754543e-04 8.3023985922211965e-04 -3.8581633842235188e-03 -3.4535098492899374e-04 -1.1923948862366061e-03 1.1287298919899736e-02 1.0886683998421586e-04 2.0929635481001540e-03 -2.1658259505845656e-02 -2.4055035768088271e-04 5.9169458134536966e-03 2.3093283788508511e-03 -1.1432364824809920e-03 1.3338615187447288e-02 -2.7384701174497407e-03 1.9171156040861392e-03 -3.6899763874673891e-04 7.1117622659394586e-04 -3.1265555583807891e-04 2.4139099195834030e-04 -1.4738034926241039e-03 -3.8419607518219712e-04 3.6632395162354212e-05 -5.8907785536106011e-04 -1.1246277570968743e-03 -2.3019197218064613e-04 9.5943849723052078e-03 -9.2608934600155735e-03 1.3827483333953418e-04 -2.1307944868688596e-03 -5.8309339744657893e-04 1.0764956471795454e-03 -1.3866806621343625e-02 -4.2298572420526592e-04 -5.3652895444189497e-04 1.3925659923925623e-04 -2.7987451987606868e-04 -2.8468131388823025e-04 -1.2547787813443497e-03 8.7105701877460313e-05 1.4890832348725177e-03 -2.5703230470018774e-04 1.8918132850697300e-04 1.9032539089177659e-02 2.9457188209378211e-04 1.9685940045264676e-02 1.8480121262564708e-02 6.2616669907741406e-05 -4.3614691025157821e-03 -5.9090567496654475e-04 -1.0602233511249146e-06 -7.3469966895814134e-03 1.8783499919220754e-03 3.3232005960304178e-04 3.4971035419738283e-05 -3.3592029655236602e-04 9.2979062788470408e-04 4.4944713455849494e-04 3.2332951745299432e-04 4.0572251148829550e-03 -1.4568254427912986e-04 4.9822465457140524e-04 -1.5257749474942961e-02 -5.3046392204717961e-04 -6.1863231469781454e-03 -3.0343814577449280e-03 -2.1504288353090158e-04 -5.1125898461686732e-04 -1.8515196902887249e-04 5.3105260229086015e-05 3.9597971476120208e-03 3.6266060631263974e-04 1.4183073306958671e-04 -1.4727318467644011e-03 3.9071426553846981e-04 -5.0546167379984005e-05 5.6167452970320498e-04 8.1224070558463053e-04 1.9829251562412248e-05 -1.9020011920026442e-04 3.8294159464562563e-05 2.1048297169757035e-02 5.5228696126606927e-04 -2.6192270977245715e-03 -4.6073841131728521e-02 1.0376481379452450e-05 2.0207848680772414e-04 1.0227094180768003e-03 1.4502470679784610e-03 -1.9120826431874703e-02 -1.7938374285419187e-03 1.1114927097175709e-02 -8.6219378035896303e-03 2.5007161144472018e-03 7.3389989453248941e-04 3.2589268184272054e-03 3.1229164515716203e-03 -8.8548345366449704e-03 -2.4687707195492591e-04 3.1908555511708878e-04 4.1074693292064701e-05 1.8013618976194922e-03 -1.6219762750952077e-02 -5.6986460952193951e-02 -5.2775543797793471e-04 8.1591757918929475e-02 8.4131109591409139e-03 -2.8627379640559399e-03 -4.0465619893693475e-03 -2.2132328182840513e-02 2.4689449239935352e-03 4.0193661575137294e-03 -1.1859990553288327e-03 4.6166922596812196e-03 1.5095085548644128e-03 9.0071800772970664e-05 -1.0705764482564217e-02 1.2396639386331228e-04 4.3698475257717838e-05 -2.4242103287042877e-03 -1.5928657403361159e-03 -1.9453007469161072e-02 3.3115975545118456e-02 2.7890712817061252e-03 -8.4988316652919435e-02 -1.5607704814877938e-02 2.8440894367344694e-02 -1.0765162655051865e-02 4.6602185569635879e-03 2.5220460276007835e-02 
      </Row>
      <Row Index="205">
        2.3770104438752522e-03 -5.4282674384308885e-04 6.0940788344670919e-04 2.9978248241524074e-05 1.9359099716522998e-03 -4.8166192069970277e-04 1.7882814627960242e-03 -2.6528116338117610e-03 4.2729038243864009e-04 3.7357764220742884e-03 -1.6013770443246969e-04 1.7130661838619101e-03 -2.7884628380884235e-03 4.3456348478055956e-04 4.9548485181271111e-04 2.6060385002206156e-03 -4.1734661796250525e-04 5.1025244788925755e-03 1.9574217264096833e-03 -9.1733800046307629e-03 2.9838053097431746e-04 -7.4698864365876569e-04 2.1466138628251538e-04 7.5657912094072646e-04 -2.5564468347284187e-04 7.7885440022291801e-05 -1.6924962830649616e-03 -2.6991871563388902e-04 9.1565188326880875e-04 -5.2945471605939619e-04 -1.0863331638361028e-03 1.7434875371620251e-03 -1.6435577625662217e-04 -1.1486932656744038e-04 5.0017367889553400e-04 -2.3501743139986348e-03 -3.4288874493219844e-03 3.0024916531157372e-04 -2.5725068486451563e-03 -5.1283860033701724e-04 2.3346480596457293e-04 -9.8884885807557291e-04 6.5778989237462622e-04 1.0348502936374194e-03 -1.8516057202826418e-03 -2.4487757977114440e-04 1.0605410930926281e-03 2.4775731239514154e-03 -4.6483969402518963e-04 -1.7693303523679954e-03 1.3987318983041064e-02 -7.3669348227994478e-04 -1.3922351129874895e-03 5.0144476284748538e-03 -7.9951294571847416e-03 -2.2859551558541387e-03 -7.9319272586830325e-04 8.9475755370757581e-04 -1.5265435992029572e-04 6.8949753755183450e-04 -2.4180868628927588e-04 5.5915433111249080e-04 5.7237263605628124e-04 -5.1669743790942833e-03 8.1923157103924900e-04 1.1324483724775743e-04 8.1891753781516696e-03 -1.4938872341320551e-04 -3.8678175670690210e-04 4.1273524735299105e-03 -4.0455058937136209e-04 -1.4314475907965182e-03 1.5264561079446869e-05 -3.5242983045260623e-03 2.3977423395082319e-03 -6.7978770029743577e-04 9.0583079907935460e-03 3.1080652369981990e-04 1.7386958906447265e-04 5.9940179492489962e-04 4.0995967739310135e-04 3.6502980152695657e-04 -2.3203259257935718e-04 6.4666948804971425e-03 8.0603605407444934e-05 1.5872221247848595e-02 4.0657150179819468e-05 -1.1957456226821270e-03 1.2963110313466419e-03 1.0052525027509293e-04 -2.7575541529970687e-04 -7.7527048178184510e-04 7.0739200494229944e-05 -9.5118660952479492e-04 6.8699538861245746e-05 -1.1325679951983428e-02 -1.3701828690408169e-04 -7.2015595433517089e-04 -4.3368885651595907e-05 -4.9629913887326571e-04 9.0748540358903586e-04 1.0090312033900570e-03 -1.8626874575514867e-04 9.1173087563946082e-04 4.0294045441751931e-04 4.8612311095783426e-04 6.7316289568717562e-04 -1.2069292823090327e-03 4.3547566171111835e-04 3.9744666570182415e-04 2.3425646680307905e-03 -4.9663441748766491e-04 1.9767315256861758e-03 1.1165500949991110e-03 -5.7321349694047785e-04 5.6603311425432873e-05 3.0698289735902121e-04 1.6555290036251264e-04 -1.5364107160839862e-04 -3.4534815479362879e-03 -6.9900324896517152e-07 5.1714846171734864e-04 5.1623632180636606e-05 -4.4898254049374753e-04 1.6251319295382781e-05 2.7533158770582516e-03 2.0556682046040109e-03 -1.0170604819092132e-04 -1.8235778294013825e-04 -2.6486153620557552e-04 5.0659610781439099e-04 -1.6288436765185196e-03 -1.0964986767587892e-04 2.5991293558122325e-03 -1.3584506100314253e-04 3.2699457580281097e-04 4.8715877207880590e-05 4.2596799044587356e-04 9.4852427105114069e-04 -2.7518238188123704e-04 -7.7659695649042078e-04 -1.6218943091066550e-04 3.0557272176841826e-03 4.3114842254390927e-05 5.1912763616711261e-03 -1.6599730063378004e-03 -2.7674486388576110e-05 -8.1514692720457342e-04 -2.0688369753527592e-03 1.2535386719508983e-04 -1.0875641000152852e-03 -8.8378310447018485e-04 1.5156028455431958e-04 2.8201654607659145e-05 8.0240670565258937e-05 1.2511412439124422e-04 -2.6167380171464999e-04 1.5802670728613799e-06 -1.0646719901410973e-04 8.3053315798214261e-04 5.5043466903290127e-04 -3.8713583852384992e-03 1.9375856091836171e-04 -1.2080118445582464e-03 -9.4868145114990199e-04 -5.6724809418810481e-05 -2.0199650903097955e-05 4.3890503465253850e-04 6.7004633653019660e-05 -4.8251752247346902e-05 -3.6669601708044092e-05 -3.3800985730353741e-03 -4.0173538824550255e-04 -1.6067508546179247e-04 -4.2656555520936753e-05 -2.0391748916485258e-04 8.0350009243833299e-04 1.0178038167032370e-04 4.8669552617583217e-04 1.2134085612172101e-03 -2.9655927269035473e-03 4.0389687155397477e-04 -5.4434526203789963e-04 -5.9120912890711086e-03 7.2566831203968311e-04 4.1190719452043094e-04 3.1949951573558831e-03 -1.9509460066636844e-04 -4.1328331184138541e-03 1.4581797269302157e-03 1.0936436747237918e-02 -3.0043805659472258e-03 -1.9949970186008592e-03 -8.9640465248848854e-04 -1.8145821596848902e-03 1.5126738075266545e-03 3.3572460603415108e-03 -7.9548649594879004e-04 6.1486310950353640e-03 -2.3773309111917662e-02 1.4386970351044359e-03 4.3878265387145383e-03 -1.2985434985868238e-03 3.1493426766192999e-03 8.4131109591363985e-03 2.4915698481810605e-02 1.0560488848276477e-02 -7.0385812460123150e-03 1.1485869189533386e-02 4.0652799132819967e-03 -7.3164804390144270e-04 7.7017009758052410e-04 2.9508234729321518e-03 -8.1515383132987809e-04 1.2033266467777271e-03 1.8000460600506708e-03 2.9035159265202938e-03 9.7083584141277861e-04 9.6325169917763792e-04 1.6871528861658177e-03 -5.0985582738557120e-03 4.3013956777106198e-03 -8.7081172288779485e-04 -3.6054154982948393e-03 -1.3504229543223932e-03 8.0901289978637936e-03 -1.9044863656805049e-03 -4.7597008515301090e-03 -6.4374638144485980e-03 
      </Row>
      <Row Index="206">
        -6.6461091164432551e-04 7.0892982019057568e-04 -3.9980430957931024e-05 1.2833117081163213e-03 8.4158911944056114e-03 -1.4326265420526270e-03 -1.8077698033005279e-02 3.6438024085464829e-03 1.0815859068591810e-03 1.5141273933392263e-02 -2.6273054919284181e-03 -1.1114279133108695e-02 -9.3901066629645591e-02 -1.6249788233132544e-03 -1.6881781197513462e-04 2.9349425505776688e-03 1.0386234865530919e-03 -6.3781214349139040e-04 -7.6705084598387499e-04 2.0526100649218781e-02 1.0356708724745534e-03 2.7401003367374943e-04 -6.8469862881519834e-04 5.4749887240843620e-03 -1.5880559645714276e-03 1.5235000267720539e-02 3.1890906331730265e-03 1.4500244028138598e-04 -3.6021663089955247e-02 9.1995481908173360e-04 -4.9881936565776552e-03 3.8423531785511500e-02 -2.2900180572398704e-03 -4.1794297379405439e-03 7.0234292551456246e-04 -8.4453312728558685e-03 1.0956308623153443e-03 -5.1345556948552973e-03 1.5209233482155526e-02 4.1799881772837388e-05 -4.0008640762504571e-04 -1.4772064647426766e-03 -2.2431671880084325e-03 -2.5756234279367407e-03 -5.4991545310237311e-03 6.2905318001753169e-03 1.4415496507025616e-03 -1.3364911799251900e-01 1.5485933755132741e-04 -7.5592544162074171e-03 -4.3713912074949235e-02 -2.5598322577776653e-03 -1.3408144299573155e-03 -7.8806465320836443e-03 -2.3309087139387674e-02 5.7225472847852177e-05 4.9914015923181038e-04 -5.3552829447658379e-03 1.3170921408631464e-03 -2.0664055957672622e-05 2.7434490236792619e-04 2.2328404084107079e-03 -9.4552605286008992e-04 1.7438920105536854e-02 1.6729547099032793e-03 -3.5573020261606136e-04 -4.0662864124024978e-02 2.2649430567654449e-03 1.2692776569531911e-02 1.0837680733260413e-02 -1.6307858529833880e-03 6.9247208339580802e-03 -1.2339270698724369e-02 -1.7668026596124702e-02 1.9910065601810856e-03 -2.4558092571037859e-04 -2.1890627367003646e-02 -1.7381139274762480e-03 -5.0359238918656901e-04 8.6636365114634017e-04 -8.7361588130496770e-04 5.1399559419232355e-04 2.7313727182259884e-03 -4.3151436428514600e-03 -2.8062885050084141e-04 5.0645948550613440e-02 3.7392811887770883e-04 1.1652701984978087e-02 -1.2624357103621975e-02 -6.9945842645500328e-04 3.0204104811593080e-03 -3.5330828171951378e-03 1.3221801855482634e-03 6.0060645980669625e-04 1.1597195462534904e-03 1.7001175276032399e-02 -4.3859873377680852e-04 -3.9547966008512264e-04 -8.9937988949729403e-04 -1.4744325462366370e-03 -1.0291969357511185e-03 -7.8148294899482024e-03 1.8367935840480579e-03 -1.2982893264106843e-03 1.2363844179238706e-02 -1.2819055025133919e-03 -6.1024004562664474e-03 -5.3277574598753930e-02 -5.2904262480332059e-05 -3.8526792571504445e-04 -3.0522926310662960e-04 6.3238462856593470e-03 -3.3403507361007227e-03 2.0223879831625722e-03 -2.7332288422421414e-04 -4.3728539220824758e-04 -1.2389075421459506e-04 4.3744188332428546e-04 6.6059523428814437e-05 3.4951081433693965e-03 -1.7139394350565995e-03 -6.9059729605422393e-04 -5.4379408578711375e-04 -2.6051070951991662e-02 2.7540653614072097e-05 -7.2623302775961796e-03 -1.3869328658479674e-02 7.7294032924066919e-04 7.5326463410863367e-04 -5.8231775796241392e-04 3.6081017562813230e-04 1.7983546194810796e-04 7.5285811666048197e-04 -4.1886378110436162e-03 4.8024312897407273e-04 3.8766628111282231e-04 5.2772237705592728e-04 2.5946917862965744e-03 -2.4180895124341351e-04 9.0915448066225570e-03 5.6120733410949808e-05 -7.3565284734415171e-04 2.0763843725496722e-02 1.4085848882569030e-03 -1.8245478662356367e-02 4.4516649146622456e-02 -2.5623660376467711e-05 -4.5585381930153443e-04 -8.6009975018052319e-04 -8.3803887853718118e-03 -1.4527106981132023e-04 -9.6873221009281113e-05 -7.3074851256293982e-05 -5.3702158779997400e-04 -3.1334763415174788e-04 -7.1450601309465400e-04 -1.7242900242411263e-03 -6.7105778707250707e-04 9.7886404203864075e-03 -1.2455392460545278e-03 7.1023694701307901e-05 -1.0072602265526420e-02 9.8561387224013058e-04 5.8713181711283480e-03 2.5320136521855829e-03 -4.4785830621203206e-04 4.4899539835912758e-04 4.6692466294246532e-04 -1.1930842718824164e-04 -6.4947412325988552e-04 2.3697412773082682e-05 5.9212736014655487e-03 -3.0450980256557098e-04 5.3867711739298291e-04 -1.5479262851462211e-03 -1.8952998104882586e-03 -1.2009952495095385e-03 -2.7625911873413178e-03 2.9364697320264505e-05 2.8076843868220409e-04 5.9602966286018799e-02 -9.8567533291615828e-04 1.3689943430504718e-03 -1.1736925142241361e-01 -6.3816475433444949e-04 2.1613201557074378e-03 -3.0747383484918279e-04 8.5070149024371027e-03 -1.2133795493441957e-03 2.9151004601030740e-03 -5.8637495382396487e-03 -1.5410115382099854e-03 -8.9602471581602672e-04 -3.9177602673311947e-03 -1.4381771975530974e-02 -7.2419314704941576e-03 -3.8357957936333287e-02 5.7499990470755487e-03 2.5256354096404102e-03 -1.6879659153273607e-02 -1.4200020353953596e-02 -1.9965476804762388e-02 -2.1255770978984145e-01 -6.0518761592894413e-03 -2.8627379640962132e-03 1.0560488848275224e-02 1.1074142882956320e-01 -1.2030006506326754e-02 1.5852852668677586e-02 -8.8711092787179258e-03 -1.6101570526420451e-03 8.7080616113455883e-04 3.0166315491006318e-03 -4.7458582655888568e-03 -9.8367789724546919e-04 -3.0758474631558216e-02 -1.5879556669972390e-03 -1.5828091360987600e-03 -7.9330068892788791e-03 3.7335656330062181e-03 2.0963122343154235e-02 8.2440892722489542e-02 1.4594918200447934e-02 3.0957455032671152e-02 1.7359913756293258e-02 2.6597022669258848e-02 1.7833320594529134e-04 9.2434332281434300e-03 -1.0449736933872222e-01 
      </Row>
      <Row Index="207">
        2.0621682763136293e-02 -2.0268314186347495e-03 4.8150285530416358e-03 3.1712067651839698e-03 -1.7343783607058894e-02 -3.7688637336424063e-03 -3.3207988987102567e-02 -1.0319155678354893e-02 -5.0419341579860649e-03 9.2217677098691470e-02 4.0220294243897684e-04 2.3174089373060237e-02 3.5974927508834270e-02 3.0910448450907004e-03 -1.4653552016104026e-04 -4.6527177705928477e-04 2.9697860594055311e-03 2.5958934793558382e-02 -3.9249114759752684e-03 -9.5901310444441584e-03 -1.2197775520809897e-03 -2.9926784300150573e-03 2.4696247653794422e-03 -1.8831394832005136e-02 -3.2433334033189244e-05 4.6802467954420668e-02 -1.0471181272224015e-02 2.4976139188712821e-03 -3.6243399062581771e-01 4.9866710403913186e-05 -1.6100285911627876e-02 -5.9896879878715836e-03 2.5010340452561769e-03 1.0960956994981268e-03 2.6197194223762581e-03 1.6134768475492189e-03 -1.8943804393326557e-02 3.7623421135823294e-03 -7.3447159888424089e-03 -1.8508466518034442e-04 3.3814156038551807e-03 4.4740554579938939e-03 -9.0266203579208379e-03 4.5925162227211276e-03 1.7091440291468283e-02 -1.0151712456838297e-02 3.5858487955714603e-03 -3.5373970697109847e-01 -8.4336442913196313e-04 -2.0154688286409810e-02 -1.0466233487830956e-01 3.3577733054917583e-03 -9.6106966370283209e-03 5.7228733394524096e-03 -1.3934160709597274e-05 8.9808034320615099e-02 9.3433835160476719e-03 2.2196552200066944e-02 1.3701713364203001e-03 -6.4786091022096966e-04 -5.9930986427042202e-03 7.1095627591622086e-04 5.2731880269691203e-03 -2.2655266358216068e-02 3.9492577152729080e-03 1.0101304006985478e-02 5.0610639040473349e-01 3.3143490764608553e-03 -3.2257145539163219e-03 7.6271874533162975e-02 -1.0364217667997498e-03 -9.0206833883849456e-03 2.8794088754624972e-03 -5.0616017685499231e-04 -1.1501065334071388e-01 -1.0709384609045604e-02 3.6934053778001907e-03 6.9376927803146728e-03 5.2421085797668427e-04 -5.1999533577665007e-04 3.5435498283863179e-03 6.4986080113332585e-05 -7.5060726046397670e-03 2.5348356752508100e-02 2.4396682820837304e-03 7.7705741129221462e-03 -1.5070703122611745e-03 -6.9127824650815142e-03 2.6429880181311649e-02 1.4507873764967559e-04 -2.0062586655298911e-03 -4.6341654423436799e-04 -9.0317718834254275e-04 2.4671005659796002e-02 -2.8526385648826036e-03 -1.8645044439830189e-02 -1.3668769701643993e-03 -1.1495194446908431e-02 -9.7816645009713636e-04 5.5820722438309550e-03 1.8388596407700327e-03 -1.2542050769292922e-02 5.3544782469639959e-04 7.8279645025819879e-03 2.0198994765125881e-02 -1.3947406099099515e-03 9.0888274461554258e-03 2.8255041841290518e-02 2.7182576826960876e-03 2.1072159141896998e-04 3.3484224825856764e-04 -1.2188593170869811e-03 1.0278877363529722e-01 -1.4796386418561595e-03 -5.3695663749988437e-03 6.1693461487097095e-04 -1.0389392033523601e-03 3.8044970302545463e-04 7.5213799491944517e-05 -7.2530864106997370e-03 1.1227781045305991e-02 -3.9580442448314138e-04 4.4961886685817628e-03 -6.2708495030904643e-02 -2.7576635900932551e-04 6.0976631574144536e-03 9.8996147405720714e-02 -9.9511654732852071e-04 -2.3529107755052830e-03 -2.3733086081488336e-04 -1.0693815563883708e-03 -3.7562738944485370e-03 2.0438035405855315e-03 3.8028452262351617e-03 5.0007007026365690e-04 5.8485276522781803e-04 -2.0907146500762893e-03 -5.1078374527587980e-03 4.7233846640509589e-03 4.9777370021130546e-04 -3.7298094253971669e-03 6.3632199017163368e-03 -1.3702322920299922e-02 1.5626609422940861e-03 3.0018632421637520e-02 1.4219189258537046e-02 -1.7010244260747881e-03 -9.5186389777481039e-04 -4.9554453319285423e-06 -3.8414237053573867e-04 -7.2696283368702472e-02 -6.5098516318267470e-04 3.6018974940243975e-03 -1.3427317678812978e-03 7.5301398754281236e-04 1.3720944264303818e-03 2.0283216579918013e-03 1.9193689821748407e-03 -1.8233069766338313e-02 6.7912457533318635e-03 3.2684255358340704e-03 9.5679941860905712e-02 2.3474017267462741e-03 -7.6002622960870542e-03 3.5710233957836568e-02 -1.8964056256106835e-04 -8.3061998269223065e-04 -5.1265876061568636e-04 -2.5071929397904279e-03 2.8289835944350864e-02 -9.9680281315053278e-04 -1.0620116767979911e-02 -2.8106462803454942e-03 -2.4346571180249694e-03 1.0990321175708707e-02 2.1749913560376961e-03 5.1518454248782007e-03 -1.6512867368878366e-02 6.9470735283074722e-03 1.6277827751009462e-03 -2.3407797107798226e-01 -8.0643739163625099e-03 -1.3226689260768636e-02 5.3983378285825667e-02 3.0042847945084216e-03 -7.7720568632037171e-03 -1.9005483968657505e-03 -3.3139133639750250e-03 3.3351365926388776e-01 2.3146683758248416e-04 3.5961621696422141e-02 -2.3122012249642290e-02 -2.0670477847896922e-02 3.4606081174363076e-02 2.9530790382424552e-02 3.2792608167476899e-03 -1.4796403672072297e-01 8.1958956095461027e-03 -4.2140711427295606e-03 -1.0838864669971796e-01 -2.8022399190934591e-02 7.7344493173058040e-03 -2.8519690355698790e-02 2.3843227917505504e-02 -4.0465619893641320e-03 -7.0385812460101579e-03 -1.2030006506305198e-02 1.5934561165456620e+00 -1.1582544804259918e-02 -1.1004670801505224e-03 7.3969890229082010e-03 8.6932867717845579e-03 1.8008736444724886e-02 9.1701863834391002e-03 3.9081965190183050e-03 1.8641304241524818e-02 9.9684956284198864e-03 9.6939674949778377e-03 8.5767793940082996e-03 7.6386334227813435e-03 -2.7913290235832548e-02 -1.8107829759458939e-02 -1.6864665905494982e-02 -3.6919104148367257e-02 -8.7165199703931502e-03 2.2939303011474278e-04 1.3082632760936618e-02 -1.4563436412256487e-03 3.3346773926371267e-03 
      </Row>
      <Row Index="208">
        -1.1977547045292497e-02 -2.9238023251037387e-04 2.7857097261408947e-03 -2.9119227583932206e-03 1.5735628445562311e-04 -2.7310246805415878e-03 3.6619151532556113e-02 -3.8256919723397148e-04 -4.8839752570977585e-03 6.7043449451600345e-02 -5.9456487441711392e-05 -1.1143621312555974e-03 2.9110587762513518e-02 -1.0206000805392870e-03 1.6340976952584560e-04 1.8741967248475239e-03 -4.5937560684875811e-03 3.4069739705776432e-03 5.0929304165635056e-02 -3.0538578817434159e-02 3.5999725720760184e-03 -3.1848409107753939e-03 4.6012107289541051e-03 3.0722727368950320e-03 8.1802426187654875e-04 1.3435135622425459e-02 -4.0091614142677354e-03 2.2903953867190324e-03 6.7916940662049341e-02 1.3863935543464156e-03 -1.1541320486536499e-02 -1.0636879687042722e-01 -3.8678469959562978e-03 2.9681690167196809e-03 2.5289846746515826e-03 -1.6955323670981966e-02 8.3366532097450263e-03 8.8341080749005263e-02 2.6235183394688444e-02 -2.2379819594868637e-03 5.5884689944187688e-04 -9.1703016198308521e-03 7.5355572574291318e-03 -1.2215384097633009e-04 -1.3894563788898973e-02 1.6265699331508565e-03 -1.1495913878408620e-03 -2.4272738920473103e-02 -1.6970609834755790e-03 3.8641838134005901e-03 4.3425881584191472e-02 4.1215526091520488e-03 -2.0703737552346113e-03 1.4760820983583285e-03 -1.0403941205722647e-02 -2.2158987171534417e-03 -1.0879527144840245e-01 2.5867006494562084e-03 5.4537341730059863e-04 -2.7311651658744260e-03 -1.5042535129800028e-03 1.4232207465776914e-03 2.6784187756217909e-03 -3.5831569820074155e-02 -2.9799259451163684e-03 5.7964997653956185e-03 -2.9857055028834623e-02 -9.0318440939701761e-04 -8.7161457495778666e-03 -1.2203432800873770e-02 7.8001640760219648e-04 1.9930226288700087e-03 1.8160223802754505e-04 -3.5488475936182040e-03 2.0325579244113157e-03 -5.4961790802086553e-02 -2.9736958302990502e-03 -4.1050911366735665e-04 -6.1263338088574093e-04 4.3001703352363307e-04 -3.1464629598796368e-03 -5.0047990505598661e-04 -1.2115762450788436e-02 1.8080878570176928e-03 1.8650964126296632e-03 -1.4991188280344403e-02 1.4043511751682392e-04 -8.9264692103885324e-04 1.7419767209581494e-02 1.3537667491944766e-03 2.8161284517357055e-04 -5.7313365000227767e-05 4.1958560255362515e-03 -4.2674289177901947e-04 -2.3648614193686468e-03 -3.9941644573726620e-03 8.0812546235360661e-04 3.6058204625522552e-03 -1.4935507214392796e-03 -1.1883241989495696e-03 -1.8836741322872247e-03 1.5245337340185600e-02 4.1347758234254375e-04 6.9949194867052755e-05 2.8235150246597035e-03 2.4650945801192453e-03 4.7085609839294697e-04 2.4352095674027296e-02 1.5408498533577113e-03 -2.1632554563053366e-03 2.0546328991748134e-03 -1.9375174460277058e-03 5.3644938397135293e-03 2.8315595052717159e-02 3.6447298730077904e-03 -1.2510566817650060e-04 1.2083177336789097e-03 1.1868394412823668e-03 4.0243125726091220e-04 1.4037644104162861e-03 4.8340522837954092e-03 4.4351505741181685e-04 1.7489002668104048e-03 -1.3475352692108089e-02 2.3486339621477115e-04 1.0048721140942241e-03 5.7923300243700737e-04 -4.2683625355415498e-04 8.1772532418533661e-05 2.1039821632859446e-05 1.1948308544566196e-03 -1.1164604772138098e-03 5.2260969012780656e-03 6.4988861527728314e-03 -1.3627181238213132e-03 2.4528204974251511e-04 3.5257811423530620e-04 -4.9986121188603724e-04 7.2906597667369080e-04 -1.5964669871660508e-02 1.2748429758362850e-04 2.6331007094784783e-03 1.4187150197107645e-02 1.3511635376261856e-03 6.9237357463435914e-03 -1.6283439362467789e-02 -2.9461707088813613e-04 1.9409963780590341e-03 -9.9094830147522604e-04 1.6766120859725529e-05 -1.5579904438194421e-03 -2.0558272117232417e-02 3.6298864933783648e-03 -1.1050702293995129e-03 1.1747114080821585e-03 -1.4813427443733512e-04 2.0060025857729924e-03 6.1588687312055801e-04 -1.9120097673876485e-02 2.6097197741081768e-03 9.6200660897673650e-04 -2.9781744645295927e-02 2.3034135468062698e-03 1.2236732468725586e-03 2.2730076620355533e-02 1.2110166174431631e-03 -6.5242336687105877e-04 -5.5224914902483879e-04 1.3290994781076648e-03 -2.4812830916070006e-03 -8.9775116757749296e-03 -1.1926205940110401e-03 -1.0813573800498837e-03 7.8150626250829934e-04 -4.1838183470659183e-03 -1.1104130915778089e-03 -3.1717617648675377e-03 6.1901564592307251e-04 3.4285338779335532e-03 -3.7735367563961888e-03 1.9111940019437723e-02 8.4387099493338225e-04 1.6423642231076958e-03 8.6662038950720444e-02 2.9668636815008867e-03 -2.7624345663763384e-03 1.6910007422940650e-03 1.8654167381772736e-03 -3.7462634005555884e-03 1.5376804059289009e-02 5.7619129806442126e-02 -4.6539458305226433e-03 1.7923032103118741e-02 -3.6565847678154614e-02 -4.0165058380531790e-03 -2.0379426775465927e-02 3.0663844697433273e-02 2.0270861319151769e-02 -2.9481735896200054e-02 -8.7984639780235074e-02 4.2242551848354834e-05 1.3265991433406253e-02 1.4234303779975477e-01 7.9783398977280838e-03 -2.2132328182873379e-02 1.1485869189530176e-02 1.5852852668722286e-02 -1.1582544804278984e-02 3.7275428021262136e-01 1.5379341512032907e-03 -1.4490343733884743e-03 -2.2851597733849448e-03 7.4579084808481244e-03 -4.4937223660786261e-04 -2.1348714691131650e-04 4.4340560627617528e-02 1.4140536652250376e-03 2.5901566341377303e-03 -3.0878053701461450e-03 1.5655673516681175e-02 -6.9886831781425865e-03 -5.3234726854736944e-02 -1.8428877305150214e-02 4.5928728919663528e-03 -5.6187991687242766e-03 5.7631755483185637e-02 -8.1029304789183298e-04 -1.8450766114393979e-01 1.2668370952001584e-01 
      </Row>
      <Row Index="209">
        1.1942409189722003e-01 -7.0656224861367217e-04 -2.2244370517997880e-02 3.1311083651304333e-03 -4.2538525605650968e-05 -1.4297764811972407e-03 4.5616807492545319e-02 -1.9011814688578849e-03 2.6443774657625430e-03 -2.6930840367448994e-01 4.2927441962754831e-03 1.2203521147249319e-03 -1.8449067009498066e-01 8.9189773938974995e-04 6.6407887033902158e-05 -1.3395700112781364e-05 6.5642781852505439e-04 -2.9680494143398267e-03 -1.9986552011654959e-03 -2.6769631889788448e-01 -1.6616137025275285e-03 1.5509538903994424e-03 1.6020907320327699e-03 2.5247133554160417e-03 -2.0370183821838417e-04 -2.5340338256486850e-02 -6.7510752663013669e-03 1.8015889941392915e-03 1.0338200873400538e-02 2.2931840092046407e-03 1.1058891564432183e-02 2.1718251760160001e-01 4.8866911610992228e-03 4.4002395338534062e-05 3.1251460116665797e-04 2.0339650972886910e-03 2.7465828996801056e-03 -5.0773131590185205e-03 2.7358642647700004e-01 -7.4689427079149048e-04 -3.0366033201025822e-03 1.1829182947461769e-03 -1.1534221019784408e-03 2.4370928215270427e-03 2.9260964601865114e-02 2.2068745055770778e-03 -3.7492990769653067e-03 -5.8547938008885581e-02 -2.0514654237370755e-03 -4.3526268737523743e-03 -2.9668505177184556e-02 -2.7937438583450977e-03 6.9118506474036279e-04 7.4102347072068503e-04 3.9118946607790139e-03 -1.3041817734037453e-03 6.3400174261191572e-03 3.6019996571627111e-01 2.1853814288125273e-04 1.4989548812842785e-03 -6.6898543162205448e-04 -6.1215884637777496e-04 3.9686588782161802e-04 -2.9432049949669137e-02 2.5102240481450488e-03 -6.3530397687567297e-03 -9.1427364838079228e-02 -4.8258028382295037e-03 -8.6690418650936518e-04 -3.5332309460784472e-02 -1.1534742581957719e-03 1.9864961483824564e-03 1.1332368483785160e-03 4.6739087076513863e-04 -7.6476015188897684e-05 2.0128116994242440e-03 4.8006813152664130e-01 7.4410599923544485e-03 -9.7338625045434446e-04 -2.9084500061715701e-04 -1.7629907696301572e-03 -9.4743104636842157e-04 -3.0131517373467309e-03 8.6235986119724828e-03 -4.0767305164957079e-04 -2.0690073001573950e-01 -5.1828517557201970e-03 -4.6630051927216698e-03 -1.6423031995193327e-01 -9.4177899190291126e-04 4.3896225644127207e-04 1.5540238117797700e-04 -1.4329626650716465e-03 5.2770730557627488e-04 -1.1124202120909032e-03 -5.2420914938837049e-01 4.2674432759275266e-03 2.7269446376576550e-02 -1.4747446454339702e-03 1.3716165545326064e-03 1.1682015159913892e-03 -8.0571352860144829e-03 -4.2672699303899029e-03 -6.4618265097294847e-03 1.5574249484572383e-01 6.5192425489323247e-03 8.2630746269718412e-03 6.8135627143281141e-02 5.1227278002240542e-03 8.5228717857912389e-04 1.0758201442950829e-03 -9.0210516868696224e-04 -7.7276717286343596e-04 2.7243669333726853e-03 -5.9807743304727268e-03 1.3829771936411106e-03 6.6359078116434711e-03 -2.4707606577087371e-04 1.1330910503818889e-03 -1.2202366269926102e-03 -1.3834339924654326e-03 -4.7179247312681416e-04 -1.9223762811076961e-03 2.4265488213667652e-01 4.3659565053036364e-04 3.1847198646055693e-03 -3.7309433212001863e-02 -7.0600458881504846e-04 1.5676741862639260e-04 -3.8209803103234075e-05 9.3424143796635127e-05 5.6716010431934194e-04 4.7904391552155978e-04 2.6927357356280224e-01 -4.6069836972587597e-03 6.0686106261854666e-03 8.9910871699378295e-04 -2.0089134588187132e-03 5.6287791015207506e-04 1.7879856828195012e-03 5.2634583600432855e-03 7.2786573038329146e-04 -3.0121554453777377e-01 -7.3877638036303345e-03 1.5543620690302434e-04 1.3300544630226341e-02 -2.9335014776624216e-03 -1.5921483951092533e-03 -7.0221881602358302e-04 1.4960677178770879e-03 6.4097225671228496e-04 -2.7317944331992500e-03 -5.1267427139588762e-02 5.7202180413140624e-04 1.4733433057943683e-03 1.8046987369638168e-05 2.5973487507457982e-04 -5.3664283983545502e-04 -1.3414922198768553e-02 6.4157397753827894e-04 -2.0492441173325660e-03 5.7623532069229988e-02 -4.8467635128812449e-03 -2.3123807245762906e-03 3.9962780841250378e-02 -3.2348899590163224e-04 -2.5625073480507743e-05 1.1538685200929155e-06 1.4813335663549365e-04 1.1943035967836302e-03 -2.5051618737115255e-04 -2.6069082629001072e-01 3.0298979096122225e-03 -1.0844298361735762e-02 -2.1549430804947071e-03 -7.9375527662353153e-04 -1.4627149176871155e-03 3.4972767747178113e-03 -3.2562413285870326e-04 -8.5768926194608117e-04 -3.4417532428820508e-01 8.2758779644789143e-04 1.3885070874391711e-03 -1.4480105227487172e-01 1.8808209627303567e-03 8.9710406671862858e-04 8.2679191555699990e-04 -9.2984358320729460e-04 2.0504551364367019e-03 1.0889684971094916e-03 8.9788256671368138e-02 1.2930857677541957e-02 -7.5751822184857431e-03 -1.0050586384249341e-02 1.3836014424922667e-03 -4.4932298340329829e-03 6.0546984107818225e-02 -1.2905194079509916e-02 -1.3377526878692092e-02 1.4800841418849320e-01 3.8106247952494982e-02 4.4883628973653930e-03 -1.4987373657845637e-01 1.5225190564280049e-02 2.4689449239370248e-03 4.0652799132767543e-03 -8.8711092787795154e-03 -1.1004670801573052e-03 1.5379341512181122e-03 3.0107528626231883e-01 7.2186459637292640e-03 -2.6208014119641968e-02 1.4679927910046769e-02 -5.1866266314165403e-04 5.4670120418380194e-04 5.0915340330570907e-02 5.3618370479710867e-04 -6.1841837250371026e-03 5.7811163115993214e-02 -2.2075520496786682e-02 -8.7672847906222900e-03 1.4579404216073941e-01 -2.8518592854065064e-02 6.4445259084877013e-03 -1.1405204952240188e-03 -1.4371880740985056e-02 4.9550707742124223e-04 1.6284392470323560e-02 -2.4615585379742375e-01 
      </Row>
      <Row Index="210">
        1.6487009025341712e-02 -2.6157387402837564e-03 2.9533781825148153e-03 -3.8045631785012619e-03 -1.9890925520841700e-02 2.9653072159705790e-03 -5.2911465803594324e-04 7.8373298518132767e-02 1.1073172828710981e-03 -3.0792504259095521e-02 3.4771079308281031e-03 1.0437019539111352e-03 6.1033980289435963e-02 1.3263189205451687e-03 -1.6073359657553868e-05 -7.7690089569577652e-04 -7.9948803853086350e-04 1.0446461442456968e-04 -1.9426630157514738e-03 9.2473421520290200e-03 -4.2089797662957583e-02 1.6655357075627333e-03 -8.8707301227238444e-04 -9.3137943052425815e-03 2.4319292322134423e-03 -2.7391010671159420e-03 2.3989382745779674e-02 2.5393254380846678e-03 -3.7819269325023552e-02 7.4692061610626727e-03 7.0791433275920468e-03 -5.2081839479008352e-02 1.9719208846421350e-03 1.2741519792086684e-05 -1.3854688095700160e-04 -1.7564365599781516e-03 -5.1606133681354749e-04 -2.6469162124087391e-04 8.6976887378339141e-03 1.7132036747491516e-02 9.9182386942576854e-04 -1.2527216849999813e-03 -3.4453593081698319e-03 -1.3498417385879834e-03 -2.1876021729923256e-04 5.6606199037633129e-02 -1.7652870323768659e-03 -1.7876024219889874e-02 -8.1636154122607246e-04 -5.2407516228300532e-04 -6.1938154424012737e-05 1.0671084364873105e-04 -9.3942813172957773e-04 2.4035944679509989e-03 1.5862541429702733e-03 3.2797887112999760e-04 4.8522939476850109e-04 3.1212518177941018e-03 2.0615554747964015e-02 2.3311455876834884e-04 4.6952699716661800e-04 1.6652970436149828e-03 -1.7849293725765228e-04 -8.9022122866731779e-04 1.5625985644295824e-02 -8.0724774978672281e-04 -1.7131450963905115e-02 -1.1630076534672497e-03 3.4111120325872046e-04 1.8077888640917195e-03 3.3904751787094964e-03 -2.5334863828335597e-03 1.6443960595821129e-03 1.0390563832046468e-03 -1.5721839311590158e-04 1.9734244160431701e-04 -5.8607775097506587e-02 8.4721222242456248e-02 -3.2324721957717635e-03 -2.2736634433695446e-04 6.7986550436511806e-03 -4.1775183405002216e-03 3.7683651654397757e-03 -1.5477511112721570e-01 -3.5689693379274412e-03 1.9161962155638257e-03 -1.1040437062835001e-02 -7.4242327441257534e-03 -1.0768704188612421e-02 1.7474822163754712e-02 4.9242977687789617e-04 6.2099905542557440e-04 2.7044515115678455e-03 7.0669640887355556e-03 1.8618142267289445e-03 -2.3246710511075186e-02 -5.3665002600706826e-03 -4.2658006491920197e-03 5.0186337424492754e-04 2.4880757531487926e-03 -1.1092219209253283e-03 -1.5938028922908229e-03 -2.9126885357653521e-04 -1.5524785024621877e-04 -1.1832386599832309e-02 1.1802459716565433e-03 7.2141377059237047e-04 1.1549089989477013e-02 1.3047533965102531e-04 2.5539266815224199e-04 3.6763410492260558e-04 -8.7405011544072482e-05 5.3636105910700310e-04 5.1129078222745075e-04 -5.3258943373831746e-03 4.0628823385807662e-03 -1.9766562410901412e-03 -2.5547225989423425e-04 -3.2090964353373571e-04 2.7368918070364116e-03 -3.3356141142127510e-05 -2.4014185647714549e-02 -7.3311016054761896e-04 2.1488064381551153e-02 -6.1422131963386264e-04 -6.7726079945983596e-04 7.4984136316071925e-03 2.5581421156438888e-04 -4.4462429097277996e-05 9.4801920919401761e-05 3.7311019253779946e-04 -1.1806215700218003e-03 4.7572445987181800e-04 1.2345739632658420e-02 6.4607880640511744e-03 9.8011789587107347e-04 -6.1679364600079607e-04 -2.5413889584861528e-03 -1.2583000747888951e-03 2.4532834648994910e-04 3.3317558869531687e-02 -1.4172882442190480e-03 -2.1075242530570543e-02 -1.5649240256589590e-03 -7.2578814781472834e-04 -1.8840166714067408e-02 -2.3892632871938416e-03 5.2350430747371255e-05 -1.9093954881050517e-04 2.5775537666898629e-04 5.7893791170792315e-05 -2.0942200972571580e-04 2.3083700534978213e-03 -4.3471115459786866e-03 1.2682280237490701e-03 -2.2783535135942855e-03 3.2628077744720207e-04 -7.1717298583261202e-05 -3.1485481679966107e-03 -2.5171832780242848e-02 -8.6235125476877522e-04 -1.7469765280341498e-02 3.9493686442497277e-04 -2.5366155610833524e-04 2.0702411327903292e-02 2.9767466212218992e-07 -6.6264381222462380e-04 -3.0660859654459312e-04 -1.6515663533521532e-03 7.0758273517379511e-04 -1.0807440043947361e-03 -1.5131404468551657e-02 5.7783100167858427e-03 1.2651671879978996e-03 8.6241592122906878e-04 8.8098696542164004e-04 -3.7608122368523213e-04 -9.9253704821622782e-04 7.8778880149532743e-03 -1.2152063115268346e-04 -3.0478829147674108e-02 -3.2167242268552965e-04 -2.9405433981857841e-04 5.8025519915127610e-02 6.4604942700033049e-04 -4.4359737052085987e-04 -8.4496024058619069e-05 5.0386742897735003e-06 1.3287763693050104e-03 -3.9374502130854480e-05 -2.5860428663118273e-02 -7.6070126035335639e-02 -3.2625366060771450e-03 2.9392447649626008e-04 2.6119616240331488e-03 6.8226076400323445e-04 -1.9781886859658038e-03 2.8275992241587718e-02 1.5113466462111950e-03 3.3574701972634013e-03 6.6562630843043091e-03 -5.0869272892533086e-03 5.3005994023354042e-02 1.8054781579090622e-02 4.0193661575480735e-03 -7.3164804389604988e-04 -1.6101570526265941e-03 7.3969890229590128e-03 -1.4490343733831925e-03 7.2186459637795658e-03 1.3052201027717905e-01 2.4057023557638242e-03 -1.8266169657721217e-02 7.1434746020075726e-03 -1.6812674122128734e-03 5.2280228490735742e-04 -1.0365390896294530e-01 -1.3108286968378582e-03 3.5378360650933516e-03 -8.6591245173128772e-05 -7.3662940617860717e-04 -2.7567920556335918e-02 -7.2278422983303822e-02 -7.0089466816837479e-03 -3.0300839064423238e-03 -2.9580479825607226e-03 1.4741628617600221e-04 3.4926796022975350e-03 1.9883621833870629e-02 
      </Row>
      <Row Index="211">
        8.3352866346355775e-03 -1.0900797630600222e-03 6.2439236264186397e-02 -4.4567691032457533e-03 -8.9772690029111812e-03 1.8621677445230201e-03 -3.8354938637350363e-03 1.3984792389169567e-03 -9.4821271460769976e-03 4.0950434907114808e-02 -4.9050844019448859e-03 -3.4790078839650601e-04 3.4256201968676514e-03 1.3731744399570929e-03 3.2202808928138288e-05 2.0790756710338835e-04 1.6005932619492236e-04 -8.0725743907801573e-03 -1.8114662279304465e-03 1.2408470843676966e-02 1.1618202704445288e-04 -2.5372855650650478e-02 -7.4287276482154071e-03 -8.0508106482801989e-03 -1.7613680339437776e-03 -4.4112153030391107e-03 2.4554773856138600e-03 -3.2286895248706815e-03 -4.4459835094361522e-02 1.7913489253190348e-03 -2.3200003413395009e-03 8.9178656735882100e-03 -3.6767006791667972e-03 -1.9361573143731117e-05 -6.2667239100867855e-04 4.6181432774045241e-04 6.0949208898172791e-03 7.9245798168620443e-04 -1.7549026918870170e-02 -2.3009174693602516e-04 2.2846281218539613e-02 1.1772760325266980e-03 -1.6485333089159906e-03 -2.3537505567936337e-03 -8.7598173456421291e-04 -7.9533981554752442e-04 2.9838489399330592e-02 1.0700740985025714e-02 -1.0942432562566010e-03 7.6574418858632587e-04 1.5862639611583518e-02 2.6246529692319038e-03 1.0331725863772928e-03 -1.3384988720306339e-03 -1.1677012484480331e-05 1.2322107431575260e-03 -2.6593913360228177e-04 -2.6854606092118871e-02 -2.4631662881049315e-04 1.3754571332018944e-02 6.8547554459691962e-03 1.3784953533877153e-03 -1.2356003038363622e-03 1.1170916084113497e-03 -1.2482562185409246e-03 3.5658384254060274e-02 2.0849975831353618e-02 -2.3807047731125575e-03 9.3128570123823806e-04 -1.2337641103805197e-02 2.6023140111923401e-03 1.4134579486549280e-03 -8.8277936199970125e-04 -6.7099294721875355e-04 -5.6780197513391917e-03 1.2186168199065234e-03 -4.1885185832084559e-02 9.0605419958059152e-04 2.1588904067551117e-02 3.6284686871069782e-03 3.3423334236472035e-03 -5.4582159960472193e-04 4.7207823870472621e-03 -7.3579598411782632e-03 9.4204071726053940e-03 2.0293829504151262e-02 -3.1394335372267601e-03 1.3067941386770282e-03 -8.2900654839921373e-03 7.6572706644055522e-04 -4.6208180728479070e-04 -6.0352902693884547e-05 3.0489580069816349e-04 -1.2232253107565261e-03 -1.0253050095961336e-03 2.0029960346899633e-02 2.2843818335762447e-03 -1.0883605193372844e-01 -7.4277402964979689e-03 -5.0873019339106942e-03 -2.5573909137373216e-03 -5.4523962038454041e-03 2.3654954959812739e-04 2.7422324370506283e-02 -5.7518630285717111e-02 6.5777855954532432e-03 -2.7117572761216641e-03 -1.3406101872951659e-02 -4.5372421725112366e-03 6.7528938263619262e-04 3.6025513382119818e-04 -1.0913563435186987e-04 -2.9340655737704309e-03 2.3220100512610820e-03 -3.1072197530741530e-03 7.7458231624669138e-04 -1.7254191878198238e-02 -1.6858575206969637e-03 -1.2393710442072207e-03 6.6738647468495768e-03 -6.7109475440711719e-04 -1.3986120382220406e-03 2.0172332776060911e-02 -3.7475776607981182e-02 1.7032937087618077e-03 -5.7856751809143552e-04 -8.2738152034522727e-03 5.2647977033039783e-04 3.9624644589339800e-04 4.5828345830872808e-04 -1.3690933887659188e-04 4.5766304381780754e-03 1.3532434824635731e-03 -2.9354233710575106e-02 -2.2995864252805392e-04 6.7365289139896412e-03 3.1548062079354892e-03 -1.4703263435630817e-03 -1.7504406544837335e-03 1.0433409758079642e-03 7.0075927162095708e-04 1.2399616052297772e-02 3.3463264643330312e-02 8.8095378609624742e-04 -1.6513040653854186e-04 -2.7743844465142331e-03 4.0545305513502595e-04 -1.9696972887545635e-04 3.4356986884284788e-04 -3.6821561876228910e-04 2.2305516387891760e-03 2.9197659962485432e-04 1.0337802139203323e-02 -1.2903747436956992e-04 5.8720084679249650e-03 -1.8680586473280372e-03 1.6294988769979812e-04 2.6489706306739857e-05 2.2922941532876606e-03 -1.5886321831111161e-03 9.7348597007915223e-03 1.0455783344836878e-02 2.1418614980731640e-03 2.8373225282931069e-03 -7.0137323417540642e-03 -2.2595817613291994e-04 -1.1645187179378132e-05 3.3645713435121252e-04 -2.4360579302780405e-04 7.3053034596126665e-04 3.6094065983344192e-04 3.7603164549179335e-02 -1.2288328797304578e-03 2.0748175341772975e-02 4.8371350776575655e-03 2.9662698129883066e-03 2.8686356258538528e-04 3.8524808671987817e-03 1.6797275589208911e-04 4.5289113405544146e-03 8.3719628687332348e-02 -1.5701886636566853e-03 1.7998903295994304e-03 -2.2822580021113481e-03 6.0405651282660568e-04 -1.8418538339819935e-04 -2.1264396082463534e-04 4.1740974546100248e-05 4.9252844735810999e-03 -4.3020187100724968e-04 4.1908191243730020e-02 -1.6581945837569612e-05 -9.0701635453967783e-02 -7.4511309687032116e-04 1.2099687273486193e-03 4.4837478362526051e-03 2.8446082165765052e-03 3.9260269919033719e-03 1.3159462514799200e-02 2.5002249983061553e-02 -6.1553346498380516e-03 1.1029870961666746e-03 5.1908783797086855e-02 -1.4426189545217738e-04 -1.1859990553397971e-03 7.7017009758069475e-04 8.7080616114086455e-04 8.6932867717773900e-03 -2.2851597734119995e-03 -2.6208014119603745e-02 2.4057023557530529e-03 9.4438196624268500e-02 -4.2644272500314447e-02 3.7792055168305860e-03 -2.4449063616220168e-03 -9.1196608691968689e-04 -2.7539196835155103e-03 4.6252322228405154e-02 -6.2083748429280234e-03 9.3686193777284561e-03 7.9673339377775432e-04 -5.7596174795455507e-03 1.4334176786026193e-02 7.3125341631666077e-03 3.0356132620805009e-03 2.9612128358270234e-05 2.9026155497843056e-03 -2.0638134482295861e-03 -4.9897004906138721e-02 
      </Row>
      <Row Index="212">
        2.8722145077642591e-03 7.5352689662413971e-03 -2.7803345346867681e-02 6.2021200497491991e-02 -1.5594453081185045e-01 -4.3617833295220825e-03 2.4995745221410192e-02 2.3926660132156233e-02 -1.5792291018086269e-02 1.3947828112521599e-01 -7.2665650973405965e-04 3.0600486954582562e-03 3.3448964081680188e-02 -1.4939806093829536e-02 -6.0304216471856326e-04 9.2500231854342370e-04 2.4278591725207660e-03 6.5696818732777634e-03 7.3097810410431355e-03 -3.3588045937340549e-03 8.5662836148910487e-03 9.3412214958052964e-03 2.7652604032331690e-02 -9.1407998132416846e-02 1.7151786719381557e-03 -2.2424079819075654e-02 1.7462302451358866e-02 1.7559629944491617e-03 5.9016438068335786e-02 -2.3915823049198426e-03 5.6158978816273075e-04 -1.9427687871498733e-02 -8.1301129462370801e-03 6.7211139868777331e-04 4.5823559044824713e-04 6.4168270922713619e-04 -3.7992833225292899e-02 6.4119171913249312e-03 1.2456298368466401e-02 4.7792854923490004e-04 -5.9043307002051432e-03 -7.5703787759170207e-03 -3.7236766997053167e-02 2.8087772874222289e-02 2.9272621136930965e-02 1.5077376740333215e-02 2.0982388405280855e-02 -3.6121315999785963e-02 -7.6425785659392509e-04 4.1670112078422417e-03 -4.3909220008231387e-04 -5.3271551402572781e-03 -4.0733875200143488e-03 -3.0446610311465686e-03 -8.6462951451543035e-03 -2.5100363065682918e-03 3.1487857641783468e-04 2.9737363865634858e-02 -1.7746294315852951e-03 -4.0180034183413607e-03 -4.0808950343306477e-02 -3.6053427519356029e-02 1.6141012804590918e-02 -4.2208742768489960e-02 1.7074162568421203e-03 1.5486813711316993e-02 -5.0965296287328599e-02 -1.3875547997553306e-03 2.9999068130459328e-03 -1.0498591320725836e-02 -9.4931823668590806e-03 -4.5362381749309358e-03 -4.7792456470223121e-03 -5.1324107365686295e-03 1.6724361647139641e-02 -2.2778566617609464e-03 2.9797618658719216e-02 -2.0278317285742808e-02 -8.9501579614933435e-03 -9.5365769208044515e-04 -8.2613954153345492e-03 4.5737598626323789e-03 -1.9719070962825491e-02 -7.0687209100792181e-02 6.7055497616941295e-04 4.4396202678953500e-03 7.3612141751920879e-03 2.0189812044531796e-03 3.1271806056132334e-02 -1.7899181403986261e-02 -1.1584894472662921e-03 -1.3751463252294760e-03 3.1907648038877745e-03 -4.4163188164076939e-03 -1.2498522691395397e-04 -1.4485140270910080e-02 -2.1037866204847780e-03 5.6782314084505708e-02 -2.8925887352204895e-02 1.0084842057376225e-02 8.2317210941194596e-03 3.7908064562680172e-02 1.3640059277629409e-03 4.7884693404327952e-02 -5.6997495888437777e-02 1.2099782298137240e-03 4.5268116419699481e-03 2.5195943997085024e-02 5.1337205683895971e-03 6.1907903715959639e-05 -6.2644155118514488e-04 -4.3171336015421658e-03 1.9243675340942314e-02 -1.1913514754576908e-03 3.8522030961276599e-03 -2.3869719140642287e-03 1.4613750322534313e-02 7.7811891101520897e-03 7.0401328014916449e-03 -4.9535868543043066e-02 5.3812792310253266e-03 -1.0023495961071022e-02 1.7654346403844001e-02 5.6800775523862868e-02 -9.0340518977605200e-04 9.3874867046474415e-05 1.1668746456052759e-03 3.1215336919996010e-03 -1.4574884599755783e-04 1.2849541204060233e-04 5.0463334724518659e-04 -9.4868925806586013e-03 -5.8508448023752990e-04 1.8299308243351131e-02 1.7605335530359312e-03 -3.5656407899692238e-03 -1.8552333322715199e-02 -2.4719069001100900e-02 1.7713049737923987e-02 -1.4949177920010152e-02 1.2172140533641032e-02 4.2337483224691736e-03 -5.3399178417799342e-02 1.1062153620696250e-03 -1.7385250196737465e-03 -1.3669362970389898e-02 -8.1406339549034909e-04 6.3103637584211239e-05 -3.6193096914361421e-04 -9.2031334830027216e-04 -3.1618901494466726e-03 -1.2682552751701118e-03 -4.7656866884544513e-03 -4.0398650726000129e-03 3.1413671674801963e-03 3.1392024413397633e-02 2.4563543972854651e-02 6.0293521869601296e-03 -2.2676976037475149e-02 -1.4343082009517838e-02 1.2760942773166655e-02 1.2389638766888300e-01 6.6281309479388380e-03 1.9254006501301935e-03 -1.0754794889962227e-02 8.7762050788823803e-03 -1.5630986549055662e-03 -6.7804420397599152e-04 4.5809203999112036e-03 -6.9057871198707765e-03 3.3550333391035858e-03 -2.0194438854053587e-02 5.4111938218714614e-04 -1.1872111239128662e-02 -2.7536752407147865e-02 -1.2415550318246350e-04 1.8345087516236647e-03 1.5247875898040122e-02 4.3826892787206251e-04 -6.7347075491886437e-03 -8.8514511293533937e-02 1.5087459151864081e-03 4.6212997584402574e-04 5.2205708052952104e-02 -2.3441892119307195e-03 -3.9234811176120906e-04 -3.6862976070009719e-04 -2.2469455092163438e-03 -3.0197103966133620e-03 -6.4308636913583059e-04 -2.4152874206945008e-02 1.6432176183332786e-02 4.9522681073553843e-02 -1.1259060945862263e-01 2.7858322633784460e-02 -1.9164466828162405e-02 1.1789616032708772e-01 5.3848026561748273e-03 4.2445413218364855e-02 2.2867758689253392e-02 -3.5027003080340957e-03 8.9925726337925591e-03 5.7865360979832303e-02 -1.2803649590644516e-02 4.6166922596620405e-03 2.9508234729248234e-03 3.0166315490799400e-03 1.8008736444689907e-02 7.4579084808474583e-03 1.4679927909995061e-02 -1.8266169657789391e-02 -4.2644272500320282e-02 3.9394705825987919e-01 6.0432044628460982e-02 2.2375728589648453e-02 5.9418609455123700e-02 -3.3634561395883389e-02 3.3559854284363491e-02 6.3412557733283359e-03 3.5035515998383164e-02 4.2625014845587561e-04 -3.2797099604127744e-02 1.6877452257566850e-01 -1.5069588881293644e-02 3.7123548743552767e-03 1.1474542002197947e-02 -7.9688283846927957e-03 -1.0727636647950022e-02 -1.7814636992583649e-01 
      </Row>
      <Row Index="213">
        4.2913133382476987e-03 -1.4851675785284091e-03 3.3921991947724606e-04 -2.2443187017398419e-03 -1.6696337824262364e-01 1.2138445408194608e-03 -3.9845539161887751e-03 -1.0906549309605378e-03 1.8177471368454462e-04 4.5805083844834726e-02 1.9748110701900932e-03 3.7247670139671507e-04 5.0271638110075401e-03 1.8042605366163393e-03 -3.2451373842317527e-04 -5.3347169188606384e-04 -6.9112797546094784e-04 -8.9326659634837019e-04 2.1891985372270162e-04 2.1312264263404490e-03 -3.1899257917903066e-03 -2.6627624306847092e-03 -3.1089262216325848e-03 -8.6474517743620721e-02 9.2720814757284165e-04 -1.6899369609010562e-03 -2.5904281027872033e-03 1.4836771574526578e-03 1.4771918155122687e-02 7.7090942009070546e-04 -1.1871288164780336e-04 -5.5097109786714782e-03 6.4899384839489302e-04 -2.8005618582704027e-04 -3.8231892196469164e-04 3.2630433224476086e-04 -3.1721558131203031e-03 1.5823428721362665e-03 -6.4969846133117182e-04 2.0555134105722695e-04 -4.5594204951512896e-04 -2.7879285369330209e-03 -3.7994836796653927e-02 7.8962937943656553e-04 -2.0791948925188986e-03 -1.8068795652847330e-04 2.7847879416106891e-03 -1.6972739437761675e-03 3.3659044117412273e-04 1.0479139405720761e-03 8.4259510267266080e-03 1.5407052222959853e-03 1.6839263407009142e-06 2.7695310019564510e-04 1.2275947733339093e-03 2.2853098871806754e-03 8.9758693881105897e-04 3.9827474434432908e-03 7.1336975664877331e-04 -7.9964231511977721e-04 -7.5232681757528008e-03 -1.8267333312991491e-02 1.9409889925312354e-04 -4.1456371237580530e-03 -9.7810690870971106e-04 3.5722034786392354e-04 -6.7730298485502161e-03 -6.3488097713467612e-04 7.9540592824144801e-04 -5.9692622105487203e-03 9.2873905332836043e-04 -4.1666990018872710e-04 3.9661494822293419e-04 8.3719264602633015e-04 -1.6881167379295958e-03 -8.2658635425159749e-05 -1.4171270380956003e-03 3.8745694181743229e-03 9.5001748027294386e-04 -6.8906388434625265e-04 2.1035908961875016e-03 6.6389493949855702e-04 -1.9731653140121486e-03 8.1845360218519847e-03 -1.0708468507025781e-04 -8.9527852641122507e-03 -1.4467348084298837e-04 1.2026027617108165e-03 3.2391621188505582e-03 1.2440117009283845e-03 -3.6642159454621653e-04 -1.2635053241269456e-05 -4.2022720386463569e-04 -3.7112755599494340e-04 -3.6016207315170412e-04 -5.5489004437658807e-04 -2.0985488725016807e-04 -5.8782391929776689e-03 -4.8875683306773710e-03 4.0424615567055538e-03 -4.3709414381801551e-04 -1.3430988400926006e-03 -4.9998480932325357e-04 4.9895937466795572e-03 -3.1439086384373642e-02 -3.4519586085397444e-04 1.7693756328631665e-03 -2.0031170789964747e-03 2.3555911931229939e-04 5.1786043550620074e-04 3.6450357887477837e-05 -3.7321571428033159e-04 -4.3916988617796748e-05 3.0512384918409590e-04 -7.5100444056808158e-04 6.5780391795648707e-04 -7.9113967265889706e-04 7.3526379552214111e-04 5.0221179305075274e-03 -1.9740919978952082e-03 3.0140701924058488e-04 1.5423167421251341e-03 3.1681361177659795e-03 -2.2208814721924597e-03 -1.0371861599214882e-04 2.7168555225577651e-04 3.5598558106073597e-03 -2.9658908100612573e-04 7.1766169461579335e-05 1.1810489173372241e-04 -3.0207083012652263e-04 -4.2505825009453435e-04 -2.2969459323307628e-04 1.5888462876789688e-04 3.0580409277822240e-04 -6.2938139126227088e-04 -5.0693188378989869e-03 -2.3933287837673040e-02 -2.0373385279421480e-04 -3.0793904710922637e-04 -9.9592352876689758e-04 -7.0406235274155676e-04 -1.3249689341499254e-02 -3.7482396622746592e-04 1.1805654328537864e-03 -4.8668612305426961e-03 -4.1017505407093570e-04 1.0349064285802037e-04 -2.5523274194615099e-05 -1.4152930271688980e-04 -2.2708529174793774e-04 -3.1113342532106819e-04 -8.0216762977869394e-05 -9.3542130419815850e-05 1.0163945608522855e-03 4.5162684120987166e-03 1.9742814302892486e-02 9.3351390597969097e-04 -2.9267732501447874e-06 1.3637948004893152e-03 2.8031469949399172e-03 3.1516759930876326e-03 -9.0993449115129210e-04 -9.1746134702558324e-04 2.6812392735848789e-03 1.9482758594870607e-04 -3.0090759872873109e-04 -1.1419635739877074e-04 6.4025489731500684e-05 -7.4485953855052411e-04 8.8279435667693029e-06 7.9770279208829509e-04 1.4214643956490282e-04 1.9240446315053807e-04 -3.5261243267835952e-03 3.1476364646433677e-03 -5.1069104915316382e-04 2.3214303246621784e-04 -4.5269250863944760e-05 -1.7030433455186688e-03 -9.5208380562359363e-03 -2.7210156573888832e-04 7.9914628711470585e-04 4.6356048890903168e-03 5.3611009466205902e-04 2.1241569401862711e-04 -9.6587221954512904e-06 9.1361664311598225e-05 1.7359752919009486e-03 -9.7457855829008802e-05 3.0067100132100677e-03 -5.2790278285638481e-03 -7.7220620872324036e-03 -3.1189978176440411e-02 -1.6701452810115872e-02 -3.5227924225525800e-04 -2.7887024992319931e-03 -4.3701621837577975e-03 8.1612203589138781e-03 -2.6895865185406764e-02 3.0539761813683994e-03 1.9068106702444863e-03 2.2395033309422274e-02 1.7745931527177870e-02 1.5095085548622635e-03 -8.1515383132797596e-04 -4.7458582655931485e-03 9.1701863834504228e-03 -4.4937223660694234e-04 -5.1866266309869014e-04 7.1434746019831685e-03 3.7792055168262388e-03 6.0432044628507889e-02 6.5249512705107676e-02 7.5707732863224131e-04 -3.2323244750173674e-04 2.6402514772000119e-03 5.0971919408328709e-03 1.8913347534538633e-03 -5.2521910871482017e-03 -1.0235274043745302e-03 -5.3410473267859471e-03 -1.0492717323648384e-02 -2.1600094318399293e-03 -8.0570063208313357e-04 -4.3245486503451676e-04 3.2036543037602949e-04 -1.0071835338397979e-03 -5.7872948620114571e-02 
      </Row>
      <Row Index="214">
        -7.3138475577166906e-04 6.8473286555624079e-04 -1.5096178893963252e-03 3.4720095769029975e-03 -2.0853382095577383e-03 -1.6192225826665966e-02 -2.1137423273407717e-03 2.3260270324228956e-03 -2.1133936782774254e-03 -1.5476479331754778e-02 7.1350108166019083e-05 7.1995810999143928e-04 -6.5504256753192713e-03 -2.7278298006805915e-03 7.1692325655282191e-05 5.3699851733016841e-04 -7.1820525124471207e-04 2.0603815533564761e-03 2.4264322073738742e-05 -1.1631638918718212e-03 9.6763881259267874e-04 7.9745131728548024e-04 7.1590529892513917e-04 -1.3742955127977463e-03 9.6932727542595187e-04 8.1639047800787651e-04 1.6278398277114047e-03 5.3031001175457906e-04 -1.2886734758649654e-02 -3.5964977453216418e-04 3.8797658748455921e-04 8.3088323430047240e-03 -1.4305629527700319e-03 4.1664990428185063e-05 8.0968834464679312e-04 -9.9002088594275740e-04 -2.4867006758365617e-03 1.9669533574465901e-03 -7.0094322583041935e-04 -4.1335441389053643e-04 -3.6671956355268515e-04 9.1543041429754252e-04 -8.5766383159451010e-04 4.3292385343138950e-02 -1.5214321747248349e-03 -2.3089318553844509e-04 5.5539908069254101e-04 4.2465542451290972e-03 1.3259524512251805e-03 -1.0077726389823294e-04 9.5271820759403880e-03 1.6625967917233125e-03 3.2599773051256165e-05 2.6177199950483850e-03 -2.7822430917306962e-03 -1.5685345544004248e-03 -1.6939696671174828e-03 2.4776637405762303e-03 -3.8948659206391317e-05 -6.1128274748078332e-04 -2.0429727765379352e-03 -1.2147656424995878e-03 3.3945800626969773e-02 3.0791836276373719e-03 -3.7179323039672474e-04 1.0262811728152105e-03 1.1347711269547034e-02 6.3356221759366255e-04 1.7391771417712976e-04 1.7411651279033435e-03 6.4448062964115975e-04 3.8024867694217779e-04 1.7197721940784734e-03 -3.0407850724838842e-04 1.2151393143398082e-03 -1.7170500515604342e-04 4.4182915486059571e-03 -1.1434265097933771e-03 -4.8445564845320949e-04 -1.5382198728168539e-03 -7.4479862201293212e-04 9.6309337134574402e-03 1.8280739907136079e-03 -4.3187151431350879e-03 8.7290516813443020e-05 2.5092510158485126e-02 2.2429486437253177e-04 6.6751529117650005e-04 -1.6321127912053868e-02 -2.1756542253576379e-03 -4.2319502676673587e-05 -4.9271847948106906e-04 2.2041724377404662e-03 -1.9715777240744276e-03 -1.4210318967688984e-04 -7.1422467812598533e-04 -3.4517788322767883e-04 2.4023537531919353e-03 -1.1943312609151158e-03 -1.0553370604390877e-05 1.9562317891088830e-02 -3.9036128077780952e-04 -3.6466781705799260e-04 4.4045964119457069e-03 -1.8843436926750154e-02 -2.4159834223247759e-04 6.2032706102919683e-04 -1.2009517191775121e-02 1.4078112462291232e-03 -1.7838993910587568e-04 -1.3814955397957595e-04 -5.6753955886682190e-05 -1.5009241570212040e-04 8.3586106721411473e-04 -4.3314807142149636e-03 3.1055109382682675e-03 7.3156475332192272e-04 -2.0009868084272693e-03 -6.1149720489713996e-04 -9.2028319512833856e-02 -7.2452061833303688e-04 1.2282848030197198e-03 -3.9591164769326032e-03 -3.0919825021644698e-02 -2.2333973348621500e-03 8.8362904474311669e-05 6.9394755771146066e-03 -4.5026391805014238e-03 1.1076732894523215e-03 1.6774386661199923e-03 -1.7345937124042187e-03 2.7971978212399939e-03 -2.8870145025430838e-03 1.8317084667465178e-03 -9.6252858679569953e-04 2.1130371226533301e-05 -4.1858774408186339e-04 -2.0533749962415009e-04 3.5828931192937535e-02 1.1269717875893263e-03 3.1504650324274200e-04 1.2504163157880197e-03 5.7312514163004452e-03 5.6689241332547914e-04 9.1270945921679072e-04 4.2926659358215602e-03 1.6048414632156187e-03 -4.0889978406657577e-04 -7.3304193383432999e-04 6.3109715510775472e-04 -1.6331298664595286e-03 1.0326619384492097e-03 -3.7275572466204387e-03 -2.6880038139068946e-04 -3.5828900695651276e-04 2.4773894016672446e-03 4.0056666838375610e-04 1.5300642078314372e-03 -4.4135567764037875e-04 -1.4342052603180666e-03 7.0162805678886380e-04 -1.2505160203783339e-02 -1.0675821349168349e-03 -8.9020873387329891e-04 6.6759186990523744e-03 5.3082623287644022e-04 -1.3363716433677057e-04 3.7130222690022474e-05 -6.2044586660301576e-04 1.5411090703912333e-03 6.4472075048994937e-04 -3.0676691855791027e-03 3.9789072257737264e-04 -6.2750448405327628e-04 -1.2533459444631669e-03 -6.6351094323350386e-04 9.1571773758050805e-03 -1.8776328599139427e-04 3.4266472605445474e-05 -7.2681618375270221e-04 -6.0196410963400115e-02 3.9574756004780165e-06 -3.7047797706656928e-04 -2.1416725963250727e-02 2.3390882054408107e-04 4.2279824800820517e-05 1.2952811520775638e-04 -2.7036844161978935e-04 3.5797360308251897e-04 -1.1261331368756303e-04 -5.7877316264902667e-03 2.5621067634294045e-03 1.7447174940703608e-03 -2.4384633906297162e-03 -4.1416278314761103e-04 -3.7081670721460430e-02 -5.3115511456230946e-03 1.2922579094367731e-03 1.3252184401787177e-03 -1.2432659423304382e-01 -7.5055496681111430e-04 -4.5338141790838248e-04 -1.1535354917526774e-02 -2.7996217658303769e-03 9.0071800759938987e-05 1.2033266467759004e-03 -9.8367789724842190e-04 3.9081965190118657e-03 -2.1348714692442927e-04 5.4670120419275658e-04 -1.6812674122263997e-03 -2.4449063616230971e-03 2.2375728589655006e-02 7.5707732862975632e-04 3.9179612668749947e-02 -3.2416138262142957e-03 -1.8291134550483899e-03 1.9079134423105413e-03 4.6667586718771052e-03 -5.5448369033484343e-03 -6.9387699611198062e-04 1.2619600548420290e-02 2.0321941118413421e-02 2.6955190739018121e-03 -3.2441760003448215e-03 9.1752105894245956e-03 -4.7330341204388469e-04 -6.5492773790253650e-03 -4.2037090248568575e-02 
      </Row>
      <Row Index="215">
        5.8225896014178130e-02 1.1545287348233430e-03 -5.5542474729444735e-04 -2.4457818528789838e-03 3.4881742709281238e-03 8.6705695925175241e-04 3.0927281561382558e-01 3.8380963234344034e-04 -7.6118110598434596e-04 -3.5762161436086792e-02 1.2352151789014235e-02 -7.1390971469057485e-03 3.0121433599978875e-01 -8.8884444802100077e-03 -1.0541595466075221e-03 -8.3089460144147344e-05 -1.9657050151161426e-03 -3.5184022033120439e-02 3.8261380437545865e-03 -5.9210484039441180e-02 -3.5180973507868696e-04 -4.7573326453283216e-03 1.0882567170620066e-02 1.7806188261414446e-03 1.7998009285226657e-03 -9.3655480989109280e-02 2.2203481774349630e-03 -2.9502338825376784e-04 1.2707737123102325e-01 -4.6740775168739729e-03 2.7977190082806858e-03 -5.6036911722144112e-01 2.9986626881190487e-03 1.0022981805302943e-03 1.6079259661565259e-04 5.3158612785854627e-03 2.9827344271291412e-02 4.6348317287171897e-03 7.4234679133350912e-02 2.1857930969317171e-03 5.7912822846195589e-04 -9.3741602138862623e-03 -1.3033455754750678e-03 -6.5884585932649842e-03 2.1863986791586659e-01 -6.7866200157568057e-04 -1.0717633378276165e-03 -2.3715223682351994e-01 9.8834881769665345e-03 3.4839083709348184e-03 -4.1945901380573503e-01 -5.9571525590242543e-03 1.1707671165225864e-04 1.8561355431269064e-03 6.7545961715824998e-03 8.5827521787880945e-03 -7.1936078668356773e-03 3.1615279707938093e-02 -2.2090658700853819e-03 -3.7492908007971462e-03 6.5484451554475576e-03 2.4460496341305316e-03 -1.5754517463492587e-03 -2.8958722825857064e-01 7.1601200366072648e-04 2.0055618766132155e-04 1.5257067219045339e-01 -6.8315484578144597e-03 6.5122545554235911e-03 9.7298091725221525e-02 3.9385789127496171e-03 1.4550933921086903e-03 1.7172763773830313e-03 4.7482712870659249e-03 -2.5912433791482281e-02 -7.9365743311711826e-03 5.3589201138781739e-02 -1.0382378806752524e-03 8.9121245060316823e-04 4.2864714546729799e-03 -6.2177084521051196e-03 -1.7086522998537024e-04 -1.2833533839587813e-01 -2.6877041763073706e-03 3.7709187754537687e-03 8.4171527983219363e-02 -1.5070113573976696e-03 1.9337581856904151e-05 4.0992720865263621e-01 -1.1799429631376146e-04 1.4720307775185903e-04 7.9743336483274752e-04 -1.0798716593662244e-03 2.0958322370613902e-03 -1.4336616518073608e-04 -7.6688739231816738e-02 3.1269759254418661e-03 3.1311683935103807e-03 -1.4648152540330635e-02 1.1252995101764529e-03 -2.3886822623673878e-03 1.3652503466722321e-01 -8.1823012996005452e-04 1.3509231066694966e-03 -5.5872308288998640e-03 1.2437253444160561e-02 -5.0459624343702249e-03 2.8208184150606819e-01 -3.8033136008611378e-03 -1.8630664503047970e-03 7.5037740375284029e-04 -4.0001425097482878e-03 -2.0486408833964714e-04 7.8710458965485265e-03 1.4879074608942666e-02 -2.1560844712389948e-04 6.5210186198522146e-04 2.0368601189220403e-04 -1.1003416450747552e-03 5.6682347660392263e-03 2.5720025018984183e-02 9.1689147718369834e-04 1.5690669814238944e-04 -1.3545498064493344e-01 6.3514215241833316e-04 -2.5131741502963799e-03 1.4458733758657161e-01 4.3304054641993620e-04 -2.7851108378272593e-04 -3.8006434325693617e-06 -1.6347142316056082e-03 8.9544150016359625e-03 2.4525850970258389e-04 2.9710860901377645e-02 -1.0363047729419761e-04 2.8651526961599727e-04 6.5792403915949302e-03 -4.0430215352907761e-03 -2.0487252971271089e-03 -1.1612628212174581e-01 2.6809004461151517e-03 -3.4813634213527039e-05 1.2677642568968550e-01 -8.1739793006504399e-03 -7.6901296043164792e-03 -2.3157222467304450e-01 3.5760418708699632e-03 4.8728296878433646e-04 -1.4913211348749865e-04 3.2889353399389275e-03 7.0843535323333534e-03 -2.4635529102856948e-03 -2.2328445504193439e-02 -5.0839124533348656e-04 8.6827615179356369e-04 9.5643457501088762e-03 -8.2208183376142330e-04 2.8261166799246895e-04 -1.3566644871570627e-01 -1.6761453724090103e-03 2.3039106642808072e-03 5.9483305978501377e-02 -6.7661035937529998e-03 6.5741208082442104e-03 1.0246890606750725e-01 3.9271109994019945e-03 4.0041339172867604e-04 2.1037009839998400e-05 1.6134564531544437e-03 -9.1948383837330283e-03 -2.4389578048528149e-04 -6.1900179063991589e-02 3.1596873251425739e-04 5.2892603516228442e-04 -6.8493107634522814e-03 5.3310451129792193e-04 -2.6701242184720801e-03 2.5707461437968850e-02 -3.6093648901965748e-03 -4.0384487020826351e-04 2.7915341819271644e-01 4.9224199979435723e-03 2.7964144594677786e-03 8.9496498424333382e-01 -2.3435628591167790e-03 -1.2114258539308934e-04 5.4741400146299810e-04 1.6360192804357101e-04 1.6375006757276350e-02 3.1207925638685446e-03 1.3529961189641204e-01 1.1820922358397684e-02 1.7669985408398009e-02 -8.4315976671706871e-02 9.7213421259508184e-03 -1.1272296567818904e-02 7.7762736646305064e-01 -2.1369019283074775e-02 3.8406440056119942e-03 -5.1139053525493239e-01 8.6028480864822454e-02 -1.3781043628462705e-02 2.4893040787539888e-01 -4.7849052467765510e-02 -1.0705764482410410e-02 1.8000460600513532e-03 -3.0758474631666283e-02 1.8641304241482352e-02 4.4340560627761837e-02 5.0915340330162651e-02 5.2280228492972147e-04 -9.1196608697473661e-04 5.9418609455135107e-02 -3.2323244759056846e-04 -3.2416138262461452e-03 4.6835340976215012e-01 -1.0201137196919896e-03 -4.6810039760376843e-04 -2.7938098012718800e-02 -7.3696420267037044e-03 6.4871495813543234e-03 -5.1522112698192091e-01 9.1828915997305693e-03 1.8241386442647001e-03 -3.7680501161023935e-03 -1.9260485391137547e-02 1.0254381197081094e-02 -1.7616023216671581e-02 1.1278485988366237e-01 
      </Row>
      <Row Index="216">
        -1.0320921307712408e-02 -9.3575945068203846e-03 -3.2374516081045968e-03 -2.2187385823856827e-03 -4.3348424243848660e-03 1.3502858148942828e-03 3.5025398842808437e-03 -1.8580733934658172e-01 3.3099181201323713e-04 6.0133874986387781e-03 -1.3069435077720272e-03 -4.6680781880964334e-03 -4.5678552780124448e-02 1.7660826495207498e-02 -2.2023220970797050e-04 4.0448740970953391e-04 -1.1821290193713696e-03 8.0754350514377782e-03 2.9302141722046780e-03 -9.6174436269057528e-03 2.8803768177049400e-02 -5.6086486951056891e-04 3.1664116868552949e-05 3.9205459006068089e-03 3.3735015931485313e-05 2.3549483219608564e-03 -8.8510172809360202e-02 7.9816418484361662e-05 5.9185965072942603e-02 -4.2659465802753760e-03 -8.8534404745660711e-03 1.7244194539358659e-02 1.1228808946343977e-02 -5.1307255132946802e-04 -8.0609680194485001e-04 -2.4047638788330379e-03 -2.0576437476058862e-02 6.2049990509344954e-03 -5.8419051854540216e-03 -2.3357305513029752e-02 -7.2239756829086538e-04 9.4839642611311073e-04 8.6816321311500300e-04 -3.8923672922605290e-03 2.6647472644781844e-03 -1.1011891558029467e-01 2.7082672119987800e-03 7.6167979667696173e-03 1.8748537211563110e-04 3.5752524223278126e-03 9.9511880236846650e-03 9.2795128256479772e-03 1.0026488684531654e-03 -2.2892032104123491e-03 -1.9867220144648354e-02 -3.7318639106758145e-03 -4.2452916885131128e-03 6.6691066986164227e-03 -1.8057802347328553e-02 1.4218526572211052e-04 4.5677122898404865e-03 7.8928647998706691e-03 -3.3007851620513000e-03 -5.5877258320569112e-04 -1.6060182283948621e-02 1.4190494398548803e-03 9.1194189619059784e-02 -7.1713862152317231e-04 2.2512351704927908e-03 -2.6864847032285866e-02 6.7053158701698909e-03 9.9170113950477080e-04 -3.6577934393092343e-03 -1.6090441635738043e-03 4.7627893160496759e-03 9.1708415748625871e-04 5.8324111556637082e-02 -3.8457510695837527e-02 -1.3735015682573154e-03 -8.9999998704083373e-03 -6.2968868165070857e-03 -2.9557142450771928e-03 -9.4835309738863505e-03 4.1272783301646787e-01 -3.0806780560560520e-03 -1.0368341005112924e-01 2.9400297901830963e-03 3.3415818265013358e-03 1.8902393443397614e-02 -1.6639030254668404e-02 1.5359153991502672e-03 7.3185302426168053e-04 -2.0565958244837465e-03 1.3570322014838654e-03 -1.3560210282062557e-03 4.0248617522429253e-03 5.0565777493627832e-03 3.8678799914197461e-03 2.6905578924580446e-03 2.6411031715297129e-03 -9.9957529507444833e-04 1.8181942376993970e-03 -3.1454406698659997e-03 1.7981341111479102e-03 -5.4293458436426210e-02 -8.2023459788625741e-04 -1.7774545225436138e-03 -1.1801663714670063e-02 1.1976798365448543e-03 -1.2953546535265752e-04 -3.1384665901120097e-04 -7.1431605041787603e-04 -1.0488236503297943e-03 3.0476805242552482e-04 4.8294617834550024e-03 8.2713298725913681e-04 1.7294219636664332e-03 -1.3656630058819438e-03 -2.7726194925742822e-03 4.5690063368424294e-03 -1.8442135078061000e-03 5.7053118988416918e-02 6.9173747361331306e-04 2.8778844034435203e-02 1.2635536378204637e-03 -5.9152303841994826e-04 1.2030135640147321e-02 -5.1296102468974770e-03 1.0996006594540808e-04 -1.8651598415585224e-04 -3.6173370903732661e-04 1.4791609697286656e-03 -5.7339163992897735e-04 -3.8394312074915282e-03 -9.9495879850256541e-03 -9.0257198148678552e-04 4.5464028287827401e-03 2.7370219097556034e-03 -1.4565610222590473e-03 2.4765701481391615e-03 -7.3639613150814950e-02 1.2959232313576570e-03 2.4410581174337892e-02 1.5142837784526166e-03 -3.7193898587426760e-03 7.0966060491173266e-05 6.3860922686513888e-03 -3.8573568611119884e-04 -5.9707537718930569e-05 2.4434476877516296e-03 -4.2654644924315383e-03 8.8691070443352657e-04 -3.9127261482683195e-03 2.9081263752495506e-03 -1.0292809214229709e-03 -5.0056950067235706e-03 -2.9244772781341632e-03 2.8137953416385031e-05 1.7746848288419104e-04 6.1609438046600240e-02 6.4378746128541746e-04 -3.0302724687631954e-02 4.9243364862816925e-03 5.7130355459742155e-03 9.3938235721111596e-03 -5.8529165145991338e-03 5.3909064952927660e-04 3.3323997306781289e-04 -2.9928467797785824e-03 6.8824846074150292e-03 -1.5566437057829008e-04 3.9711829424148304e-03 -6.1777600932311702e-03 -1.4151466800266053e-03 8.5361435113786080e-04 2.3044495241160905e-03 -2.2522551125557380e-04 -1.9223444091975295e-03 -9.2530861233498327e-03 5.3256004180461756e-04 -1.3961653069777835e-01 4.0068485097900525e-04 2.4168761755717950e-03 -4.1187743746004202e-02 1.2575197327788089e-03 1.0018252892840941e-04 -4.8878728716769465e-05 -1.7032479868283688e-03 -1.2753948641603258e-03 1.6863632964837175e-04 1.4521214396400417e-02 2.1886893515669449e-02 1.3679144931774898e-03 2.3618272479638408e-04 -1.5777028709113117e-02 3.1333535625305553e-03 -5.6831059084333502e-03 -1.3572055901629099e-01 3.7404414706308474e-03 -3.7568520943332961e-01 -4.3328793453491152e-03 8.5803565169495621e-03 4.9923801503446441e-03 1.3304465566499054e-02 1.2396639381751819e-04 2.9035159265125071e-03 -1.5879556670083152e-03 9.9684956283770630e-03 1.4140536652248563e-03 5.3618370482172439e-04 -1.0365390896296432e-01 -2.7539196835656300e-03 -3.3634561395870968e-02 2.6402514771776183e-03 -1.8291134550504073e-03 -1.0201137195829449e-03 2.2935579607889756e-01 1.2177202907990622e-03 1.3241777680500758e-02 1.5825808574479901e-02 4.2211853481987083e-03 1.0914566216400426e-02 -6.6684294043732606e-02 2.8592492548910192e-03 6.2448639746754591e-03 5.5650398348167152e-02 -3.0986147262384439e-03 -2.4756977309619642e-02 -7.9948551298803752e-02 
      </Row>
      <Row Index="217">
        5.5732007663948091e-03 -2.4920046910440440e-04 2.8976840449992436e-02 7.8911436905569204e-03 -1.2737228020859137e-02 2.1000437154216050e-03 1.1593215556772538e-03 3.6009887896177803e-04 -4.1538933190732624e-02 3.3553307892050466e-02 3.0264164096707492e-03 4.0582180246270805e-04 6.8206399048698074e-05 -1.8935363819341539e-03 1.7015703740263025e-04 1.0874990175965154e-03 -5.7517022537974943e-04 -5.2159723623250095e-03 1.9815854216381421e-04 7.9213032902392122e-04 1.5560277003021442e-04 -1.2084390223607494e-02 5.6889823960933517e-05 -6.5539704303167468e-03 -1.0503840148738813e-03 -3.6901592978360598e-03 9.0466568681757007e-04 -5.3374763484084764e-04 -2.0149166383096606e-02 1.9952916285129879e-03 -1.5440797985150634e-03 9.0213480594769635e-04 -1.8583306011871539e-03 -2.9701355070303054e-04 -1.1608330012323476e-04 -1.3953689774915561e-04 4.7060440725413821e-03 4.0065694152671000e-03 3.0296961181343063e-03 -8.2414375917474526e-04 1.7588865680026419e-02 2.6875656365880490e-03 -1.8284455749351114e-03 2.7724363790793821e-03 9.7604023690323061e-04 -1.9699957882205257e-03 5.3208130958384614e-02 2.1639273404542969e-02 -5.4995949333720706e-04 8.6253717987649914e-05 1.3106953693085899e-02 5.1296339637233093e-03 5.9288000274515529e-04 1.4831741676142318e-03 -2.4808382641652721e-03 4.3425516597520031e-04 -2.5823778140944761e-03 -3.2908583831994243e-03 -8.9624153763480374e-04 1.2789539044392128e-02 -9.6069682097699172e-04 -1.4102082879099698e-03 5.1800216832185650e-04 5.0765615606634951e-04 -3.6179131967132572e-03 6.9429446877768808e-02 3.6673484617904428e-02 -3.1662331268879768e-03 4.2360362967483467e-04 -9.7480615444851537e-03 4.8613159611418863e-03 7.4525436962023881e-04 5.8133106335665069e-04 -5.4664205969891244e-04 -4.9318217350740601e-03 8.5468154415596631e-04 -1.0236595351404976e-02 -1.4862587019365825e-03 9.4444081074079589e-03 -2.3629046541672749e-03 8.0094957308984860e-05 4.1868108324721182e-04 -2.6980462315244202e-03 -2.4132633711697604e-03 1.1343224876949942e-02 -1.1760042908578683e-02 -3.4181104228908632e-04 -6.7502297362785624e-04 -3.7916639997384038e-03 -1.1678770374389316e-03 -7.5141781410671682e-04 -3.3082806613017601e-04 2.2322170856209078e-03 -3.0509844281754184e-03 -6.4803567840293619e-04 4.1175256683818606e-03 -1.5699510244126524e-03 -4.1316967192980204e-02 -2.2257908321907348e-03 1.5417057730565814e-03 -9.6910830790237351e-04 -3.0404785444728688e-03 -2.6396369697885718e-03 9.5941630448933751e-02 2.2002162110710134e-02 -9.7108122915929435e-05 1.1440582825424459e-03 -1.3216160053811876e-02 4.7751307991466142e-03 -8.8029295864855937e-04 -8.7872109902069036e-04 -4.1583428007775473e-05 -3.8314664988327255e-03 3.0023190189605517e-03 -1.4326221742866352e-04 -1.1314648428969593e-03 -1.9278129732570037e-03 2.5995429211882401e-03 9.0833443071686518e-04 -1.6899436734554851e-04 7.7122752460870303e-04 -1.5849943036984476e-03 4.7578763056888740e-02 7.5690744350254135e-03 -3.5047148462183375e-04 1.8341433609519384e-03 -1.9925033180943075e-03 2.9002533811414892e-03 -9.7962283921185223e-05 -9.0002370034342194e-05 -2.8725525667997690e-04 3.9894077422886198e-03 1.8944976737055308e-03 -8.5230965907040490e-03 -1.1630707597805323e-04 4.8708035134878355e-03 -1.2267053372077758e-03 -2.7569550932654129e-03 8.5142031234848592e-04 -5.2369922886009654e-04 -1.3353722456483086e-03 2.3254850470403078e-02 1.5526409476499886e-02 -7.5430318544383174e-04 2.4154805639139080e-03 -1.7992250978124957e-03 1.0587742724890801e-03 -3.4721701277411009e-04 -1.6242270651153478e-05 1.0143364913384320e-04 7.8349310136462732e-04 6.9782834537408800e-06 6.4633418294466338e-03 5.5720653013416332e-05 6.2714040930505329e-03 2.7638176133349991e-03 1.8910377592856742e-03 4.4437501952231118e-04 1.5303462647935362e-03 -1.5001645822831922e-04 1.4589625485096899e-02 1.1248970855765705e-02 -5.5831566825476344e-03 2.6259576177453392e-03 -1.0511487718645185e-04 9.7793095133938586e-04 5.5177087857410587e-05 8.3163290910452659e-05 -5.8990082410646794e-04 -6.5369721783015144e-04 2.3923158013414159e-04 1.3405111198915076e-02 2.0054764068818884e-04 8.8163895047986465e-03 -1.4795108198902068e-03 -9.6115754922333069e-04 4.4817776047993479e-04 1.2746166866633990e-03 1.8650891774979039e-04 3.4460451917929860e-04 2.5115382902721750e-02 -2.1520269005806808e-03 -3.8892618506191148e-05 -6.5904448466760357e-03 -3.3537288961828790e-05 3.0913691527371782e-04 1.1342852656292591e-04 -2.2680701972031684e-04 5.0483852876492263e-03 -8.9269518574208728e-04 2.8543323598566595e-02 5.1576112716818223e-04 -3.1212558192688998e-02 -4.7085173512069825e-03 4.5236066171640650e-03 4.3492822717703106e-03 4.7916782833973270e-03 -1.0043582632872873e-03 5.1667444025404435e-02 8.3876769011258290e-02 6.2721174429107296e-03 2.2822939346573128e-03 1.7669711810011535e-02 4.9872630276649888e-03 4.3698475236442214e-05 9.7083584140935210e-04 -1.5828091360977938e-03 9.6939674949813141e-03 2.5901566341133830e-03 -6.1841837250302678e-03 -1.3108286968563955e-03 4.6252322228401109e-02 3.3559854284358953e-02 5.0971919408281195e-03 1.9079134423079826e-03 -4.6810039756267630e-04 1.2177202908356458e-03 9.1149478380011265e-02 -1.8855285567877089e-03 -1.9676463707004890e-02 -1.8523998408640496e-03 4.5683717138659957e-03 1.1470452515770450e-02 7.0217939570000748e-03 -7.0141167373538246e-04 8.0161784419786886e-03 2.4169053863800985e-03 -1.0706619215256565e-02 -8.3932432019429265e-02 
      </Row>
      <Row Index="218">
        5.3118040541339465e-02 -8.9948778908279002e-04 -5.0547449041534881e-03 6.8815706067696606e-04 -5.8084950733633400e-04 -3.3613344900484728e-03 -1.2169757953688829e-02 -9.8467221928451067e-03 4.3147109457618640e-04 -7.8237058861202580e-01 -7.1629273033960942e-03 -2.4812279727416363e-03 2.1767513518641779e-01 4.6222467478186785e-03 -1.7790586633331315e-04 9.6142343233204027e-05 -6.5682591653001832e-04 8.9455797394560263e-03 1.5329206202250138e-03 -2.6819712349840402e-02 -5.9219545560463063e-04 -1.9109729761986743e-04 -5.7952700154565166e-04 1.2063323091627970e-03 -2.2299188339484979e-03 2.0240722953720411e-02 -7.9436809100743924e-03 5.1846081265595999e-04 -5.7455590595084216e-01 -1.1538967168575505e-03 -1.3765240275904478e-03 -4.4226441202499700e-01 3.6664631807947490e-03 -2.0175734552539638e-04 1.2646273834620789e-04 -1.6754876056624313e-03 -7.2148946865274316e-03 1.6023814324765458e-03 5.1207136519260094e-02 -9.6027689157243093e-05 -2.9017240443813402e-06 1.5742052109141008e-03 -3.6259771390306089e-04 8.1095086668669068e-03 -1.8531172575285831e-02 -4.5814990693515169e-03 -1.0206285132527346e-03 1.6707616205456288e-01 -1.5516294202129570e-03 7.4063656791717447e-04 -5.2408781551089412e-02 1.2497220985565535e-03 4.5445266104686410e-04 1.0563237141304124e-03 -2.5622813065849757e-03 -3.2965422214818706e-03 -1.5841331998831028e-03 7.5099146951826345e-02 7.0354427644682242e-04 3.8563251526147618e-04 -8.1631962405474823e-04 5.3020600882884572e-04 3.3541812714266914e-03 2.0553653932041241e-02 -1.5328699809426111e-03 -2.3367340640442422e-03 6.4788976191152425e-02 1.2872312715513264e-03 1.0704966396562349e-03 -1.3535833518209728e-01 1.1485694387188428e-03 8.4544419560606161e-04 6.2515897631193300e-04 -2.2947836950993998e-04 4.8827272602024741e-03 -4.7624558035155862e-05 1.1442956555501649e-01 4.0420009439899318e-03 -3.4440225244432993e-04 -1.6791751993171095e-03 1.6735875241013221e-03 2.0440530085461418e-04 3.0128244279016142e-03 2.7194036050781134e-02 -6.4741114037683567e-04 -7.9144513906584280e-02 2.7939839478553358e-03 8.4798932488364814e-04 1.1969988131349751e-01 6.5090399240223459e-04 2.2088205794036295e-04 -6.3640417876507926e-05 3.9748948019074914e-04 -2.0505231270506602e-03 2.8083177621397726e-04 -9.1408274751185514e-02 4.6335162892816462e-04 4.9564696265317690e-03 -1.5542115626985620e-03 -4.8736929594753176e-04 2.6421528579960107e-03 -2.7878318018875435e-03 8.0363241839061239e-04 -2.2610630772032184e-03 -5.4836850651950841e-01 -1.6108381966735965e-03 -1.3037673056181681e-03 7.7843248039668911e-02 1.7001256186888669e-03 -1.1045479848353218e-04 1.1387021618219012e-04 -8.2369505012212210e-04 2.8042146554172961e-03 -1.0922373057428224e-03 -2.9666787935842431e-02 9.4262825309589238e-04 1.8331503294522489e-03 6.0460523066096367e-04 1.3101712825780874e-03 -8.9764783770656421e-03 -1.5509023409058777e-02 2.7346445755826211e-03 -7.9052074265714700e-06 8.9606956624949663e-01 3.4604447248513439e-03 8.0810351094693321e-04 2.3600010444560038e-01 -1.6872761061659878e-03 3.8761014647761740e-04 1.8142979724819833e-04 7.5543432832953568e-04 -2.4515124218702500e-03 2.3218662734217355e-03 7.6673725848082575e-02 -1.1319121609210843e-03 8.7962018471139831e-04 -2.1836975656989196e-04 -2.7087379185392474e-03 1.9505530106774136e-03 1.9094717731114770e-02 -2.9155215863683279e-03 -1.2862453116919896e-03 -4.9957794392061283e-01 -2.2761616068441189e-04 -1.4865128211379920e-03 -2.4145046210420062e-01 4.2143947784143137e-04 -2.8849644611481670e-04 -3.8723874985629965e-04 2.3359399412132479e-04 -2.2722481348092165e-03 -1.9775818584776353e-03 -2.5380727270510217e-02 2.9813716800526288e-04 9.5796981334835972e-05 -1.4731638715525450e-03 3.9042847923506513e-03 7.6515998868124935e-04 5.6320567840574473e-03 2.3583198254297777e-03 6.8083050604531340e-04 2.6820712306566841e-01 6.6322959491600317e-03 1.4745086571357965e-03 8.4038990028471261e-02 -7.7930121405155907e-04 3.7607443723075909e-04 3.0203811737713158e-04 -1.7126309479421897e-04 1.3482884397122419e-03 2.7572989259469494e-05 -4.9828763287591560e-03 6.7711933936236320e-05 -4.6563001096271610e-03 -4.4872492671751548e-03 -4.7316263587775312e-03 -2.1195601846969278e-03 1.4125934375536005e-02 1.4945162306040632e-03 -1.2201774009004416e-03 -1.5717494461732211e+00 -6.6949935480914678e-03 -3.2090787569999304e-04 2.4344988783099542e-01 1.2157094945028887e-03 -5.1265934944810896e-04 3.4737169870465963e-05 -3.1625036105672249e-03 -3.5532117890067771e-04 -3.6772003804282135e-03 1.5082836316575582e-01 -3.7481434630241665e-03 -1.0085239220301599e-02 -1.5662655260742332e-02 -1.1610954221195426e-02 -3.6190906159264315e-03 -7.0471297854979714e-03 -7.5260341208168453e-03 -3.0824060071073132e-03 -1.8348309596483312e+00 -3.3035089472631327e-02 -4.7238420110403143e-03 2.7243417205452491e-01 1.3625024802013289e-02 -2.4242103286536702e-03 9.6325169916703605e-04 -7.9330068893106384e-03 8.5767793941106847e-03 -3.0878053702185016e-03 5.7811163115954883e-02 3.5378360650356374e-03 -6.2083748429025446e-03 6.3412557734499470e-03 1.8913347534752359e-03 4.6667586718932685e-03 -2.7938098012859333e-02 1.3241777680604153e-02 -1.8855285567412339e-03 1.9955076982499870e-01 2.5305911927888225e-02 3.8792513055170563e-04 -1.9564109002004382e-01 -3.2535435543029692e-02 3.2629749557890886e-03 -4.4794015562218958e-04 9.9958793351146644e-03 -2.2169044200097236e-03 -6.0253107176745308e-03 2.1782149046833219e-02 
      </Row>
      <Row Index="219">
        1.2605431668677308e-02 -5.1605783185628903e-04 9.8737748794414659e-03 -2.1467868004657262e-03 1.9257293247989637e-02 -1.1153522122183956e-03 -1.7945162122238009e-02 -7.4677013539344098e-03 1.0833473335334853e-02 -2.1914958286219566e-01 -1.5938966297492194e-01 -5.8313047657418682e-03 2.8208950174885672e-02 -9.6632007091620661e-03 6.5809431875797630e-04 9.9216032757899319e-04 -3.6837727681874044e-03 -7.2486306125570804e-03 4.3171409023974386e-03 2.9127236753605068e-02 -2.6593605507477247e-04 6.7969311946078359e-04 3.2192623739838791e-03 9.7008684371242548e-03 8.2952883738163230e-05 2.0683836882437023e-02 -2.6346962927452765e-03 9.2416175701905134e-04 -1.6468466238262591e-02 2.9707885703617654e-02 3.6239933924490653e-03 1.9706718444993498e-02 1.4998830574830740e-02 2.0602354342669910e-04 3.1117825583901193e-04 -2.0885433059221179e-03 7.3943169479825932e-03 6.5140091624966007e-03 -2.9345852271219330e-02 -1.5820012566671337e-03 -5.2680964790829954e-04 -4.9377803941494242e-03 3.0352634284951940e-03 -7.7863420988897314e-03 -1.0254746096736267e-02 -4.1082923090741963e-03 -1.5324442430699942e-02 -7.1859429674816511e-03 -4.6080090696712678e-02 -1.2742410314895869e-02 -1.5674314955262503e-02 4.1560954711019477e-04 2.3893179390460650e-04 3.1413195409261963e-04 -8.4215164230583284e-03 -3.9251283132838988e-03 -1.0096536631656536e-02 -2.4082797396180133e-02 -6.6532416119385179e-04 -2.3497959065387486e-03 -6.7627317430615647e-03 1.9578489045109504e-03 -5.5827730591958766e-03 1.0668953119512381e-02 1.4481028682775676e-03 -1.7136855037338333e-02 4.1854814747587454e-02 3.7498940197329675e-02 -7.6322411137118434e-03 -1.0336515812284119e-02 1.1527525598727710e-02 2.8211899294366613e-05 -6.1625939761575377e-04 -2.7636010530226601e-03 -3.2089029768317956e-03 -4.2182377107963936e-03 -2.8009923230991163e-02 -6.9157829424237871e-04 4.0831510596395226e-04 2.0849541853863451e-03 -6.1079950851621323e-03 7.2407573017097687e-04 1.8480318403401974e-02 3.7686765509426401e-02 -2.7540703413655443e-03 2.2119878807867011e-01 1.2569954087797663e-01 3.2489573912435343e-03 1.3741942433153298e-02 3.1843932725945490e-02 2.3892568768503486e-04 -1.0595498847696672e-03 3.2912821590240920e-03 1.4189270527120046e-02 -1.6911168561348777e-03 2.3823293256763689e-02 -3.3055774752088762e-04 -1.3841935267709132e-02 3.5425965966564173e-03 -3.1477707230477825e-03 -4.7388668183903637e-04 1.4741275137322291e-02 2.0459149683102282e-03 -2.6077145803845202e-02 1.3486420505745181e-02 1.0571713505615038e-01 7.4824081110948081e-03 3.4824627274652187e-02 1.2464363819408188e-02 5.1221042702368977e-04 -8.4338834138312450e-05 1.4154423492263018e-03 -4.0077567437138764e-04 -9.0539959331904177e-04 -1.2976928337206317e-02 -1.4612278541405177e-04 -3.5093332656633835e-03 1.8296754807697463e-03 1.8673266533576205e-03 1.0529830748668895e-02 2.2434385374100196e-03 2.7529183148797681e-03 -1.0582276142056896e-02 1.4325765053185613e-01 2.2580571182736944e-02 7.6124187317068801e-03 2.2070414774713498e-02 -1.9748136680117923e-03 -3.0216489820153111e-04 -3.8151512951724309e-04 1.7525596875477482e-03 -9.3099605972479793e-05 4.8781189003110903e-04 -2.8332312223418255e-02 -1.9532498861781211e-03 4.6565309975647035e-04 2.1266887777050296e-03 6.3391351835025839e-04 -3.5113436218461198e-03 1.1167245961569108e-02 -4.6683325690935265e-03 -2.0986245499501027e-03 2.1506597723059184e-02 7.8224526480903153e-02 2.3346914683784425e-02 -1.3102544973406793e-02 1.0659690945891177e-02 -6.6698069328070169e-04 -8.8004296584206273e-04 2.9553012704377794e-03 2.8965056665421615e-03 -7.7858324970799322e-04 -1.4030611303858187e-02 -1.1217276373220064e-02 4.9913419890909730e-03 1.8157797606062002e-02 5.8503536463716532e-03 1.0424455970625024e-02 3.5507185329784252e-02 -8.3193311218969779e-03 1.2377578396895950e-02 4.4149500307756417e-01 2.4604208511904813e-01 1.9941977211088036e-02 1.6290016121224937e-02 4.2267298408163650e-02 -2.9481318160947418e-03 -2.1171943282710867e-03 8.9838210062025969e-03 9.7527562898402920e-04 1.9902016902828557e-05 3.2611126854125150e-02 -4.1686845321350745e-03 2.4307141885087594e-03 1.6329412602053793e-03 -1.8603909029611008e-03 2.3295329269792816e-03 4.2603857718997093e-03 6.3940520068458181e-03 7.2289478304109547e-05 -1.2942859276484575e-01 4.1484459806485574e-02 -3.4040104797621162e-03 4.5083052225493248e-02 1.3738801646660869e-02 -1.2878491637342772e-03 -4.4175367965990087e-04 1.2351109588116561e-04 6.2871012584377051e-03 -9.7751436413027505e-04 7.8106715270529481e-03 -1.4928668981306348e-02 -1.4040736216373390e-02 4.7967622999550361e-03 -2.2834291708089052e-03 1.3763872131235012e-02 1.9084726204380065e-02 1.2284853177919055e-02 -2.2009341243368646e-02 -1.4908056443489803e-01 -2.5689483106271876e-01 -1.9890139329251759e-02 5.3184564848649529e-03 1.5862392579461371e-02 -1.5928657403477472e-03 1.6871528861608408e-03 3.7335656329642898e-03 7.6386334227935976e-03 1.5655673516634036e-02 -2.2075520496829593e-02 -8.6591245211996987e-05 9.3686193777389477e-03 3.5035515998443484e-02 -5.2521910871553661e-03 -5.5448369033709449e-03 -7.3696420264170587e-03 1.5825808574500430e-02 -1.9676463706981871e-02 2.5305911927656761e-02 1.2603216486451021e+00 -1.5701267010799158e-02 -9.1640199213083584e-03 -2.2449541752288474e-01 -5.0810104259964989e-03 1.1788409593390115e-03 1.6998910488952183e-02 1.2668869677546837e-03 -1.9820971163099343e-02 -1.2615990750911990e-01 
      </Row>
      <Row Index="220">
        -5.2190221467557363e-04 -3.0990567581226647e-05 1.2886959175917312e-04 1.5581851428245197e-04 3.4706587310460169e-03 -1.8905827277988785e-04 6.8211828855287843e-03 1.7335489518608554e-04 5.6023443342756440e-04 -7.3231905761330651e-03 6.0192013215411289e-04 -3.9413025448036931e-02 -7.3038140808465712e-02 5.0247481076960178e-04 1.4582600687299968e-03 2.1571547060126976e-04 -6.8468023607739376e-03 7.2895342216881855e-03 1.3279477354062041e-03 1.6888917683108851e-02 3.9630068375169636e-04 -5.2982308805488154e-04 -7.4381439742559903e-05 2.2494969472689474e-03 -1.4404013181828212e-03 -1.3880499083954723e-03 -2.4168452195306566e-04 -2.3093185322588250e-04 1.4649282548734321e-02 -1.4203711677446273e-04 -1.0799706282101196e-02 3.3212814169331750e-02 -2.7374986845982163e-04 -1.6449668131380407e-04 1.0399631682031646e-03 -7.2762373569810893e-03 -4.7853094718605660e-03 -1.8529174566365297e-03 -7.2068876335850129e-03 -1.0427742417784733e-03 4.6614352563718875e-04 -4.7616674732646469e-04 1.4862779520206371e-03 -1.4212300964862312e-03 1.2778390240484327e-03 1.3100767100394928e-04 -4.2856429965645870e-04 1.9611513024260674e-02 4.1987028989224906e-03 4.5424033112069440e-02 -3.4521029076302057e-02 -1.6609292626184463e-04 2.7946740590733543e-03 2.1214118293177361e-03 -1.2336373653526175e-02 -2.2116769540926340e-03 1.2729348256449169e-03 -2.6753388495742936e-02 -2.0590111343735118e-04 -7.2956364057951556e-04 3.2934342226910440e-04 3.8721291249649292e-04 -1.1229363083873137e-03 -6.4481749330553007e-03 -3.3296774586739075e-03 -5.2331564339008763e-05 3.1126342064808910e-03 2.9860030029696533e-03 5.4701355020035404e-02 5.4899859393344741e-03 -8.0505736550988416e-04 5.7474921053916952e-03 1.8184391360297342e-03 2.3139768320230569e-03 4.2554694511318103e-03 -4.9801447885067934e-04 -1.6001359064858001e-02 1.2977054037944802e-03 -3.3524647985289091e-04 3.0666920154781563e-04 -1.0273368397630822e-03 -2.0143782079404260e-04 -3.9751155221002255e-03 5.8473977635165042e-03 8.7350092298565940e-04 1.2814133832456776e-02 4.4800276036727205e-04 4.5379398985692987e-02 6.6311860865440053e-03 -9.8331088436317410e-04 2.3216168774090051e-04 -3.2326855522940567e-04 8.5879861693410886e-03 -1.5791108796362474e-03 -1.3554214505029361e-03 2.1760400447227823e-02 -1.9801032443195199e-04 -1.1294605316213985e-03 1.8711355981300762e-04 -1.0721773826179171e-03 -1.5932347040267456e-04 2.9007624640917246e-03 1.9728056704269737e-03 -1.3284065424126329e-03 -8.2597273644897801e-03 3.9154468536667375e-05 -1.0024994476898736e-02 -4.8974476090439367e-02 -3.9414180443297225e-04 -9.2287889988772187e-04 1.6028369047050900e-04 -5.1807594824549667e-04 -5.6945109555028850e-04 -4.7022178488708571e-04 5.8649837128577076e-03 1.1326514004478122e-03 -9.2163325246452654e-04 4.2682346798006421e-04 1.0806829757042946e-06 1.4505052310106181e-03 2.3722254670084097e-03 3.7625630765864837e-03 -7.6313348229725686e-04 5.4327377790510667e-03 -2.2337676598516848e-03 -5.7147227085216620e-02 -2.3800556801326422e-02 1.8183180290054848e-04 1.7738162125472377e-03 5.8226537296103553e-04 -2.2155760749944919e-03 1.8699360424164757e-03 1.5644331147308677e-03 6.9148284164395335e-03 2.1955418601273813e-03 -2.0803243574392671e-03 1.1820671712004663e-03 1.4310021848178249e-03 -1.9717954277655228e-03 3.8962024606660900e-03 4.5514136024119300e-03 -1.5726439243433379e-03 4.3937762388371882e-03 -6.9000550679617564e-03 -1.4897021659253429e-01 -9.5249259288721078e-05 3.8956927263596869e-04 5.1378901768225713e-03 1.9067693760630795e-03 -1.0441175408552696e-02 6.3473874454772570e-03 3.0739934987667403e-03 1.3593025757563382e-03 -3.4784860935589690e-04 3.2445514732313500e-04 4.5916989233241168e-04 -4.1148626803799715e-04 4.6713333630890586e-04 -2.4723744796858460e-03 -5.4273021654061004e-05 3.4501067663536924e-04 1.5088532153031409e-03 -1.8030203926587113e-03 3.4664117162878316e-02 9.3038098728968066e-03 1.1869198460195442e-04 -9.2950430255970412e-04 -2.3981751513966337e-04 1.9908476870587888e-03 -1.4811260214186994e-03 -1.0544340971133659e-03 7.5714428941673351e-03 -4.5438694501907795e-04 7.4110923550572451e-04 -2.1865761034666181e-04 -6.9550734336236604e-05 4.0332528119575825e-04 3.9526910224442491e-04 -1.8081674049962165e-03 7.9525720590370094e-04 -3.5894898176003220e-03 1.8975033189373167e-03 4.9650176025764277e-02 -9.1488355688305489e-02 -1.9706109045442856e-04 -8.0709039973223689e-04 -3.1221272233339370e-04 2.8759872055727264e-03 -6.2153430073849103e-03 -1.6086307101877140e-03 -1.7348986670730149e-02 -7.7117958277272552e-03 4.4182024387490054e-03 -1.8432402553753904e-03 -5.1744591358407997e-03 6.6575687591547347e-03 7.2010480012119071e-03 -3.0376846018047125e-03 2.6792208918022253e-03 -3.9448975214420923e-02 1.9756151266059965e-02 1.2015082744488749e-01 -1.0077630928832093e-01 -1.8595665272178683e-03 -1.9453007469184391e-02 -5.0985582738588171e-03 2.0963122343144069e-02 -2.7913290235866743e-02 -6.9886831781921788e-03 -8.7672847905798656e-03 -7.3662940617450108e-04 7.9673339375008721e-04 4.2625014847409715e-04 -1.0235274043780412e-03 -6.9387699611565823e-04 6.4871495814210894e-03 4.2211853481604472e-03 -1.8523998408854481e-03 3.8792513056424053e-04 -1.5701267010813938e-02 1.3149346782912763e-01 3.2846969958360672e-02 4.1230354119015968e-03 2.6525554210324223e-02 -3.1139394030510262e-03 5.3010653864544642e-02 -1.1030666873084460e-03 6.6098906093777698e-03 -1.3112558589982978e-01 
      </Row>
      <Row Index="221">
        4.0419310832078281e-02 -2.8786512073266657e-03 -1.0916071132861305e-02 6.8753837471327017e-03 -1.1549503883117040e-03 -9.7754058936039279e-04 -2.5123134331601582e-01 -3.5056198028703633e-02 -5.5614152218197432e-03 3.0612731177097885e-01 -8.5691105247471810e-03 -3.6522223760258044e-03 -1.3197967306886085e+01 3.5162197126330508e-03 2.3133882447705645e-03 9.5271504300331600e-05 6.1515709213537662e-03 -2.2272114757395212e-02 -6.7718810700165832e-03 -1.7969888968960390e-01 -5.0226879849244455e-03 6.2559643915420793e-03 -9.1966106266869289e-03 1.7138464912562767e-03 -1.1369229259727831e-03 -1.4100874270233987e-01 -1.4345055977038057e-02 -4.6347426524988578e-03 1.7440110286910340e+00 1.7372723506760224e-02 6.5289353447205656e-02 1.6285939225375841e+01 -4.0469570194581195e-03 -1.6147561040806835e-03 2.0401186236256308e-03 -1.0519551083204293e-02 -1.6135328591957432e-03 -1.4548852867728002e-02 7.9355784807546570e-02 -9.2827111408483320e-03 -1.8132813390394631e-03 6.1343965041773529e-03 9.5717643484647397e-03 1.7282110636873682e-02 -2.7316559129927498e-01 -1.0841913357403143e-02 6.0587809685195282e-03 6.2060627214464148e-01 5.1127522162275341e-04 4.0606666408621095e-02 5.5481890130922693e+00 2.1157423979918377e-03 1.3068422379021172e-03 6.7145105658159565e-03 1.4787544536002173e-02 3.5215002964505970e-04 8.4079392451190671e-03 2.0229021897381472e-01 -2.5840722434224972e-03 4.6400869512881471e-03 3.6485210804819701e-03 -1.2737885305142527e-02 1.1419046395535482e-02 3.0961943142354187e-01 2.6117558228399673e-02 -3.6410475630077599e-06 -3.0808864359050858e-01 2.4758287271708923e-04 1.9854411643120073e-02 2.8494319283963705e+00 1.1044723040747328e-03 2.9981779999088687e-04 5.7367970733110951e-03 8.2365112778326477e-03 -9.5838031560759873e-03 8.9119922953155850e-03 2.2500464870313408e-01 -8.3065911276776205e-03 4.6179686119600660e-03 -2.6710663695013181e-03 -4.1809008953066495e-03 -5.0306064726335364e-04 3.1599705899127173e-01 3.3586196165629190e-02 -1.8796775853502368e-03 -7.6013582270206825e-01 -9.0195415706375570e-03 3.0912325912808569e-03 -8.8065045308076151e+00 3.2733027059688169e-03 2.2828280583553351e-04 -5.2399880835807267e-04 5.3045414794077317e-03 2.3507973622770351e-02 -1.6699397219070988e-03 -2.5530770533055147e-01 2.5825838255872924e-03 8.5019875268805833e-03 5.7862556016656796e-03 8.2045615181058906e-04 6.0133424437252003e-03 -1.1906619034397181e-01 -5.4773855268333005e-03 1.5087242949709534e-03 6.2656703873501662e-01 4.3259660632291030e-03 2.7879063330722431e-03 -1.0019154739160513e+01 4.1808375988252600e-03 2.2673691271273277e-03 5.7916287413414813e-04 1.8943795321861856e-03 -3.5864524082955374e-02 -7.2939965634412074e-03 -1.5177233975464333e-02 9.6437247317453512e-03 -5.8638873869512054e-03 3.7099056347447146e-03 1.1083315354101231e-03 -1.9549027226990034e-02 4.6401691551185564e-02 6.3023855309598531e-03 1.0203474191477824e-02 -1.4390490145981403e+00 -2.7060534467260311e-03 -4.8816178664961463e-02 -3.5954661158712042e+00 -2.2947863630438103e-03 7.2003320562785689e-05 1.1509566042953168e-03 7.1519048754687953e-03 3.9281333403437202e-02 2.1813280079072683e-03 8.1568384074159894e-02 -8.6414895032085326e-03 7.7767547147438165e-03 -2.0089633120058403e-03 7.6570180843074098e-03 1.4651045102495708e-02 3.7710236673094144e-02 -4.6240079459103356e-03 6.5669755703360311e-03 6.6615171660586014e-01 6.4502593296582589e-03 -3.8660983070725852e-02 8.3414642997158808e+00 -8.6571282363072655e-03 -4.1120089187878517e-03 -8.1917096375394571e-05 -5.7736375287198438e-03 2.3481720569282050e-02 7.2063485614002332e-03 3.6292648090466173e-02 5.4384011272361477e-03 -8.6432059361696290e-04 -1.1283173667546720e-03 -4.8843763712795862e-03 7.2161516474267273e-04 1.8869323473594335e-01 1.9013208601450060e-02 -2.4152946782254325e-03 -3.3704930022236113e-01 -6.9141415254666827e-03 7.7303847773961820e-03 4.1070478306392033e-01 3.9282950162471408e-03 2.2411642618935801e-03 4.0082440757593929e-04 4.3254978132125643e-03 8.0883889253868801e-03 3.5785178436498200e-04 -1.6731666714068183e-01 1.2721386003217816e-02 -1.7991825002265927e-03 1.1614420446450391e-02 -9.3286100398750627e-03 1.7270246927099386e-02 1.9019866217679837e-01 6.0492485740635260e-03 1.1417204545116633e-04 2.4460794705927924e-01 -1.4133064264080675e-02 -3.1898789307770681e-02 -2.2213606433157111e+01 7.8955782086703452e-03 4.5925130030746997e-03 2.8234484247242619e-03 2.0492889363806110e-02 3.0745082295304371e-02 -1.0907764349614713e-03 -6.1526698442776251e-02 5.5837771481790810e-02 -1.8058851965434997e-02 7.3481105040487549e-02 -2.3670750195858847e-02 4.6611827208186796e-02 3.3837984638239504e-02 -2.9738657876433372e-02 -8.1156728487865593e-03 -1.7147512707232409e+00 -7.6969624300586403e-02 -1.2406352013304778e-01 -4.7821661008037154e+01 6.0606623686111583e-02 3.3115975536281983e-02 4.3013956776110085e-03 8.2440892720771153e-02 -1.8107829763033934e-02 -5.3234726856208781e-02 1.4579404216996750e-01 -2.7567920561097470e-02 -5.7596174821745727e-03 -3.2797099604408686e-02 -5.3410473296167105e-03 1.2619600547783882e-02 -5.1522112694598121e-01 1.0914566217781640e-02 4.5683717122017020e-03 -1.9564109002160440e-01 -9.1640199176267201e-03 3.2846969958313821e-02 2.3825534106687130e+01 -1.8572320175280488e-02 1.4262627275683948e-02 -1.0225908580186127e-02 -5.8382943540901122e-02 7.6963200847268709e-03 4.4358690772627218e-02 -2.3099184327447333e+01 
      </Row>
      <Row Index="222">
        -2.5421089317972934e-03 2.0671193890514448e-02 6.8704562886988674e-03 1.7999661994905155e-02 3.7819809570318830e-02 -1.4117861096949368e-02 -1.4095083051587735e-03 7.4128318319953701e-02 -1.4222942372527247e-02 6.8031174597822819e-02 -1.5559106033801992e-02 2.6336993611891790e-03 2.4379645304399844e-03 -8.3466801043893396e-02 -1.3874173465704895e-03 1.7172788331926087e-03 1.3469750561481697e-03 -1.0137514105492979e-02 1.7163278634709789e-03 3.3303766954583924e-02 3.7225581323160763e-02 -3.3069986733305634e-03 -8.1337623348785859e-04 3.2635441168906709e-03 -7.8896929022189144e-03 -5.8588369406401553e-03 5.8756529151269707e-02 -1.4871974315546974e-02 -4.9466686796159953e-02 -3.4003746029812626e-02 -1.4971896924704242e-03 3.8063981856836904e-02 -7.3032593652781863e-02 3.3340874881876495e-03 1.7858592858677746e-03 4.9018345297598340e-03 2.9579755892501614e-02 -2.1732555636753387e-02 -1.7496406798187647e-02 1.5415006525136728e-06 2.5651551444126619e-04 -1.4371189867578363e-03 1.6324082005426954e-03 2.6437671153864806e-02 5.4123797680942776e-03 2.2613465939935573e-02 7.3944264163744722e-03 1.1351198520516803e-02 -3.3329363112476196e-03 1.7667132474024072e-03 -1.7288528321010688e-02 -4.0829012736044633e-02 -5.9494487958467457e-03 -6.7256821208952558e-03 1.4353530980828616e-02 8.0129099031991391e-03 2.5131782554963261e-02 -3.1871724495798670e-02 -5.5549654590014708e-03 6.3853103463128863e-04 -2.0615814881952049e-02 -2.6046140437419651e-02 1.5298553017058250e-02 6.3460039995270057e-03 8.4522148485572379e-03 1.0014346573182509e-03 -1.3536354367638204e-01 -2.1846516173362168e-02 3.1021594212245207e-04 3.5245390073242788e-02 -5.8886793762280301e-02 -7.2654260293457326e-03 -4.7935317330131538e-03 -3.3563728559798389e-03 -9.6100427220266460e-03 5.4668546710588059e-03 -1.7939809015603103e-02 -6.3402860405326611e-02 4.8691640533724545e-03 -2.8107797258814515e-03 -3.7971135103341602e-02 -4.1207092300302034e-03 1.3519440320961917e-02 -1.3705110775194207e-01 -8.2555819612541992e-03 -2.2561768377073577e-02 -5.3969977513637080e-02 -2.7795925291896895e-03 4.8876895819546462e-02 -1.2078998653149522e-01 -5.5688009422551199e-04 2.6529798397874338e-03 -7.5532217743533719e-03 -1.3436505209185601e-05 7.1208496386758746e-03 6.6018761308839657e-02 2.6788550498030653e-03 -1.7150891828142674e-02 -1.0723876163721714e-02 -1.2678711460588937e-02 9.5158975799650471e-03 2.0900068125560139e-03 -6.1786844426117010e-04 9.3556189779778823e-03 1.3292318257279445e-01 -1.4801059252779997e-02 -2.6925128745616689e-03 3.4296868778458389e-03 -1.0979486102715413e-02 8.5741965958168256e-04 -9.9011084937263732e-04 9.5475636159306210e-04 -5.8549358827550448e-03 -5.3653288896001149e-03 -5.1789228014076372e-04 -6.7735862814323894e-03 -1.4321619844487321e-03 3.7650014848267521e-03 1.1080305624157419e-03 -4.4783084045801336e-02 8.0821529379523915e-04 -2.0433054253270577e-02 6.2823245370727809e-03 -1.4667330482402541e-01 3.6950148921331000e-03 -4.0400705465112614e-04 -2.9816442093000717e-02 1.6724748695583130e-02 -3.4492855018887492e-04 -8.0807516401881774e-06 -3.1032349330905370e-04 -2.4639130919767993e-05 -1.8969126356522814e-03 -3.4160541780531073e-02 3.5288205107927711e-03 5.0649611449088416e-04 -6.0600088477800809e-03 1.2367378368235253e-03 1.7792907332987273e-02 -6.7218819507542729e-03 2.2364938353848347e-02 3.5434508748545318e-03 6.3418275294430004e-02 -9.0905013087455612e-03 -5.3375345025070981e-03 6.4612700786881305e-03 -4.7362207085264868e-03 5.5602334349268839e-04 2.1322441835763340e-04 -2.3176743008251803e-03 3.3251819076351849e-03 4.0218396285281871e-04 3.9161834712917454e-03 -9.6295113636526014e-03 6.2762211764126920e-03 2.2316695156411548e-02 1.5437827309523033e-02 5.2321789998353019e-03 -4.7246197356439201e-03 -2.1946015251416595e-02 4.2245078538973779e-03 1.2924145159650813e-01 -4.7033024192002441e-02 3.5173942289007942e-03 -6.6949359506487838e-02 -1.2096878049834229e-02 -2.8942537580601245e-03 -5.3427215649444471e-04 5.3497817406920056e-03 -1.1862038148945597e-02 9.2396611917791582e-03 4.0884712476764395e-02 -3.2026600025569993e-03 4.1836893370319978e-03 -6.9925306545776051e-03 -4.7053292294990858e-03 5.8323652501620265e-03 4.7405257950036764e-03 -3.7531637097500646e-03 -1.1945415597844396e-03 3.5175228255008850e-01 -1.2257042945466767e-02 4.4716977482874010e-04 1.6597054701527725e-02 -1.6792384238584805e-02 -9.0750483512273762e-04 -2.8728262268340639e-04 1.4431801755843093e-03 1.9409741631535304e-03 2.2043006922811640e-03 2.5574714488651562e-02 4.4146310601069952e-02 -1.3481574345671710e-02 -1.5450009391374392e-03 3.6599272200758086e-02 -1.1598169399833373e-02 2.1034231717365182e-02 2.2724783933449302e-02 4.9429074748699731e-03 6.1759012873451580e-01 2.8777496356956152e-02 6.2770493678595291e-03 -3.3147378936817518e-02 -1.3076198336325376e-01 2.7890712816952129e-03 -8.7081172290516887e-04 1.4594918200461465e-02 -1.6864665905591596e-02 -1.8428877305321757e-02 -2.8518592854153479e-02 -7.2278422983279092e-02 1.4334176786005584e-02 1.6877452257549247e-01 -1.0492717323703906e-02 2.0321941118385728e-02 9.1828915994110610e-03 -6.6684294043855730e-02 1.1470452515742883e-02 -3.2535435543036867e-02 -2.2449541752305152e-01 4.1230354118840240e-03 -1.8572320174575385e-02 1.0959808599189587e+00 -2.2549469529589306e-02 6.9287984219078714e-03 -5.4671558554753731e-02 5.8308586123999168e-03 6.0110885674068852e-02 -1.4509582273089786e-01 
      </Row>
      <Row Index="223">
        -8.5365382651672594e-04 -4.6205215477893025e-04 5.0576545736187306e-03 1.5383432308068400e-03 4.4382223753046679e-03 -5.6215090166064716e-04 -2.9880193536987662e-03 -3.3186612309435252e-03 -5.6735031632808158e-03 -2.2064378284307296e-02 -5.6948052037249577e-04 -3.9428256975740789e-03 -1.0580514484843206e-02 3.8408987762688007e-03 7.5190632262554097e-05 9.2740616855466543e-04 4.8661092306236942e-03 -4.6308736263245845e-02 1.9833429069825610e-03 1.3423269903751756e-03 9.1900627568207438e-04 -2.2107462991469151e-03 -2.6744164422693164e-03 3.5825487788892496e-03 -1.5694751991231493e-03 8.9473770367187733e-04 -2.8250488960062659e-03 1.3545998477471344e-03 -2.1478062346439342e-02 3.1735635757417224e-03 4.8788521875778867e-03 -4.0209649329199237e-03 8.3025259604430947e-04 -1.2683643262715524e-02 -4.3449455189882302e-03 1.3448236753869847e-02 3.4876214541106565e-02 9.1511644141070714e-03 1.3861960881002666e-02 -9.2526513160319144e-04 2.0000668312704847e-03 -3.5361880071213200e-04 3.5541038193977609e-03 1.0810776005302086e-03 -1.8334439526044299e-03 -1.4588457549337686e-03 2.7749341225935809e-03 -2.9058529330210803e-02 -3.2909840646633687e-03 1.4481110463392399e-02 -2.0306986622316003e-03 3.0163282717206464e-03 2.0096018662495302e-02 -1.2570962884620545e-02 1.4265443892254787e-02 8.7875818583274951e-03 -1.0869356765164491e-02 -1.5094272055402591e-02 5.0056981759055985e-03 -7.9567650753970820e-03 8.3196684430617840e-03 -3.0245321731165731e-03 -1.5810310175680027e-03 -2.4869582560354486e-02 3.5019643336570705e-03 1.2098730572091626e-02 7.7870345182038392e-03 -8.6062601486339013e-03 -1.4802323826562422e-02 -4.9104192289945559e-02 1.2827529682475011e-03 5.1957390731989003e-02 -9.0863117097988652e-03 -1.8583424647372948e-02 1.9509059767280901e-03 8.9393897434334041e-03 1.2212883254803408e-02 -4.8924645626077790e-03 5.0011543287845073e-04 1.3501894906902678e-03 2.6942658416406751e-04 1.3229581611623985e-03 -4.3671352965761467e-03 7.0206901575140535e-03 2.9330365605790831e-03 -1.4538388300806560e-03 -1.5918602992134878e-03 8.9709999996252787e-04 3.4299878566734776e-03 2.0689294001055986e-03 1.4539809975295456e-02 -1.1307542906710405e-03 -1.0634226214038672e-02 1.4749151061511312e-02 4.5783046108197056e-03 -1.5129942270738050e-02 -1.2284700162378953e-03 -8.6215125137638210e-03 -7.4591024460333652e-04 1.4095354272384147e-03 7.0235815423854570e-04 -3.6900148464986959e-04 -7.8903782019346374e-04 1.0534121129253754e-02 -2.1268211126631589e-02 1.2511325792917832e-03 1.5728644832450137e-03 -1.4645885886589660e-02 4.8513784977511666e-04 -6.6305478558228541e-03 -2.4292389901006814e-03 4.2737053684069925e-03 -2.6210550082401113e-02 1.3160237149926271e-03 -3.4913091105841509e-03 1.1945282366952609e-03 -2.3260693012193134e-03 -1.0817856962679062e-04 -5.7015162174746739e-04 -5.6349948620995627e-03 -3.0244492519184568e-03 1.1447957871356107e-03 4.4901873416996474e-03 -1.1282033041197792e-03 5.3160860242640329e-04 -1.3414175139461221e-02 -1.6175309615039879e-02 -6.5730273451418669e-04 4.2160069089299881e-03 8.2094237904617451e-04 -2.8851497167506107e-03 2.2405995958900915e-02 1.3704419462045037e-03 1.0750204534321295e-02 6.3590244085325043e-04 5.3632585973503732e-04 7.6523060140310699e-04 8.6714497916114651e-04 1.6408358282461767e-03 -5.1678092931926531e-04 -8.8957616193020839e-05 1.3576308312865494e-03 -8.6049002385568951e-03 -1.3271961064060742e-03 -3.0368726998244819e-02 -2.7989396365626362e-03 -4.9962282897678817e-04 3.2343779474539856e-03 -7.9606909669601659e-05 -9.8410035738471786e-04 1.3195033493476206e-02 -3.0134358653893106e-04 7.0138955565655081e-03 -1.8169271440637846e-04 1.7531314798755562e-03 -2.6329748035669870e-03 -1.1742305290717847e-03 -8.0607145603198149e-04 2.6619539782054835e-03 1.2863962659095396e-03 -1.5134251576013735e-04 2.9642278595476412e-03 -7.7151569378532743e-04 9.9452934106091517e-03 1.4257177059121773e-02 -7.7185137618824510e-04 6.0971002612008468e-04 -2.1353972865456594e-05 8.9033716073516622e-04 -1.0777223124222468e-02 -1.7062677923232183e-03 -1.1529702932863262e-02 7.8675014259199996e-04 7.6771561009301471e-04 5.1554083730799842e-04 4.7144631713046635e-04 6.0174647198897417e-05 -1.7031924894438319e-03 -6.5211464276590178e-05 -5.1971371197879340e-06 -3.2120981868904774e-02 -6.6770809480162785e-04 7.7844614085089327e-03 -2.6862073985714829e-02 1.1543748147355300e-05 5.0977532653411831e-03 -1.1424321519185618e-03 1.3783296896564346e-04 2.5272448908123857e-02 -4.0566414693777100e-04 -2.3595302049839173e-03 -2.8238356885718352e-03 -7.2566963318596023e-04 -2.9133648439428998e-03 9.3153783467454822e-03 3.4595168386189479e-04 8.1042091373318415e-03 -6.7181257003536051e-03 3.7126759608882495e-03 -7.4696847395917310e-02 2.2790505124272026e-03 5.2494836925069885e-02 -6.8286793632275078e-03 1.0663352612263765e-02 -8.4988316652957363e-02 -3.6054154983021819e-03 3.0957455032592174e-02 -3.6919104148350965e-02 4.5928728919239076e-03 6.4445259084167095e-03 -7.0089466816298952e-03 7.3125341631525738e-03 -1.5069588881299806e-02 -2.1600094318335733e-03 2.6955190738811828e-03 1.8241386447280586e-03 2.8592492548317056e-03 7.0217939569759734e-03 3.2629749559180965e-03 -5.0810104259912175e-03 2.6525554210290431e-02 1.4262627258266269e-02 -2.2549469529617276e-02 1.8986716780261717e-01 1.8744459295256786e-02 -7.4358803496301196e-02 1.7057279821160988e-02 -3.3313762880380696e-02 -8.8929463617259424e-02 
      </Row>
      <Row Index="224">
        1.9171426774822198e-04 -6.1739939232313343e-05 8.3411826870438688e-04 4.5657276767511676e-04 2.4250959783533449e-03 8.7585916924733738e-04 -4.1065422416700350e-03 -4.0538856484391289e-03 2.6868070939410384e-03 -6.8253213300017990e-04 -7.4367401133266370e-04 1.1104248790367727e-03 1.4991047599187679e-02 -4.2385589880055059e-04 -5.0584203617895160e-04 -2.2870223176372118e-04 -3.2019953246622216e-03 -7.3836918117561679e-03 3.4037574402601654e-04 5.5009663722169755e-03 2.1479356768791535e-04 -8.0867792323393445e-04 -1.0372156405732799e-03 -1.3928394238395259e-04 -1.1229242810231049e-04 1.3251316645100722e-03 -6.8819900277636964e-04 1.2981022426492260e-03 -1.0332702783504177e-02 -4.5422403116956306e-05 -1.0175316494794445e-03 -1.4278182080406765e-02 -3.8353220071142991e-04 -2.1592797495823646e-03 -6.1711122447579599e-03 -3.9701331733006549e-03 2.0642876460619658e-03 2.1333061307507277e-03 8.9567004389602689e-03 -1.7561683360752117e-03 5.4211726423996666e-04 -1.9291534141985707e-03 -4.0943268483361467e-04 -1.6495063713095406e-03 -1.8969745876477040e-03 5.1001338315450825e-04 5.0819598544375351e-03 -2.2524208111278865e-02 3.4720012262434360e-04 -1.7400837215173492e-03 -2.3414947404631903e-04 9.3517586881804692e-04 4.1903963208733824e-03 -2.8740490598830000e-02 -1.3349356039679669e-02 -5.8136472839690478e-03 2.9707193174085718e-03 3.7222134622372227e-03 -4.3567484316235118e-04 6.4234025925054110e-04 6.1543958503367663e-05 -4.7839209043575026e-04 1.4955245787266758e-04 -2.2274164928369131e-03 1.2588740740706941e-03 3.1870659864269638e-03 3.1895542260178544e-03 6.3740969609090564e-05 -1.7443328071822632e-03 -3.2318425567154918e-03 1.2565740364485819e-03 7.6250185881948061e-03 -2.3344685196062046e-02 -5.3039656839024875e-03 -1.0703386514708257e-03 3.8767581122109117e-03 -1.8472749465650029e-03 -1.1647743087755957e-03 4.3131814919223493e-04 -1.9172798805949798e-04 -1.8758981996963575e-04 -2.6390613633133636e-04 -1.0134068142160363e-03 1.1072691695008019e-02 -4.3960180929780712e-05 4.9534166235360999e-03 3.6600222492903789e-04 -2.2428522501859866e-04 8.4496062104424396e-03 -1.0329397240746302e-03 1.8420942778295119e-03 -1.4161976110628159e-03 2.6031875563708156e-03 2.3405549758671318e-03 7.3665857359161979e-04 4.6416357231073846e-03 -7.9772506485003766e-05 -1.2339907595374389e-03 -7.5470699782208446e-04 -1.9147748079083315e-04 -9.6592953230405839e-04 -1.3058195704699835e-03 5.3850979977546065e-04 -3.6889006086530431e-03 -1.6996129615374188e-03 -3.6752374194652139e-04 -3.9662947726053568e-04 1.2297099400894407e-02 2.1821749142642097e-04 -6.7340627483517511e-04 -2.3324133090408985e-03 -6.1735540226032985e-04 -4.3610843436155330e-03 4.3726279991602285e-04 6.0160771321904338e-04 -1.6737714908438353e-04 3.6567317070410055e-04 3.2112413979159052e-04 -1.7355644347305174e-04 9.4265917452554179e-03 -7.5966379917756510e-04 1.3422228754646631e-03 -4.8924925190471646e-05 3.6163590724922479e-03 2.0060723870299335e-04 1.4457542335973349e-03 7.1132404427043383e-04 3.2035729807713834e-04 3.4197629369754970e-04 -1.5045791425698229e-04 1.2479724863591450e-03 2.9361260457246852e-03 2.1489726726256486e-04 -1.4183474295791920e-03 -1.6312055383661817e-04 8.1962397054064114e-04 -6.6864852226250319e-05 5.1068360524677723e-04 -2.6506332509549100e-03 1.8909792575667016e-03 -2.7396559434219835e-03 -3.8822280353468846e-04 3.5936871934276193e-03 2.2955431631757357e-04 4.5076609144372084e-03 -9.6077718212317365e-03 8.0601624425358231e-05 -8.2550587668554987e-05 -5.5972469784203345e-05 4.1629601425877962e-04 1.0122358922952217e-03 -2.0440816401455335e-04 -4.5542162136147368e-04 2.7683193555023619e-04 6.6257681094249480e-05 -1.2858752421729749e-04 -1.4748114081196417e-04 -2.3758180455093689e-04 1.8145756944382696e-03 1.5812598052526994e-03 -9.4131494950118390e-05 3.1556240101048294e-03 4.6466262773901714e-04 -7.2997483951961484e-04 1.9287291244012295e-03 -4.1817397282972041e-04 4.4843797613684008e-04 2.4354188117097636e-04 -7.6094134523194135e-04 -7.0893935531202157e-04 -7.6747104211488670e-05 1.6177414228786824e-03 4.4295139492678878e-05 2.3952246196476293e-04 -4.0588429065352438e-04 9.1100158071193062e-05 -8.2757253592271468e-04 -2.3352908175779405e-03 1.9969890914106180e-04 5.3773386983339377e-04 4.4074182148274299e-03 -1.6829409122170189e-04 -1.6224393547636124e-03 2.1771102216983529e-02 5.9152734295855761e-05 8.5279176378139955e-04 -2.1712825639549609e-03 -1.5003442405368528e-03 3.2709429814385335e-03 2.2889522181189243e-04 4.2495359387856868e-03 8.7915728531928750e-04 -2.8163838688275156e-03 -1.5839437286299567e-03 1.2154770416946358e-03 2.0350093362175321e-03 -8.1104012665789427e-03 -4.6085096540421670e-04 -3.3436139266621451e-03 -8.8197473734511478e-03 -2.9727866659376018e-03 -7.5175497592912211e-04 2.0868022503366390e-02 -7.9034534562742124e-04 -1.5607704814881211e-02 -1.3504229543251434e-03 1.7359913756283971e-02 -8.7165199703986129e-03 -5.6187991687422171e-03 -1.1405204952239512e-03 -3.0300839064452629e-03 3.0356132620719548e-03 3.7123548743519356e-03 -8.0570063208811179e-04 -3.2441760003453675e-03 -3.7680501160924432e-03 6.2448639746692965e-03 -7.0141167374306024e-04 -4.4794015561097633e-04 1.1788409593216618e-03 -3.1139394030520046e-03 -1.0225908581063155e-02 6.9287984219295034e-03 1.8744459295251641e-02 3.4663141806981899e-02 2.6423711786529015e-02 2.1137629563778015e-03 -6.0595636288737946e-03 -2.8118778088625684e-02 
      </Row>
      <Row Index="225">
        -6.9937626862709434e-03 -2.3935600484133283e-03 -5.8796398727434251e-04 -3.0214033338539156e-03 9.2512908341109701e-03 -3.5808929143053975e-03 -1.0988357197700775e-02 -4.0285260501602770e-02 -3.0883716446601095e-03 -2.8159478985427810e-02 -5.8248520413088194e-03 -3.2250293699345484e-02 3.4704153068799926e-02 5.1547539062450796e-03 2.8444897748595085e-03 6.4527558499881052e-04 -3.1424920305324164e-02 1.7118610908101725e-02 1.9255576918290961e-02 1.6709427598141646e-03 -2.0631697122268297e-03 -8.0867764074407655e-04 -3.4020913503234442e-03 -1.5661351086247999e-03 1.1924674619530617e-03 1.3003639616952320e-02 -2.3912978239774604e-02 2.8771155223316219e-03 -2.8818910223532668e-02 -5.5436896467201402e-03 -3.3576131065967907e-02 -6.6710713869021276e-02 3.0506517056648579e-03 9.4926066620676271e-03 -2.1857872802699269e-03 -5.5579005301013895e-02 -1.4478478829616281e-02 5.7773409707803994e-02 -2.6616823207888496e-02 -5.2598904566497906e-03 -1.7927515778833614e-03 -1.9220276887364211e-02 -4.4373046988637477e-03 4.5725520468893888e-03 2.0884187849629643e-03 -1.1857231331839482e-02 5.1482074432340208e-03 -1.4138504746224445e-01 -1.2492811719344479e-02 -1.2613676644176453e-02 -1.8469440126210657e-02 5.4970973132379315e-03 -1.8440252732723206e-03 -1.0321960496705453e-02 -1.1805385062722176e-01 -1.1345977834673462e-02 -2.8780392028217104e-02 -1.4409056136490239e-02 -2.9612831067590550e-03 2.0973138853498108e-03 -7.5067912197699233e-03 -1.1379851221708370e-03 1.0039883580343353e-02 2.2368893454598415e-02 -7.0798989219850172e-03 5.5424904305292899e-03 5.0921945657158574e-03 -2.6692752878073878e-03 2.5912745364473688e-02 1.2892925376917219e-03 7.7640082186276951e-03 -1.9251623848148845e-02 -1.6831189915992244e-02 -8.2510795618341640e-03 4.9637037726282807e-03 -4.9126586503634162e-03 -1.6939642062095750e-02 7.6745289538107664e-03 -3.9694067554636725e-04 -2.4885161848772763e-03 4.4810990873833667e-03 4.2681367865177421e-03 -7.2589796098290194e-03 1.0729179524755073e-01 -5.8328866567070037e-04 1.1560678260309487e-02 5.6599615933464187e-03 3.2900129497768202e-02 3.5966354576210335e-02 -2.2868499242263002e-04 -9.7355421454084906e-03 -4.7883422672839737e-03 4.0546340177937096e-02 -3.0923981076231843e-03 -4.0876362639584163e-03 2.9422543615187591e-02 -1.5145735194539017e-04 1.0354573035087355e-04 -6.7602748672931229e-04 -3.7232928911413443e-03 4.5598990660577141e-03 -4.4051147985735006e-03 2.0890588138902091e-03 1.1173938836215758e-02 -3.5666820918453607e-02 -1.0057314406657913e-03 -6.5222718703208827e-03 3.7285267219331786e-02 1.9836752429623263e-03 2.8903578917852633e-03 -1.4417072076416482e-03 -1.2019881629624949e-02 5.7135453210932228e-03 9.1871611007777812e-03 9.6987420072336405e-04 1.1909541226035880e-03 7.2437367377059525e-04 1.6595591249313132e-03 -9.6855645436955129e-04 -1.9493237423310855e-02 -2.7927786181184411e-03 1.5571349473115947e-02 3.8803155348510199e-03 3.6603874109093937e-02 8.7550445218950723e-04 -1.6716325708146827e-02 2.5767219630484561e-02 -2.3542790945361497e-03 -1.2066050749782418e-03 -3.7791509255293010e-04 6.6368514089752183e-03 -4.0588268475023614e-03 -1.0448006203267468e-03 -3.8783547622927017e-03 -2.2714089481773031e-03 8.2218262329541991e-04 -9.2125344715959963e-05 2.0615098500828821e-03 7.4786418029576650e-03 9.8240304569814155e-03 -1.7050280452063776e-02 1.3395030573186038e-03 1.4247386455542604e-02 1.5475233324200519e-03 -5.1029790364843931e-02 -4.1348800255654794e-02 4.0006866552199736e-03 -1.0462616972881675e-04 -1.4196097669280910e-04 -2.2661300260128077e-03 -8.0961856930145716e-03 -2.4541539016470840e-04 -8.9852632663589560e-04 2.4343704308079916e-03 -3.2215157068945588e-04 -1.7473984491522612e-03 8.4762372853375290e-04 6.2637524624542529e-05 4.0656635872915181e-03 1.3459582396308956e-02 6.4877133399243204e-04 -2.5432522001584523e-02 3.8920761772335091e-03 1.7756455047642006e-02 1.5707737071991801e-02 -4.1703142374488744e-03 -1.3577610390451654e-03 -4.0881879470650029e-04 1.2759226929725254e-03 8.4963411594503047e-03 -5.7377318090010010e-03 1.9223220610328329e-02 7.3132299144918964e-05 1.5155261894402115e-04 -2.5852859961918986e-03 -2.0668954894845016e-03 1.4628212100757233e-03 -6.1162908924052156e-03 1.4255479694465917e-05 -8.1408095950747262e-04 -9.5549127819721358e-02 -7.6639676096597331e-04 1.9913771084495345e-02 7.4104326881474947e-02 9.3834001224379719e-04 -2.8159461353945165e-03 -1.0648306991795429e-03 -4.9709442891169662e-03 -1.0277814288639442e-02 -1.8477607006635380e-03 -6.2907326099108651e-03 -6.9634605212995637e-03 -4.1869893354420512e-03 -1.7475171660699385e-02 -1.5218401391692744e-02 -1.1829170891054154e-02 -4.3046966193363512e-02 -2.6842645566047520e-02 9.0891613090378041e-03 -3.1091627105463759e-01 -1.7479357116840753e-02 3.1753928022985108e-02 9.2034930873008847e-02 4.1667377442363152e-03 2.8440894367333092e-02 8.0901289978521189e-03 2.6597022669346822e-02 2.2939303002222217e-04 5.7631755483081866e-02 -1.4371880740834786e-02 -2.9580479826168899e-03 2.9612128324427514e-05 1.1474542002237395e-02 -4.3245486505489976e-04 9.1752105894598382e-03 -1.9260485391711143e-02 5.5650398348165889e-02 8.0161784419763224e-03 9.9958793350446822e-03 1.6998910488950077e-02 5.3010653864630219e-02 -5.8382943519410258e-02 -5.4671558554521847e-02 -7.4358803496269846e-02 2.6423711786540731e-02 3.6597275237244714e-01 -6.6006378798827633e-03 -1.2294918927042552e-01 -9.6775383521741642e-02 
      </Row>
      <Row Index="226">
        -1.6729249820187572e-03 -1.4149965115055761e-03 1.3397281807424541e-03 7.4769436671998351e-04 -1.3155751750423966e-03 5.9060894122555155e-04 -1.2795008923057998e-03 2.7059112027008891e-03 -6.9830900607303903e-04 7.5168963315521697e-03 -2.2463984172630611e-03 2.1722051492671229e-03 -1.2286146768786255e-02 5.1999098433460353e-04 -1.3485656749092269e-03 -6.1750818149949524e-04 -1.6838564080030524e-04 -1.0996720342514467e-01 -6.1513547938998880e-04 -2.0838899117188725e-03 1.5589532234381448e-04 -2.4219656260040384e-04 -3.3958208978368165e-03 -2.3487844665175672e-03 -8.6170215029155589e-04 5.0783181644751471e-03 2.6015016094750284e-04 9.8076857945543494e-05 3.2242417904591036e-03 1.6786391434352108e-03 -1.6245351094871380e-03 5.4671432533659470e-03 -1.2960008907595246e-03 2.4644154168241769e-04 -1.5184074773488127e-04 2.0241465600816014e-03 9.7901154064215984e-02 -5.3097143900598248e-04 -1.1140211093478292e-03 3.5376831407380772e-04 9.1260960351825966e-04 -9.3681295411733589e-04 -1.3456933080057201e-03 -6.8804981125186737e-04 8.4146699985052642e-03 1.9611052399339871e-03 1.5824215737813840e-03 -5.6374877043559035e-03 8.4234133585624205e-05 -1.7755646561178340e-03 9.8783120863643603e-04 -3.4312552639223070e-04 3.1872605995906175e-03 -1.0518839935248223e-03 2.3100268514788282e-03 2.9437807840141054e-02 1.5027824832374425e-03 5.4036160197800109e-03 -4.0363345706320719e-04 -3.0709391960013002e-04 3.5556584442131070e-03 1.4631976666389379e-03 7.3633104806735544e-04 -1.7630959108221850e-02 2.9027581910000821e-03 2.3789191111604630e-03 1.6034096707442380e-03 -2.6872305137342622e-03 -4.4333856383193398e-04 4.5120100289395282e-03 6.9758931925718165e-04 4.6458064513374142e-03 -3.4262222884659868e-04 -7.7673071146017528e-04 -8.0423654277617593e-02 1.0543762140441913e-03 1.5336372155869693e-03 1.0772126097300661e-03 5.6213391234258281e-04 1.3607916305378998e-04 2.3752570877039192e-04 3.3881215407783466e-04 -2.4940781772444104e-03 -2.3715289534282924e-03 7.9959393502626597e-04 3.9940784729335377e-03 -6.8639905363052089e-04 -1.5277345242836748e-04 3.2279745471619492e-04 -2.9146370949143137e-04 1.5485901441371630e-03 2.9229634733871079e-04 -3.8181859610948374e-04 1.1493727879465579e-02 4.2829529713120373e-04 -1.9307517160408461e-03 -7.9911846865390532e-04 -2.0265065926896499e-03 8.5459887725467323e-04 1.3293590222823448e-03 -8.4044006766186702e-05 2.0141001319238794e-03 -6.2145556924506507e-06 1.5211581660852062e-03 1.1005729080431556e-03 -3.2250538022170899e-04 1.4572181989879842e-03 -1.6663724309915473e-03 5.4551884440950417e-04 -1.2069163766362020e-03 -4.4997525040308285e-04 -1.3147774646856064e-04 -3.8443077830132941e-02 1.6207308660709302e-04 6.9566092116168932e-05 4.6167113792896716e-04 -3.1055977971775062e-04 -7.4168675957873506e-04 1.0111434627413807e-04 9.5976382793420273e-04 2.8772834365465849e-03 -7.4262800001491380e-04 1.5190456013655582e-03 -8.4251576071618928e-03 6.0272103875699118e-04 3.7558276588947701e-04 -5.6549389447271281e-03 2.4153568495179165e-05 6.2612509900495088e-04 2.3980651828022642e-04 1.0102958214390782e-04 2.9212893244463245e-02 2.0647535507953285e-04 1.8817999770598393e-03 -1.3089927734097687e-04 4.5932579926439600e-04 -1.3403917537518212e-04 -7.6740657579591962e-05 -6.6585507263955488e-04 -2.3211941382958014e-03 1.7480754578768718e-03 8.4795726849466345e-04 4.8842909335236884e-03 4.9681185281624275e-04 1.3840475209014763e-03 3.1018460539584680e-03 -4.9040114312580603e-04 2.7840261004983971e-04 7.7787566875628638e-05 -3.7202535606264172e-04 2.0938043340694011e-02 3.2391624103763998e-05 2.4937738494530404e-03 9.8714782719867833e-05 2.9418528430190589e-04 -2.2677580611071488e-04 3.5451157668392463e-04 2.6135923685891016e-04 -2.8748390719736255e-03 -6.0794900655658513e-04 2.7176488125023698e-04 4.9019960061001955e-03 3.3644352109906946e-04 1.0391137969094355e-04 -7.8674253277455364e-05 -9.4924011948167419e-05 -3.7532828602372323e-05 -7.5795351397352217e-05 6.0171071365251738e-05 -9.3150669267897945e-03 -1.0801787468206481e-05 -3.8775793854222418e-03 4.2896219528511421e-04 6.1765942844755218e-04 -7.0292852692958202e-04 1.8698253839563670e-04 -2.8823281888049578e-04 4.6104236030124167e-03 1.3074007724181869e-04 -1.7212607858767314e-04 2.0592357298511055e-02 5.0422821774878776e-04 -1.0294770596541367e-03 -1.1749829648968202e-02 -3.0719577258214855e-04 1.2200651521962558e-03 1.7526525764452043e-04 6.4762476585374811e-04 4.5317544780041762e-02 5.9040851439958169e-04 -9.1940879034523304e-03 -4.7167966375773578e-03 -7.6517122177143654e-04 2.8510856801574648e-03 3.6530990136832034e-03 1.2813388219506169e-03 1.6960279801942355e-02 4.7857473752741624e-03 -1.6762311081356725e-03 8.2444147878886209e-03 -4.9955253965652466e-03 4.3892490501509186e-03 -1.9929521331556899e-02 2.9467906275982845e-03 -1.0765162655055891e-02 -1.9044863656808840e-03 1.7833320593450223e-04 1.3082632760932794e-02 -8.1029304790230031e-04 4.9550707742285205e-04 1.4741628618275158e-04 2.9026155497801900e-03 -7.9688283846986938e-03 3.2036543037177335e-04 -4.7330341204680770e-04 1.0254381197135639e-02 -3.0986147262472286e-03 2.4169053863768099e-03 -2.2169044200030744e-03 1.2668869677491621e-03 -1.1030666873112632e-03 7.6963200833651095e-03 5.8308586123943726e-03 1.7057279821160287e-02 2.1137629563769030e-03 -6.6006378798940599e-03 3.3796866698522061e-02 2.5953263601022057e-03 -3.2793416307658481e-02 
      </Row>
      <Row Index="227">
        1.2906454380867183e-02 3.8041826656252595e-03 -3.4439808733112143e-03 2.0467773242213300e-03 -1.4814856012801414e-03 3.5734283217298771e-03 -1.3666467152242505e-02 2.0575690463370350e-02 5.5506741281899641e-03 5.0758297231823235e-03 2.0841413172721091e-03 3.8404963189416497e-03 -3.3617701242206977e-02 -2.9131339024908616e-03 -2.2600874516811587e-03 -1.3612344262408163e-04 7.7768292422153579e-03 -8.3233642053872556e-03 -4.2778891760335933e-02 -5.7104401330616561e-03 -1.2080096940048080e-04 2.4097587773734830e-03 -1.5375113408826950e-04 -7.8710446709218118e-04 -1.5070180321597459e-03 -4.8603036552957724e-03 1.6933347896311693e-02 -2.6592582478589255e-03 -2.2119768972810316e-03 -9.7819310379027025e-05 1.5858978676002833e-02 5.4259047649395598e-02 6.9416814984810810e-04 -3.9852411771663515e-03 1.1769544987682012e-03 1.9455439369313841e-02 3.3868050378430548e-03 -1.2085944753292055e-01 -5.8969586381782957e-03 8.6393636203692375e-03 -5.1971846951661821e-03 1.6665654694670712e-02 -6.0817977868683482e-03 6.9532276290962258e-04 3.7478597730934982e-02 -2.6458814646172224e-03 2.2523851263231420e-03 1.2306422407291961e-01 9.0871566963692807e-03 -1.0147779182643868e-02 1.8896826728251881e-03 -1.6175834087646439e-02 4.0920158844574006e-03 5.5005901923536049e-03 3.5138227183334508e-02 -5.4301717901952262e-03 1.2478429786783315e-01 2.1971736372898398e-02 1.2785302095489198e-03 3.5350778897475371e-03 2.5846774536349426e-03 4.2385066854783160e-03 -5.5233444713333399e-03 1.2508827748648976e-02 -5.5538159672463561e-05 -1.2947869089612096e-02 -1.3044138548369943e-02 5.3991216205495629e-03 9.2503423756672420e-03 -2.3709428499785190e-03 -8.8873570674050800e-03 -3.8580888704357833e-03 9.8015064535174196e-03 7.8379185135394741e-03 -9.9901363650363173e-03 3.5828537248009495e-02 2.0945413268529833e-02 -5.9794426924658639e-03 1.0571721053823646e-03 2.0078014305324743e-04 -1.5741239791837724e-03 -2.4207145189320406e-03 6.4007267593547690e-03 -5.0910267802885656e-02 -2.5235612908338645e-03 1.3609499510565115e-02 -3.3884591869505210e-03 2.5060427988825573e-03 -1.5538882280608846e-02 -3.4949620643947715e-03 1.7558609443821260e-04 2.2407246330884145e-03 -1.2594213939016330e-02 -1.3477774088707095e-03 -9.7103770537865230e-04 -3.4213434831708245e-02 3.6495471908119803e-04 -2.9808972759287622e-04 9.0529555294249081e-04 1.2037138248152945e-03 -1.7861402682777250e-03 -1.0525015136545690e-02 2.2542307429808152e-03 -1.0075999339841782e-02 2.9756596163191151e-02 -2.0118316461259986e-03 2.6778534606915552e-04 -1.2867997700922729e-02 -1.1389174279503207e-03 3.5041058187719465e-04 1.8073114955639781e-04 5.9583841521377925e-03 -1.5182704773409432e-03 -1.7334325036175095e-02 4.3651830471915787e-03 -2.0204479770664363e-03 -5.0072468936535053e-04 -1.4867831943320559e-03 2.1257807799862638e-04 1.4239323982219276e-02 -2.5950985841571850e-03 -5.5203513710220808e-03 -5.6185887224924902e-03 -3.2243679646480672e-02 -6.3453324508400133e-04 -1.7800005984236998e-03 -4.9916890139769521e-03 2.2691349845164518e-03 -6.1980903040667612e-04 -5.3408450651568073e-04 -1.8694899630488770e-03 1.2429576955879096e-03 -4.6982329793063826e-03 7.0926881481461201e-03 2.4827251873894562e-03 -7.7285345229084063e-04 1.4252251479646323e-03 -3.0018459106995188e-05 -5.3412823820449679e-03 1.0622482745894113e-02 4.9035333505648149e-03 -2.4422493809368138e-03 2.4080937016501436e-02 -1.1116015430848239e-03 -8.3369577721329677e-03 9.7955150936854807e-03 -2.9340898297049375e-03 2.7351550125291613e-04 3.2667384214151059e-04 -4.2771050548051064e-03 1.3830980081044131e-03 7.8939827205868895e-03 -1.1461623880984817e-02 -1.4566103831546717e-03 -1.1420562459844141e-03 8.7241051184772100e-04 -2.2258821236923465e-03 -1.5587584238014041e-03 6.6641011882657142e-03 -7.0161075224119962e-03 -1.7043860778232604e-03 3.0459954591847804e-02 -3.7957741905918839e-03 1.0666280222609847e-04 -8.5770149129587026e-03 9.2049455229674740e-04 5.3747564654102117e-04 1.2631996750986502e-03 -2.5866887755516821e-03 -9.0181993374205405e-04 1.4537954483398896e-02 -2.2681441222337284e-02 6.2102908809994611e-04 -6.9334944644723791e-04 1.7204420592653031e-03 1.4283443323758836e-03 2.6085348468688667e-04 -2.2351067004091965e-03 -8.7284516233637408e-04 1.8284143688062880e-03 6.0886995953313150e-02 -9.5962743241280977e-04 1.3700138843563553e-03 -5.2150150813460527e-02 -1.2687417756068187e-03 -4.7624059474411957e-05 7.5891033919013974e-04 3.5909540769000336e-03 1.8276857244375333e-03 5.6409048555195185e-03 -2.7924140252084673e-02 1.6030678678092575e-02 -1.2139540043461433e-02 2.2562352031226238e-02 1.0982975651640976e-03 2.1691937479713833e-02 -1.2974433882740555e-02 -1.5845766586444349e-03 1.2445206578917720e-02 1.9753597652139288e-01 6.7859536896865691e-03 -9.5126532318777317e-03 -8.5067692373414161e-02 -1.1559358641856515e-02 4.6602185570334340e-03 -4.7597008515243289e-03 9.2434332280478815e-03 -1.4563436412093900e-03 -1.8450766114393907e-01 1.6284392470296449e-02 3.4926796022997347e-03 -2.0638134482848756e-03 -1.0727636647975020e-02 -1.0071835338651622e-03 -6.5492773790560010e-03 -1.7616023216407428e-02 -2.4756977309636552e-02 -1.0706619215320505e-02 -6.0253107177771215e-03 -1.9820971163200037e-02 6.6098906092810772e-03 4.4358690765218506e-02 6.0110885673823847e-02 -3.3313762880498948e-02 -6.0595636289102958e-03 -1.2294918927058213e-01 2.5953263600770049e-03 3.4427965862456511e-01 -2.0093000247165624e-01 
      </Row>
      <Row Index="228">
        -1.6730173778550750e-01 1.8586519759846709e-03 -2.0402410190747844e-02 -2.2072400121093239e-02 1.4421040120822681e-01 9.6757639640492332e-03 -7.0316749846153215e-03 7.9795708561813505e-02 3.6396918503914577e-02 4.4366283782107985e-01 2.9559152524503141e-02 4.5976779846107263e-02 1.2661547740684455e+01 1.2798713790257876e-02 -7.7728800984289137e-04 -1.8022857635489054e-03 1.4868775459163430e-02 9.9615689986449318e-02 1.9682244967211382e-02 2.4909300264414469e-01 6.9182743097755406e-03 1.3853051287277651e-02 4.8518743324272515e-03 8.2235775642885756e-02 3.5820532399597482e-03 2.0635994727920348e-01 3.2901757249098829e-02 3.1930151842125554e-03 -1.2498405086180924e+00 -1.3141894625295691e-02 -5.4171047270564543e-02 -1.5276066921511301e+01 6.5567884880275429e-03 7.1054647001673743e-03 3.8898623825325274e-03 2.7964409967444481e-02 -4.9168464518160704e-02 5.8574627593749540e-02 -1.7983731305042738e-01 6.8349780659350268e-03 -1.1515301457428961e-02 4.8074245079385847e-03 3.6486678127428007e-02 -5.3641612009059259e-02 4.1335000361570451e-02 4.5660658651179631e-02 -6.2173340965447466e-02 -5.2519509639546413e-01 2.6069560944321779e-03 -4.5051533206958538e-02 -5.0828318898393263e+00 1.1061949050354514e-02 -2.1737386730293906e-02 1.2868336789815693e-02 4.5341975334210360e-02 -1.0289791239159740e-03 -8.3335281905476677e-02 -3.0021645399892805e-01 6.5771177766293931e-05 -1.0504683151852490e-02 5.3990267862324970e-03 3.8361435782107378e-02 -3.4914173415882210e-02 -5.2530473461906979e-02 -2.1915742681571260e-02 -5.5438258112666006e-02 9.2533833450261227e-02 1.2898392590706464e-02 -5.4871148235129397e-02 -2.7493499340416747e+00 -1.1213972855337317e-03 -2.6571478597583909e-02 1.2018566615799031e-02 5.1517537807121982e-03 4.5773103436843599e-02 -4.0079755076339652e-02 -3.7891948325000158e-01 -6.4216942493686702e-03 -1.5610185373969188e-02 8.3354487045710357e-03 2.1059307410411066e-02 -1.0748127437887334e-03 -1.9360763795177149e-01 -1.6490150058962172e-01 -4.5106143660404996e-03 7.5599194899587019e-01 7.7533082950083099e-03 -3.8110714718563088e-02 8.2434868609570913e+00 2.3493858437678483e-02 -5.8342822043648823e-03 1.5528096938339786e-03 -2.2087765360813805e-02 -3.8620934566310439e-02 1.2266934546545372e-03 4.2834105215450791e-01 -4.7910931634564946e-03 5.0280859087139973e-02 2.3221538601305269e-02 -6.5937431554274895e-04 -1.8827370898479856e-02 9.3074499428524859e-05 6.1700256216075111e-03 -8.5170991453093592e-02 -5.5215759649430041e-02 -2.8727567478304294e-02 6.0264362328270593e-03 9.6568639993192846e+00 -6.5053375707493366e-03 2.1651666792728008e-03 2.8031752296631685e-03 4.9851138048224719e-03 6.0335635792491793e-02 6.3659341839343853e-03 3.1512874169948191e-02 -1.2610732603050678e-02 9.8825040814745080e-03 -6.8803675396722497e-03 -6.1672342599008445e-03 8.4026301177321017e-02 -5.0224089934602034e-02 -2.6126739672282184e-02 -4.9736031954154214e-02 7.2142208425816534e-01 -4.6151624544421566e-03 8.4850707543793868e-02 3.2168569337527515e+00 2.0592379361765722e-03 -2.9918023352362155e-03 -2.3154325748464544e-03 -6.7448109151815316e-03 -7.0232129418656086e-02 -7.5025439249998271e-04 -1.8571139782636692e-01 9.2630188192011076e-03 -1.3828002928230276e-02 1.2180261574987750e-03 2.2005866834856835e-02 -3.7575930068910246e-02 3.6667460172921551e-02 2.5198544653584065e-02 -2.4241443349321656e-02 -3.5325746496771870e-01 -6.2613364355925683e-03 1.4511301798977616e-01 -7.8208228614676045e+00 1.3158509517547934e-03 6.1292570390791834e-04 3.7046312641730861e-04 9.7342781315780114e-03 -3.7104408113035059e-02 -1.0074632340703715e-02 9.5678551499531750e-03 2.1415839075515919e-03 -1.0532207985125885e-02 -2.0280066043341094e-02 -2.2692896172046062e-02 -6.3604115220030621e-03 -7.9918646601555565e-02 -2.8354188739598385e-02 -2.1767203414331859e-02 -8.9305202429045494e-02 -1.9330724140582650e-02 -5.4432863067724213e-02 -6.1811457204930775e-01 -9.0669409311101568e-03 -6.6922866795682268e-04 -9.8659123680100436e-04 -5.7323521638927843e-03 3.4629644656547498e-03 -1.0260273264293573e-02 2.2618192503995260e-01 -1.3326270678197361e-02 -5.1821266547158462e-03 7.8975070832359440e-03 1.3352304306057938e-02 -2.0019931174264316e-02 -2.2346519294001865e-01 -1.6090887248370045e-03 6.7416665442610046e-04 1.0172416182689403e+00 1.5449519989003901e-02 -4.6595121628874026e-03 2.1062050550546701e+01 -5.8404347952223934e-03 -5.6816741170191420e-03 -1.3512413754595554e-03 -1.6466762824339676e-02 -7.3445043676020560e-02 -1.1792075083729703e-03 -2.0319839102137394e-01 -4.7045763903010851e-02 7.7482903812878590e-02 7.1020912642418388e-02 3.1403735970365165e-02 -2.9480761926912180e-02 -7.5821033852125197e-01 1.2673806343859262e-01 -6.2827695719565924e-02 4.0772321950265678e+00 7.8856328483967175e-02 5.6209292900031294e-02 4.7218546795790644e+01 -1.0381654114731909e-02 2.5220460284661961e-02 -6.4374638143188667e-03 -1.0449736933677478e-01 3.3346773962250609e-03 1.2668370952162711e-01 -2.4615585380615812e-01 1.9883621838725718e-02 -4.9897004903353359e-02 -1.7814636992573440e-01 -5.7872948617159192e-02 -4.2037090247897702e-02 1.1278485984757936e-01 -7.9948551300139670e-02 -8.3932432017677416e-02 2.1782149048426902e-02 -1.2615990751260409e-01 -1.3112558589968870e-01 -2.3099184327414410e+01 -1.4509582273063693e-01 -8.8929463634050521e-02 -2.8118778089477381e-02 -9.6775383500676604e-02 -3.2793416308955159e-02 -2.0093000247933682e-01 2.3575620677231765e+01 
      </Row>
    </InverseHessian>
  </Weights>
</MethodSetup>
